node {
  name: "x"
  op: "Placeholder"
  attr {
    key: "dtype"
    value {
      type: DT_FLOAT
    }
  }
  attr {
    key: "shape"
    value {
      shape {
        dim {
          size: 4000
        }
        dim {
          size: 24
        }
      }
    }
  }
}
node {
  name: "decoder/conv2d_transpose_3/Shape"
  op: "Const"
  attr {
    key: "dtype"
    value {
      type: DT_INT32
    }
  }
  attr {
    key: "value"
    value {
      tensor {
        dtype: DT_INT32
        tensor_shape {
          dim {
            size: 4
          }
        }
        tensor_content: "\240\017\000\000\004\000\000\000\004\000\000\000\010\000\000\000"
      }
    }
  }
}
node {
  name: "decoder/conv2d_transpose_3/strided_slice/stack"
  op: "Const"
  attr {
    key: "dtype"
    value {
      type: DT_INT32
    }
  }
  attr {
    key: "value"
    value {
      tensor {
        dtype: DT_INT32
        tensor_shape {
          dim {
            size: 1
          }
        }
      }
    }
  }
}
node {
  name: "decoder/conv2d_transpose_3/strided_slice/stack_1"
  op: "Const"
  attr {
    key: "dtype"
    value {
      type: DT_INT32
    }
  }
  attr {
    key: "value"
    value {
      tensor {
        dtype: DT_INT32
        tensor_shape {
          dim {
            size: 1
          }
        }
        int_val: 1
      }
    }
  }
}
node {
  name: "decoder/conv2d_transpose_3/strided_slice/stack_2"
  op: "Const"
  attr {
    key: "dtype"
    value {
      type: DT_INT32
    }
  }
  attr {
    key: "value"
    value {
      tensor {
        dtype: DT_INT32
        tensor_shape {
          dim {
            size: 1
          }
        }
        int_val: 1
      }
    }
  }
}
node {
  name: "decoder/conv2d_transpose_3/stack/1"
  op: "Const"
  attr {
    key: "dtype"
    value {
      type: DT_INT32
    }
  }
  attr {
    key: "value"
    value {
      tensor {
        dtype: DT_INT32
        tensor_shape {
        }
        int_val: 9
      }
    }
  }
}
node {
  name: "decoder/conv2d_transpose_3/stack/2"
  op: "Const"
  attr {
    key: "dtype"
    value {
      type: DT_INT32
    }
  }
  attr {
    key: "value"
    value {
      tensor {
        dtype: DT_INT32
        tensor_shape {
        }
        int_val: 9
      }
    }
  }
}
node {
  name: "decoder/conv2d_transpose_3/stack/3"
  op: "Const"
  attr {
    key: "dtype"
    value {
      type: DT_INT32
    }
  }
  attr {
    key: "value"
    value {
      tensor {
        dtype: DT_INT32
        tensor_shape {
        }
        int_val: 1
      }
    }
  }
}
node {
  name: "decoder/conv2d_transpose_3/conv2d_transpose/ReadVariableOp/resource"
  op: "Const"
  attr {
    key: "dtype"
    value {
      type: DT_FLOAT
    }
  }
  attr {
    key: "value"
    value {
      tensor {
        dtype: DT_FLOAT
        tensor_shape {
          dim {
            size: 3
          }
          dim {
            size: 3
          }
          dim {
            size: 1
          }
          dim {
            size: 8
          }
        }
        tensor_content: "\276\355\340\274e^\033\276\324|S>\221Y\036=C \251=?\000\205;\025=\266\275L{\307\275\r\322\022\275\374q#>\261\204\370\275\370y\215\275\365\236\200\276oL-\276*\010Z\275\236\273\001>\231L\227\275m\204\323\275i\264\205\276\347\350S\276\201\020\035>\267\034\364\274\210\351{\274NPB\276\224U\213\275\0029N\276\366\203\032\276\201\320\201>^\264\250\275\361\341\034>)\030A\275cy\035>q\316\'>q\362\216=\266\302j=Y\335p>D\206s>\214\265\022\276\304Q%\276x\217U>\"\215\357;\214j2>i-\024\276)\023}>\272\023a>\251\030T\276\02161\2767d\002\276\276\213\220=b\370@\276\016\361\203\276G\201\315=\246f=\2744\365\302\275\331\231 <\340j.\276mf<\276\222TS\275\2174\265=\240y\213\273\262\231&>\326\211\373=Wn\202\276\340\352o=$\3704\276\342\316\017>[0&\276<\245G\274=\235\234=\376\025\027\275\236\214\353\275o\317y>"
      }
    }
  }
}
node {
  name: "decoder/dense_9/MatMul/ReadVariableOp/resource"
  op: "Const"
  attr {
    key: "dtype"
    value {
      type: DT_FLOAT
    }
  }
  attr {
    key: "value"
    value {
      tensor {
        dtype: DT_FLOAT
        tensor_shape {
          dim {
            size: 24
          }
          dim {
            size: 24
          }
        }
        tensor_content: "\347\203\341\273\'\020\\>\263\213\023\276\367~w>#rG>B|~\276\220BU=\271+\232\275\333\270\230<\203\235J>\222j!\276P\275\202>2|\256\276\"\353\214\276=\345\212\273F\203\222\276yd<;\357\313z=W\3601>\370H\260>\306\0317\276\254\305\267\276\341\214\242\276\240\024E\276\200\223\346\274\005\340!\276(5\225=\230|\311=\234\255\212\276\372\033\214>P5\024=\3710\205>\345\336\217\276\273\300C\276\343\253\230=r9#=v\301q\275\tf\223=\236\212P> \257\250\276\253N\241>\017G\321<\306\372\201\276\253&\004\276]\236\310<l\353\331\275y\357\227\276]@\372\274\355\360T\276\277\243:>D:\234\275\360\317\307=\273\307a>\2041\265<\000\305\365;z\274\235;\223\305\250\276s\274N>\260N\355\275s\307\215=\301Q:<7$u\276q\036\006;\353X\'>\243-g\275U\230{>\034\256\213>\346CC<\241&\235=n9Y=\325\245\007\2744\027\360=\3641\246>\215\234\202=*Td\276\277\237`\2766\221\233\276\034\005\006\275\010\034\362=7\006\203\276\337I\266>\034\347\325\275\014\213\336=\232py\276\025\235F\276\0302&\275F\026\271\276\223%\204\274\307\230\033=\364\036Q\276\302\301\226\275\206\302S\276)\222\340\275Y\363\262\276\221<\273=\225\221\352\275HL\027\276\342\340\243>\220\177\177=\304\033@\276x1\337<(`\253\276\350\026\355\275\272J0\275\000\200\027=c\023b>\2504\010\276\232\217%>9\354\t\276\374\266?<\363\374\277=\220\237\337\275g\026\277<\317\375.\275\244\213o>UV\263\276\366\313\337\275\304\316s>\204@\232\272\210\214/\276\312-v>\201\260\255>N\304~>uNJ>\321vW>\337YR\276\306Z\217\276;\3628=\260\221T\276\346\342\214>\357\225\207\274\364W\240\276_[\312=&\250\n\276\345\240\254\276\324i\247\276\261\203\'\275j\307\207\276!\304\013>J\327\241\276\250\034\007\276\203\314\006\275\263\263\250=\350D\203\275$\374\243>b\261?\276\253\024\032\276\304! \276\314\177\203=\025\031\244>c\275\251>\340^\310\273\257\207\247>\177\361\377=\035o\026\275\353\026s>v\022\241>\367{u\275\r\327\242=n\246\233\276\036\346\255>x\276\301\274\204\362\020>\264\320[>\360K\027\276[1\205<E\222v>\025v:>\032\032\256=\371p2>\304\014\312=\234\312\002\276\326O\206=\032\377\216>t(\323=m\031s>\265\350\241>\210\331\372\275\362Y\224>jz\234\276B5\233<lj\222\275\234\1773\276\217>y>H%9<\366\362\360=\254\205\371\274\010>\217\275zh\'\276\031\035\214\276\366\357\267>\307\277\310\275\275\\\211\275a\\y<X\273\026=\325\035\243;u\322\266\276-z(=\234+a\276\241{]>\235\325\235\276\206\334\223=\033\354~>\2519\030>\320^t>\242q\316\274\225\304\205\276,\264q=c\010F>\211\306\225>\261\332\207\276\376&\214\276f1Q>\327\016g\274(\322\225\276\312\200\022\275\347ge>\254\360\034>\322\270\240\276\215\365\255=2x\'\276\225~\216>\360\274\230\276$vB>Y\241\252=\304\252\255>}\233\235>>\311\364<\r\317\235\276\327\016\235\276vwF>\017\207j\273D\272\244=\002T\016>aH\354=g\034Z>\251E;>kp\303=R,D\276*\263\370\275\356b\022\276\331U\271\275*\2113>{\321\010\273\306\273/\276^z\234\276\361\300\237>\372\313\027>s\257\321=R\244\344\275\261\262\'=\205\272\027\276\021\256\026>%z\210\276\030\256\245>\'\333p\276\261g\246\275\320@\227\276D\333\376=\311\205\215\276q\3723>\267\330\313<\335]P>\233\372\364\275\210.\223\276O7\216\276<p\006>3!\232\276\324Mp\276\267\233w\275@5A\275\256\005\r>F~{>YE\341<\273\301\256\274\362*w=\307\325\026>\305D\250>\316\013\233<\227\251\244=\266\363[\276\\He>DC\232\275\2169\245\276|\035\344\275$\351\266>\030g\213\276\301-P=\275y*\276\225\352\306<\202\3565>\026\346V=${%<I%C\276T\234\365\275\271\210\001=\022\331\235>\233\253\361=\373\370\200\275\251\313f>\371\0072\273\272\371\214\276\275\316G>8\350\254\276<D`>\206eY\276J\217\231>2b\215>\256\257+>\262\263\310=\232\0049<\356\246}=\246\t\304\2748_\266\276 \007t=9V\206>\215\247]=6\204\021\276\346G\020>>n\224\276>j\210\2763Ml\276\332\256\035>\023\225w>\360\327\255\276w\305\033\276\262J\252>\222%\252\275\367`H>q\203\371\275\327\370\022\276\200\027\372=\240~\312=\236\307\233\276\tM!>-\326\031>V\034\255>\201\037\020>\252\220\241\276\260\262\200\276\021\364\243>=\032\234=\237J9\276=D\032\274\374\236\225>K\n\t<\374[\002<\241\005\027<uU\341\275{\330\246>\363\370\207\275&\213\000>4s\241\276\213\210V=\003\307\203<M\'S\276IS*>\3267\304=6\327\230\276\332\302\000>\271.\'>\345\335V>\002\217q>\200/\272>\233\365\301;\302\003\360\275d\325\017\276N\376@=\274\245\232>\246\361\310\275k\252\201\276m=\327=\030\223-=\034\210t\276i\350m\276\001\241^=|\313\202\275)\023\016>\376\307\234\275\250/r\276\252:}>\370\330\264\276|\265\353\2751B\265>\'\302\025\276\007\262\221>\3748\030\276\311\342c>\362?-=\030\351h\276\020\034\035=aa\251\276\247-\376=\265\010Y>\202%>>$E\016\275\330\3600>\003fR\276ze\250>8N\255>\024\030y>\177Y}>\260w5\275\376\221i\276\230\230\255\276\036\204\245\276yK\007\276\247\301\252=z9\350\275\212\343\250>\300p4\274\341\373\216\276\034\351S<|\016~\276\325G\\\276\374\315\017\275\333Gd\2764!^>R\210\213\274\244\251\207\276\377\330k>*k\177>\034\223\227\276\264\277\203>\223\360\214=t\022\177>\375n\245\276\0062\032>k\213\251>\355\333\264\276\032j\245\276U\360\023>\354\371\031<\"\306\300<\022\260J>\323\037\224>\002\307t\276\320wM=`\025s=\234\264+>\003\325\364=\341\345\250\276c\223\235>{q\250\276`B\331=\210c\225\275\032\216\241\275?M\223>\330\232\216>\347\244m\274\233\214\213>=p\222\276$\251\365=\031=\227>\t0\251>\234U\236\2760\033Y\276\322G\206\276\336S<\276^\311\247\276R\033i>\257\247\t\276\232sG>\234\027\236\275\037\026\240>6F\\=\351X\274=\327\306\261\276\002\021\225>\002\004\207\276H \177\275\332x\247>\332\337h>\316M\372<\231\207I\274\373A\240>\006[\251\276\277\272O>w]X>\212k\225\2759I\243>8V\345\275\375\267\262>\267\t!\276\237l\226>T\216\274=\240\010\312<\177ms>\207\362\257>\355L\252\275\270k~>\344\340\001\276\35367>\230\017W\275v\313:>f##\276.\025\225=\302o\035\276\312\327\035\275tN\031>I\034b=\025\030\232>M\016\321\275`[\"\276&w\233>\325\370\206>\346\024\237\276\203\355\221\275\221\272\214\276\203Y%\275\030\314\372=S\245\220>h\3327>\346\251\034>\343t\241\276\366\017\222=\210+V>\262\r\261=_\031{=;\244\221\2744\346\212>\262\316.\276{\340q>\374\222\224>\242\274>\275\037\355\200\276\317F\225\276T!D<\223 \206\276\306\313\224>U\366C\276\310vq\276z0]\276\ru\006\276\262\222\235\276W\027^=?\034d\276\341\234w>\327\376J>`\033I\276\200g\222<\215\364{\276\033m\212\276Z\034\206=\357\246`> \037\017>(;E>9\025Q>\237)9>\256\301\261>%\263\025=\251\256\210=\366\362\264\276\364\272X\275\'\260`\276%\2005>\310\023\265>\271n\270>X\033\247\275\216\034\256\276\372\022\225\276\252\344*>\226\370\250\276Bh\230\276\202\025\210>\275\340W\276?\022\252>\2463_>\006\033\211>\310\271>\274%].\276\223\337Y\275[\215\006\276\343\'\264>\203\343\231>\230\244p\276"
      }
    }
  }
}
node {
  name: "decoder/dense_9/BiasAdd/ReadVariableOp/resource"
  op: "Const"
  attr {
    key: "dtype"
    value {
      type: DT_FLOAT
    }
  }
  attr {
    key: "value"
    value {
      tensor {
        dtype: DT_FLOAT
        tensor_shape {
          dim {
            size: 24
          }
        }
        tensor_content: "\253!!\274\2523\300:\000\000\000\000\257.*<{\023\361;\033m-<\000\000\000\000\331\222+\2735\367\271\273\346)\225;\334\1779\273\331\354\006\274b\177\032:\232M\035<<\003;<\025#\307\273h\3168\273\257\205\022\273w\377\020\273\237\t ;\027\306\343\273-\366K;\373~\343\271\241\023\360\271"
      }
    }
  }
}
node {
  name: "decoder/dense_10/MatMul/ReadVariableOp/resource"
  op: "Const"
  attr {
    key: "dtype"
    value {
      type: DT_FLOAT
    }
  }
  attr {
    key: "value"
    value {
      tensor {
        dtype: DT_FLOAT
        tensor_shape {
          dim {
            size: 24
          }
          dim {
            size: 64
          }
        }
        tensor_content: "\331@1\276\222\274}>\021A@\276J:=<\311\220\031>ao)\276w\302\001\276X$=>\024\036T\275\033&P\276N,\006>)\0079\2764IP;v\n\036>puk=\360/\201\276i\243\333\2758c\026\276\236\362\005>\0145\375\275\357\270R>;2\000\276\010a\005\275\276\316S>\003s\207\274to\264=\376\211h:[\356\273\274\300L\334\275\026rX>n\267&\276C\342\023\276\275\207\005\276\241\r\232\275\320\342\353<\014\236\210\276\2613\031>\316v|>\032\032\225\275\250\271L<\342\275\005<%4\205>H+\353=T\327\037\276\323\332b\275\232\013\025>|\2445<\214\0029\276\000\223\376;\355\215K\276\301P\341=\344\347~\275\205\276\274=\n\224\307\275\3303\360\273\207`\013=\270\201%>\363\247\036\276s9\235\2751\324\234:\313^D\274?\373,\276\205>u>\016kL\276\343~\373\275\002N=\276M\377j>\323]8>\333\034\277\273\214r\330\275j\025W>\340I\026\275\251K2=r\323\207\275\224\275)\275s9\300\275\324\367\367\275\253U(=$j\037\276\'\316\032\276\014\006\350<\303\324r>*C^\276\367\306\351\275\346Fn>\"M\245=x8$\275\355\275\020\276\334pb>H\241m>u\004\025>B\203\277=5\307\331\275\326%\376\275\365\231\020\276\341^\361<_9\004=e\247\303=\364;H\276\225\243J=\355\272\320\275\016\363\204\276 \341`\274\000\'#<>\302\267=\036<\343\275<u\213\274^\032U>\246.9>k\264\237\275ca~>\335\032\361=xn\247\275\250\007W\276iW\226\275\350\254k>\266\250\202\275\310a\251=\353\345G>\214\377\326\275\242\005;>\343\376\022>q\227 =N\224l>\236I\231<\317I\203>\177\371\021>\356>\240\275\006!\266\275xJ}\2760\224X\274\350\305z=\216\231j\276\336\303\241\275\376\336\006>\230\251\230=\262J9\276X\312\331=\3703|\276\333\265&\276\374\323M\276\245\300\200>L\2502\276\210\325\360\274\200\243\325=\360\313\244\275\3051_\276;\325!\276\272U\355\275\205\261\203>XEE\276\014.#>\300\265o\274\240\333\306=2\023h>\210\226%>ly\335=\224\024\026>\323\2626\276~\246\006>\200Ms>p\305\373=2\207`\276\016\315x>\200\362M<\002\325\203\275_\375.\276\370\024}\276\352\014\266\275\277>L\276v\226\306\275\274*\355\275\372V>\276\177\351_\276\344\201\365\275\010:\034\275H\250\006=HfF= \nL\275]@\205>X i>\202R\014>\252=\025\276\256\006\277\275\025\366J\2760.\023\275n\316n>xV\234=2tN\276(\303\017>\352\2755>\214\302\324=\232\2516\276\330\340\215=\352\220\375=\243?\007>\032:[\276XS.=\177\327Y\2760w\235=I\340\032\276^\311v>\252\240u\276Xn\242=\020\300a\275\260J\260;\300+\304=Rk|>#\235p;\264!\313=\322\036.>@b\300\273\227\016-\276N\364A\276\036\203Y>\000k\340<\257&\010=V\224M>\007B\201\276\301\'4=\201\246\370=<J\216\275v\276\022>\277\352u\275A\271n>TG\021\276\\\267l>\306\337\035>\370j\260\275\270\361\334=F\205\021\276\325\354O>\307\243\377\275ab\002>|\\\344\275N\353\210\273vZG>\221kP\276\360\273A>\356\017\014>b<\032>\237\327i=\306\226\004>\234r\257\275\250\031\024\275\320\257\313=\367\261/\276\021\310f>P\240\224<e\346d\276D\277\352<}h\222\275\302\247\215=N\310\016>~z\031\276\324\037\013>\312~~>\334a\213=)\\n>\314B\272\274\345W\263\2752@\004>H\237\200>\200\247\233;\274\227\025>V\346\004>\230o\346=T\357|\276\240\254k>\367\304\312;J\317\201\276`F\032=\256\2254>0`\006=h\337\216=~L\301;\237\334I>\361\337Y\276\016\335\202\276\330\246\016\275\222c3<\3229c\276\310K{=\252\306\220\275\373\330o>\242\r\374<\312m\"\276\337X\223=\202\325\232\275l\375\247<\220\360q\275\325\0161\276\014\275\220=\250\215\274\275|\307\t>\002\344#\275K/G>X\033P\275\300\302w<\007MY>\305#p\276:\331\243<s\320\375=\321\314C\276`%+=H\'c=\327\034\307\275z\305\206>S\331\363\274D\377\031\276t\2647\275\352\316z\276\000\317k< \3035>\304\221e=\335x;>\317\000i>\315\304\211\273iv\276\275\334\315\224=i(u>\365E\351\275:\010l> \n-\276:\273\031\276T@g\275u\034+>H\266\r=P\334\200\275\331\t\231=\224\032,\275\t\021\005=\014ZJ=\363Z\003\275\262\320\024\276\210B\361=\356Q\017=\310\022%\276\273\334\274=0\325\336\275\\\260`>g\374\200\276\314\204b\276\010\217u\274\373\352!\276\250\034K>p\274}>\017\272X>?k\000\276\021\243\337\275\270\340\210=\256\245\266\274\361\030A=\345Do\276(\3707\276L\327y\276g\311\356=Y\'\327=\314\206\312=\200\225\205>1\274\251\275\251\321\312\275\376\214E>\234p2>\263HW>Wck>S=\354=\261\272\246=\244w\262=\017P7>6\177\245\275\236W4>\177\340\026> \223\201\275T\006\200\276\232\000\\\276@^\017<[M\225=\'g\006>i\311x\276D\001\010\274\274n\360\275V\372\033> \2772>fX|>\014;\230=\274\343\321\275\274vn>\254\005|\276\266\367\341\2754G@\275$\247[>>XX>\270\311\002\2750\336\242<>l\213\275\306\212<>\330\231P=j\221\335\275\257\007+\276`\031E\274\200\037C\273\000\246\374\273q\026b\276\240\363\201\276@\'\302<\344\323o\276\037&s\276<\3102\275 \2357\276.\340a>\300BR<\220\261<=\276\244N>\nef>\242(\037>\250\243\014\275\000\2231\275\\\353\266\275\"y>\276\204\373\033>\200\202\025;`O\305=\3306\213\275 P\235\275\265Z\204>\336\201x>\004\024#\275P~I\275.\250h>\370\024\374\274 \236$\274N~\252\275\000\265\257\272\367\256Z\276\346.\202\276N\177k>`\377o<\362c\001\276(\337\020>\327\026\013\276\314\314 >\270\003\367\275\360!6\276\036R\302\275.M\201\276\210\037\332\275\000\010\373<>H}\275\251ig>\277\240,<\\z\233\275%\301,\276\014RK\2768\224d>_T$\273l.\004\276:\346\202\276\213\274\377\275/\0244>\255\225B>\024\257\200\275\222\220u>\355g\002\276\217\\e\276\t\005r=\340\177I<\006A?\275W\212\323=\233\265?\274\304\373}\276\347\337\037\276\0205X>\257\275j\276\231\223B=\322n\321=R\262\031\276\353\325I\276\356\317T>sk\003>\010\233<\276\320\266\024\276\262\036^>\tJ\216\275\025\213O>4${=\203\236\202\276q\236\202>\325\327\t\276j|X\276\014 y>\310\251&>R*\327=\250\033\271=\272u\025\274\312\0223\276\224=\005>\241\310\207>\352\024`>(]H\276q\3061\276j\226e\276*\356\254<\306uU\276\340\377\243\275\204\357V>\0138c>\361\327\367=w\347\004\276\200\261\t>,\334\336\275\032\267{>\330\010Z\276\035\351\215;\376\333w>\\z7>\271t\275=\224\235\363=u&\355<\"\332b>k\220G>|\002\237\275\022\245\304=UaE\276\000\302\240\273\312\333r<T\200l>(u\320=\\\353\376\275UUS>\300\274G=H\245V\276\276\342B\276QQ?\276\230\023\253=\260\346Z>\270-\035>DO\253\275\366t&>\274\002R\276^6\346\275h\367\002>\300h@<\021\252\223=\005\332\025>\271\230\361\275\030\241\022\276uq(>\200&`\275\316\'\256\275.\204\266\275\236ff=\200\365\200\276\264\315(>\320h]\274$\215G>w\307\3369\034\256@=\356\246w>\246\2439\276\034a\204\276\331\226\272=\257<S\276\243\215|\276\251\265\'=\214%\n>\356\323$>\206\275)\2760\036\022=\365\201\372\275\356\221<\276\260\367\360=\004do\276n\036\025=\000.\">\234\366\313\275\267\344G>\'\340s\275\325\244f=\361\373B>\301e\246=\000\212\300\272\216\325Y\275\322+\271\275\220\000\227\273\246P\363<3\t\270\2754\354\230\275J\275C\276\233\036\203\276\355Yh\276\352a+=\245\325.\274Y\037\026\276\230\341\341=\353#\007\276p/T>\304\032\241\275\264\241\023\276\354\333\311\273\356N\274\274\223\245t>\246a\013\276\001\211\223\274q\235+>\230{\306\275\241[\031=\006t\336=\337*d\2758\341I>\324A\025\276\371\220\357\272\320\260\323\273\234C\211\275\304\303F\276\207\377X\276\031\207\177>\231\030.>\201\222\020\276\313S\366\275&\022\022\2767\222\246\274S\202J>\317$(\2760\020\021=#D\215\275D\301e\276B&\337\274g\346\201>\312\022l\276\323\343\014\276\307\210\360=W\300\203>\262\311J\276\003/+>\200\357k>\213\007\272=\366\2345\276\2412u\275\2124E\276@\357\322\275k\034E>\004\244W>\210e_>\311G\361=&\000\\\2768k+=\353\253\200\276\0333\000>\215\326X\276&\323\201\272 s!>4w{\275\311(\">.<\021\276>v,\276\305\225\256\275_j\337\275\376\260B\276\353\303)\274\010\212<>\214\371\326\275\312\357?\276<t)\275_n\031\276`W\306\275\312\317d\276\230u;\276i\300T\276^\362\207>\352\003\375=\013\275.>\204\371\202\275p\001\367=\332\246w>\251\215\303\274\346\232\321<L\240\207\276\244\2570\275\207Z\031>\360\371{\275\0307x<\210\230h\276j,G\276\020\247&>\360\0356\276\347\0018\273\3076!>\313C\024\276\224\314\231=\210\013\"\276\270\001\262<*\336^>hj\224=C\016\305\275\204m\260;\3403\267=\250\032\010\276\016\207\200\276A\200a\275\233S\251\275\365\363\025<G\007\"\275b\037\320\275\327:u\276\367\341Z\275\t\3235>\355\200\365<}\2632>\274C\346=\325\024\337=\212Q*\2764\345\351\275\247\252\002>\010~<>\230\235E=P\302\341=>\334-> e\004=\304\020t=i\236\336=c\334x\276\307\035J>\027\306q;4^\263=O\242\311<b{\240\275<\237>>\331D\013>[\220\366=\373\346\240\275\235m\301<1SH>o\230\260\274\200]\345<\215\234\255=\255\035n\276\307\037\215<\260\207\003\275\335\234m\276\242H\335\275\212dF\275Fz\200\276,\332\301=\342\361f\276\033T\207\276\206\251k>\300\016{\276\373(m\276\344\256\005>|.\270=\300\313\355<(}y\276@-/\275\237\207b>\021\252\242\274\352\325Y\275\332\004S>\310\312[>\207\216\310\275J\334\356\275\245\037B>\n\320\200\275\254\025Q>\3303\305=\212}o\276\023\224\037=\374\0044>\306`x\276\313O\031>\307IJ>+\360;>\014\354Y\2760v\034\276\360\220(>\233\250U>cBK>\261\250T>\352\3048>\220\261\310\275\310\215\310=\001\206$\276\034p~\276\021x\324=\"]\202>\3008\357=\030\253\034\276\246\177\033>\255\344\317=4$\325=\220m:>3\242y<\211\246\225\273\3540\310=\257\004\n>\364\310\245\274\356\325\362=\316\030\034>b\265\031\276\316\371\366=\331-\257=\365L\204\276\274\014\234\275%=]\275\246\200\037\2731a\\=X\356<>\232\000\031=x2S\275\025\301V\275D; >\036oi\276\265\225\023\276\'s\303\275\241\347K>\316\002\246=%\256P\276\272\320&\275O,7\276\022\010\366\273##_<\266z\350\275R|^=\245x\253\275\003o\"\276@\366-\276\031\367Z\275s\206p\276\201\254\017>T!\345\275O\353\036>\2503v\276(I\003=k\362#>=\247\034\276?+2>\207\324k\276@\247\311\273\356\255\206>\256`z>\226<y>Ci\312<\236\347\352\275+\346\034>\324f\203\276&\211\237\275\330cZ\276\346\231&>\214\362\367\275\236\320\007>`\227a>=\243S>\352\350\r=\301\250\017\276,c\032\275\354\205\032\276\260\231\017>\230\352\270=w\262\017>\321}\203\276X\260+=\3547\253\275^\267}\276\306a$=\361\262\\> 2\302\275\224\'\t>\302\204\254=\036\3445>\372\316\202\276@\311<<JU\267<\350{Z\274O\177\205>\334\n\343=\005\314\t\275\226[5\276\273\023\027\276\376\347\210;\010A\365=\220\216U\276\200[\016=\\\215\303\275\242\355Z>~\212d\276\224K\351=\301\274f\276\202t&\276\306\201\255\275\214#\346\275}\237@>\336\332\354\275\340\342|=\367\203*>\r\236o\276\333\321T\276E[\275;ux\002>\371\277\214\275/a\252=\3759B\276\310\013\016>\032\0031=\300\355D=-\220\304=\302\002\317<\014DE\275nuJ<\340R\004\2748\374/\276\200l\357<\361\205&\276N\304\201<\3663V\276z\371\312\274f\017\202\276d\344s\276{-\t>$\322\223=\244\366\013\276\227\306l<\th\025\274\340\336k<\002\367\221\275\377\327\027>\374=e\276V48\276j\017\031>v\254b\276[Y\303=\010\013\274\274\257\347->\324p>>\366\357\002>\230p;=\213\236L\276,\2352>SNM=\206\333\025>\326?8\276d\343o\276\0000\024\275\224\320/>\266Y`>JZ\345\275-\0227>\320:\034\276rBQ\276\244\335\362=^\023D>\214\261\013\276\326\276\303\275\216\2407\276\031\335\021\276\221o\212>\200#j\276\303\322#\276\007\276$\274L\334h\276LM\341=:RY\276\3775\367<\252\tA\276\030Dp>IjG=\305\245_\276\033P2>\315{\330\275\213q\317<\300\031\027<\301\242\211=)\234\223\2755\266\324<\301\227\n=\204\022\007>0\033\320<\330%\267=\371ac>U\267I:\032\023\007\276\222h?=1Dj> \317\265<\262\304\025\274\375\224\373\275y\3777\276^\267\200>T+N\275\204\350s\276\321\231d\276\035\315\177\276\245\004p=\3302\001\275\033\025\264=\350t\246\275\314\201\336\275>R\342\273\230\014\031\276\340|\313<\222\013a>\363\306\316<F\302?\2763V\202<\010\021[\275\2164\354=\267,\204>l1\263<\323\212C\276\246I\002>\006H\006=\316\201\206\275\247\370T\275\237\230\251=\\G\346=0\206n\276\025\225\177\276\222\177#\276\345I\345<b\n>\276L\'\372<\n\325\372:\316<\331=EI\242<\360LK\276\255c\362<\222\375\322\275\237\"\005>^4\022=\t\354\352\275\2606}=\024\314y\276\323\027,\276\277\224g=A\213%>\2512\276;D@n>R\255<>\211 .>\014o\013\276\263(.\275*\255y=\211\345\240\275m\247\247\275\251\363~>\306\357\013>!\263\260=\231\226\204\276\240\363\002>E\205\020\276?\236w\276\316Sz>K\232(>U\351V>25\214\274\273\030u>q\215\035\276Xy#>\264\234:\276\251\270;\2763\006\240\273\372\302\036>\334kk\276\364mp\276\212\032\321\275c9\346\273\343\243)\275\234\017F=[\365\302=|\312^\276B\307\227\275X^3\276\014Bd\275\330\340\017>\302\366\326=\017I\323\274Ql\352\2752\241\025>\240\270t<\245P\352=\246v\301=\246\333E\276\326f0\2760\205{>\332Xe\276p9\034>\202\216b>\350\331W>@\002\335\273\233\2657=z\313`\276QyS>\344`\351=\251\342y>&\000A>g\031\004\276\022\310b>j\177\332=L\210\255=1cz\276\233+_>\335\302\220\275\375\026A<\340\206\260\275\255\035<\276z\326e=\265\020F\275\310]\001>\373>\010>\377J\004>\234\272\350<f{l\276m\010\275=\206\370y>S\276\024\275\205o\203>\347\"E>H\037\254=\213s6>\310vU>\t\234G\273\276QM>\325\240\005\276\234\233\324=\275\2015>\350\037|=Gd\030\276h_\260=7\314~\275\242G\037\276\311\332k<\335\255\201=_\321\325=\366\371\360\275\006to\276\254\212\002\276\'\2402\276\204\377\273=\246c\006>\023\202F\276L\tr\276/\324a\276\200\263i\274]\377\317\275\226\254\032\272\304\320b\276\275\303L>\2518\376=\255\251z\275 \311\361=\3348b>\014tw\2760\272a\276\317\300\353\275a\356\215\275+\305~\276<\211;\275O\366\213=|x\341\275\205\0242\276\240:\375\275\t\255j>\262s@\276>\010;>\232\010\254\273\354\3408\276\026\254==^\204y\276\0227/\276\360\'m\275\354g\033<\t\264\t>\246/\313\275\204\3447\276\235\263\274\275p\010\374=\213g]>\270\376e\276mju\2761l\316=\371\202\350=\302\217\036>A\323\302\274\021\335\307\275\313\267\200>`\035\032\276\034\225t>``\021<\243P\223;\316\226<\276\347\024\001>\252}Z\276\373$Y\276\022H\301=\370b\027>\363v\264=\014\334m>\356\261\276\2756\246\202>\"Q\217\275\023\221.>lS\272\275Q\343\231=\342\227\305\274O29>\216\005\217\274H\241\222=\250\344\201\276X\212F>\332A{\276\321\324\253<S\344&>\033v\207\275\002\021\223\274\214\233\363=\306\010+=\271Yu\276b^\020>\355\224#>f)@\275\270\001k\276\2567!>\274\266\263\275ja\250=qv\r>o\313\205\276$H(\275\372\216o=M\303\200=^\"\216=\360\354u\276\000L\307\273\350\311:>\271\"\203>\000o\033\276\340m\375<vYJ>:\221H\276\350\324E>D\234\231=~\263\267\274v\240\377\2754\365\361=bp4\276aB\366\275\200\260\365\275.\354v>Rtu\276\377I!\276\276a`>/\224d\276L8:\275\237\036\252\275\363\247\361\275\352\273\000=\244\302@>d\362\021>\277\311L\276\010\254V\276\220ac\276\243\034P\276v\311\331=\265}0\275\215\265\250<`\014\021\276c\253\200\276\351Fh\276\235\203\256=\234I\222\275\202N\256\275\n9\\\276\177F\260\275\270\274o\275\233\343g\276e\303\020\275}\210i>>\327\206\276\373C\310=\337\311a\276k\354<>\210\315{\276\277\006\201\276n\354\033\275\345\013R\276Q\tV>Y\332\202\276\013v\200>\205\241>\276R\334\345\275P\371\254=Z\232\374\275\323\241+\276\246\342u>\345\322\374<0S9>\356\303\021>\000<\210\2764\037g\275\007\031P>\217\330L\276\224J\205=\374~4\276p\263\203>w\211\202\276\333&\374\275\335+\353\275\330\241V\2764W9\276\357\345\253=\007\014e>+\320\241\275x\372\205\276\232q\230\275[7{\276\226@E>\360\360\221\275\313\336V>\201\032:>C\023&>Tvr\275\314\335\314=_8\205>9\261b\275\265-\001\276\327\376\006<\037\236\203\276\002\330\347=!<\023>Ygf>`\200p\276\335\223\025>\222\204@\275t\223F\2765U\372=\022\022\266\275\014\177\330<\017\310\335=X5\371=\346\2258\276\210jA>[V\003=M=D\276\250U^\276\233\010J>\364~C>U&\206=\313L\035>\201\233?=\212P\237\275\366\217C>\332\267.\276\014\202\301=\2612\206=\315b:\276\362v1>\274\262!\276\357\002\010\276\336\276E\276\205\007K>\240\026&\274\265\351\000\275\355\013;\274\260\177\270\275\300\256\254=[\245\025\276\332\267D=k(L\276l\337,\276\275\262e\276\310.t>\336,\021;l\370\370=\371 \316=\310\331B>|\224w\274u}\034>4\004\307\275\253r]=\370j!>L\334B\276\362\207T=\304\301p\276\316\361\202>\000\263};\003\377\357;\263\027\321=[%|>y)\n\276pOJ\276\267\212z>\247\310\361<\337\335\202\276Z\036\005\276V|B\276\230\366\220=\017z\204>fA\021\2761\nE\276\347[\205\276}\005v=\325\207\265<xm\210\275\344z\252=\362Z:=\203FT\275\302\227J>t\306\021>Y#\021\276b\274\200\276\300\335y>f\345q\276\276V\361=&\243\r>t\213j\276\253\254\003\276\213f?\274\372a\200>\237Z{>\307\256\256=F+V\275\313\216\316=\202\235\020\276R\277\263\272\220]\206\275\300\\\023\274\375\023\226\275\224@p\276n\355Q\276j\213\242<6\314\202\276\225\004\201\275\230z\031\2755\316\365=2yY\275\3104*=\326\226\202\276b:\020>O\301\277<\275Cq\276\037\023v\274R\360J\275\032#W\275\276\373\216\275\3505\222=\375\205t=\034\217x>z\235!>\330:U=\006\3123\276\"\313o>Z%z\276i\000\010>\2533\"\276\341Pp>\377\335A>Xc\031\275\322\351^>E\313Q\276g\005K\276\334\270\177>\326lJ>Jr%>\250\264\003=\343gI\2767v7>\255\355\203>\326?\r>\330\265d=_[p\275\363\211.\275\313GR>\244yx\2756E!>NTl\276&(\025\2767\355\217=0\253h\275\221:)\276\234\250[>\316\232\014\276\321\334l\276\004)\265\275\374\373\274=\206\251E\276\226\217\215=9&5\275\274\337\006\276\010\ne\275\002\247O\275\222q\300\275V>V>\256G\004\276\351\226\266=@\nZ>\247\350&\276\300\206\254\273\324r\264=0\277g=\366}\267=m\024p>.g!\276s\013\223=\376w\305;-\3645\2753\205\025>\026\030w\276\256\231)\276\320\027\344=g\370\272<\211\214\325=\317\351\350\274\354\214\016><\003\275\274U\211r\276\227\274\222< \200x\276\014^\023>\3455*\275\314\256\235\274\332\t\202<r\245r\276x|e>\311\264\017\276k\304I\276\230$E>Y\316|=x\370\244\274\013Ge\275u\334\003<\200\256<\276\033:<>:\266x<^I\355;em\306\274\354\353\336\275/\210C\2760y\'>"
      }
    }
  }
}
node {
  name: "decoder/dense_10/BiasAdd/ReadVariableOp/resource"
  op: "Const"
  attr {
    key: "dtype"
    value {
      type: DT_FLOAT
    }
  }
  attr {
    key: "value"
    value {
      tensor {
        dtype: DT_FLOAT
        tensor_shape {
          dim {
            size: 64
          }
        }
        tensor_content: "\230\3718<\261\240\203\273)\253\246\272j\325\030\273\322$=\273\000\000\000\000\223\3056<\013}\255\271\322\370j\273I\353\263\2738u\352\273D\255\036\273\36582<\337\335m\273\000\000\000\000`\305\376\273\305l\010;\201\177\205;\037\353)<h\367E<\353\235\024\273\217\226\230\273\000\000\000\000;\373\r\274\3225\207;\214UC<\357\003\225\272\tB\375\271c\252\315:x\277+<\307\013\t\273E\276?:\\\204\224;l\204,\273\000\000\000\000\337\222\270\273\177t\250\273\277?E\273\000\000\000\000\032\263\002<\314L\377;2\022\344;4\355\301\273\263\3377<\366\345s;\000X\306:\360\304\372;z\330\255\273\000\000\000\000\205\014\370;Q\364\034<\245\237&<\2402\217:\000\000\000\000\'\217\376\273\202-\312\272\000\000\000\000.\331\273\273\343\000\246;\234\344\366\273\342\251\n\273%\321%\273\362\201\177\272\000\000\000\000"
      }
    }
  }
}
node {
  name: "decoder/dense_11/MatMul/ReadVariableOp/resource"
  op: "Const"
  attr {
    key: "dtype"
    value {
      type: DT_FLOAT
    }
  }
  attr {
    key: "value"
    value {
      tensor {
        dtype: DT_FLOAT
        tensor_shape {
          dim {
            size: 64
          }
          dim {
            size: 128
          }
        }
        tensor_content: "\030\033==\303\336\013>L\334\036\276<\324\225=\260e#\276e\274\r>y!@=I\261T\275PH\317\274\371\272\035\275\276s6\2756\'M=Z\310\274=\010\322\222\274\322\277\243\2754K.=\301W\230\274\317]\020\276\202E+\276\300\030\003=8\363=\275\342\031\030\274\024l\014>dm6=\005\265\255=\215\016\013\276&i\310\275\t_-\274 \327\010\274GJn=`c\304\273\237\321\223=\300\200\027<x\345\313<&+\026>v\202\346=\016\017r=\305\371\236=\271\364\314=\254\221&>@-\324\273e\235\205=oJ\214=\242\363\356=\366q\206=q\204C=F\220\">S\305\026>p\252\202\275VC\252<\n\272\016>E\223\005>\367\350<>\346V)\276\376O\"\276Q\303(>\2151\266\275)\035(\276\326/\204\275|\373\021=\025u\r=\274j-\275\267\021\010\276X\211\007\276\270\315\014\276\274\336\t>\220\016\210<=P)>\320\203\350<\336\016<\276\222\211\272=\215`E\275\361Q\374=E\256\305\275\014\355Q=\216\211\313=Z\3673>\316A\033\275O\022@\2740~\001\276\306_\311\2753\217\003>\275_\022>\034#\007\275|\332\037\275\230\236\024=!`\201\275\226Yg\275\342\220X\275*c\324=\346\\\343=G \035>w\001!>\337\340\362\275\242^\352=\310c\242\274\227\352\273\274N\332\007\276\177#\234\275{\205\211==\356\016>\232G\027=\000\353\247=L\000\222=B\201\324=\366\303\207\275\346\240\301=c\031\016>\240\031\324=\224\326\274=\207\326\205<\305\017\365=(\350\243\275\374\237\337\275\356Q\304=\364!\004\276\343\361\252\275\363\001\357\275\234\372\226\275XJ3\275\340>*=\306:\207=x\244&\276\014\3006\275\356%\201=\220\225\345\274\310\205\023=q\306\013\276\323\326\035\276\242P\264=\000\303\317:\260\231\007>\324\223\020>\010Ua=\320\005R\275\344t,\276N\216\204<\363\277\202=02\307=I\346\307\275\336qJ=\373\203f;L,\327=\240i\355=;J8>\031\334\004\275\264\032\020>\225U\320=\010\244\336=\004\003\003=u\003\243\274\337\315.>6\014\233=\342\013\374\275\371C\000\276\254\'g\275\300e!\273\320+\226\275\207\213\0209\267=\312\275?\254\225\274\262\374~\275\002\207V\275\000\304\247<^V[\2759\000\026\275\3055\226=\360\377\027>\321Y\026>\320\035\201\275\237$\027>A\2113>\365\215\270\275\017\006y=h\312+>\035\033\226<\203\226v\274c\332\027\275\307\264\010\2754W\314\275\212u\270\274\227\211J=\347\321\006\276\213\016!\276\201\267\274\275\027\231\271\275\017\t\'\2767}\336=\355\367\373\274\266\250\251=\236\357\235=\211| \276#]-\276\030\250\024>\200\347\203;\260\210 \276\350M\212\274c\364\303<\2471\275\275\371\037C=p\310\371=\256\236\310\275u\372\262\275,T\203=*E\246\275\306\266\206=\261{\311=*\270\203=&x\226\275\000\213%\273@E\003\273\360\342#\275x&\024\276\3500\237\275\220\264\005<`\265\230\2747\270\037>\273\203\335\275\007\356/>\006\332m\275\276\315\266==O\013>A\214$>h\377\034\276%N\020>8\244,> tL\275\251\030\313\275Ic)>\235\305\230\275*\316\007\276\tq\376\275\254\332\232\274\316q\273=\023\321\257=\346\224\340\274\362o\311\275\356g\337=w1\002>\365w\235=\200\017\267\275(\217\234<-\350&>\350\276\375<\360\266<\2745\223\007>p\275l\274\005\220\021>\310(\211=\274\014\030\276( F\2752>\265=\026\343\304=\220\263D\274\300\336I\274\260\357\271<\236v\'\275\356\365{\275p&F<K\200\t\276\347\322\001>9\377\375=R&\205\274=\256,>\204<\010>[s\025>\216SH\275\305\361\001\275\324\216\360<\'\375\206\275>\202{=\027fp=\223\241\266=\205\272%\276(\036g\2756C\235\275G!\260<c7\321=\'\372+\276\374W2\275\367,\330=]\214&>\331\023\374=\243/\205\275\275e\001\276R\221\252\273,b(>\352\234\027=\301=\333=`\032\200\2742\206\321=\304\245\340\275m\364\031>\264%2\276\227#q=-4\276\274pv\023>\273I\375=\3557\006\276\260e+\276\371\257\332\274?+\022\275\362\2350=y\t\005>-\202#\274\265Ye\275\247]\274=\366\337\340\275\302\235!\276\244\302\320:\304\336\317=\254Y\t>A\030u\275\001<\270=^\035*\276\'(\031\276\021\223\021>q|\330\275\247\005-\276\260\0223\276n3\222\275\026L\022=8\230\324\275\\\255\241\275\362\304\261=&\021\200\2750pJ<L\2261\275\351B.\274\211\014t=$\267\342\274\341*\035\273\020\370e= \215\253;VD\327\274\257\000!>\330\023B=&\363\362=\032\201\032\276p\t)\275t\336\347\275l\212\305\275%\232\344\275Q\267/\276\220\355d\274\2029\267=v\214\377=\"}\256=())\275\214\021\030\275\010\nZ=\357\2034\276\232\263\000>\016\230`=N\271\032\276\246y\372=H\202\227\273\247\261\310<\336\300\327=/J\260\275\244\017x=\204\260\326\275\373!\214\275J\276\327=a\\\374\275q\0168=\226E\307\275C\320\r>\3228\201\275:\010\243= \343J\2744\001\021\276\341\006\003\276 \373\336\274o\325&>\230\226\271<\"\030\010\276\263\022(>@\306s\2745W4>\360\226\343\274\307\271\342\275\020\3605<\260l~<\177n\276<(\310+\275\320\241`\275\327\255\026\276\353?\331\275;P\r\276j\220\223<\t\002\315\275\235\004\004\276\227\265\037>T\317\210\274\331\0367\276&\227\231\275\255\205\260\275\016U0>k\254\227\275|\214W\275\016\262\225\274\325\337\021>\267\346$\276\360\222\277=\314/B\273\"\354(>\347S\033>\362:\303\275N\372\036\275\376\260\321\2756\231\342<Z\217\005>\270\347\320=\352r\007\276\221\246m\275\227\010\r\275@\216*=\226\201\036\276\371\374\264\275\250\327\t\276\275\301R=.\376`=5W\210\275\335\251a\275\224\026\263\274\030\\\"<\230\206\014\275\355\2400\273<\267\247\274b\014\324\273\205\206\207\275|\247\320=X\335o=a\257\313<n\246\364=\276\243\017\276\0063\230\275\376\373\341\274\227!)>\343>\26283\321\'\276\037\301#\275\030\034\313=\232l\t\276O/z=!\010\365\275\037\264L=?F\250\274\245\371\265=\240\344\272;\323,\276\275D\035\030\276\225\225\240\274\371D\026>H\346u\274{\370,\2765\266\220\274\232\342\243=\273\330\021\275\004\023\220;\3714\304\275\273\255(\273s:\234=\200m\215=\273\321\036>\373\037\363\275][\000\276\000D\315\275\224W/\276P\3540\2747\350\032>h\370\003\275\253\363\305\275\026\024\347=\r\213\266\275\334\"Q\275\241\353+>p\027\256\275X\375\330<\261!,>\303\036\016>\036\335\254<wg\274\275,\024@=\374\324\373\275\032V\">\250\204\376= \343\005=?\261\375=YO\004\276\306\271U\275\273\374K\274\303\233\246=\306)\020=g\347\365\275\002Ov\275\370\001\324\274\200@\315\274/\201!>\276\242\005\276\032G\366=!\346\331\275\036u\216=\310\224(\276\322w\300\275\014\305\014\276J\223\335\275@_\344\273\375$\026\276z\000\323=\352\275\372=\000p\334\275\362\324h\275Z\241\371\275\240\321\213=\241\226\252\274_\344\007>\260M\315\273\007\203\035\276\307\264\273=I)\356\275\206\010-\275K$\006>\217vs<\327\343\024\275N;4>\253\203B\275\231~\030>\251\200M=z\013\366<\234\260\021>\361\t\037\276\250.\304\275\214,)>\020\342w\275 \251\000;\356\2409\276\024\327\323\275\373\3515>\034\034\376\275\335\265->\n\303,>\233\221\006>\277\020{= \000\344\273o \323=1\261\220\275\214\215\357\273\314\337\377=\351\374\326=\307\021x\274\002\304\202\274vy/>\030\177\006\276\300\202(\276\232\321\202=\341T\316<\231\310\021=\271\370\332\275\267\022+>\220\373\014\276\257\260\232\275J`\013>B\376\233\2754\355\316\274\362v\324\275\001\335\367<\261\2360\275\270\025\002\276\372\3664\276\216I%\274B<\217\273D\026\222=\302@\257=w\001\026\276}\274\016\276\256\2661\276*\351\016\276U\230\215<\312)#\276\277\331\371\274\030E\323\274\322]\037>\006b\250\275N\201X<\270\235\267;\211\371#\276\021\025i=Q\375(>\276\215\323=\303\234!>,\264*=wB\255\275\r\333\000>O\223\020>g\202\253\275\306/\313=L5\020\275\322\344\363\275Fz{\275<\3450=\r7\030>\240s\303\275\230\357\340\274\354\002e=\247\203\034>\306\212\301\275\215R\233<\257\333o<T\277\357\275JxC=\310\253\014\276\266\211d\275\036\0000\275%\\\030\273\225\215&=\372\275\024\276\203o\r\276\225@\303=\275\375b\274J!l\275\207\253\206=\007\'\355\275\004\\Z\275i\372\026\276rm\260=,A\001\276\267\277$\276\356>y\275b\312\310=\361\346\035>\016\206\365=\024\270U\275\rQ\230\275\242\341\371=z\025\003\276\002\236\021\276\200\2602=\3467\010\276p\034=<;\034\032>xa\263<\224\345\t\276\313}\020>\235\2021>,\216t\275[\224\323\275\254\2470=-\254\022\276K\256\277\275\201\311\343\275X\235\270<j\240\341\275\305\213\006>\354\001F=\342\244\330=\322s\305=}~%>\200\342\307\273\356\317\354\275I\265\347\275\3407\256\274\002;\326=4)\355\275\341\234\t>\360\205\201\275\225\202\236\275\304\013r\275P[\205=f\350\274==\262\212\275\300$=<\204<\324\275DN:=\350$\372<\217~$>\211\235\016>\236\254\n\276bc(\276\332!\332=\234a\377\275p\r\034<\252<\273=P\231,\274?\351&>\260\211$=\350rw=\301^\004>\354\004\224\275\t\330\n\276\344Y\240\275\230\313\333<z\177\213\275\001g\201\275\226\001\345=\3505\205=\3618\014>n\205\263=qY\262\275\n\311\021\276\037\220\002>\"\270\217=\377\210\266\275\220\203~=+\314\027\276\263\261\004>@5L=\304y1\276\261\020\014>\010\370}=\003\252\014>\372\t\365=p\201{=\266\030\322=`YK=\207\241\276\2754\355)\275\372j\270=\271\220(>(\313\321\274@e\357;)I\001\276\0273\t>\314MP\275\037\035\261\275\376]\252=n\366\021\276,\375Y=\t\213\000>\306\207\346\275\303\352\035>B\347\325=\223\024\031>*\n3\276K\347\000>N<\275\275\"\267\214=\000\034\205<rC\273=h\371\207=\034 \213=\325\312&>\327\216+>\030\342\253<\025\371\014\276\370\'`\275ne\004\276\201\344\323\275]\326\003>\270\207\211\274\252\244\301=\3403\252\273\340P\213<\211B\027\276\306/\223=\250t\212=\360\370\032<0\367\375<\200\"\007\274@\240\013;\002\345\352=\362t\237=\353\371\036\276\230M\346\2747e\r\276\300\321\211;\242N\247=\221\273-<\320`\321\274Nm\204=\303H\020<r(\000\276Xch=\004\246\346\275\275g\033\275\312k&\274\026\310\024\276\2519\316\275\327y\313=\272\214)>\210\'%\274\233:\022\276\357\305\016<$\374\317<1\303)>\002N\213<\013^3>3{\345\275\205\204\030\276\201\344\331\275Y\016-\276@c\350\275\331\033\344<\357u0>\2009\205=\373\246z\275\231\314)>\223\002\227\275ee\211=l\347\022\276\311n\032>\246I\260<F\350\t\276e\3312\274w\246*<\363:\006\276\030\033\272=5\257v\275\224]\311\2743f\372\275\370\323\372\2751\025\312\275\325AB=\350F\251\275\24715=p6i=>\355\322\275y?\312\275\264\022\243\2740\256\002>Mi\232=O\375\212<\343\r\013\276R\344\305=,\356\316\275\275a&\276\027\337\347<@\271\205\275\227\343\"\276~\022\352\275D\201&>\027\033N=M\346,>,o\017\275#,q\275`\377A\275\030^\014>\360\017\255\274\374\003\324=ne\356<\374~#\276\243\260\'\276\355w\275<\023<\013>\030Z\002\276\337\302\021\276(\272\333\274\024\256\'\276\375\037&\276\0021\210=UG\020>\177\237\306\275.\340\331=\274E\313\275\024J\032\276\356\215\021\276\0100\225\275\031\272 >\303\261\010>\335/\240\275\340\206\242\274l\227\t=\212\314]\275\352\200v=t\262b\275\300\276\265=\376\342\031\276\250\001\036\274U\037\002>\332B\312<\354\313\334=h\014\323\275n\017Q\275}>F\274\343\036\274\273[F?>\354\363\302=\246\251I\275\225\004\203=p\371\204<\322\325\301=?\306\033\276:t\301=|\337J=\257\013\016\276\254\214\360\275\315\235\002>\276\331\375=\301\256\246\275hC\300\274\340Q\325\273\317\305\024>\220\t\221\274\000 b\274\005l+\276yP3>u\002\264\275\266\020\222\275\242J\200=\2006b\274\336d\337\275\036\250o\2759=\033\2746z\210\275\330R\375\275\227[\014>\301\212\032>\212\275y=\30342\276\005\304\375\275l\021\247\275\256i~\275\256\347\207\275\240\3134\275\262\007/<W\252\235=U\025\351\275\201\322\353=\261\226\025>p\343\200\270\214\365W=\356\246\246=\021&U\274 @\200<\033\227\017\276\332;\373=HI\334<\303n\246\275\t\014\330\275U\206-<\240\262\346\274D\370(\276;\257\241=F\307\031\276j\202\000>`\307\000>\214\337\257=<\2236\275z2\222=\005?\335=Dr\271=\\\376\277\2758\262\245=\243U/\276\361\257\364\275\210\211\351\274P\002\032>\350\330\230\275v\275s\275Rt\237=\271\265\013>\"o\231\274\200\232C;\007\335\365\275?6\237=\022\201\242<\002\362s=\236\n5\276\277jh\275\276/\241=\255\234;=\255,%\276\017,\316=\350\200\316<;\331!\276Vp4\276a\234\255\2748?\322=PJt\274\322d*\276\202-\201={z\013\276\343v\317\274\372\272\231\275\363\305\006>\226\306\276=\344~M\275\020\"\203\274f\225\034\276\3075&>\266\321\030\276\333J\303\275\240\347{</\272\313\275:C\233=\261O\267\275\216\006\372\275p\345}=?\371&>\200\354\340\274\227r\010>\312~\260=\204\374\361;z1\326\275\222F\251\2758\221\306=1\330\t\276p\030\206<\024\237\364\275#o\025\275{\270\301\275\255\374\274=\324\237\">\337%\345\275\302]\002>@\213a\275:\266\202=@{)\273\342\375\013\276H&\370\274B\330\267=h\365\323\275T\253k=>\2244\276\273\3502\276*\025\313\275\360S5\274\263\026\'>\212j\356=\227$/\276\346$\313=h\321\031=\030\357w\275\237<4\276H\3242\276>\200\231=\243\277)\276B\023\305\275e\322\254\274\004\020\220=\001O\003\276R\000(>NA\340\2747\223]\275W\272\033\276\367\037S\275*\343\277=*\312\t=\353\321t\275\202\236\221\275\274\322\320=\001ub\275;\214\306=m:0\273+\342\246\275I\311\214\274\320\312\307<oc\360\275\037\212\264=\n\217\"\276\353\214>=\356\n\261=m<\265\275\230\217\206\274\240x\267=wC\021\276NN\241\275\371\332\004>\225X\241\275\254\360:=\014\260Y\275\005I\n\274\"]\005\276\223\024+\276H\t/\276\322\r\255=\300\352\230<\232\001\377\275G\025\036>\331\362R\273\211\303\n>\300\261*>\260\274\n\276\227\224O\275\226Q\027>2\004\253\275;\304%\276\345\363\271\2759\362#>\332T\014;\344\332y=\277\362N\274\017H&\276\347\213\236\273\031k\261\275\343\213 >\234\343\224=;\n-=\243\245\231\275\360\036\262\274\001X\004>\340\356\246<\026\263\"\276\"\'\254=;\006\316<\253t\036>\010\313X<R\364\262\274\217\"\323=\205\315c\275\340\021\310;\333z\033\276\201\302\314=P\270l<\264\034x=\001{->9\371.>\010w\200=<\351V\275f\234\344\275\221l\037>\036q\356=c\253\000\276\352\371\245\275\333_\020>\024\347\205=\242\274$\276\213\"4\276/\r\027\2761\264\314\275;\022\242=\357G\260=\206Z\021\276A/\201=N[\243\275_\310\376;\246\272\242=c\'\014>\315\324M=\276\005.\275\006\352k=\\o\236=\'r\331<\021q\315=\001\274a<Xq\215<\364\333\033\275\347\212\316\275\031C\267\275\270\347\026\275\322\252\335=\335\316\000\276C\2762\276\250R;\275\256\360\203=:\2352\276\330\335(\276\340B\213;\340b\021\276y\032 >\360\335\245\274g\3350>\"\322\221\275\317}\005\2764\345\007\275\014\326\370=\343T\315\273\341\333\200\275\316L\312=J\nx\2758\025Q\275\234K\334=\335\002\027>\"\302\240\275\216\253!>\375\034\360\275\022\334\363\275\037 \022>w,\013\276\347\201\002<\214U*=\267z\363=\321\231\307=$\303`\274\377\203(>i\274$\276#\222\016>\337\333\331\275@7\250\275\336\013\241=\307\234\312\274.\375\031\276\225N\204\275\330\016#\276\356\304\244\275\257^\356\275\200\303\351\273B>\">\337\n\370=\332\355\020\276\2208\332<o\336\336\275}\262\021\276\265\315\214=\270\3411\276\333\213X=\350\310-\276\273|>\275\257\240\357\275\237\245\t\276\013&\367=\rp\013\274\034\214W\275\374\007#\276\225\222-\276/Y\200\275\306X\030\275\200\256\322\275|\031.\276\302<\301=_\317\363=\267/\020\274\013\235\021>a\200\242=lqW;5\231\227\275\367\254\355\275+\345\234\275P\313\351\275\312\367\341=>\3260\275\363O#>\221\332\337=\\\346\227\275\303\234\306<\342\313=\275`G\245=\214\241\276\275\177\017\323=q\217\320\275T%\350=\351\203&>\346h\336\275L*-=j\204\305=\220-/\276J\216\347=@(\377\2754@\002\276\351\035\t>`\330\206=\204H\020=\256s\327=\326\353\345=\320iL<\264\212\202=\376\330\367=L\2404\276\002\307\003\276\3771\272\275D\377F=A\220\205\275\212\273\213\274\207\265#>\350I<\275\236\234\016>\206\037 >\321\362\274=\205\315.\276\t\310\016\276@\022h\274@\233\013\276H\261\234=\006\260\207=\236&\350=(\266v\275\240\220\363\273r\304\245=\327\242\'>>\035\201=\250\360\214=\200\352\207<\2521\006\276v,\002\276\307R\023\276\321#\327\275\365\345\022>P\205|<qB\371\275\206O\245=\223+\007>\340\t\247;\317\325;\275o]\203\275\324Bn\2757\241\216=mw\033>\241\266\216<\370\201|\275\016G\034>k2\033\276M<\356\275\210h\202=\374&\035>v:\020>\267\335\204\272\213\377\246=\351\243\314=\376m\254=\272/\030\276C\004R\275\333\237\023\274\373\343!>%\223\026>\232$\237=PD\271\275P!\'\275O\201\014>-\250\036\276\270%\031=E\210\026\273-s\346=\000_E; A\266\274MA\264\275UN2\276\220L\205=?H\017\276\327\007\234=\306#\242\2757\260\034\276\347\210\005>\\\342\\\275\"\242\217\274\247X6\275h\2354\276\010`\242=A\022\014>\204\276\t>\374\306\244\275\3619\t\276\032\201\032\276\302P\024=7\266\301\275\024v\374\274\246\0366>\256\335\207=\000\007\344\275\250\204\232=\260Q\243=\302\267\323\275\311\306\326=\013\351\005\276\000\364\256:\254\365\261\2750\307_=`\224\037\275\034\245\036\2760\376\202\275\265\336\007>*\350\273\275\370\267$=Re\024>\375\366\032\276\224f\020\2765o\027>\205\237\237=MY/>1[\022\276|!\216\275;!/\276\2344\014\276`\246\027\275\034`,\275\200\233\325\272\252\006\341\275k\376\031\276\030\312\203\274\250\272p=|\330\030\2760\265\205\274`\246\241\273\340\002\335<\376\221\351=\350\220\264<5\275\003\275\307\014\267\274\210\310\306<\305\215H\275\274\341\035>\300\007s=\2116\010>\316\274\016=\233\300\351\275\214\274Q\275@\356-\276\re\'\276\316\355p=\250^\370=&1Y\275\026\321\001\276\231\203\341\275\200O\373:\322\205\271=0\272\003=\331\022\036>\327\245\023\276\206>\017\276\216\017\270=s\351\003>\302\004+\276\322r\240=\254\363\n\275\200\321A<\366P\306\275\000\310\006;\377c\232\275\241\214\024\274\341\325*>\004|\357\275\263\n\315=He\274=\223~\263\274k\245\007=\206a)>\371 /:J\013\034\276\'\217\222\275]Q\313=v]\376\275\037\021\227:H\265\367<\326+.\276x\341;\275\203\241\n\275\364\032\t\275\354\365%=\367\345\314<\375\225t<K\247\r>\240X:\274)\366\263\274\335\230\003>\377\353\361\274\352R\277=\205\322\363<\336*{=\316\317\205;TSl\275\032\261\214\275.\246$\276\257I\336<>\r\243=\214\300\247\2750P\032>d\004\013>1\020\211=0\034\222=\204\001\366=\342\327>\274\002\314\300\275\236y\305;Gu\251=#\033\025\2769U\t\276P\220\032\276\365\202\332=\315O*\273\033\205 <\330\025\346\275\304Za\275\351>\356=\346\244\266=\023\330\005>\362\310\265\275j\373\014\2767\021%\276Z\023\004>D\342.\276\207\236\274=\005\0220>\325D\357\273m\242\314\275\304\370\026\276G]\023>\336%\240=\361\253\324=\266\266\231\275\372\371\271=\022\333\010>j\n\362=~\353\270\275*\371$>\241\225\252=L\250\007>\262\215\233\274\242a\013>\202[\006\276\020\244\007\274\003 \020> D\'\275\205\036\202\275\266\225\254=\2250\252\275\314\030M=\227\0102\276\340\375 <\203\222\373\275\274\232\024\275\351\274,> A\340\274\\V\206=\240)\006\276\374\021\021>\330\352\031>\231\027^<d\371\225\275\361\231\">\254{\245=\253\373\214=`|F=!\344\347\274\201\247\r>\013\232^\275*\225\225=\177~\036\276\207kQ\275\340\352\235<\031\276M=@\333Q\273\243\273)>\240.\216\273\211\346\033>\324\303R=\264X+=\320\222\021<\220\310d\2745\210\034>\016\210\276=H*~=\000\332\223:\254\347\177=P\246\254<\202q\335=Oz\265\275\265H><\340\017\251\273\266\365\372=\2215\230\275@\024\304\2751!\216\275\355\265\374=\347\020!\273\013s \276\362$\357\275\210\026\220=\222\244\027\276\361#\257\275z\234\033>0\355\005\276O5`=\342\220\203=R\033\353=+\315s=H\033H=&\245\205\274\240\021\353=\205R\031\274\261\\*>\002\227T\274\204L\311<\006f\014>\223\274\357=\037G\010\276l+8\276K\366\017>\245\260\3109\034\345\020\276n\324\222=B*\310\275\032\276\255=\357)\246\274t\273\330=\220\304a\275\344H\030>j\005\023\276\371\n@\275\"\325\302\274\310\2453=\222\351v\274\3749)\276\221\352\262\275y\n\206\274F\321\031\276D\021\362=\215\223!>n\375\331=\370\302\n\275\235\351\270=\377\000\255=\340\032\237=\313;\266<\320\274\340\275\262\275\035\276\350q`=W\025\351=\030T\\=}13\275\'\240\032\276 \270\r\275\272\341\026=8\026G\275\372\030M\275\323\305\002>\255\3460>\276\r\345=\333g\032>\251\013\274\274>Z\021\274\305\013\004=<\267\347=%d\336=\345\212z\275\254pF=\2068\366<(\312+=\3703-=\314\274\033\275G\004\221\275\271\010(>\225\177\361\275b\375\273=N\350\243=\204\302e=\222\360}\275\026\245\245=3\300\r\276\270\257\224<*\221\t\276l\330\004\276\371\022&>\021%!>t^\263\274\200\330\333\275\316.\273=u#\023=Q\236\373=\215\375\306\273D\206#\276I?1\276\233O\240\275\373h\004\276\267\214\001\275\270Iw\275\366\247\024>\006\337\310\275~-\302=\351\262\200\275\003\317->A\221\027>\267\321\016>\216\014\037\2764`\000\276\022F\316=\351s\246\275p\332\350\274\020\303\375\274\312\353\270=\240\273X=@t\272\275\320k\206=\352v\315=\230\250\003\275\360\204\017\275\340_\276;\230go\275g\243\305<\236\346\353\275\230\345$\276\372m\037\275\202\342\273\275\207\235\014\275J\026\330\275Z\235\216\275\0225\254\275\314<\035\276\366\023\030=\355\007\255\275\350\014\330=\031\210\"\276\224o\003=gD,\276u\274\030\276+\306\310=Z\362,>*\202\266=\230\327\035\276\314>\244<\264\275\374=\302\3649\276S\344c\275O!\354\274\005\374+>\351\3144\276U\365\364\275\226f\227=\360\360<\275\345\374\353\274\354\364\327\275\247?\003>\"J\001\276\032\237\337\274\311~:\275\005\377\311=\002\332\262\275\264\237\223=\372\333\206=\320\"\306=\2574\203=;\203\251=\212\265\020\276\035V\247=%\230\345<\256U\034>\375\212{=\005\256\261\275\2347h<\314\224\207<NIq=\334\256\262\275\034\207\'\276\013\263\031>\316\n\030\276\030\336|<\303i7=I\036\032\276\244\270\311\275xk\230;(\262\373=\2605\204\275h\231\t\276\327q%\276\345\331\004=:Y\261\275@O\034>\363\257\370=\263\300\345\275\335\212\036>\003\270\264\275\271\312\223\275\353\320(\275\271U\354=\2018\252\275\200\223y\274\327\351\257\275f\251\377={\177$>\334\324c=+z\022>\001\276&\276\020\364\240\275-}\241\275K\350\032\276\342P1\276\230\201\207\274\352Ff\2751\352\030\276\340\201\005\276B\216\214=\263p\034\276\323J(>H\216\001\276\363\273\306\275P4*=\323d!\275\t\373\017\276=\244\310=\373\324C=\365\210\'>\274\312\n\276\0079*>]\336\036>\255\327\304=\264W\025\276\356\276\000\276\016Z\301=\206\036\335=P\245v=0\330\211=\210v\033\276`\345\221\274\254|0\275\006\215\207\275r\235\240=\340\027\274;\266\317\213\275(_\364<S>\'>\306j\025\276j\362\222=\302\231\352=\322\260\235=\260Z\006=`\021@\274\237\335\013\276\310}\205=\334(I\2751W\020>>\260\005\276\004\334\034=\252\027\255=b\253\223=\222[\355=\034\271<\275\000<\237\274\257\2741\276\200\236\013<B\344\241=\013\r\342\275\"\253\362=\013\316\032\276.\356\220=x\003\017=\233B\342\2757\351\023>/\n\024\276\375\243\020\276\013\226\033>r:\275= #\326\273\347\337\035>.2\334=z\315h\275\202@\243\275,H\254\275\274\250\337\275;_$>\312C\344=@\247\201<\016\312\244\275\200\263g<\375p\001>\224\215\206\275q\355\'>\243X\311\275\235\370)>\314\201\013=\322\314\263=\005\271\244\2756U\364=+_%\276K\004\007>^\251\351\275\030F\270<@Z\230<l\350\305\275\200\240Y\275\036\356\231=\033\226\017\276\302\035\303\275\025!\">*\220\331=\032!(\276H\242\312\2750\344`\275\026h\247\275\313x\032>\360\222i=2\360\000\276\177\026\217\275\263V\027\276\375\246\265\275(5\225\275;\223\306\275>\002\331\2754\321f=\224\275<=Ns\323=4@s=,Wc=\026#\020\276\211\244&\276\004\334\030\276\362)j\275\240\316\003<nO\366=\222)\024\276\210\266H\275\033\357\214\275\300\200>\275h\300\005=\246\"\360=\020\245\300\274\300\212/\275\220yC<\204X\014\276\020\310\361<\037\207\005>\227\0004\276\0349\232\275I\240\231\275@\301\210=Hm\232\274F5\364=\026\373\340=\331V\007>@`\346<\2124\000\276|Xo=z\272\343\275\200\024B\275\000\216;\273\340p\254\275\004\\\206\275NN\214\275\rL\252\275\240b\217\273\035\215\r>e[\025>\200\372M\275\034\371\034\276\200Y.=\006\001\211=\2245\210=*\024\221\275(J\006={t >}\337\203\275\363\231\034\276.\362\210=\227\024\371\275j\231\312=\216\377\263<\221\234\250=\341A\372=0\243\\<\277\312\r\276\224\307\225\275\335\037\n\276}\026\330\275\034~\025\276\023\022\276\275\300\345\200<<\225G\275\303\007\030>\253,9\275\3656\">\377b\025>\020\344\222\275\311\n\013:\031{\010>\355e\344\274>t\021\276HK#>\300\250\305\274$C\177\275\361\207\n>b\247\336= \221\304\275\322\332\277=\305\246\202\275\360\352\\<)Q\r>\200\266\233\272\025\226\312\275k\023k\274B\225\250;\264\274\257=\t\300\206\275Z\034&>MR\340\274\352\255\204=&\031\326\275\025-\334\275h\340\n>\302\275\304\275A4\266=w\301\311\275\266V\240\275\300U\270<lN\302\275\007k\220\275l\"\205\275x\357\336\274?a+>\016m\017\276\354\354(\275\300\"\246\273\214H[=W\032\023\275\222I\r\276\340\367\217=E\r\240=\326\003\350=\345\276\007\276\350\230\250<\317H\024>^\252\r\276\'\021\266\275,\rg=|U$>*\001\035>\020\345c\274.8w\275\033\243\330=\350\222\332\275\233\327\206\275\356l\356=9\346\263=X\034\315\2740\315\307\274\251\030\021\276\210\002\260\274\200\021\245<z9\344=V|\272=\0028\345=\035\310\002\276r\333\251=@\241\026;\315\n3>@\211\327\273\303\2271>^I\316=\030O\022\276\200\005\367=\344\320\372\275\236R\340=$\253\322\274\261\276\360\275\252cg\274\364\003\033<\0070\017>\001\306,>\021\016\024\276\177!\317\275\3456\203<)(\362\275h\014\022\276m6\314=\211\177Q=\260*a=\000\2565;\247\007\013>\340f\000\276K\256\013>\375\022\022>\004R\214=\030\270A\275J\'\317=\332\177\323\275\037\263\244\275\276%\247=$\3574\276\332\321\001\276\314Zp\275\345m4\276\332\216/<NM\225=\376\352\273=\006\302 =\230\226\002\276\310\364\003>6\200\254=\n\217\357=\233\347\007\274m\376\267\274\212F\360\275\005\322\207\275\351\252\325\273\367\005\202\275\371\274,\276\250\265\314\275\177]&\276\265 \032\276%m\271\275]\271\027>k\027\260\275\323\333O<\3737\033>\n4\233=\301\344\270<{\200\000>\210G\031\276s\332)>\"\314\023>\340j+>D\001\201<\214S\017>^U*<\322\372u\275,\366\350=\302\224*\276P;\326\275/\243\241\275O\251\272\275\255\223\311\274\342\307\267<l\003\256\274\242\246h\275\336\230t\275\327T\326<hH\t=\215\002\213\275q\\\"\276\240D\370<\222\350\243=\233\310\210=;*\321\2754,\303\275<\177\002>\320*\224\275\350\365n\275\301\240\220\275!\245\021>\366\333\020\276W\rr\272\336\221=\275\361\220\005>\324`)\2767\310\016>3x\030\276\202.\344=$\255\035\275\010b\321\275\373\332\203\275j +\276\265\002\362\275\1774\211=\361\200\271\275\000H\026>\020\210\313=\235\355\034\276\352\246\316=/F\331\273\237\336$>@\274a=D\334\000\276(\253\020=V\245\226=\203U\t>\352=\313=\262\333\377\275r\006\376\2750\310\020=\024-5\275\271\022\016>\355f\240\275 Z\235;0O\017\2747\235\032>\220\247\271\275\225\243\003\276C\024!>-\210\305\274=\261U\274&s(\276pu\024>O\033)>s\264\t\275\210l,\275\342\310\246\274\374\364\346<\'\303\351\274R#\030\276\354\007\350=\235\021\352\275\203\377;\274\213\214\247\2751\001\036>\300\247\326\273\271\376\257\275>\227j\275\226;\373=\374\211M=\340\007\022<\316g\330\275\020\221[\275\346\345\327=\304}\017\276p\251\257<\t\\\"\276^[\220=g\266\023\276\374_\"=\325\205\252;R\205\022\276\315\355*>\362\214\245\275\265\031\002=\351N3\276\323\256\022=\307\317O\275)s\004>\357%\351=P\216\233\275\212(]\275 M\316\275\376;\304=J\367*=p\212\374=\320\374\037\276\201\216 \276Z\';>6\022.>\333\246\266=\365\361\351\274o\344 \275\273\221$\276)y\220\273:\263\243<\201\320\310=\322\301\016\276\243\246\"\276\240\377\212<\006\230\337\275I|\351=\005\017r\275d\277^=\313S\021>6\222\370=\020\327\353\275\273\314\216;\356\330\335\275\270b\266\275\216\262\n>\325\316\341=\324\262\027\275\242&\215=\304TB\272\203\204_=\000c!>\321D^<\235\353\303=\304>\222\275X\347\033\276\2420\375=\371\376/>\375\020\266\275H\224\314\275[D\001\276A\037\212\274T\255\025\275b,*\276\250Yu=\0324.\276\306\313R=\301\325\024>\331\234&\276\026\212\231\275jQ\371\275\262\351\241=\003\250\202\275\033\377\037\276Q\225\004\275\024\212;=n\257#>\360\202r=x\364\016\276g:\334\275\362$8>V> \274\270\312\241\275\004\216\324\273n\346\006\276\022\325\366=1\327\325\275T\007f=\266_\341=h\3575\275\274\027\021\276\340m\013\274]\n\025>\204mb\275\021\032\n>a\347\017\276\037\031/> \001\245;\240\377\347;\357\305\325\275\022h\372=\201\035M\274N!\220<i\016\243;\312\2675>P\346W=\343>1\276\354w\021>\203gR\274f\224\327\275\261\243\315\275{\026\356\275\001\323\004\276\240\2005\276]/r\275\245\212\232;\365\2414=.\247d\275P\215\340<\354\001 \276\356\t\t\276\300\023\235\273\264\366\004=\214\2304\275\340\231\354\274\340\000\374\273.\316\330=i\246/>\030\217\217<l\337\364\275\340\251\334<\031\031!\276\374\250\017\275\370\236\376<\014\n\004=\256W\r\276\335\362^\275\354\224\262=\302\204\241\275\3229\037\276\367n\234=}t*>\322\341\n\276\232\324\271=\311\231\205<LO\300=\300\364#=\224\302\342\275\320Ow\274\200\235_=\213\037\367=\334\356\033=LO\344=\366\357\237=7# >\252\025\210=\322\273\231=\306:\211=\372\363\033\276\306\366\307\275i?\346=U\2000>{\017\017\276?e%>y\356,\276\037\332;=\372\274\234=\267\213\034\276a\252\221\275\203~\025=[\r\224\275~7\216\275\002\240\010\276\322\271\264<\367ra\275\014\245N\2750\272\226<4\253\356\275\331\272\026<\2266\256=@\223\t>\340\241\222;\252H\352<\204{\035\276;^>\275Gd\350=\342\350\007\276\2041\340=\346-\250=\017\275\026\276\032%\353=\005s\027>\356\000\207<\033Q5>\353\256w\275\213\227\301\274\"+\343=\036p1\276s\217\253\275\344N=\275\320\244\231\275!\207\032>W\014(>\307\034\216\2750u\265\274m\215\213\275jY\363=\260V\017\275\267\'&\276V\013*>\373Z\352;\026r<\274\243c\307\275\3333\020>`\212#=\212P\227=>\014\230=\3405\017<\220\212\312<n\005\356=\266j\206=\320\014\265\274\027;\250\275h\275\013\2768\t\227\275\376\271\365=:\255\233=#q/\276\225\324 >\\X\037=\216\323\007\276\317\271\345=~\230\301=\253\021\'\276]\313.>\363\323\013>\232\316\343=\032B\031\275\000#\256\275\361\207z\275w\305\375<\243\016\352\275\217\212\000>\275\2453\2764l \276\214\305y=\314\204\245\275\306\247\273=\360!\337\274\223s\024\276I\335\003>;\2271\276 \356\302<\225\356\271\275A\217+\276;\340\034>\207\004/\276\033R\'>\004\2313=G;$\276\032\332\336=\230\236\365<\252\307\241\275\270c\333\274\355\302\354=/\355\036>FzM=\377\2231\276\361\243 \276\245\207\005>\333>\215:\r\022\366\275`\377\262=\350Q\'>iC\020\276\365g\037\276\354\354)\276\007\323\233=\234\370\237=?<\246\275\225\244\006\276\346Z\'\276\346\006\t\276\341\346n\2758\024\320<\216\232\202<y\206\232\275\355\263\007<c^)\275[l(>\256\225\004\275\013\264\022=\020\352\372=x\264\244\275z\200\367=vC\204\274\223\363\030>\374\335\032=\347.{\273O\014U\274\360\305]\275\234\016\002\276\373.\277\275\332xP=\345\204\010\276\031\211\332\275\243\307\222\275\2522\221\275\247\004\031\276q\351\352=\nS\346\274\305b\030\276\0306\036>\270\0204\275p\323\204=\216\223%\276\317[\006>\367?1>>\271\003\274\022Y\331=b\336d<[\341\210\275\231\034\n\275X\264\001\276\246\311\376\272\177\376\236=u\317\006>\355c*\276)%\t\276>\231\367=\274\362\304=|\333!\276O\344\234=\200\302B\275\326J\021>\356qW\275\311\021\317<g<\022>C\353\216\274\253\367.\276\271\271\235<LX\003=\220\372Z<\010\035\'\276`\215\254;\260\3238\274\241\255\032>\352\222\342=\3348h=\232\225\016\276\024\2763\276\374g\375\275?x\245\275HF\224\274f\350\202=\316\177#\276\246\207\362=n\027r=\031b\201=Az\335=U\035\237\275\342-\213=B\035\324\275\t\352\304=\271\265\033\276\245\323\'\276\234q\">\177{\022\275kk\262=\276L\027=\203\336*\275JJ\014<\222}\233\274O\331\201\2758\355\311<\200\241\314:\265\371,>\\\205c\2752\236\316\275Q,3\276\202\261\202\275\323\303)>[\361\362\275\316\235a\275\\\001T\275Gi\026\276\265\310/\276K\265\001\276\242\221\341=D}\376\273\"a\331=DA\330\275Q\333\321=\014*\031>\204\251B<\310\274\315=\027\256\372\275\000\301\005<\243g\334<Ft\203\275S\320\">\234^\000\276\344\213\314\274\365(\036>\256\025#\2769\272\371\275vn0>c\037\021>\022\323\232=\306\2162\276\242\256\204=\253\356\253\274\246\3554\276\313N\310=W\276\367\275D-\235=P\261I=Y}\332=\210Oq\275\324c$\276&\320\001\276K\260\001\276\311@/>\236\0000\276g\3772>\365xD=UE\014=8\201m=Q\273\265=\371\371x=:0\317\275\276zY\275ry\007\276\230\326\351=tt\002>R?\037=\326\341\364\275\005\223\344=\220\246\267=\345\001,>^\214\034\276\345\243i\275\347\342\007\276\246i\030\276\006\315\t\274F\005\014>r\333\310\275\363m<\276\n>\322=\0276\212\275ql\210<q\200\030=\\B\024\275\211\000\000>\031H\r>ly!=\204\274\216=\0312\010\276i\3744>\267\"\347\275!\231\376\275j\364\004\276\317\360*\274\375\206\003\276\244\213\226\275\370\254\275\275w\275\255;\000\356<>\024\355\036>D_<\2753\356\355\275\020\177\223=\026j\277=\342\252\022\276\372.\266=w\277\003>R\\\017\276J\0271\276\277\022\257\275\270\356c\2754\t\007\276\364BW\275\340\352\261<\216\302\200=\204\355N=y^.\274\023\354\"\2766b\337\275#\273u=\256[\256=\232\361\007\276p\231E\274\354O^=\321\212\336\2734\375$>:*\025>\231!\177=n\277\374\275\367\217(\276\332\346*<\313\216g=\261\031\225\275h\343/=M\206\235\275UM\324\275\355\252\037>\000\017\262\272!~\360\275PIT\275\310\320\362<i\023\263\275\030\373\274\274*\322\302\275\360k\236\274\310: \275\3142[=B\331\354=\222U\312= \250\036=0\265\010\275\365\375L\273\335u\326<8v3>\335\232\001>\313\013\022\276\0057%\275\030?/\276\023e\276=|?\372=\340b\311\275\226\325\257=\346\311\204<\325:\027>\227\370Q\275*v>=\241\321\005>\270\0169\276\220\007\230\275\'\205-\276\250\213\025\276l\330\222=\304a\006<wfc=\260&\007=~\346\331\274?\374L=U~\331=\206\233\313\275{\213\364\274\240P\014\275\300\303)=\013\334\n>\021\231\223\275\216\241\334=\234\314\006\275P`.\276\242B\260=\320RI\275\232l\001;\352*\265<}\004\316\275\232\214\373\275-o\227=\234\351\216=\227\345\370=\177\277\364\275\220\244\313\274@\325\271\274\262\030\311=\2545\343\275\035\350,>\344\226\375=\300{\205\275@m\212\275\034?X=\265h\230=\207\325\363\275\r\236\002\276\035\262\223=/\330\016\276w\324\032=\363F.>7N\266=\340;\244<\323\341\267\274\250U1\276\236\371\245\273\356\013\020\276\006I\037\276m\216$=\271\211\373<H\366\017>U\203\322\275\'\270!=\027l\271=\205\331\353\275@\216\">\000\226l=\220\352\347\275P\033g\275\204jr=\304X\353\275\002(\177\275:\231\265=#\277\032\2766\213\354=*)\365=`\002\371\274\211\024\226\275\304\310D=\240\326\032<\346\0102\276i\321\020>\023\331\020=\177R`\275\354k\256=\001\324\377\275\235\010\313\275\213\203\030\275VX\300=qz->\355\227&\2768\341u=\377\266i\275\030Sl<\271K\025=\304\244\276<\326x\036\276\257\316\316\275\314\265\301\275\000\021$\275\364\335\036\276\025\316\031>n\223\357=t\354\034\275{\3064\276\004\304\366\2752\322\335=F\245\257=\340\177\367<\235H\">r\3042\276Bv\224\275\234\0028=X\030\032=\037l\217\275\221c\037>\230\374Q=\262\260\242=%\216\330\275G\301(>\270\030\275<\314\017\031=\374]\237\2753L)>\371\0171\276\264\t&\276\r\225\346\275\242\203}\275\337\316\'>\227\2023>\320Q\312<.\006\\\275|\333\024\276|\366\006\276\000\343U<\240b\025<n\220\234=\030\360A=\304\005\013\276q\335\020>\213\207\333\275\3225\037\276I\215\024>\250\223\272\274d>Q\275\3535->\340\0336\2742\232\017\276\240\217\330;[t\334\275\350\003\207\274\277\"\325\275\374s\037=Xb\320\274\200\245Y=\212i\311\275n\276\322=\326\274\334=/\031\006\276\234\321\024\276\347l/>\222\240\277=R\354\266=\242\021\333=\342\202\312=\200\343\"=(0\373\275\222R\244=>\261\245=?^$\276\273v.>\210\364\355\274H\246\007=\330\334\014\276(s\r=\027X\t>\004\343{=x\352\372\274\205\022\000\276\330\317\203<6*\237=\260\2257\274\362\376\331=\266\250\256=*\232\346=@\277%\273A\200!>\276C\252=\351\330\020\276]\331\033>\2546g\275p\253\n\274\232\352\227=\330\317\001\276!\335\037>\331\t\200\275\323A\">\r\234*>x\214\373\274\3472\000>\300\005\004\276K4\023\276\026\315\342=\352\276\313\275\212\014\332=\020DH<O0\037\276\343R&\276 \355R\274\022\322\006\276\2203\r\276\310\301\356<\000\250\215\273Ez\034>\243>\246\275\310\301\215\274\004\336L=T\376\"\276\273v\035>\210\2145\275@e$\276@\304n=r\215\371=w\322\002\276\200ja=\300\311\352<W00\276(\224\022\276\320~\214<$l\360\275}\223\014>\037\330\242\275\337\023\321\275\037\363\">\200\225\267;nO\303=F\363\254=T\302o\275 C~=\260\242\372<\247M\336\275\322\003\327=\306m1>\010(~=j\311\034\276 B+\276MNX\275\362\316\363\274\2343\236\274e\352.\275\037\346\234<\363Yq\275\215v\'\276`\354\273\2750\371\374\275{\010\003\274\372#\313=\302\227<=\003\264\032\276\224\324\352=mW2\276\371)l\275j\215.>\266wZ\275|).\275\022\250\223=>\002\274\275\315\276f=\002\237\324<\353^\201\275P\232\202=\237S\033>\201\316\273=\234\304\304=A\262\270=\252\374\367\275\254\033\216=\020\274\332\274\t\203\212\275(\354\217=7\361\030>\236r_\275\266c\010>@\254\036>\3409Y=J\310\243=\007A\303\275\005\226J=d\336\306=\265\250\023\276V\255\005>\343a\033\276\241\207,\276\373[\325=\207Nv\274\225\214\025\275\377\375+\276<\250\020>\243S\254\275g%,>\332\370\220\275\210~\315\275\3350>\274U\311\037\274\256\311\336<\321u\027\276TW\r\276\232R\031\274\251M\304\275\243\221\374\275\220\323\001=X\035&=\212p}\275\343\252n\275\034\326<\275N\306\024\276\025\345\347<\215\225z=\220\320\220\275\267^4;\241\230,>8\217\214=PN\244\275\360O/\275\016\342_\275n\002\251=q\350\">\200\202+;FV\252=\256\'\241=W\262\241\275`\211o\274#\357\025>g\215\353\275,w\034\275\364\001\016=\270P\301<\240=\343\273\243\377%\276_T\245\274Yk\323\275\004\3231>\361$\365=\236\241\200=\326\215\372\275G\020\267=\224\362\r\276\014/&\275\225I\"=\363\t\002\275\306\201\002\275x\005\314=\306\'\276=\007\275c\275\234\t;\275\014,\010\275\252{\274=\235;\230\275~\227y\275\001\235\003>\324\214x=\334\270J\275 U\205\275`\\\211\273\2007\361\275\033\341\033\276-\024\004>\310\005\255\274\331\372\000\276P\023\240\274 \342&\276\346P\343\275\306m\203\275O\2327\275\027\247)>\324,\376\275\351\345!\276\006\275\326\274\264\'\r=~\305E=\026[\265\274Vo\240=\242](>\305R\027=R\214\351\275) \013\276\227\r\300=\031k\007>\000kC<\311\377F\275!\260\371\274W\2370\276\205\006\306=xi\306\275\202\231,\276\016\254\274=\036\274\302\275Cu->\254\343\365=`\273\376\274\311wS\272\233\025\241<r\354\322=\252\356\230=1\177n=\357\210\025>z\242\302;h\'\031\276\301\020(\274vJ\311\274\267\033\241=\3245\355\275\274\006\333\2753\314\000>Q\254\303<_\034\264;\354\352\225\275\354\255^\273\245k\000\2768\341\355=\230\343\347\275\001\333\371\275\374=\003\276pz\240\275\214\264\025>8\305\345<\302\345\311\275\270\262\357<\204D\373=\303V9\275 v\204=[\217\341=X\005\023>\372\305\301\275t\376<=\207\023\307\275%\202\277\275\257\345\324<\263.\030>;\007\267\275\335\215\017\276t\025-\275 \312#>b\345\022\275\326\035&>7\0346\275\253\332}=\350gO=\210]\254=\203\356\007=\266\277\371\275\266\315\r\276\302d\266\275\262T\357=\234\357\032=\265w%\276\362\017\262\2753\376*>D\317-\275Z\264\341=\000\332\371\272 \337\350;\022\315\254=\215\261$>\0304\364<\2509\336\275Y\"-\275\272\t\330<\370\362\317<\2772\305\275\021\224\230=k\2133\274\343\026\342=Q\225\010\276\210:\362\275\321\r\024=\325\264O=l\243\033=\253\326\340\275!\260\244\275\225\372\r>\376\336*\276\321\245\025>\022\262\006\276\267\210\021>\362\207\257=\213n\000\276\220\'\231\274\232\266\302=\270L\'\276{\273\005>p\365L\274\240l\014<\347\214\033>p$m=`\311&\274\356\314|\275\310\020\"\275k\334\337=y\226\035\276\376(\217=\3642\256\274y\365\027>\271\225\000>\246\377\364\275\266\301\264<X9\333\275t\367\344<0?\241\275\373\377;=\002HV<S\340v=\035\344\312\275\000\020\340<cv\325=\302H\024>\221\344\010>\177\004\250\273SB\037\276\334\t\227\275t\225\'>@\217\034\275.\275\345\274#q$\276\277\315\373<}\177\342;N\234$>\220\326\204;\235\252\022\276X\376\261\275\200\271\247\275?\346\014\276\272\350\024>\200`\305\272\277\3259=\342\234\"\276b\337\303=\221\364\325=~\266\030\2745\277\326\275\273\250\013<\345h(>\276\241\037\276\032\032\317\274\375\"\346=_\023B=\177\212\002\276\266\213\000>\241W&\276\201\335\300\275\2479\201<\212\261x\272#Gw;\307\217\310\275\354\344\021<\366\300/\276>r\264=\004uc=Z\236\010\276\262\017J\275\350v\375\273|c\037:\273_\030>\243ip=\242]\270\2753\030p\275\330\216\215=\305\265\262=\255<1>\346H\177<\201\213\344=]\014]=1\022%>\254\007\037>ag\010=\233\277\220\274M\335\262=\353\031*>K#\024>\240f\310<\321\376\303\275\306/\260=\320\207\013\275\2605 =\311\260\300\275pR\256\275\354|\346\275K\307\240\275\244\217H=\242\007\232=\376:\351=\200\004X<\014\221\016\275\342\030\311=a\2765\275F\353\322\275g\310!\275\207X9>\2559\233\275\304I3=\3501\'\276\272@\325=U\007n<\254\340\014\276I(\320\274\324\260\004\276\302.^\273\242\3659\276ArH\275\213\321\013>\214\025F=\350p\022=\014\203\036\276\3007\266<9\332\n>X\337D\275\303\221\034>\244\201}=\020\312\330\274\352V\304=\210\324b=\346\354\317=\002O\236=T\345\036=\300\243>\2730=[\275jW~\275kM\200\275z\270\036\276.\320\010>[\325\032>\336\314\000<.07=K\201\360\274_#\037>\322\347%\276\010\322\234\275\032\007)>m\263a\275\212\320\037\275O\273\301\275\313Z\027>P\354\307\275\244\2526>\013\271\274<-\351\260\274Fq\033\276\001\026\024>\327\034\304\275|g>\2754\354\303<\023>9\276Pq\265\275\372\2249<\212`\311=@\322\027>tM\302=\370\023\257\275C\224\034\275ff\025\276\275\037\025>\341\316\243\275\354\303\354\275\037\213\320=\343a\251\275=\205x=8\2135=\331\222K\275\333\315\035=@\334\001\276\362\256\366;\342\303\210=\347\255\017<\252H\333=\211\234\271=\366|0>\306\254\371\275\001y\031\275Vh6>\016\242\267=?Q\000\276\370\260\026\276\321\241#\276\356M\313\275\274\373\351=W\r\232\275\275U_=\024\204J\275\375\255\036>\376T\264<2\372\364\275\253\3345\276\326\270\376\275)\311\300<\223\334\240\275\177f\021\276\242\350%\276&\340U\275\322\036(<\304\021\274=\335\'u=?\206\252=\321\270\377\275\346i\003\276\035,\"\276\216\202\017>s\353+>@pR\273\242\032f\275\340b\277\275\253\005\005>\351g/>\022\316#\276\236\274\301=\271+\256\275\224\205\027\275\256Sp\275\026\225\241=\032/\242\275sV\035>\026\033\310=\300w$=\364\355r=\313\341\224=\307\276\313\275K\303!>\001\317\004>I\322L\275\331\213N\275\355B\371=\232\214\332\275*V\373<\177c6>\336m\375\2757n,<\320Q\224\275\014\017\357=\347J\254=\365\256\241\275\354\"j=\242\225\346=\2464\307=\212\006 \276\314\036\203=\030\353\002\276\250\363\376\275\255\0311\276\374-A\275\231\007\323\275\260\343|=\240)\207;\020S \276\317\241\r>\340\376w=\260K.\276\216\031\t\276\373\251\036\276\344\350\025\276\035/!=\266|\371\275\\U\033>\0170\002>\213~\301<w5\214=\363\005\305=w~\241<\313M:\275?\241\276<\207h\243\275\342u\260=0\323\325=v\321\370<J&*>\351e\210\274\337\222l=zt\232\275)\336\322=\014\263)\275\3174\013\276\002\207\272\273*~\'\276\3216\256\275\215N+\276\257\221\252\2759\322\276\274\224U\217\275\257\324)\2760T\003\276\251\016+\274\376\356\204\275\303\036\024>\244\232!\276\226\364Q=(\021\363=\345\302\221\275d\351M=\316\336\005\276\323\0252\276\000\225\211\275\000:\030>\277\322\027\276e\251\001>\003\212\030\276\243\223\211=\327B\240=\377l\323\275W\023\214\275\360\330\222\2750\325!\276\325A\023\276A\304 \276a\3034\275\315;a=\246^\304\275j]\217=j\335\235=\230J\222\274\330\234y=\302A\252\274\302\311\206\275\035{\356\275}\330(=\274<\225\275\300N/\275\2500\220=x\022\037><\235$\276Y\353/>\373\302\352=89\265\275\271p\361=@\017\013>fJ\030\275\277\241\303\275\020e\022=\272\360\370\275\313\035\037\276V\242\272=\323\343\347\275\344\374>=\230\323\360\274\240@f\274H7\367\274\344\026\t\276Q\367\031>h\017\350<\342(\326\275\263\3552>\354\206-\275\226\230\342\275\367k\016\276\323q\212\275\234\351 >V0{\2742H\273=.\300+\276>A\027>\025A\331\275\257\361\236\275\342\314\024\274F\014\005>\226+\343\274\267\331?<\022\205|\275z\222\"=\023\211\"\276@i\205\273\016)\340=`(m\274L\200\023\275\200\231\214\274\016\362\035\276\300\367\221\274(n\356<H@\227<\221\362\010>s\362\005>\366\323U\275\002\357\202=\274\006S\275\270\340\256\275\330\372\007\276\222s\226=\212\026\021\276\340}/\276\273\020G\275T\002\217=\016\243\340=]\227\342<\241\305\207=7\343?=\0352[=\323\343p=\352\025\205\275t\335\213\275q\2032\276;\317\275\274.\030r=\253\220\372=\362\035\201=\273\337\337<Z\366\372=\021\224h;\301\007\017= \340a=K\005\252\275\237\033\033\275\265\255C=\332\005\022>\315\211\355=Hn\261\273\0022\344\275\312\021\253\275\262P\360\275\005\333\204=\324R#=\032y\014\275X\311\355\275i\251\354=&N\363\274\262j\345=\024^\300\275\010Q\026<\r]&>\022\003%\276y\2621>\302\032\030>*\036\262=\374\342/>\232\221U\275\n\002X\275Y\026\211\275\237\357+\276w\253H\275\350\177\371\274v\320\337\274\2140\357\274\310_$\275\355`\016\274Q\024\245\274\224\271\002\276u\300\346\272\211\322\304\275\244\010#>0\254\031>\301;\024\276\177`\215\275\346h\177<\272\256\010\276m\246\001\276\360\245O=wX\312=\340/\014\275T\272s=\310\255\013\276\235p*\276\346\006%\274\370\"\236\274r\203h<8\003s\275F\323\016\276K\247\276\274\215/\026>\250\372?\275%\242\001>cX&>\226\035\364\275\022\230\277=\247\211\002>a\311\021>Fjn\275\275\240!>W\000\r>\256\303\340=\344\346X=\342\373\302=\002\357)\276M\215\351\275n&\340\275\310\223\016>\016\305\227=-\\\017\276\300\3614\275\337\0162=XX}=7\033\365\275tK\366=\331\333\351=\226\216b\275a\315\277=x\307\313<\206]\027=l\023^=!\266\020\276\237:\265\275N\277\264=$^\177\2754\216\n=\206\252[\275\346\3322\276\323\003\034>\256F\302=\345\365\306\275\226\007\250=\272G\203=\030\203\001=\304\230Q\275\201\224 >\0000J\271\330\304\216<W\213d\275\003\226\'>U+3>\223\306\223\275Y\201\276<\014_->\352\345\016=D+1>\023\205\030>2\3372>\210r*\276@/\014\276V\262&\275\323v\003>\010FH\2751\305\005>\347\235\033=\367\3670<\324%\231\275g\262{\275\334\303\266\274;&_\2743\376\014\276\302)\307=\257\210\322\275\tL\022>\301,\025\275\010Y\023\275\3311\005\276\242K\n>\355\240\237=\261\340\014\275\026\336\320\275$\245s\275\217\231G\274(\027/\276-(*\275\340P$=y\356.>\357:\376=\343\361]=1\0100=\034\345#\276\2102\363\2742P\365\275\375\306\004\276\212\tt\275~+\211\274m\346i=\357d\365\275a{0\276\354\370:\275\226\007\037\275\361\001b=\262\3471\276\003\301\203=H\210.\276\251\301\345\275\230\027\022\276\032\016\203\275\375#\037\274\250a\237\273\307\317\316<7\275\022\276\273\3433>\264\314\014>\364\215b=\031\352\261=\032\000\324\275\326y!>\245\350\001\276n$1\276\r\353\313\275\315\r\211\275Dp\r\276\254\332\020<\370*5=\003x\022>\256\200\350\275\254\003\363\275[\353$>\220\370\023<\361\314\002\276<\207q=\224U}\275\252\355\231=\024\354t=8V\327<\023\326\375\275\271`\022>V\263\334=\274\274\222=\210Z\201<9\274\360\275\370\374\270<a\361\023\276\3076\311\273\"\035\210\272\005\340{\275\355\351\205=\334.\006\276hF\354\275M\344\033\274+\245\335\274\351\251\244<Et#\276G\"\216=)*\024\275\021X\177\275>\303\035>\276\241\003>R\014#> \031\313<?p\006><\343\200=\275\364\004\276\270>R\275\315\316\020\276\350te=T\244\034\275\000\340\325\271Pq\010<\270\207\206<\340:\270<\274\037*\276\032\340\000\276\360n\213<P\261J=H\204\177\275\244\257\t\275f\334\233=}\014\210=z}*=\307\222\013>~V\252=w\336f=\210\254->m\215:>dT\315\275\\\215\035>\323x\206=\301K\033\276\217*s\275\272\311\371\275\260\'\215<]\'\035>\316\317\232=xH\277=\344p\010\275,\366\323\274.\177\344\275\202\255\226=\320p\260=8C\211\275`\243,>\203\023\266=\337/\">\251\325\200\273\004\375==Y\3220>N\217\366\275\264L\022\275\034\277\330\274yP4\276\004;,>\321\030\332\275\226\222\375=de\246=\024w!\276a\270V\275!\360\014>\026\262\001\276\0279&\275\366I\375\275\n\025|\275\231.\277\273\240\243\334=\031\323\367\275\273\233\342\275V\027,=\354\300\006\276~r\302\275\362\307\003>\320\302\260=A\033$>\331\035\002>C\005\001>(\267\376<0\305\026;\374\261\336=@\366\367=i\302}=h\'\225\274O\377#>!h+\276\274a+=H\234\024\275\\\240\005>\274.\230\275j\307P<3\216o<*2\030\276\272#\267=\205\010\345=\216\353(=\020`\000;\340#\016>`\300\240<\022O\362=\360W\346\274\206\207\352=\245\023\000>\007\251 >\341X4\276\336n\227=\240\331\237\273d\354J=0\374\037\276t\206.\275\350\366\303\275 \3374=\350V\273<\250^\257<\000\014\230\271\311\350\004>\256\022\341=\267+w=\242\324\023<\200b\n>\022ao\274\030`\234=\255tS=\240\200\314\273~8#>\205\017\374=`z\000\275\370Bc\275b\265&>\242`\346=tu\344\274\037\326\017>\227\270\231\275Z\310\324=\251\374(>\010\322S=rq\272=\353\351\036>R\035\261=L\032%=Y\264\020>\004\034\025\275\014\016B=\303\2624>\206\361\n\276\t\357\000>\270\230\213<\213\230)\275t\0015=;\250\274\2758# >-\314\000\276{o\267=\330\312L=4\001\305\275\273U\376=\037{\372:^\276\000>\231_\037>\\2E\275\3769\327=_\375d\2758\366/\276\252\311\374=\217\3556\275\235\367/>\020\027+\276:D(\275T&p\275\242\303*\275\305E\300\2751\307}\274\202\013\016\276O\311W\275\301U\205=[\225t\275d#\232=\031\225\327\274\353\260\360=\253\016\245=\265\2031\276\356P/>\025\312\326\275%%\304\275\0349\002\276\2776\253\274\225\356\037\276|\222\004\275\031\267,\276r\221\317=\202\206\300=\005^\007\276\314\375\022=\217\254\263\274\304t\006>\033\321\001\276\264d\031\276\230<\307<R\326\340\275.\370;\273\202q\230<\346\177\001\276\262\t\343\275\253\230\322\275[K\374==\232z\273\332\267\003>\247\2141=5\236\333=\366\233\255\274z\323&>\212\0011\276`M\363=\254lB=\006k.>6sl\275\242&\031\276(\200\324\275j\361\023\276\370r\247\275\032\0241\275\335S|\275<\366\t>m\347\365<\376C\251\275\006r\304\274\355\367 \276\270\367\332<lqh\275R\202\214=\266\002\241=\271`2>\360e\301\275\326W\316=\024\336w=H\255\\=\333\033\017>\344}\367\275\230S6\275`M+<\351\3271\276 >\225<\310[7=\247\303\316\275\340\304\024\276\222\316\n\276\352\263\371\273\274\262\037\276\362!1>\016d\020\275e\275\340\275{\203h=\251[/>\027\223\031>wj\037\276&\027`\273\265K#\275\304*\034\276\005\277\021> Cy\275(8\017\275\370o\234<\362\253\226=\253\3104\276\034\252\001\275\252\r\372=\372F\000\276\360\331\206\274d\347\200={\"\013>\200\321\007=K\r\252\275\221\233,>n\272\220=39\031>{\333^\274B\024\340=\272f\231=\013\356:\275\263\n\025=\251]\311=,\344\025\276\204@j=y\236\\<\260\215\321\275Y\037\314=b;\316=)\376\355\275\020}U=\216\007\013>\367\357\216\274*\2176>\202\332\256=\'V\357\275\257\375\265\275G\215\322=\301\257\355\274\331\032\241<\214\204\001=\031\365!=\263\222\206\275a\270\371=\226\3630=\346\037\035\276\000\265/\276\035l\317\2759\314\265=\274\'\020\275\342\324\354\275\376\377\001\275~\210u\275t\335l\275\"\204\207\2729\016\370=\030\027\232\275\276\234\004>\242\010\334;\210\200-\276\276\027\352\275Hj2\276\325Q\365\275\365\306\023\275\347\376\000>\275\006\312\275\224#\016>\003f\357\275\025N\221\275R\314\013>(\310\352\275\270\027_\2757\354b\275T_\233;\246\353\326\275\237v\263\275^H\341\274\024\224\002>\324V\033\276w\014\027=\202\\\255=!\3345>\276\260\">\240\033{<~\265\254\273|\322\010\275\305\344s=\200\036\273\274$\271b;5\346\224\274<T\037\275\320\033E\273a:\272<\34268\275NP\330=;\232\001\276hE\213=0r\262\274\340\306;\274\270\022\024\275\3007\207;\036\364\317=\025\300\002\276.\013\337\275X\226\337<6\256\306=\340\257i\274\351\032\323\275{5\311\275\201;\022>\356#\333=\312\006\342=<\260\020\275\217\374\n\276\205\\\314=\347a \276ko\016>\235\321\225\274R\215\217=a\263%>\007\271\017\276\253\213(=\356\365\235=\227\005\371;8%,>\202=\036\276\202\304\265<\333\253\337=,$Z=\306\013\227=\220zY<\235k\r>\270\252\307\274\377M\220\275\034\317\037\276\252w\215=P\232!<\372\374\361=)\236\036>w\260\030>X\250\361\274p\313z\275\274\362I=\000\243\265\274\342\224q\275\345\331\215=\374q\367\275 H.\274:D\363\275\350\001\'\276\331C\024>\310\357\374\275m\347O\275h\225\343\273\275\365\354=\006\364\224=\322$/\276Hx\233\275^F\262=\036\200\177=`\245j\275\307\034$>\277\363\034>\370\270\034>\366V`=\333\033\366=G\224\367=\023\314\">x\364\032=oo\037\276\340\331\312\2752\014#\275\267\010\017\275&\010\224\275\360,8\275t\371\275\275\251I\302\274\360kT=`\312\010\274\334W\252\275\332\226\262\275\213\366\324=\201\2535=\2079\375\275\220X\002\276\312\241\021\276(\251\037=\211\304\">\260g\250\274:\224\037>\334V+\276v\020*=\252\215i\275.\331u\275@\377\267\275\023\366N\275\220\207\007>L\355\003\275\2320\362=\243\003\366=\341\204A\275Z\302A\274\2609\210\275V?X=\347\337\320\2740TB\275\201\357\350\275h\222\304\275\350\003~=n7\372\275\n\017o\275(\364\003\276\241m\364<\220\213r\274\267\202\013\275\346\014\016\276\264\021.>\257s\203=V\3240>\323<\355\275\252\257\201\275\2147w=\273 #>\351\265{\275,.\245<\231+\312\275\320\370\006\275\232\t\325=\247\332,\276\2163\250\275\020\255\322<\376/\207\275(D+=\260\364{\275\322\232\363=\020Ua\274\026\200\247=\341\033\031>\200PF<\000\253\335\274s\324-\276\3641\007>\034\\/;\206e\334\275\371k\275<|\235x=Q\026\256=pP\251\273\316\204\006>\362\354\270\275\216\3713\276\326/\320=2\325\020>VI\002=f\243$\276\027\357\215\275^\207u=A\005\031>(q\020\276Gf\242\275\263\317!>\321\337\276\275HZ\020=\010\240\335< \336B=\315\222&>\344\252L\275\240V\301\275\246\251\320=\372Al\275\204\201\017\275x\353\017\276H8\205<\013\304 \276\000\243\316;\250\024\002\275\354L\022\2758\317?\275\313!\222\275Z2\335=\022\034\263=\363\210\262\275:\273\032\276\334G\017\276M\354\005>\016\305\246=\032L\245=\272\343\256\275\230\220\023\276\251\363\255\275\200\3534=j\343\342=F\331,\2765#\321\275\264\221\204=\320Y;\275\306\340\265=\373x%>cK0\276vn\241=J%\362\275\206\347\\\275@\030L=V\313-\276m\260\202\275\220\253#\275\000u\234;\0002\017<\244\255\217=\346\247\305\275\347\270#>\006\313\220\275\\\373\'=\020\020C=*\207p\275`\302\307\273\007 \236\275\354DQ\275\270E\306\274X\344\252\274\233\331\241\275\000\350\236\272`\006\354\274\004\227\030\275\370\236E=(9\007=|\013\r\275\270\205\n\275V\365\325=\307A(>\320[\222\274~\367j\275\3300z=m\321\267\275\376\212\354=\217\307$\276\000O\334\272\365\300\037>\223\004\001>\001u3>dL\202\275\351\333\004>lE\035\276\341\027\324\275\224\034\300\275t\351\'\276v\276\020\276X\335\360\275\260\267\n\276\020\213F\275lBG\275h\271\345\275\337\205)>\256b\355\275`\323\304<\316\375\251\2752\214U\275Y6\r\276\000\332l=2\357\350=@\211\022<|f\036\276\3658 >Pdr\274\256A\256=\320\361.\276\340F\005\275\270\014\245<>2\361\275\366\254\274=2\"\335=\340\270\303;9<\024\276\350\221\354\275\000Z$=m\331\215\275\021\236\336\275\230\254\224=\020VP\274\227F\027>F\371%\2765\237\001>\221#\014>-*\010>2\363\330=\350\026\224<\342\315\010\276\243\2571>[\326\r>\364\231\022=\357\200\016>\320/\014\274\000mJ\273\323\352\002>\333\352+\276N[\312\275\260\267/<\200]/=HY\350\274\335\362\010\276r\033\245=\362\362\010>\344\254b\275\310\326E=\353\275\034\276\223\225\365\275\177\357f\275\377{\006\276\3304\361=\375\311\004\276\374\362\022\276\227\000\215=\213Q\267\274\3118\351\275O\026\267\275f \340\273\311J\303=\322%N\275\260\034\022>M\347\033>;r\323\275\004\345 \276\211\303e\274\265yW<\330\365\364<\327\035\342=\257J\345=\376 \n>\3507\300=\355\231\021>\255~\013>\006\277J\275*\340\322<\262\002/>\023\025.>\226\306\223=\010\330\227<yj:=sU\033\276\352P\366\275U\'(\276\027\355T\274-,\332=\257\376\006;\320\346\247<|\341\022\276An\027\276w\317\004\276\017\010\360\275(\263X\275\002p&\276\206\241\014<\327\341\356\275M\352\257=\236\233p\274\327\342\027>q\264N\275j\310\317=\2431\240=v;\026\275\336m\014\276f\037-\27682\270=J\225\027\276\270\374;\275*\221\034>\362\314n\274\236\316\225=v\360\320=c1*>\332$\003>\320&\253<\363\236+>\245e\362\275\022\333!>\361\300\r\276\277J\n\275\010\342\200\275\250\216\252=\371o#\276\226Q\370\274\030y+=\000\305\215\273\214\023\177=\310y\371<\236C\023\276\306M\303=/\257\030>\200\017\203\273\260y\032\276qC\000\276\306\202\377=\233H)\276C\234*\276`\262\313\274\246n\307=\312Z!\276\204\272\010>7\2477\274\262h\034\276\310\273i\275\360(\307\275\201\3422>\211\302\200\275R\323\373\2756}\016>\250\242\211=\367\331\022\276\324^\212\275(\320\'\274\350\272\307\274H\244\r\276G\235\310\275\250C\373<\211E\005>\261\243\203\275\256\203\270=\004\313\356\275\321\226\014\276\252\206\206\275\361D\302\275\203/\n>\325\374\024\276\020^\251\275\356\201\324=z\304\246\275 [\203\273`+9<\222\204\373\275O\252v<n\201\240=\220\232Y\274\322\372\200\274A\334\216\275\272f\261=`\002\301=\035xn\275\260\337\343\273\367\304\010\276[\000\301\275t\314\005>\224\3404\275\023\021\365\275\371G\346=J\222\004<3*\313=\331 \336=%V\337<Y_\374=\336r\036>F\367\225\275\177l\014=\260/5\275\374\325\215=.\365s\275\337\367\234=\221b%=t\266/=8p\222\275\016\267\336\274T\257,\276\231\222\276\275\202\212\326=\000\356\016;\317\312\312\275\374*\201<\177o\265\273\303S\232=\'\003I\275\245\306\315\275<\200$>\224\374->gS\'>\253(\253=F\327\326=\2142\256=\013\276,\2750j\016<\370R\316<\234;(>\250K:>\367\310\031>\013\254\333=\265\326-\276\225\214*\276\01740\275\234Ak\275,\225N\275\244_&=\336\2378\274_\337\251\275\206~\373=\366\003\001\276\003ub;\236\207\203\275\313q\351\275\200B\372\265x=\\=4\032\246\275\340\036\027<\227\026\333\275\262\334h\275\231.\177<\332x =\260\345\014>\366\304\t\275 \200\024>\032\346\016>\037I9>\200\0308\274\256\353\272=V\235\206\275t\370J=N\210b\275>g\033\276\226\\|\275\310\312\310\274\023F\206\275r\313\316=h\312g=\362\251\261=\227\177\023\276\364cs\275\000\013\275<l\254\t\276\026\177\337\273\252\216\254\275\213\331\325\275C2\031\276K\006$\276\206\017&>U/\247\275e\373\263\272\305=6<\367\376\244\274N\251\001>\361\345\253\274\261\305\335=\266\350\003\276\265\313\314\275\231\340[\274`\317\206\273\312O\230=\006\217\376=lU\020=\207i4>\236\263\367=\000\240\034=6H\030\276\227_\r>\372\351\303\275\r\\\025>\004\001Z= [\006=\020?C<Vx4\276\022Y\026\276\223\263&\2760;\204=X\223O\275\314!\302=>?\363=c\010\311\275\240z\"\276\356\211M=\247k&;10&>\302C\220<pD\013\274\312\021\367\275\230\361\2329*\304)>\203\217\330\273\202\'\245\274\2161\242=\277\331\260<3\225\325\275\2511\325\275udo\274\010\300\014\275W3\346\275\331\244\273=\"@\246=5\346\027\276\200\032\033=\007\357\016>\233<\347\274#\303I\275\310\374:=\020r\031\275C\253\">7\n\353=\344\277t\275k\224\r>\360\005\312\273\024\315\346=\314>\203=\004&$>\312L.\275\364\305\316<H<\351\274\274\246\266=\373>\023\276\354\210\\\275\010\260\357\275P\333\376\274(\260\030\276\331l\t\276\360?\334\274j\023\375\275\345$\005\276P\374\217\274\3352\006>P3\217\275w}\026>\236\022\375=6\320\332=Z\177\007\276\222\003>=`\324\353=\214c\232=9\366\276\275\246\256\033>\227\310\031>\222Xl\275\272p\325\275\217\225\000>gA\037\276EQQ=3\343\031\273:\377\203\275\002\003\226=\261Z\256\274\217\\\360\275f\035\353=\026\032\237\275\335\222\310\273\265\310->\204H-\275\340e\261;R\216\037\276\363L#\276\220\010?\275\36081=I[\036>\356\n\266=\335\263\004>z!\301=:;\212=G\262 \276\220\370>=jF\272= #\210\273G\n%\276:\014\004\275LK)\275\262)4>\266{\272=\210\234\200\275_\031\022\276\213\226\001>O\310\001>\377:\027<\273\321#>\\8\322\275/_\251\272\233@\316\274\211Z\335\275\177\024\r=\231\245\322\275\367\002\024>\322\312\242=\222\017\367=\264b)\275\016\210\213=\342\352\300=M\007\257\275\215j\327\275&e\254=\000\035\256\274$m\n\276\272O\321=\345\300\034\276\366\307\335=\020\264\034=\346\242\017\276\232l\265=\366\367\021\276\rE\203\275\2709\210<\230\266\303<F7)\276XYf=R\366\352=+$\262\275\021Z\030>\271\276\254\275\255\255\262\275\266\275\016\276PP\005\274H\254\204=\365F2>\333\355\206\275\232>\353\275\336@\356\275\320\220\244\274`\360\235<\t]4>\024\025*=\204\217;\275\205\374\272\275\000\017;=\320\244\031\276x\213G=k\367\354\275\332e\357\275\002&\312\275\020#\014=\314\260>=\320\211H=\216/\243= \215$\276\026\341\244=\n\224\r\276p\237#\276\006\347\223=\324\241\037=\333\326\336\275\241\025+\276\232\023\311=\364@<\275\206J&\276\374->==\375\007>*\273\255=\354\026$=\200\212\236;A\330\023\276\260\223\326\274\263\336\033>J*\251\275v\372\230=p\210\205=Ry\322=\262\020\272=\000\300\264\273\200.\345<\036\022\251=!\317#>\320\376\305<\357\345\273\275\252)\330=`\"\354\274a\027\021>\026;\224=\220\263\361\274b\273\337=\372\355\320=rO\331=\360\264\310<\200Vh=\240\273\n=4\306W=6\013\305=^Z(\276W\255\027>\002S\320\275o\3610>\036T\365=U\006\252\275\245\317\013\276\263\336\305\2756\t}\275\3211\">j\305\323=\302>\217=\262\244\265= &I\275\245x,>\332O\377=\374F\216=7S >\260b\021\276W\360\324\275\212\253\r\276\345q\016>*\346\254\275\234\260M=\240\370\262\274\267s4>\304\\&\276\332\343\262=\023a\021>pu4\274e\2160>X\262\013\276s\207\317\275\273\325\304\275\000\006\013\272\260?T\274\316\034q\275\00062=\300J\344\273\335\353*>\207\236\002>{\320\035\276@\022\036\276dw`=R\220\264=\255\264)>\233\2320\276\250^%\275\370\3018=\242o\356=\023I\032\276\223-\335\2757\302\274\275\253K\233\275YU\300\275t\356\r>\"\364\243\275\321\'\360\275\222zD<\003\336\337\275_\2057<F\213\317\274\n\025\016<\004\022U\275Ap\r>\217\270\326\275]\202\023>\336\325\r\276\t>\244\275_\250\341\275\002\222z\274\177\333\342\275\334\3164\275\3774$>,U\337\275\372s\371=D?)>}\273\303=`,\224\275\345\030:\275\021\214?\275~\r\374=\264\211q\275\240f\023=Zx\352\275\036Y1>\023\252\026\276\2262\223;\276\232#\276\201j\352=\345S\311=\177!\215=\351w\017>yw\254\274\014\205+\275%\273t\275\273\013\370=\311J\030\276+\212\351=\210\373\356=\243\334\247\275\275xD=\215\350?=\232\022\243\275\023j\023>Q\215\304\275\201\341]\275\274\030\016\275<\335\021=\373\221\007=\367\330\266\275I\231\020\276\200P\236<\270\275\213=C\270\227=\240p\023\274\000\224\035>:w\033\276\215\227\212\275\331U\013>\210\271\003\276U\302\257\275\2132\330\275\204=\244<\237\242\t\276\252\262*>\260\250V=\365\272A\275\013\206\361<\025\177!>\260\235I<\032\273\304=Vl\242=\000\023\267;z?\263=\342\350\347\275\215\254\024>\221D\234\275\223}\255\275CX4\276\300\367\274<:c\307=\366\346\373=\206\022w\275z\226\244=\177\265\321\275\026\215\242\274\233\223.\276\337\270+>\033\226\305\274\374y\003>\274\014\204\275x6\203<\260K<=\321%\325=\201w\336=\371\260\364=q\257\327=2\343k\275j:\016>\236qX\275\236\332\260=\224p\203=\371\006\200\275\000\273\335;\206\370c\275Er\035\276\233g\020>8\233\316<0W\027\276\366I\350=\325\005\r\276\224j4\276\376\030*\276\321\014\316\275\220\254\365\274\326\326\257\2753O\024\276\300\335\n\275\363\3602>*\252.>\257F\'>\210G\n\276\216\261\202=\210?9>~\025,\276\223\270\030\276M\234\020\275\333\215\247\274vJ\217;\016\3222\275\326.\001>2\336\257<\005\275\021>d!\241\275XM\014\276Z\327k\275\340\327\321;?\002\255\275\350\037\035\276H\336\317<J\264\232<T\001\207= #s=\001t\257=O\t\262=~\377\253\275Gg\024\276\315\253\275;\204@\000>\317\216\266\275\013\026\332\274\302\006\276\275=\254\311\275?\n\031>\037S\221\275\006\360\000=\261\"\310=\337\242\353\275\001e\224\275\342.y\275\331*\255=\342k\303\275\r\256\t\276%=)\276\021\242\343<\2629\032>\217_\036\275\344)+>z\372\360\275\242\267\027\276\2409\220\275\362\241-\276ww\336=/^\000\276\212\201?=\316\r\033>o\031\250\274A{\323\275\223 \250<\340i\371=\030\306O\275\211\365\217=\376O\253=\346[*\276\334x\n\275J\031\025>J\223\031\276f\202p=\200R\371=\377\336\352\274J\342g=\215\370\215=\227\306\355;\226\261/>\257\326Z\275\307b\236\275\310\305\027\276\332\"%\276ik\'>`\212\213;\260\360;=\300\200\034;[5\t>\233\314+\276\340v\232;\304\346%\276\310\365C\275\332\016,\276]\230.>`\336\351;\017\213\014>\300w);\356\373\344=\353F\246=G\032\032\276\221\023v=-\t\r>z\356&=\361\343\356\274Wg1\276CJH=\336\221\035>Bz5>\3373\305\275o\223\031>\364\311{\27559\002>*\"\">\262\376\014\2768\301\313<0\203(\274\233@\241\275\220s==O\376\026>\202\216\316=\256\014\307=V\024\244=\272\254\267=|\304\306\275\224>==\233\342\306\275\271\364\032\276.\266\376= \236T=\224\360-\276@{\370\274\202\241\350=\200\241#\276<u\347\275 q\030>N\0005\276\034G\037>\372\320L=\341\265,>\003\020\244\275!\363\323\273\210\256?>3*;=[U\376</6G;\343\231\376\273\035\261\010>\226\217\322\274\207I\027\275p\311\033>\303{\024>\243&\'\276\205\030\002\276\274\006)\275dN\212=\252\002S\275\377)\354=v:\247=.\314\206\275\243\3120>z]\t\275.\267\320\275\005\\\026\276\271\207\235=\260jW=\270\315\204\274\026\301\274\275\253\203\323=\336P\332=\373\247\333;\347.\014\275\352l\n\276\003\365\261\275H\327\260\275`\345x=\034\204\253=\357B\371=\331\233n=\241\3132>\262y7\276\363\277\325=\347\340\207=\354\236Q\275\233n0\276O5s\275:\372u=nR\305=\013\023x;\337\3372>\177G\332\275U}\037\276G\361\235\274\311\300\016\276\264\375\'=\257\373\263\275\217\323\347\275Q\023\001=\313\'\030>\272\233l\275K\343\031>\230\017U=86\346;\tJ\353\275\207A\022>\246Y\r\276\\09\276\263\375\221<\0304\215=2U\026\276\336\231\267=1\025\213\275\234\336]=\316{\251=\200&+\276\016t\250=\273\177$>\260e\003=\007\335\341\275\222v\313=PM3<\314\361\356\275\200Uk\274x!*\276cX\007\276\337\355\327\275\224\370\230=\020|\305\275\340\346\025\274\334\360\212=\321;\257=\3229\264=\262\243\251<\300\270\306\275y0\253<-\'\006\276\003\007\306<\022\360\250=Y\005t\275\316\367\330=\354\234\201\275d\350\034\276 \230\001\27501h<\014\266\"\276x\025\326\274:g\335=\374`\223=H\254\231\275\242Ag\275\366\272\255=\350\266\244<^h\240=\177k\303\275\230\3552\2760+\267\275\007\207\320\275\270?\355\275H@\332\275@F\004\276\232{\006\2760\014x\275\271\234\027\276s\206\246=%\010\023\276\257\345\253\275\277\233\000\276w\266\027\276\322\007\203\275\304\2052=\332\303\363=9\2035>\276\357\240\275\263\205.\276\366\242\263\275\326\251\337\275\254\323\231=\230\000.\275;P\256\275\265\321\001\276\2171\340;\220\322Z<F\232\002\276\220\177\222\275J\216\332=!\254\024\276od\036\276\363\251\010\276\250\263\347\274\341h\210\275L\246\317\275\002\214\333\275\031U\014>\376\016\000\276:\003A=\306D\274\275g\374\253\275,\337\264\275\20068\276\006!Z\274:Dl\2746\005\213=\365C\374=\262\014^\272\272F\343=\177T\004\273\031!\023\275\300\200\320\275M4\357\272\246\324\030\276\255\347\300\275\234p)\276v\304\251=\320MA=\023\031\016>\270\244\216\275\206\320\262=\020\215\334\275\032\356\267\275\036\354\246=D\035\363\273\215\302*\275\347\264\023>K\033\237=F\363\216=yP\340\275Z\327\214=c\303\037>\310\322\237\2741\3043\274\217\240\005\275\324\254\326\275\020\3560\274\251\354\t=o\334:\274\246\177\332\275\376&\257=\242\226\031\276@M\213\275\255\335\036\276\010\361\250<\200t\006;\306\177\216=\300\200\350\273\214\020\004\275`\021J=\276,\275=DJ\214=q\013\022\276\304\'~\275\240\333\360\274\304\2070\275R\320\346=\005&\252\275\275\373z=8\027\030\276\313\253$\276\334\311\024=\212m\275=\205\265\322\275\263N\010\276I7\277\275\341\271\007\276\031\013\'>V\327\334\275\267\2704\276\224M\315=\237*\241<\327\231\027\2768\3137>\205O\014>y\215\">\220b\006\275\n\210\267\275\000L\366<\345\277(>\306O\377=\220\267\007=\330\353\254\275p\350\246<\350\024\341<\330\257\324\274\021\346\031\276\312\031\264=\037\2724>L\355\251\275\033\r\211\274`\013\266\2746\251\231=\371\343=>\307\3210>[\335$>\214\241\260=L\203\261=\306\322\357\272\373d\345<\232E\312\275m1\215\272\331\021\315<\016\340\363=\002\254\237\274\212\004\301<\220c\r=\023\365\334=\001\213\001>\'X\242\275\257%\233\275\365{\236\2742\236\371\275SG\'\276b|\373=\310\271)>\250#\223\274\230\343\002\271@\336\016\2769}#><?@\275\366#\315<d\357\316\273\334i\034=\305\330\020\276\221\325-\276\204{\007>9\252\003>wk,\276Z\347F=\203U.\275\310\305\002<\367\220\202=\2648\013=+\232\264=\003:\031>\"\377\262\2757\375C<0{\022\276b\223\250=2\016\001>\\\357\257=\203\204H\275U\247\006\276V\3127\276\211\230\263\275\0309\363<\226u\376=\312\\6\276\371\245\331=\"\234\014>\266\345\375<\316\3022\276n\226\237=\207\376M=X`\301\274d\216\010=yP\275=\\\034Q\275\0107\367\274\321y\323\275\214\267\026=\245:\215=\350\354B=\272Jp\275\323\337|\275K\007@\274\340\345\371\275\305\022\226\273o&\204\275>\\\351=\034\233\232\275\033\303\005>8/\330\274\200\271\202<\200R\215\272\022\001\362\275[\3111>89\304<o\007\335\275\271]\017>\216\275\346\275\360 \260\274\260o\004\275D\005\030\276D\251\212=\2658#>\272\177Q\275\r\353o\275N\252\022\276\254\370R=\017\241@\276\326D\031\275\327E\020\276xZ\214\275\23658>\177\247\363\273<j\t\275^\206\244\275\022\270\262\274w\320q=U\032\007\276\010\030\357<\t\261\010\276\027\344\037>\010\0052\275-\376\303\275\374\260\010=5>\216\275\000\323Q\274\220C\205=\026\330\322=\200P\336\273\336\260_\2750eR<\231>\323\275\010\304s=`\274,=C3\352<\220\244\024\276.Q\322=\236\017\020>\204\2705\276\000\362\"<\270hq\273\317\235\'>\212\366\336\275\267\326@\275\313?\347\275\253N\227;\375\310\277=!|\026\274\371\375b=\021\004\234=y{\033>\016\355\007\275\306R\320\274\2771\207<\034\220\216\275\360j\326;\371\010\342\273\210\343;=\231\214\007>\032i\277\274\217z\013>(\211\023>\353\243!>n\211)\276\020\003\245\275\273\331!\276H\323\277<a\0240\276\273\342*=\342\374\357=\213\n\036\276\027<\335<i\244\222\275E\2603\274\324{\361\275\250V\363=\313N\035\274\006<\242=svZ<K!\264\275\247=%>\360\311\203\274\373}\355\275?\376\026>\356\324\027\276\351ba\275\340\210\325;:\323\022>\212\317\377\275\272Z\014>z\2568>n\377\341=e\335\336=Q\026\273\275?\320\r\275O\177\367=G/\223=\262~\220<\242\276,>\212\260\342\275\310~\201=u`8\276\200\217T\273w\375\265\274\210h\366\275<\322\340=\024/\370\275\032\303q<\353\346\006>7+\001>\274+z\273\250\356\202<p\263\000>s\362Z\274Ke\">$\246X\275\207\207\247\275\310\231\354\274\276\375\337=\214^S\275\347\274.>\245\263\334\275F\344\334=\240\234\007<<\243\r\275:\'\233\2750\031\210<R\246%\276\370\314E\275br\201\2751\234C=\367\375=\274\000`9\276R9\025\276\r\242\357\275\352\334\246\275_*|\2755q\237\275\013\256,\276B\177%\276\265\352,\274\314\347q\275\351\231\020>\n\301\336<\344_g\275y\021v\275\372\323\243=}=\214\275\356\252\246=\300H\201\275\023j\346\275}\276\035>\032O\334=\200\224j;\372sj\275`\332\353\273h\2470\275\250\312\371\274@k\243;\245\320\010\276\002\210\233=\200\333\312\274\261\300X\275\350\"\317\274\260\007\346\274\373\303\242=X\323g\275z\203\224\275u\302\321<\210\r\351\274\216\204\">L\302\221:\032\360\274;\324-\031>\002\031\n\276\343\000\203\2757p\256\274cj\'>\334P\311\275\'#)>\333\321\004>\377\256\334=\207\007\035=#\311\366=\273\225}=\rR\270\275\320\253\243=\205\331z\275\276\016\365\275^\004\302=\314\333\234\275y\324Z=3i\016\276\034~1=q\003;\275\020P\214\274P\031\036=\0143E=\333\207\r\276\336\352\334=\320\264C<\241\230\206=s\215\032\275\014R\307=\n\314\275=\335Y%>\003\005\027\276\023\006\020>\237@\272\272r\362X\274dc)\276\233W\212\274z/~\275LT\027>\0031\335<\356g\322=\225\317\035\276\001\rQ=\331I\330=\023\357\013\276\001E\346=\347\025\310\275i\245g=\377Hz=\206\301\033>c\200\025\276S\334\306=\212\204\250\275}=\006\276\201>\327= \361\354\274hd\014\275\3143\347\275t@\020\275\203.)\276X\377\215\275\333\333><\313D\n>\257R\034\276\212z\361;Lq\362=\323\303$\276\214\2207\275r\376\347=\216\343\312=\253\'\n\276\237C\006>\344~\t\276p\345\231\274mT\016>\222\351\366=#}4>$}!\276\016\231\314=\336\367\311\275\020O\014<pp\342\275\000\013w\273[$\322=\'s\033>\324\331n\275\314\007\240=\rS\006\276\275\261\032>\215\222\305\275\271\210\007\275I\217\327\275b\305:>\005\263\255=Lo\270\275\342\201\002>D\350\343\275\233\353\223\275\007\375\314\275\350\261(\276\030\272{=\364\330 =\036F\n\276\004g\333\275\215$\250\275\310\277\316\275\306\037\262=\330\307\t\276\020 \257\274\350\013\220=\321\\#>\374\375l\275\026\322\257=m\204\203\275X\3360\275\326q\335=\342\340\374=\220\323\226\2745\216\231=\032k<>\272\263\356\275\3470\005=\271q\345\274\005$k<\342\t:=\336=\362=\307\361\036>.g\212=]r*>C\273\257=X\211-9\017! >\024?\002\276\261\006\353\275V\331\215\274\030\227\037>{\2072\276\356\0235\276\244\016\001\275\362!\343\275\2123\246=7\006\340=E\333h<R\326O\275\327L\363\275\270\360\322=\313\375\001=\014\013H=\207\270\'\276\341\237@=d\266\364\275ly\002=dE\024>-\203,\276h\255\033\275\2137$>8K\313=\261\213T\274\000\232\245\272\246\177\250=h\376\201=\035%\233\275!\026\006\276\275{ \276\234\302->\"\020c=\267\230\031>t\316\267\275\316L8\275N\345\244=\3738!\276=w\307=c\300\217<\032\204\223=\232 \003\276\004\255\024>\342\261\016=\025\260\367=1 \005<\302@\262\275\246a\355\275\010t\002\275\263\006\224\274\226\377\310\275\353\334&>1X1>\350X\273<\262=\313\275\332\343\216=9\316\376\275\354\316\030\276\242\031k=\320\247\204\275\036\223\024\276\363&\217=\300\262V=\233\214\322\275\260\027\217\275\020\337j\274\300\027\\;\317\361(>R\325\256=I\033#\276\210\377W\275\312\317\345=\200\014y=$\\\020\276E\333\013>\351n!>\246\255\252=x\001\234<\355\025\353\275\362\244\000>$G[\275R\035\256=\371K4=\377\310\030\276\331\244\236<\370!,\276\037\333\210\275\003:\221=\217\237\010>\346\313\022=J\316\357\2756H\032>\347(\023\276\220\251\236=@\017`<&o$\276\017^\023\276\226\227\337\275dv\030=\346N\363=M\233\023>\022\211\364=\264I+\276\353\363 >\000K\206<\274\203\204=\327\014*>\330\221W=9\310\013>\030\033\206<\"\372\220=a\274\374\275y\251\"\276\331\371\330=\r\305\205=Q&r=\360\255\374=_\323%\276\372\363#\276\323j\002>\252m\241=G\320\374\275\224I\204\274\r\270\210=C\034\017\275\023AG=\202v\r>\3158\371=\314\2747<\346V \27672\257\274\270l\225\275\\\t\'\2769\'\036> \303\037\276\313\366\244\275\222\360R=\031\264\013\276$#@\275\225`\021\273e>\033>\n@\034>\334\311\022\276v_\253=\241\253\035>\240>\206<\200\337*>p\'\351;\017\003/\276\244\333^=\013\001\301\275/I8\276\3028\303\274h/\330<\372\242%>\033\010\324=d\273\335<\335\347\031\276\022A\t\276\345\347\251\275qe\237\274\325\236+>\276\365\233=\224`\314<\271y\233=\253\324&=\275 \"\276\000\300\221\274\000j6\276\'\030\224=@Ht=6c\331\275\322<L=q\322*\276\272\030\036\276\260\262>\275A\232%\276k\253\365\275\360\003\013\275m@\037\276\210\274\327\275\375\350\334=~\352\273\275\241*\323\274N\334\234\275\n0\374\274\027\273\261<\214\246Q=8\267\022\274\344B\312=\226>\374=\266\316\252=\347w\353\275#\2460>\350m\037\276\005\r\033\276\332\376\336=\\\343S=8\333C=\350\235:\275\340\206\262\274\240!\204\275 