node {
  name: "x"
  op: "Placeholder"
  attr {
    key: "dtype"
    value {
      type: DT_FLOAT
    }
  }
  attr {
    key: "shape"
    value {
      shape {
        dim {
          size: 4000
        }
        dim {
          size: 24
        }
      }
    }
  }
}
node {
  name: "decoder/conv2d_transpose_4/Shape"
  op: "Const"
  attr {
    key: "dtype"
    value {
      type: DT_INT32
    }
  }
  attr {
    key: "value"
    value {
      tensor {
        dtype: DT_INT32
        tensor_shape {
          dim {
            size: 4
          }
        }
        tensor_content: "\240\017\000\000\004\000\000\000\004\000\000\000\010\000\000\000"
      }
    }
  }
}
node {
  name: "decoder/conv2d_transpose_4/strided_slice/stack"
  op: "Const"
  attr {
    key: "dtype"
    value {
      type: DT_INT32
    }
  }
  attr {
    key: "value"
    value {
      tensor {
        dtype: DT_INT32
        tensor_shape {
          dim {
            size: 1
          }
        }
      }
    }
  }
}
node {
  name: "decoder/conv2d_transpose_4/strided_slice/stack_1"
  op: "Const"
  attr {
    key: "dtype"
    value {
      type: DT_INT32
    }
  }
  attr {
    key: "value"
    value {
      tensor {
        dtype: DT_INT32
        tensor_shape {
          dim {
            size: 1
          }
        }
        int_val: 1
      }
    }
  }
}
node {
  name: "decoder/conv2d_transpose_4/strided_slice/stack_2"
  op: "Const"
  attr {
    key: "dtype"
    value {
      type: DT_INT32
    }
  }
  attr {
    key: "value"
    value {
      tensor {
        dtype: DT_INT32
        tensor_shape {
          dim {
            size: 1
          }
        }
        int_val: 1
      }
    }
  }
}
node {
  name: "decoder/conv2d_transpose_4/stack/1"
  op: "Const"
  attr {
    key: "dtype"
    value {
      type: DT_INT32
    }
  }
  attr {
    key: "value"
    value {
      tensor {
        dtype: DT_INT32
        tensor_shape {
        }
        int_val: 9
      }
    }
  }
}
node {
  name: "decoder/conv2d_transpose_4/stack/2"
  op: "Const"
  attr {
    key: "dtype"
    value {
      type: DT_INT32
    }
  }
  attr {
    key: "value"
    value {
      tensor {
        dtype: DT_INT32
        tensor_shape {
        }
        int_val: 9
      }
    }
  }
}
node {
  name: "decoder/conv2d_transpose_4/stack/3"
  op: "Const"
  attr {
    key: "dtype"
    value {
      type: DT_INT32
    }
  }
  attr {
    key: "value"
    value {
      tensor {
        dtype: DT_INT32
        tensor_shape {
        }
        int_val: 1
      }
    }
  }
}
node {
  name: "decoder/conv2d_transpose_4/conv2d_transpose/ReadVariableOp/resource"
  op: "Const"
  attr {
    key: "dtype"
    value {
      type: DT_FLOAT
    }
  }
  attr {
    key: "value"
    value {
      tensor {
        dtype: DT_FLOAT
        tensor_shape {
          dim {
            size: 3
          }
          dim {
            size: 3
          }
          dim {
            size: 1
          }
          dim {
            size: 8
          }
        }
        tensor_content: "\216\360\200\277t6\214\277o4Y\277OGc\277+8R\277\037\027\237\277d\314]\277W\254\224\277W\222\200>\276g)\277L\ne\277\2761\224\277s\016}\277\344\376\204\277\353,\201\277a\202\377\276\260\234\237\277wN[\277wO\232\277\261\260\231\277C|g\277\027Gh\277j\000J\277\323\333\211\277\256v\226\277\320\261X\277\312\222\244\277\321Bp\277\364\347\205\277\266\311i\277l\321\211\277]\267\234\277\316\325\213\277)\005\215\277\261\025r\277\274PP\277e\225O\277K\353Z\277\227\236\220\277\352_\237\277\177\235\234\277\260K\245\277\351^\244\277\307O\246\277\024\030a\277\313\017\213\277^\r|\277\343\375\210\277\002\357\207\277\343P\236\277$\340X\277\252\020\207\277{W\201\277\025\224\204\277P\243\242\277D\217\220\277.h\216\277O\310\224\277\372\350\250\277\342a\225\277\265\362R\277\177YR\277n\335\234\277y]\240>t\222\216\277\3778\221\277\250ld\277\014y\177\277k\257\233\277\374\034\205\277\t9\212\277\312\246\247\277"
      }
    }
  }
}
node {
  name: "decoder/dense_12/MatMul/ReadVariableOp/resource"
  op: "Const"
  attr {
    key: "dtype"
    value {
      type: DT_FLOAT
    }
  }
  attr {
    key: "value"
    value {
      tensor {
        dtype: DT_FLOAT
        tensor_shape {
          dim {
            size: 24
          }
          dim {
            size: 24
          }
        }
        tensor_content: "\372\004\034\277\234\236\210>U\330#>\221\201\025=C;\242=\243\302\267=\304\355\264>\353K;>\017\376u\277\207\303\226=\241\241o>\253=\326;sy\327=\330\377\\?\236L\"\277v)\235>\311#o?\336\275\277>\353\246\353=I;\016\277\037\213\233\277\021\321\014?\246\375\013\276-\244f?\022\205\215?m\203\177>\351\035N\276N\367\277>\353\324\313\275\221\304^>\032M\331\276\211%\007>7\021G?\017\220\305\276\367\253\361=\243\347\037>\007\003\263=CXL\277j\326 ?\033\030\177\276%1\250\277.\263\210>\343D3?\006\245C?\260\000{?\315\017\277\276\223\222\023=D\001\227?d|F?<\353\236\276\223(\205\275\235\347\376=\340\240\220>\355\376\323\274(\002d\277\210*\302\276@\226\242\277\264\227\373>}Ja>\255\032\204>%P/\276\203\344:\277\361\324.>\337\337m\276X1S?f\203\265>\'\301\221\276\232\261\367>l\323\240\277\356N4\277\302\3679?\217\276J?\206\201\007\277>N\232\276\033/\274=\346\314\322\276oj\332\2759B9\277;G7\277\343N;\275\025^\252\277\005\210\325\274\312f\253>\343\370{\276W\017\331=\202\355n?\337\3133\277\332\3726\276&7\226?\223\"c>R%\314\276\377\253\021\277~\005\200\277\177\270U\2755\000H\276Y\221E\277\302\273\022?D\312\254>\261*\221\276g\003{\276\322k\257>\201\221\301=M\026d\277$\\.\277\340Q\204\277\317Q\313>58Z\276#\254D>\226\214\212><\214\206\277\251\363H\275\027\237\363\275_\3011\277\034F>\275\265#<\276\351\365\010?I\341\217\277\000\0300=\017\327\023>\001\3275\277[m\320\276\241\365?>\r{\200\276i\342\243\277\033\304\275\273\306\265\204\276\204\340\262\276\363\323\203\276\034TC\277\357!\016?[\036\375;\316v\203=\251\227W\276\235\377\244?J\244;\277\304\264\210>\252.\227?o\334\320>O\0207\277\343\"v\276]\374\244?F\004\237\277\'\372\300>D\202\244?\3429a>Z\344\256>%\017m>\244\027\212>_\240\254=\360\032\342=\233\234b>\341\372;\276\266r\177\277\223\'\304\276[\241\220\275p \025\277\233\341\363<{q\\?)\025#\276\034\006\013\276 \225?\277v\245\357\276\244|(\276\035\364\321\276s(\201?\336\315\031\277\003/\270\276j\361\223\277\250\362\301>\275\366;>\257\223\230\276a\315\212\275\365\222S>\236^J\276H\363\317\273I\003y>\313\347\253?\030\330\255\276\333\261\323;\222T\220\276;\273?\276\261\345\244\277c8\274=\333\377\002;\033\t\216\277\266\023\010\277k\226j;\220\330\006?x\016\200?\341\340e\275\360\013\027\277\246\306~?\032\263\024\277\221\266Y>\201Vk>b\374\005\277\347^\211\275\314me\277\347\315\003\277\235Lk=h\274{?\341\026\360\276\026\312\213>xO\321\272\027\204o\276\360%O?M\372\036\2779K.\276t,\236?9\202\353\276\010\213\206\276b>\3028*p\235?\324\021\242=$\022\022\277A8S\277\300\357\273>#\227\363=\336\236\242>Wj\005=\210\367D\276\263\202\301>\3359\t>U\324\032\2756\303\200?\0316\205=,\363\231>\366\341\340>;fe=\352]\253\277\237Z\216?]bc>\372S\207?\n\310\003>\344\377A?I\254&\276\341;^?,w\211={\2539=t\t5?\2301F>\035\343I>g\345\326=v\223\245>\252\375\023\276\205\261\227=\342\362\211?\252\252k?\373\362o?\267\213O\277\017m\266\275\314\024\213\276\333<\366\275\025\224\221?\rh\272\275\024\204\247>\tT\\\277\335\321B\275,\356\261=\334 \003\277M\206a?\330\025G=\nIL\277\207a\234?\023 f>R*\262\276\260\364\255>\365\366o>\316o\216>z\200\202\276\037\232=?\3457\337<T\220\244\277\013\023\320\276\253)\333=\333^\266\275w$\265=|\2068?\205\006\t\277#\223R=\0001\203?\300\007\216>\031\304D=\206U\337\276\355v@?E\227\365>\350\344\320\276\224\013\207\277\367\031\374\273\355x >\215n\232\276\233\030\231\276\241\254$>\364Q\203\275\363\331#\277\362\201\n\277R6s\277\231r\220?5\005\027\276o\233\026\275\016`\250>\013/o\277\330\250\242\276\211\t>>\320\316z?\252\374`?4\210\007\277\212\301<?\331\207D?\367\256\212\276\301\364>?7n\210?\341\304\323=\257\212\304=\333\242\017\2752\036\237>K\022\215\275Q|0?\000\001v?_!\035>\361\304U\277\235\201p\276-\261>>\300f\273>\225\224}>2\260\243?\255\222!?\217\253\331\275k7\\?\331\265\337>G!\013?\021\210\275\275w\0053?\355\374\024>\376S\234>\203\204!\277\276<\032?\235\034\362\275\213\227\r>\227\267\016=\243gn\276\245\025^>\031\373t>\245*\027={j@\277\227\240\245=\323a\201\275{\323\264<\234\223L\276fy\207?\244\271\\\277K.\270=D^M\277\335\2615=3\346\316\275\271\212\036\275;\367C\277\277\236\026?\227\250\035\274\220uS?\355\266\274\276\302F\206>\301;1>\230\314X>\321\014m>\260<\035\276\261\300c=c3\023?\331X\243?X\302\230\275\253\302g\276\374\004\255\275\036\'\014\276t\257f\277\030\031\214>_M\303\275}\237\203?\236\3472\277\220\314\200>W\003\226\275\317s7?\357\353\346=r\333\245>]\241G?]\226$>\233\236\031\275Y`\010>\027\310(\276\021\217S\276C\334\007>S\023\351>\025:\000>\370\217v\277\375\360J\276\325\364w>\222\3603?8\317\227\276\271\352k\277[\260y<\r\255h\276\364#;?\203\345G\274\320%]\277\355\276\250;\347\256r\277\'\202L>\303\303\277\275,\232b?\367\334\023\277\177\373\263\276\347\374\224\2750\364G\276\2406\236>\363_\247\276\216\365x\277\255\3058\277\273\004\262\277\247\004\006>/\023\321=\312\243\225\276\363\211\236\275Po\202\277\365\020b\277\032o\226>&E\254\277!\301Z\276gq\206\275\265Sg\276bT\233\277\335\311\320=L\002\010\277\343=3\277\270)G\277\331\320R>\345\332\376\275:\305\257\276A<\201\276\001\213\017\277\341\3608\277\016F\024\277r/\241\277\310\020)?h\266\222>^\241\016\277\340\274N\276\345\0166\277jRD\277^M\264\276L(\224\277\342t\002\277E\323\244\276\213\2550\276K\177\230\277\3048\321\276\004$(\277\214&\227\277\346\321\315>?w\347\275\305\250\206\276Xe\003?u\206?>\227$V>2\nx\277!\277\256>\361\377\257\277\026\317\221<\252\222\245>\245WB\276w\320H\276u\270t\277\313W\323>Kj}\276\370\222\257\277\t\244O\276\241\377\304\273\343\231\200>\027u\227\277\373h\263>\217\304h>\233}O\277\350\230v?u\337x>\3515\262\276\025\246\261\275/\367\235\275\305/\352>\241\001q?\344\324\001\277\033\t\035=U\017A>\035\237w>\225^\236>\t\324\326\275\033H\226?!\257\316\275+\006\254\276\005\3552\276\357\212\364\275\317\254\004?@84>\215hO\277\025\265\214>Y3\343=\216\343s\277^`\205>_\254\357\275\215F\n>\343F\376\275\305\252d>^9\254>[hE<ovE\276E %>t!j\276\211\177\244\276\311R6>\233o\260\275)\202\007>u\023k>k$\332\274j\322\241\276\304\031\261>\257!)\276C\331\227\276\024\240\241>\273\230\347\274\275g\023>\356\205\253>5\234\313\274\211\013]\276MM`\276\007Yi\275\374$\243\276\233gG\274\304HK\277\273\251\277<\2403\250\277\345\305\314=\'\'\353\275\033\212\017\275O\206r\276{t\206\277)%\364\274;/\255\274\363t\202\277\341^\327;i\203\357;\207L\247\274\215\366a\277\343i\266\275c\224\347\274\016\270\201\277\337\031n\274e\222\206\276\353(\216\276\317=\267>\'G\036\276H\347\233>\300p\001\277\376\035\002=\315\025:\277\022\377\354>y\317\227\276=^\377\273pE\034\276\266\215\227\277\345\325\204\276\374\367\017\276c#\243\2771fv:\361;$\274\325\250\313\273\210\302\207\277\207_\236>\031\206.\274 \257\203\277"
      }
    }
  }
}
node {
  name: "decoder/dense_12/BiasAdd/ReadVariableOp/resource"
  op: "Const"
  attr {
    key: "dtype"
    value {
      type: DT_FLOAT
    }
  }
  attr {
    key: "value"
    value {
      tensor {
        dtype: DT_FLOAT
        tensor_shape {
          dim {
            size: 24
          }
        }
        tensor_content: "rX\222>\000\000\000\000\000\000\000\000g1W\275\000\000\000\000=y\206=\253\2341\277\261\301\010\273$\034\206\277\361\274a>\000\000\000\000\r\240\362=\000\000\000\000\204X\203\277\355\341T>\000\000\000\000\000\353\205\277k\342\217>#{E>\2737(=$\034\206\277\206g\231>\025\322)>$\034\206\277"
      }
    }
  }
}
node {
  name: "decoder/dense_13/MatMul/ReadVariableOp/resource"
  op: "Const"
  attr {
    key: "dtype"
    value {
      type: DT_FLOAT
    }
  }
  attr {
    key: "value"
    value {
      tensor {
        dtype: DT_FLOAT
        tensor_shape {
          dim {
            size: 24
          }
          dim {
            size: 64
          }
        }
        tensor_content: "\301#\245\2765\301\304\275\301D\226\277\271\276t>\331\361\224\277\333\177*>\223\230\204\275Ju\212\277\035\340\231\277\r\335\017\277\330\256\244\277u\241P\277T\377;\277g\031\244\277\013\346\004\276B\273\253>Z\\W\277\333^\024\277-\347\230=\343\226n>\035\236\215\277\\V\247=w\315Y\277\007\035U\277\337q\030>\231\223H>\251\037\254=U\306\220\277w\017M=\203Mq>\214\004\211>~[\211\277X\367s\277=\303\273=\265\355\244\277#\314\344=\310\204X\277\203\313V\277>Ct\276\221\370\232\277$\353\226\277\257\247X>&v\016?\013\031V>5\303}\276\335_\343\275\224\270x\277W?v\277\003,o\277\207\244\230>\375\026\241\276\347G\204\2773\247E>\002\243r\277,?b\277\240\314\200\277\024\270\236\2776\212\\\277\267s^\275\275CV>/\263\232=$F\270:\317\340\r>D\353\203>\2632\253\275\347s\244=\221\010\344\275\n)\200\276\230\274\201>\335.\010>\241\237j>\213$\201\275\317\247_>\355\340D>y\256`>\261\322v\276\375\325U\276\221\'*>\0230 =9\320\263\275\203`\240=\305\2632>C\\\232=\257\301\n>3\233\372=[N$\276\313K\224=\212D\205\276\377D\251\275\010\177\014\276_D\035\276\3434\223\275\311\245s>u\010\260\2753\210o\276\265))\276\'\020V\276\213\000\267\274X\177b\276\243\352\232=\017MR\276+\357j\276\337\2769\275\020\210\205>;\010f\274[\306\367\273}A`>$\361`\276q\315*>\366\265\203>K\226\n\275\333\303^\273\373K4<\257\362g>)\2037\276\237\213\333\275\023ib=\366eJ\276/\217:\276\351\357L>\267\000\316=\030\017\204>\245\205y>+\372q\274\nXB\276_\314)\276>\347|\276\3712a>\347%i>\033\307Q\275a\207\374\275\177\354S\276;3\342<+7\331\275\347\315\000\276\357\205\226=!A\237\275\263\364d\276K\215\332=\033\224S\274m\346c>\203\235P=;\372D\27555\001\276\027\221*\276\031Og\276{\337N\276\'\305\335=\245hG>\30392>w\211\211\275\r\204\215\275\351T9>\215\t2>\'~?\276\347\242^>\277\210h\275\371\343b\276o 8>W\271\027\275+\004\034=\203\\\022=\027k\316=\373\374z=\223O/\276\326\373v\276\003n,=?\246L\276\337W\270\275\r\276\031\276;\2715\274\345O\363\275\321\334%>\031N\035>\253\253\330=\013%{\276\375\235@>\321\370y>\253=r=\253\223F>qFy>I\331.\276M\000W>Q9$>=\037M\2765\335a>\257^c>1G\021\276\007w]\276=\000i>\231\004a>\027ic>\256\032\315\276\255\224\177>\2240x\277\036\316\234=\301\030\231\277)\250\370=O\032&\276Qp\234\277\272\206\215\277Cn\203\277f\202\206\277\237\366<\277\234I\242\277\033\037X\276\241\000=>2\312\016>\231\352y\277\023\354`\277\205\277\350=\362:\251>w\3550\2759\3126>\031/\210\277\026Z\237\277\003\036\211>{`+>\326\305\006?h3n\277_\276V>\315\216\005\274in\206>`\ni\277\376\220\217\277d\213\t\275\'\317o\277x\364\204\276\253\276\214\274\343\265\227\274\321\356\021>h\355\210\277\303\025\204\277\341j}>\245\376\362=\203\227#\276\237\222\226\276\257[\303\275\371\226\010>ej\223\277\325\343\216\277G\020\254>\000\340\221>J\217\237\277\312\317C\277\007\303u\277!P\241\277\323\273\217\274\257\037N\277\342-\206?>\332\232\276\177p\335\275\365e\010?\023\327\034?\014\206D\276q9\315>\37384>[\274%\275\335N\">Q\312\016>\267\241\330=\210\307\017\276\363\036k>\251\303\024>Y$\242\275\013\210\274\274\361\025[>\237\230\024>[\307!>{\253\203<\345\3446\276{\357\254=\333\307\364\274\203\270t=;aR=\365\360)\276u\301\342\275W\036\t>\227\">\276\333\355\310\275\223$7\276g?\263=\312\365o\276\351*:>\277)\271\275Gl\001\275\321\205e\276k\372>\276\223{f\276\013UG\276Uc\324\275I\214\177\276\005\013C\276\333\214q>\213d5\276\321\024<\276cF?=\3635\220\275+\tJ>[^\275=\323\034\265=\303\350]\275\333\301\310\273Zc\200>\004\320\203\276u\376\265\275ALc>\313\300D\276\276\0228\276\362\nk\276\033\261\303\273\2639%\276\343C\014\276=\2239>pw\200\276\312V\205>\233\020\204\275-\001\230\275\263\333\356=3k\007=\216\270\010\277\215\370\373\275\342\352J\277\032q\312>\026P\213\277\024\342\326=\237\274\266\275\t\245s\277\033Vb\277\2555\227\277ec\242\277o&\203\277R\376\226\277gzp\277B\220\\\275\355\306\320\2734\021\243\277\205\031i\277q\270a>\201mB>\006\231v\277\316\252\336>#k\233\277\252x}\277\330\224\000?\243[\021\276S:\031?\317h\246\277\202\323\022>\332\327*=\265{\247>M\245l\277\\\304j\277\364\020\207>\277\356P\277\377\210\211>\264\323\314>\356\351\240\277\357~9\276\326\"\212\277wl\226\277W\333G\275\016\323\342<o\0175\275\337\311\326\275\346\322\232=\373@\203\277\240\361d\277?\025\216\277\005\216\010?\246}+\276\247\370\242\277Y1\210\277\255\000\200\277\200\356t\277\3656\246\277\360\262\214\277\232\007\237\277]\324\211\276\035\020=>\324\306\263>\256\265\036>\030\014\237>h\036\025?G\301r\277\205\r\203\275\310hT\277\347\306M\276\007\304b\277\200\027\207\277\372%\020\277\210Ks\277\245=\214\277\267\246L\277YS^\277*Lb\277<\311[\277\353~\235\277O\324\321\276\312\233!\277\020`L\277\223\222\357\274\tk\351\275g\003\254\276\3733\226\277\243vb?nbn\277\3716g\277\263pu?.\317q\277\000\377??\224\034d\277\223LW\276[\246\232\277\253F\027?\003\010\225\277\004\314]\277\315\016\025\277=_[\277\317\203\326\276\t\205\261=\005E\214\277\326\r\n\276\272\244\226\277P\014\206\277y\246\022=:\325V\277\t\262\000<g\006(\276g\201 \277\272\203\214\277/\375\230\277\335\ro\277\226E\217?\267\242 \275\201\207~\277\004\324\217\277z\302i\277.|\241\277\343Z\244\277\265\021\202\277h\326\231\277\222\221\\\276\222n\026\277\371\240\226\276\303\334 \276\371\223\213\276a&n?>\371b\277o|D\276\245\252\210\2778\367\025?iX~\277q\212\223>f\245\356>\311\276\213\277\3324\206\277w6\233\277\236\335O\277\341>\245\277\004\365l\277\031~\215\277\253+\022?\272Y\215>\253\005\240\277\265k\202\276\252\037I>G\304%?\036\234\205\277\351\223[>HT\204\277\231\333N\277:\024\004=\263\006\352=^^\265>w y\277\346n\035?.\211\020?\'\255G\275Rbu\277\210\306\244\277x\340\333>K\232\237\277\"H\245>\342\243\273\276=\321\231\277z\254a\276:\247]\277\022(N\277l\215\373>\204)\311>\261\332\271>\234B\002>)\370\345>hI\235\277\0356w\277B\r\224\277a\231\203=\257\177\357>\\\211\205\277$\365\231\2779\372L\2770^L\277\207\314\205\277O\342M\277&Ww\277\202/\n\276\356\337\367>\225\021\307>\317B\027>\214\347\225=\267x\203>F\333\243\277\233\317\002=\242\344e\277+u\222?\224@\214\277\027\001S\277\261\031\232\277\242\213z\277+\303M\277\367\251\230\277!\303\203\277\236\322\227\277\312?`\277j\335v\276G\222\201?\330\223\231\277m\214\210\277\231\202\264\275\023\356k?\243\036c?5\207-\276\340\004\247?o\264U\277\2114M\277\373\036\245?\371\225\231\277\354U\217?\3067\214\277jJ\245?\353\306\224\277z\361\274\276X\013\232\277\274\014R\277\330\303 ?\323\032S\277zL_?{qv\277\223<[=G\350\205=W\035\202?$XY\277\231\022p?Q\036\243\277 \302D?E+\013>wj\223\277\267\027q\275R\305N\277_\332K\277L\250\233?Q\266\205?\364\341e?\2423\206\277D\346s\277\251B\200\277\213*\270=\2255f\277\361\222X\276a\364[>\315\237f?\230\272\211?\222g\243?\341\226T?\332\372`?}\205\'?1\013\200\276\031\337\224\277\314\272\031>\242\262k\2777\337U\276\243\023#=Z\236[\277\002-\203\277|\246?\277djv\2773/\210\277>\336\230\277k\232i\274C\327\230\273\301\355\226\276\204tq\277\247c\034\277\003\266X\275\250\017\213\276u\210\276\275(o\357>\274in\277\200\231\213\277\275\220\010?\374k\036\275\376\251\344>B\001\235\277w\377\223=%\311\350\276\323\207\377\275M ^\277}\215\201\277Y\034\001\276\233\376`\277\025\261\024\276\307x\t>\221\260E>\031<_\276\232(K?AwY\277\004\201M\276\220C%\277Yj4=#\307\352\275#Y\367;_\300\235\275\374\231h\277b\013\214\277F\034Q>\320\264\001\2764\345]\277y\361\220\277iF~\277\312\317\215\277+!\247\274\314\307\244\277\311S}\276\255d&\275=|\371<\317/\230>\301\211\336>T\007P\275\373z\035?\333\342\244<C\254}=\373\t\004<1Bf>\205\374$\276\321\262\034\276\031@\200\275w\333\251\275\033\370\354;{{\325\274k\023\214=\025As>\031\224\'\276\305h\353\275\357\'+>\266\356C\276\215\356[>\207<\273\275[&\332=w\0264\275Sr\343=/\034\227=\264\251i\276\013\376\272<\367\333\025>u\357\\>_3\245=\2071;\275\033%\365;\341\320(\276ci\025\275\223\224\014\275I\302\032>\277r\016\275c,\021=qk\225\275\323E\273\274\240\267#\276\335\301->\275Q%>\363\345r\275\261\t1\276\024\302\203\2763\273&=\231\035|>E\001\205\276y\337\r\276=\002\201\276Q\200o\276\253%\203\276\333I\r=\371\031@>w\222k\276\036T|\276_\370d>W\301A>\313&\222\275c\257\250\274e\355\325\275\353T\204<\201\372\302\275\r\010K\276\302\313M\276{xR<\374P\021\277\233\365\323;\266\275\242\277\345%\234>;3\214\277J\315\201?(\251\270=8\234\215\277\241*\233\2776\274c\2772\307M\277fc\216\277\335im\277\265\237\231\277\017\004\327\275x\035\t?\211^O\277\204\275p\277D\220\226>\340\221\034>q9O\277Q\246\264=\312\205\212\277E\364a\277\017\274\202\273+3\035>\341\344\344<Q\375|\277!\376\346\275\213\265;>[x\\=[B1:p\177[\277{N\277>\020y\246?(m\022?\027s)\277@_f\277\002\311X\276! r\277\340\327Q\2778\344\'>\034C\200=\355\366\353=\314\340I\276\3560\222=\203*g\277\365\341S\277\366\325\205\277\350Q\222\276\302\261\202>\244\305\215\277\235y\022\276\"$\177\277\326\306Q\277\202D{\277\017\031\203\277Z~\241\277\033\362\334=P\341\307>\247s^>\253\367\277>\274\235\226>y\325\200\275\233\340C\2751\r4>_KI>S\202\215=;\277\265\274k\326\341=sf\213\274\017\257\314\275#h\003>\023\361\264\274\311\021V>WL\200\275\277\241\375=\266>i\276;\020 \275\323\254-\2752Z\006\276%\367\342\275\303?\313\275\373O5\276\023\351\234=\213\256s=[Lj\272\023\303\321\274qdH>\007\275\260=\235\314\245\275+wK>\026\306\204>\255(\264\275M\314\274\275\273tD=[\003><\"PI\2767\322\246\275\267\200\006\275\033\324\266\273\337\203\264=[$\'\276\323\360D>\307 8>_\310\357\275O\026s>\227\317\027\275\'\272\203=\033\260`=\211ox\276\031r\354\275\361\022\016>\225\222\306\275:Lw\276\243\310\024\276:\321\017\276\273W!\275\023\236\254=\333\273K<\033\224A=mv\341\275\203\322\001\275q\325L>s\001T>\023\230\254\275#\275?=\253\226{=7\275I\277\313\224\201\275\243\316\207\277\226\303\177?}\026l\277\246\211y?\251+n\277\317Wp\277\221\223\240\277\201\264M>0\276}?\207\234\021\276\t\031\220\277k\021I>\214\020\233\277$\345s?\315\335\225\277\327\354y\275i\213w?\260\370\206?3\321}\275/\007O\276DlK?|p\217\277!\255\245\277U#\237?R\251\213?\211#P\277\3443E\277\003f\205?[\0330;\327\337\225=\224\236\242?\214\030\205?A\365d>\024\"P\277[\217\021<\357C\201?\317\000\013>\0264N\277\216 |\277\247^|?L\313\232?\322ye\277\375\216\357\275 \330@?v\312O?\266#\246\277\365\271j\277K\373]\277\353z\237\2778\327\225\277\023\2242\276X\353\216\277yhY?\205\034P\277\026\373d?#L\233\2778\033y\276\275\331\200?\246\035\217\277\002K\233\277\203\234\214?c\253w\276\300l\225\277\300r\204\276e\246\200\277\267\2130?\'[\213\277\250\206B?\257v\"?\'3K\277\017\006l\277\264\351\036\277,\202\246\277#\322\227\2778\004{\277\332~[\277\"7\217>\255\217\354>HB\212\277\353\276L\277\356\030.?\25049?&\247V\277\331\017\357\276\212sX\277\302\350y\277\333\343\004\277v\360:?\227\317\014\276D\315\216\277Mx~>\004z1?`\243\t\277\013h\300<@MR\277\336w>?3!H\275(F\r?x\336I\277\366\330\207\277\363\351\333=\305\306\200\277\210@\203\277\203\354J?\324\316-?\313\363\000?06t>\344\261W?C\242\232?9\001\177\277TF\177\277\034\200\234\276 \217\220>\376\232\236\277\013\261\372=\212\002\213\277\251w\247\277TB\240\277\263,\213\277\024(f\277m\236\035\276\351\313J?a\023\343>\355\257\342>\341\326\373>\331\332n\276s\364\216\274\303v\\=Kj\202<\233\212,=\273N\002\275\021`\025>W\242a\276g\"\n>\234$\201\276\204!%\276\351\177\316\275\373yQ\276\255o\206\275\371h0>\333\227n>\264\317\201>qwT>)\240\377\275\023\245\330=\363Xz\276\2434\226=!\002\325\275[?\023\275\343PA=\233vD\276\377\005i>\333rO=\027\353\025\275\345\323\034\276\360>>\276\375\036-\276\3261\000\276\333m\005>\341\230\377\275[\326\314;\0336\301;\233{\226;\343\277\016>\037\n9\275Y\037%\276[J\234\273\275\216v>\377\336\275=\243J:\276\247\251\347=\017\272\014>\371wU\276\203\336j=c\310\216\275\013>\203\276\373\260\216<3-d=\023\263H\276_3\326\275\347\007\311=\203jY>:\315r\276g\006n\275*\276v\276\360\215\201\276[LX\275\"\307\177\276\213\232\312<sq\031>u\367e\277[)3<s<T=V\264m?\277\022\245\277\031\302\212\277\273\007r\277\210\273\221\277\251!\206\277M\316\327\275)\345L?\305\345\030>\010\255e?\013\027\\>\335\323\224\277\367\331\244?;^\252\274\207\264\276=`\306\225\277\010X\201\277+\234\242\274/\263\312=\2344x\277\240\330S\277:Rt\277\003\320\245\277e5\221?\030*0\2763\203a?\314\213\237\277\353\246s>G$\247=\200$\204?%9\212\277\313u\010\275C5v=\271\307\233\277\273S\350\2745T\255\275\202`K?\366\206\206\277\240l\242?\331\335`\277\361\341\212?KoF=\333>\257\273\323j#\276\351\354N\277\034\371a\277iN#\276=.\256\275\332\221\202?\023u/>b\003\213\2778Vy\277${\214\277\322\365\223\277\257\tO?c\320;>CUc\2773\250\003\275\3420*\276\314~s?8sl\276\315\266\177=\323-\254\274\317\234o\277d\366\202>o\262\217\277\304\374\022\2763\r\340>\211\250\244\277\366\367\241\277\005D\203\277R\245I\277\372\340\213\277\353\036B\277\336\214\240\277\367\030\305>\267\306\340\274\232X\231\277\246\n+\277>\025\376>~\227\014?\022\330\226\277\351wp\276\327\316\231\277\216\330Y\277\314\374\210\276\251m\357>\360\273\020=\302?\200\277\341Il>f\'\227\276*^\201\276\237\347\314\275\202w\227\277\r\023\374>|\201\240\277>\236\247\2751\217C\277\014e}\2777\223\004>\221\237\231\277\267\355\225\277!\365\270\276q\034\234=`Y!?$\225\326\276\234\203\322>;\272\027\277\242Xt\277\363U\247\277\003B\221\276\023\020\004=\336\031f\277\313\3676\275\244\276\233\277\004\027\230\277\240\260s\277\322\037r\277\336K\204\277\003\223\177><)\205>\377N\265>[\035\275\275T\317\014?\302\351\223\275\275\304\022\277\007#Y\276\313\215~\277E\241\211>|\306~\277\226t\255>\316%\301>\027\221W\277\245Cd\277\225\343\026\277\232zl\277f\360\213\277\315\330\234\277\350\321Z\277t\274\014>\360\274\365>\273V\203\277\370\3653\277\311mE>q\332X>\242z\233\277\243Q|\276\317\227\215\277GtK\2775\007X=Z\262\203>\301\325\210>\265\251\236\277\352z\242\275]]\242>\225\354h\275Mu\207\277\251\336E\277{\021 >M\'\236\277;\220;\276Co\032\277Y\017\223\277+\016\257<t\241j\277\277q\244\277\337\313\213>\366\345\355>^\215\251>Y-[>\016\266\204;2\000\226\277\234p{\277\001^u\277\354\377\221\275\2533b>(\343e\277u\031\271\275V!\202?n\362\214\277\314\243U\277\361Y\224\277!B\213\277\230\006d\276\203\355(>K\0072\275\343\235=\276y\371\362=\207\203\273=\243\013\262\275\233[j\2764\027\241\277$c\356>\254\010i\277.e6\276\031\371:?\240h\224\277\022\264\216\277?\036t\277\305\"q\277\255}\224\277\231\376?\277\233d\200\277D\345\212>=\264\223>3*f?p\315(\277y\351\227>s\211\013?\n\036\226\277*\230\016\276\253\211\224\277\0000f\277\242\266\241\276\022\363\223>,w\310\276\247\031\221\277\232\367\223>60\250\272\265iU\276\276Z\212?=\003\177\277\251^&?\315K\227\275\\\246\374\275j\324$\277*\216\212\277gl\325=\270\344\205\277A\306\245\277s\022\377\275\367s\250>\265}\300>w\024[>\262\204\353>\240eS?\313sM\277\211\331o\277\030-\210\275\031g\232>\202OU?(T\200\276S\363\246\277j,l\277\243\371s\277\207qW\277\313\357\204\277\334\210^\273\251<\032?\310*\337>4^\016?\370H5?\202\'(\276\t\312|\2775\034v>\276\363j\277\205\211\231?\272\375X\277\265\375\242\277#\266E?\231\304\240\277\310\231`\277\255B\204?\036\256\246\277\270OO\277\006\353\201\277\323\307`\277\322\214\230?\350\324W\277/\003\214\277\003\223\311=\242\302\216\277\245\235\227?Y\213\202\277\236tX?(C`\277\255\207\203\277\342\333e?1\030P\277\342\001\240?\"\365\201\277\003\263d?\344Z}\277\021=\213?B\013[?k\346\211\277\245\304r?\t`c\277\332\303\217?b\365H\277\341\014r\277\033\211\337\273e~T\277\347\254U\277\336\000\230?\350\207\207\2773\003k?\365:\253\275Z[V?oDI\277\344\314\214\277\236Qr\277\325\234\240?\t\355X?\253#n\277CDF\276\356\210\207\277?i\235\277\002`\206\2777\377\200\277\351\234\217\277\177\334\036>\306Wc\277\341\225u?\313\264f?HD\231?!\303O?\035\323\373=\331\350F\276s!\237\277\203Z\250>P\355\232\277\r\313+\276\346\350t>\373C\221\277\032\266\202\277\254\256[\277\036\324\220\277\331\266X\277\257\220l\277}\215u>\2709\006=\2665\204>\025\375\203\277\356Y]\277\275\270\354\275#\027\272=\261\2122\276\267\226\252>O\241k\277RT\225\277Wn\332\273<^\223</\214x>9\021n\277\272s\247<v\001\000\276\324\311\265\276,[\211\277\356\250Y\2775M8>h\266t\277\335H5>;\2638\275\315\022G\276\333\233b\273\374)b\276\331\007\232\277\345\300M\274\305\027\231\275\362\316\214>vJ\233>\300\245\036\273\350\346\231\277\023J\227\277\203\333\220\277S\311\216>\365\354a>\303\2671\275\322wL\277\345\227\222\277\371ji>\316`\004\276\225^\177\277\'\n\201\276\000*G>\353\365\004\276\274M1>\252\247\261>P6\030>ol\270;\305\301\371\275[\272f;\364\211{\277\251p(>\365L\246\277\321_\217>J\r\210>\343\371\246\277syH?\261\tV\277_\304\210\277\350\210;\276} T\277\t\334\225\277\357q\313=\273\266\004?\357\007d?\307\307&\277\'\377\266>I\016\020>;K\332\275\260S\310\276\212\273g?\256\207k\277\367A\304\275(\371G\275}\313J\276\247\371S>)\3236>\333\020\016?\223\305\201=Gh!\276\325>y\2773\322\205>H\022\203\276\025\3221<\036\220\003\277#\244J\2771q)\276\037\347\222\277\221_|\277\361\304\244= \342\007?\364\213m;\345\213#=}\364\353=6\n{\277e\nq\277\221\234I\277E\203Y\275\376\326\222>\275\337N\277[\220t\273^\230n\277\331ha\277\333\t\213\277\321\365\216?\202{i\277;Kv<\\\014\317>\333B\237>\226\270\206>N\334\360>\374\2301>\030\340\235\277\3035\345=\267\335z\277\226(d?.u\222\277\027G\240\277\356\301\177?\340\253P\277r\006\200\277\372\370\223\277\261\356\210\277\352p|\277DVT\277\032,\237\277\375F\225?\374ql\277\001a\203\277\315\252\312\275\212\226\202?\203\350\222?\317\275\211\277\370go?\317,y\277\250S\245\277\3313\243?c\365\242\277\364\350\216?\345\366\240\277\035j[?\362\274\226\277\347RU?(\017\205\277\204\241b\277\r%\234\277hE\200\277\\v|?F\n\234\277\355\003K\277j/U\276\375R\230\277soY\277\"\n\212?\'7d\277\'\320M?\353\3236\276\016\000\213?\335H\200?\232\346{\277\355\353\177\277\212\021\227?\033\315\216?\264a\205\277)\031\016\276k\n\232\277\025\227\221\277\363\313\202\277\354\'\225\277O\316\241\277[2\333:\031\225\226?f-\210?/8\207?z~P\277\323)P?"
      }
    }
  }
}
node {
  name: "decoder/dense_13/BiasAdd/ReadVariableOp/resource"
  op: "Const"
  attr {
    key: "dtype"
    value {
      type: DT_FLOAT
    }
  }
  attr {
    key: "value"
    value {
      tensor {
        dtype: DT_FLOAT
        tensor_shape {
          dim {
            size: 64
          }
        }
        tensor_content: "\303\373\334\276\000\000\000\000$\034\206\277\333\302\250>$\034\206\277\363\020+\276\237\221\223>$\034\206\277$\034\206\277\377\214\177\277$\034\206\277 \377\204\277$\034\206\277\304\365\203\277E\'\244>\364\023r=$\034\206\277\017\3267\277\003)\240>\233\330\243>\010;\203\277\317\n\271>$\034\206\277$\034\206\277_\363\222>r\222@>W\351\252>$\034\206\277\317a\245>\177\215%>\314\335\313</\024\202\277$\034\206\277\207Vr>$\034\206\277\353z\230>\371\274\272\276\204\315\205\277\000\000\000\000$\034\206\277$\034\206\277\007\231\030>\303Y\001>\217w\240>\342\370\260\273)\377\245>[\177\204\277$\034\206\277$\034\206\277k\375\251>\237\335\227>$\034\206\277,\367\200\277\344~\205\277$\034\206\277$\034\206\277$\034\206\277$\034\206\277\256q\316\273\005\302\201>;\"\260>C\203\204>\231\227c>\253\347\256>"
      }
    }
  }
}
node {
  name: "decoder/dense_14/MatMul/ReadVariableOp/resource"
  op: "Const"
  attr {
    key: "dtype"
    value {
      type: DT_FLOAT
    }
  }
  attr {
    key: "value"
    value {
      tensor {
        dtype: DT_FLOAT
        tensor_shape {
          dim {
            size: 64
          }
          dim {
            size: 128
          }
        }
        tensor_content: "\003+y?\220\236\216\277\022Z\221?\027 L\275+}\220\277\273\366\317\274\034\201\223\277\214&\221?\377\223\223?&\266z\277\210\024b\277\224/j?\"3]\277\313\'\212\277?\232\003\275\307\313)\276\025H\204?\207h\231\277J`b\277\374\262\217?\034m)>\276/\210?Dd\217\277#\213u?\220xe\277c\263\211\277\247\373\214\277\222\343o\277<\305p\277{\003\230\277\251\010\310\275\331%\027?\2175\215?OUh?9N\213?\007\235e\277\354[\207\277\010\337\232\277R\353\212\277\316oi\277\273\375\214?\301\276\326=\245\354\220\277\260\323~\277\350\236}\277\236\331j\277\325\366b\277\305\216\202?9\346\236=\353H\215?&\020a\277\374h\225\277?\034y\277h\240\202\277\000\272e?\316\322\200?\227\377\226?#\014`?\224\014m\277\363i\203\277\207$t\277\375\026\207\2779)p\275.\305\224\275v\242\220?\263\037\210\277\030\357m\277\272b\232\277``\201\277\033\340\201\2779\225b?\032\210\214?\373\006v=)\312\217?bO\211\277\000j\226\277]\273\330\275\377\336m\277\033mn?\315\362{\275\232\017&\276\273\264C=\273\300a=\273\321\230\275\033\025O\273\352\322\034\276\314s\234\275K\236!=\313Tx=\370K\034>m\033\274=F?\207\275\203\200\207\274\314!\013\276{\366W\275\303N_=Z\030\206?Zg\207\277\211L\227?\366\366\221\277\210\270u\277\303\033\223<by\222\277W<\203?\343F_\277\324\026\226?\206|\216\2774ki\277/+f\277/\353\203\277\335\355r\277\323\317\210=\254[\202\275st\250<v\362\033>\313\036\'\275/st\275X\000*\276\033\3444;\243\"\324\274i\373\"\276p\030\001\276\003\365\356\274Q\373\314=\343E\371<{\\\216;\326\354\036\276\355[\346=|\307 >r\006\212\275@?\001\276#\027\016\275c\335\367\275;\226h\274\342\017\321\275\256r%>.e\201\275w\2731\275\233L\222=C\325\224<\310\3250>\'t\360\275Q[\260=8\210\010>\333\352\212<\203HI=M\225\266=\353_\021=\r\013\226=\333\262\375;\247j\010=F\370*\276\370\203\023>\273\r\341\273!\223\241=\313\362\t\276\274\n\'\276%\203\367=\350\233\">\317\270V=\035\220\233=\213~\233\274g\n\006\275\265X\333=\243\274\307<H2\004>\254_0>\031\353\275=0\t\033>\241\177\321=\226\022\016>\333^F\273\327\000\211=S\003B\275+X\202\274\031\010l\275+\333\034<\nH\017>\021\207\255\275z\374\274\275+t\007\275*4\'>\005x\336=)\352\325\275\366~ >+\275\026=\304{\257\275y\343\245\275\322\r\021>,\227\002>\262\276\346\275[\364\013\274[4\2769\263\375\026=\377\254]=pg2>\222F\004>O\3459=\001\210\216\275Q\202\344=5q\252=\027\355F=;\364\241\273\0056\347=\310I\300\275m\000\235=\205\274\213\275*\373\034>\353\250\206\274p\271\331\275)\252\347\275{\\\271\274T\201\006>\265 \320=s\276M\275\253\020\262\274\3032\266<.4\026\276#\202\222<\2274?\275bd3>\371\266\343=\237\027\001=\37512\276\215,\376\275k\0050\274j{\027>#\206R\275\335\247\226=w\277\002\276\302\237\325\275[\363\203\274\365\362\303=\233\217\204\274c,#\276\033\275\037;\313FV\275{\225\342\275I\036\217=-\263\031\276\220x*\276\016\337\016\276\'\371\002\275\231\240\332=3\274\232\275<\247\351\275\277\357^=im\353=\210\'\026>*\033!>Q\264\n\276;\264\327;\t\247\274=\335\030\371=\323G\366\274\210\345\">\250\234\217?~\177\202\277I?l\277\367\314>=\223\322\207\277\254\023\224\277\0064{\277\261(\227?\217\321\214?\354b\213\277\315/e\277\205\007\222\277\363\002\306\274\"R\205\277>\270~\277\262\233\202\277\3123\231\277\374\035p\277\253\357\210\277z\371\207?\035g\206\2770\n\204??\270}\277\363\231a?\326\261\203\277\215J\214\277\360Y\212\277\356\353t\277F\355\200\277G\346e=\007\ro\277^\233\201?\021\251\214?0\333l?\021Jr?\004\333o\277m\021\230\277F\315\225\277\354\246w?\037\206w?7\024\232?\025\312z\275\2737\226?\225\020\222\277z\260\214\2774\247e\277\215rg\277\330-\234?\0071\305\275z\352\213?)\026`?h\225\216\277\311W\222\277\0231\203\277x\362\211\277\rz\226\277\347Z\224\277\003\201\213?\240\022\231\277\215a\201\277\215 \221\277\\\205\204\277L]\376\275\001\346\014\276\343\245\225\277\n\030f?[U\211\277a\007\206\277\307Pl\277D\366\214\277\nI\222?iC\204?&N.>\344\300\217\277E,\230\277\215%y\277\tvx\275\004\264d\277tMz?9=\227\275\003s\206=U\302y\275[\232\315\273\313\376\277\274c\014\235<\307i(=[\373\354\272kh/<\2327\001>\327\371\375\275F\342\263\275[v>9*\216\223\275\344\260\020>S\364.\275{{W\274A\320\217?\006\"u?\351t|\277b%\220\277\006\203{\277\001\264\372\275\rS\203\277\301\352\224?*\307\231?\3557\177?\234a\232\277f=~\277\n\037\203\277\306\017\227\277\322-o\277\257G?\275\343\234\324\274\307Q!\276[\006\204\2747\005Y\275\353b\275<]j\354=,\033,>\346\275\026>Ug\266\275\034\206\341\275L\277$>\272A\213\275\333\353V\275\245\360\337=\323\251\254\2742B\021>\037|;\277p<\203\277t0\220\277x(\234\275\264R\204\277\366Lu\277\007{\216\2779\033h\277\250\370\207>\243\321_\277XG\200\277\257\274\215\277\224\217\207\277_9\231\277\021\273\213\277-\323g\277\260h\222\277\261\202\204\277G\362\221\277\271N\205?\006\260\202\277)4c?\237\350~\2773V\224?\234_\177\277\271\026q\277J\351\213\277\310\251\222\277\326c\200\277\027\316\210\277\310\373\216\277k\026\'?\345\301~?Ki\226?\354\323\203?a\272\234\277\342\324\220\2774\214\202\277C\030e?\352fa?\333\375\226?-\000\026\276\303\023\205?p\252\203\277\263\023\217\277\014E\206\277w\220\177\277E\332\211?P\201,>\027\305\213?Z\033k\277c\333|\277A\201\212\277\014\036\232\277/Q\222\277\231\207\213\277Ho^\277\357\217\023?\376\376f\277Os\226\277\226\221\217\277GY\215\277\305\261\024\276\316l\267\276\343~~\277\321e\224\277\305H\234\277;S\216\277\203Hp\2772\005\211\277\020b\220?\025\205\212?g\033~=\212%y?Gpo\277\241\354\200\277\372\024\020>E\262\221\277\333\244e?J\022\250\275lY\035\276V~%>\035\203\234=\013)\365\275C\261\n\275\355\233t\275\363\266]=GK\202\275\376\375+>/\326+\275\303\207\264<s!\032\275\365B,\276{\327\365<\030)\301\275\3135\327\275\277\005\207?\234\212\217?\0068\224\277\254P\211\277\376,\234\277I-\360=\265\363\177\277\242\342\204?n\251\223?\225;\212?<,a\277\321@q\277G3b\277\033\277\232\277GDx\277n\363\037>X\344\n>q\377\310=\305\216\007\276\033\277\272\274\357y\214=\353\362X\275\317\235,=\206\214\017>\225\377\262=\261\007\372=f\366\254\275I\007\300=\223t\212<\023h\027=(Z+>\r\352\376=\303+b?b\326\211\277\237\ne\277\341\n\320=b\231l\277R\331\205\277\0130\225\277j\005\222?\272^\200?\236I\202\277\332c~\277j\002\206?\'\314\236\275\030\342_\277\326kZ\277fQ4>V\342z?\213\215\211\277\247\312j\277\217\263\231?\3331F\274I\"\201?\357<o\277j`n?J4\202\277\213K\230\277Yj\212\277\204\251\232\277\266\236\201\277\000\013\206\277[\017i\277\321\372n?\237\332\222?\277\370\220?{\234\226?\010k\177\2771\217\211\277\327K\200\277F\323\224?\010,i?q\357\177?3\002\325\274\n\313x?\206\212\214\277\256\275m\277b \226\277\320\274\214\2774\014\211?\252\225\000>?Lo?{Yz?)\245\233\277qk{\277xf\230\277jf\216\277\0277j\277?2\206\277\010S\204?/x\203\277D\254\211\277\307\267`\277\267\\\224\277\223x\347\275\234\r$>[9\223\277\217\016\224\277\002\242t\277\233\377a\277\177\003g\277s\216e\277vEy?\212\203z?9\315\001\276E7m?\217\317~\277|\234\204\277!T\333=\306\317\212\277K\265\216?N\3723\276Q\020\327\275g.D\275\267@\033\276\013$\273\2753\274\355\274vd\020\276\267|\017\276\353\316I\275+\225B<\013\003\371\274%\340\244\275\203\233\271<\333\377\177\273%}\255=P\2352\276K\373\220=\252\302o?\305x\231?\265<\205\277<[\201\277?1\223\277\023\200\037=\026H{\277\304\324\213?m\350~? \373\204?\265\210\210\277\372)\204\277\231\252\234\277\037\317\212\277>2\201\277\321\247/\276\022 \007>U7\210=)\254\323=)\024d\275+\022,\276\227\306\256\275;c\177<;\370\346\274{\376\023\276sB\036\275c\226\357\275I\301\027\276\241/\213=\255r\002\276A|\376\275\347\t:=\371\331h?\365\360\207\277\2257\212\2779\267\022\276!#\211\277\212\225\223\277\330o\200\277V\324\217?\025!\006?O\240a\277\210\t\224\277\374\274\204\277s1w\277QP\215\277&\253\226\277\211\360\214\277\032\033c?\261}\207\277\024_\230\277\243\255\230?6*\201\277rl\200?<\360\216\277\266\314k?\216Ii\277{\371z\277\230\275\214\277\004\305\212\277V!p\277\277\226{\277\177\375g\277\r:]?\'I\201?\020x\221?\311}\232?S\003\211\277C!\220\27761x\277\312\030\234?m\026q?V\307\223?\252\246\005\276\033c\200?%m\223\277\354\n\223\277\304\016\203\277\257\247d\277G\263\204?\032o-\276\302\006`?)\'\213?\300\nb\277\214\346\212\277\246Rd\277G\251f\2771\215\214\277\345i\227\277\275\013\005?\200\"p\277\373nm\277\361\364\201\277\262`\216\277yY\340=\275\307\341\276\346\365\211\277\206\364d\2775\316_\277#\203\227\277\225\377\213\277B\350\211\277\334x\203?\333\020\224?=\235%\276~0t?6\301i\277\230\261\215\277>s\037\276\337,}\277\"\310\225?\307ZO=\203\320\330\2750\303\n>O\362\024=\240\360\030>k\300q<\207a\'\275\365\257\032\276\311\353\320={\305\345;\375\327\250=\235\303\312\275\203\205\036\276\"\262\005>\236\r\037>\334\330\003>K\321i<_\343k?\367\256\214?]oq\277v\241a\277\311\270b\277\021\324U\275\223\023\200\277\220\221\220?\372\306|?l\003\220?\327:\210\2771m\177\277\372\253\204\277\254\021`\277(K\206\2774\261%\276\311\315\240=|\202 \276\253\207e\274:\2023>&p\035>\215\335\236=Km2\275k\257\001\275}P\364\275\327\254\315\275\214l\037\276E%\343=:\370\360\275\305\344\330=\323W\334<;Y\003=\335G\207\277\227l\230\277>$\231?\201\322\365\275\346\272\217\277/\014)\2764\267\224\277\332\233\214\277\004[\332>\017\227\215?\n\320b\277>\361\224\277\314\275a\277v\"\221\277\025\026e\277;sN\274\275H\217?\254\266\177\277\327\230d\277\266f\227?5\006\216=i\231\221?\306\024\202\277!\352c?\002\020\234\277\217P^\275[6b\277\3666\214\277\"`p\277P\247\224\277\226\027\245\275\340\316D?\362a\220?\347\003c\277\\\261\217?\376\301\230\277\023K\226\277(\364s\277\264\271\226\277g\034\213\277\255\'\177?\221\241\226=\177\325\212\277\177\311s\277\323(\207\277tH\232\277\324\350k\277\"\300~?W2B=b\237\230\277p\371s\277\223\272l?NR\212\277<\217\215\27785\226\277\024Xg\277\263}i\277\365X`\277\216m\220\277\237gz?\257\375\224\277\332\220\215\277Ir\335\275!\021N\276\030?x\277$\231f\277hF\205\277\341]b?]\271p?\3522\234\277\002Ar?=H\200?f@\026\276\306e\201?\025\036\230\277}\264l?%\260\364=!h\214\277\000\224\212?\002b4>\233\353L=\020a\312\275\231\267\006\276\023Cc\275+\301k=I\305\317=\210\302\213\275\257\217\013=\352p\211\275w~\345\275\000|\227\275{\206\200;/@Z=\221\375\232=\201\033\311= \225*>\246i\202?\266\307\214\277\211\224r?\020\243\204\277\010\030\220\277\321O\372=a\357\201\277\177\037i?\277\305u?\270\276\220\277\020y\222\277\331\333p\277#\300\232\277\307i\177\277\235\270\232\277\022!1>\241\3314\276\215\254\261=\237\300\200=F`#>}\372\016\276\314\326\r>\353;\341\2747Y\327\275\203;\235\275\310\367\266\275\316\262!\276\027;\033\276N\351\017>8g\252\275\333]A<#\360\310<\270\325\224?Pi\205\277\330\305\223\277\033^k<\371K\216\277\341f`\277n\350\230\277h\262\231?G\203m?\317|r\277\374\027\206\277\243\212j\277\255\372\212\277L\246}\277c\314\205?\205^\277=\031n\224?\263\347y\277i\250\223\277^\245\224?\306%\233\277\317*w?\204\353\205\277\366t\233?\250\322\227\277>\224w\277B\366\201\277)sg\2770c\206\277]\032p\277\253\017\221\277\r\016`?\206\322r?\200\235\220?\237\342\204?\022\264\204\277\212\272`\2775\231\202\277\221Tf?\2014\227?\367\207\215?#\"\323\274EH\234?\357P\214\277\307\216\207\277\036\025`\277\347#\212\277\304J\206?M\211\025\276\241\030\203?F\343u?7)\214\277%Y\213\277\343$\204\277h\257\206\277A\350\221\277\333\026\207\277J\277`\277\314v\223\277\320S\206\277\010%\205\2779\250\210\277Y\017\301\2757\0275\275\303A\204\2773\301g\277\206\000\210\277\353\031u\277Y\214\233\277\255\\\213\277c\341\221?\005\301d?\353\303\210=\341@{?v\372g\277\024\263w\277I\211\177\275\350\260q\277\236\035m?\345\347\203=\335\306\002\276\325\373\312=\"E(\276\241\253\344=\232\237\010\276\351\250\266=;\303R\274[\226\\\272#\213\255\274\001\354\204=M\025\t\276[2\3207!/)\276\377s\224=\363\231\014=R\200$>3\371\220?\321\177\230\277\243\005|\277\030\\u\277\022\221y\277\023\022\022=\205\315\214\277\266&a?\005\234\227?\2303\201?\202\032e\277\225dw\277+Vj\277\276#z\277\227\324l\277\227\310\002\275\2153\310=\353\356\035\276\013\337\331\274\333|\246:ctU\275\235\364\232=r\314#>\337\231\024=7\025%=\223\245\314\275k\312W\275+4+\2767\366\013=\266n\262\275{|\340<D\"\n\276\270\244\177?\3531\202\277=\235\201\277\202C\017\2769\212m\2779\037\222\277\342\013\204\277\213\013\205?\341a\213?q\210\225\2774\222g\277\215e`?\035@\034\276V5\234\277\002{\305\275\205\020\306=\034\274f?A\034\232\277\371\234\206\277\010\247\225?)\374\216\277\220`q?\341\377q\277\256\274c?Q\232\222\2779\242\220\277\002||\277\037\331\204\277\356\322|\277\302\241\212\277\0372\212\277\264\343r?\244m\213?F\201\202?\374Zj?`\rf\277\'\234\211\277\366\301n\277Z0\216?\032\276\212?\327\201\226? 0\t\276\355\216l?\341\337\223\277\230mk\277Wo\210\277\032]m\277\267\330}?\2532j\274\313\273\216?rM\224?\257\335\227\277Bx\210\277Q\202\221\277\007\320\231\277\\Yw?M\364n?\377\245\215?\303\010\177\277/\324`\277/\300o\277\2267c\277\205\203\247\275\263B|\275\371\005\224\277\266\212\221\277\256jd\277\312\245\207\277\224\375}\277\347j\177\277\332\375\222?\316\216\215?\007Kh=\234\033\210?\t\rt\277%\372\230\277\033\326;\275\227tx\277\034\326\227?\'4\010\276~\342\325\275?\223p=[@\200<Ab\244\275\\\202\302\275[\352$\273\373&\032=;\004\301<\305\n\330=\002\317&>\345\n\021\276\037\023u\275\252\017\035>P\332\024>\261d\270\275\265A\264=T\r_?KK\211?BUl\277\310yn\277:*\211\277\013S\r\276\256E\215\277\030\317\227?\341\211\230?\n\275\212?n\332\233\277^\372\223\277\177\247|\277\177\210\207\277\301:_\277\311\033\306\275\014\350!>\347g\000\275\217\305G\275\233Xq;[\333\256\274]\361\212=\313\367}\274\036k\027\276]k0\276\353\207(\274\360R\251\275qn\304=}\016\233\275\257\272\030\276Q\355\263=9\236\354\275_\027f=\203\321\277<\254q#>\216I\332\275\277h\000\27517\227\275?g?=\243\330+\276\377\272C?\2274\220?\360P\035>\'#3\275s\202\021\276\325\314.\276P\207_?\242\227\021\276\247\263G\275{\200\342<i\265\247=\364\305-\276\256\246\007>j\217\006>#O\034=\271\006\370=\253^\227\274c}B\275\253\361g=/\3548\275\344;\245\275\216,1>\307\301\361\275[?\321\273\'\231\304\275\224.\016>\277Rw\275B\334\336\275\332\022\020>e\351\242=QV\245\275#W\227\274\305O\352=g(\006=;\342\217\274\235\270.\276_\275\'\275[}\253\275g\221O\275\223\026\006\276\005 j\275\233\230\217<\201\237\365=5t\201\275c8\005\275\305\341\010\276\030\006\032>\213O\256<\200\210\037\276\036\2243\276\021G\252\275\370\331\031\276r,\034\276\243\272G\275eh-\276\273\262q=x\226\"\276\343\220\260<G\236\205=\022\234\005\276[\300\203\274,$\003>\274B,>\217\255a=\033b\007<GYv=a\301`\275cF\266\274[\310e\274Q\2753\276\224N(>\3761\034>\376\232#>b^)>[\350&=3\023\246\274\321\275\361=k\2738\274\243[\001=v\374\027>z%\r>v*\326\275\023\211\241\274]\352\200=\262\275\004>\261\332\335=`\274#>>\277\202\275\033\364:\2749\355\351=\005\357\035\276\031u\314=\303|\356\275\\.\000>\2254\302=\367\n\003\275\214\0334>\221\026\271=\023\321[=\215\255\002\2766\333\207\275\305p\366=\023\330\365\275I\347\205=[\304\366\274\316v\005>\250\250\r>1\207Y\275\370\270\315\275\327\315N\275\317zL\275\004\025\n>R\3571>7\265\t=\273\001}<M\322\333=u1\265= \2674>\201\247\354=\233a\310\273\274h\231?\374\332a\277\326\226\226\277m\312\212=\216\236\230\2773\223\200\277\330B_\277\215\302\232?\375\037\204?\r0\201\277}\022l\277\230\310\200\277\320L\223\277\356c\210\277\374\310\213\277\354\275U\277\234\275e?\230\343\202\277\307\337\226\2775\245h?\262%\216\277\177\025~? \312\204\277\271\212\226?:\300w\277\013\203\232\277\235/\233\277uL\203\277Z\356\223\277\256\026\231\2774\033\210\277\372S\231?b}c?\301\223\203?G\211_?\244\037v\277l\234~\277\331k\201\277zW\204?A\230\220?\033\024\234?\234\031\331\275\004\003\210?\"\\\214\277\361=n\277\216\237|\277\r\310~\277;|\211?\237\200@\275G\213\226?\362\210\215?\026It\277\310\326s\277\374g\215\277kOp\277\216?i\277\016f\215\277\236*\226?E\374_\2775\262v\277J9_\277@G\212\277\371\273\315=t\267\355\275\013\265~\277\354g\226\277.\315s\277\013Gd\277\013oz\277\326#\222\277\024\323h?:\265\200?\021\264\342\275\225\323l?\005\253\204\277\\\347\177\277$\347\004>\276\002\222\277\271\300\214?\274\025\004\276\325\363\304=\237\236q=\335?i\275\023\217\023=\212\2052\276U\362\237\275\345\010\237=\227\376;\275L\367\022\276d\236\030\276\217\032i=\233i\312;\300\334\017>K\027U\274\343`\275\274G\376\313\275\035\342y?\n\254\211?\325\346j\277\247\252\206\277CQ\207\2772|\255\275=Y\202\2770\267\232?t\206\211?\367\326\210?\261\017\211\277iD\227\277\313\324\203\277CB\230\277\364Q\221\277\323\037\361\274Qr\320=\233\005\031\273\225\333\303=.\211\277\275\333\352\\\273\324\247\036>K\035\351\274hG+>[6\324\2743&\030\275&\027\036>I\236,\276\370\211\016>.f\025>\326+\237\275\250\307\'>7Hr?\216\321\231\277\035\'l?\274\273\005\276:\027\025>\222{.\276\210\224k\277\2079\211?\037\373\202? \310\203\277\353\235\217\277\005=\206\277eh\302\275 \357\214?O\237F\275\313K\225\274\343\210\262<\337a\203\277P\304\221\277\027]}?\273F!=\341\"+\276\2720\226\277\317\204\232?\005^g\277\346\252\034>~\260\231\277a\241!\276\255\276\204\277R\252\n>\241\356\324\275;>\201?F\232\203?\352\376m\277,\036\225?\321-\211\277+V\200\277\326\236\215\277!_\367=\216\310\214\277\217)\217?\2439q\275\215\376\201\277H,p\277D\263\212\275?\224\206\277\312\274\n>-=\202?~\3550\276V\205\204?5\005\215\277w\227\215\277\374s\202\277\226\240\211\277Ra\221?#\331\220?8i\216?\361\377s?p\372\216\277\010\346g\277\025lq\277\014\315i\277%*\314=\035\361\270=)\213\216\277a\363\252=\265\371t?\211\255x?\371\014\230?\035mn\275\352\003w?\246\031g\277;)\331<{\372\216\277t\266z?qp\202?Z \025>\252\027^?\261\334\221\277\031I\321=\224\2050>v9\272\275\367\370o\275\363\221\255<\2303\036>\215A\333=\317\037\244\275\267\021\374\275W\016\242\275q\007\n\276\037#\203\275o\327;\275Y\326\214=\260\010%>\260\227\326\275v\210\004>\024\325s\277\031\202\207?\375@^?v\257\r\276[x\251\272\222\020\236\2754\214i?\317\030\226\277\360/\233?\306$|?-~\204?\212\350\231?L\230\200?\0030\264\275)\265\203\275\353\347e=\255\323\372=\215\377\331=\221\231\250\275\227.Z=K\177\266<_\'f\275{+\373\273\025C\367\275\220T\373\275\035\'\341=\251\201\035\2767\354f\275\355\363\322=\333\306\022;\333\002\222\2735M&\276\252q\225?A\374\220\277\275@\223\277\037\213\010=+L\203\277&?\227\277K\023\203\277Ws\200?\020\361\215?QEd\277\312\332e\277\343\331\201?z\312\224\277(3\227\277\204\304v\277)\331\251=L\330\220\277\343\202\222\277\2459k\277w\212q?2\027\216\277\252\230\226?\303{\177\277@\002\211?\035\225\230\277W2\204\277\014~\207\277=\274\201\277\330l\223\277\026\306\227\277^2\207\277q\021\225?\307g\212?k*h?p\225f?}\221\207\277dYx\277Wed\277\350\\{?\315/\212?\326\022m?\224t\030>Q#\206?\346C~\277\337\263`\277\265\202\200\277\253\341{\277l>\222?:A\342\275:\'h?\177\272\204?@\270d\277\033F\221\277E\364\216\277\275\353\221\277\315\311\203\277\271tm\277\024\024\212?)\215\215\277\n\274s\277\335\274o\277;\022b\277\224\016\243\275W\023\272\275\216G\226\277\314\234r\277>\221\226\277\366[\201\277\021\267q\277%C\206\277\230\252\225?\213Q\233?n\013\004>@\264\210?\177%\223\277O\361b\277\215\270\026\276W\240\216\277\035\320\233?\331y\334=\251\314\024\276\0273\310\275\363Z\274\275+\271\321<\365\207\342=5\250\267=\014/\341\275\337\217-\276\305\347\201=\032\213->(3,\2764,\t>\013\226a\275\273\304\215\275\263|\325\274\305\342\024\276\271\326\205?\341S\230?\236;k\277ao\203\277\021\325\213\277++&\274\311oy\277\360\300\215?\275\300\221?i\346\217?8[v\277\225\314\204\277M\ns\277\023[\201\277]\000\225\277[\024\241\275\333\027N=\235\322\251=#\303E=|\326%>\373\206\274\273\337\260\r\275.\327#>K\2366\275C\031\273\274\367t.\2757\276\221=\363\246\373<\211\037\335=\203g\255\275\013Ls\274}\376\020\276\232Wd\277\317st\277\357l,\275\333vs\274Sd\225=\253i\032\276\210D\227\277\230\014x\277\007\250\215?\035Ru?\255Q\333=\302\014\230\277\026\023#>\244\352*>\273f3=S\375D=9\016.\276\210o\032>\243/\201\275\337T\024\276\2673\'\276\367\266:\275PC\214\275`\014\211\275\211o\223\275\362\003\023>a\312\363=\263\240l\275\'\025\017=\201\305\317=6\330\r>\223pO=\375f~\277\025\030c?\370m\210\277\231\3132\276\216\332\004>gW,\275\023\3617=\2424\024>C\254\241<{;\342\275\317\342T=\232U\377\275\035-\375=\355\337\016\276|\325\000>\227\336\317\275\333\236j=\314\310 \276\340\312\341\275\351\271\320=\263Y\353\274W\236\017\275f\247\021>Yv\321\275z\340r\277\005\224}\277k(\021=\305\230\200?Q\270\351\275<\312\025\2762\\\020\276\247\204*\276\372  >\347\360\331\275\345\311\236=\020y\033\276d\273\037>\201\371\263=S\007>\275\203\031&\276y\036\321=\353\030p=[p\2059\227U\027=\267\220$\276y\010\262=gT\033\276\222B\013>]}\366=\321\030\366\275c\327N\275\311\330\260=\322Q,>\"\320\345\275\243\204\034\276\024\265\326\275\366v*>\0258\353=]\271\206=\233ZZ;\275\037\020\276&&\007>y\"\252=\206\010\031>\333\243[\274\260\233\023>\340\363&>\003\332\314\274\253;\010\276mA\320=K\343\'=\\\305\203\275c\242\336\275+R\256\274=\375\230=\3639\371\274k\203y<;\354\221<\200Z\271\275\265\3713\276\333\267F;\024\025\024\276\265\226\246=\347p\014\275a9\264\275z\002\">\213\374H\275\371\203\261=!Z\227=\013J\310\274Kw\213\274\023\223\000=\210U\023>%\005\024\276\3759\361=}\\\223\275\307\221\215?\204\241\212\277\313\013\220\277!a\326=a\265\220\277>\322u\277\276\217\211\277\247I\205?w\n\025>\n\252i\277\220\211\214\277\241R\226\277\\F\220\277Bcc\277\207Ev\277\0241r\277\205zx?\233 \210\277y\303m\277\250%q?\361\030t\277v\320\215?\335S|\277?\254\231?M*g\277\342\345\201\277?\027v\277b\306\231\277\302\224\203\277l\355\220\277\233\024\217\277\014\305d?\330\304g?\214\301\223?\004\314\206?\356\252\177\277\201\246\200\277!\344\200\277\2060\215?\312\213\231?\2108d?\0230(\276\320\267\202?\006\231\213\277\367R\230\277\\\017\201\277Y\371\233\277%:\220?\030%\027>0\005\205?\2163\225?\275\206\231\277\031`m\277\232\330\216\277\222.e\277\305\364o\277\334\304\200\277\214\330\315>\t\300\224\277\r\376`\277\363Wz\277o\007a\277\034\2151>vr\230\276\\\017h\277=m\203\277RU\223\277\200\236e\277\352\266\220\277\007\202\214\277Q\233{?\'\266\205?N\2401>\276\205x?b:t\277w\347\233\277\315j\272=`\324\214\277\241\215\222?K\253\301<~\250\320\275\303\252\001\276\233\r*\273\256\007*>\254\364\033>\304\237\033\276\251\006\317=\035\001\316=\223I/=\233\375\332<Y\256i\275\323\026\335\274w\277#\2767W#\275Pm1\276Z\353\006>uU\230?\263a\205?\224\356m\277>\305s\277\311\370\205\277\247\372\210\275`Hj\2778\333\226?\262|t?\032\001\216?\345\016\205\277\033\t\234\277\365\023\214\277u\347\212\277@az\277\376\220\037>!\264\367=\377X\213=\030#0>`\227\217\275Y\343|\275\233\245\350\273\263.\211<C\352\366\274\233\375N;\267\365F\275\323\013\227\274K\3755\275\317\365\r\275\361\013\213\275\325\252\320=p\374&>\205:b?\235>f\277\201\275|\277\203\217.\276\223\236j\277\224\034f\277e\203_\277\017\260\204?\221a\202?[U\230\277\035\006m\277\374L\177\277\366\036\217\277\223\231u\277\3259\222\277V\260p\277\3669\200\277\004Tq\277\341Tk\277\225n\226?f\347\226\277R\365\230?E\336\206\277\331\177\226?I\241g\277Hh\200\277d\256\206\277\035\256\220\277\232\204x\277Y\260\207\277e)\202\277\333\263&?\333\210d?S\\\226?\362Y\205?!\003\213\277\207e\210\277\013\272\224\277\352\341i?\255\305h?y\310\223?\233W\000\273\021\330\220?[N\234\277g[t\277s\024\204\277\322\221\200\277\342\233\220?\243\325\347<R-n?\313\367{?\216N\223\277\237a\214\277\t\370\223\277\245\235f\277U8a\277\t\010\207\277\213\3326?Jk\212\277\274\306i\277\307G\232\277R\003w\277\037Z\022\276\373\341\327\276\245\247\210\277\256)\232\277\261\230\201\277`\213n\277\231g}\277S$\211\277\247\005\201?Z\222\225?\014l\322\275\370}\205?\331\355m\277\237\177a\277\227\t:= i\206\277<\322\221?d\2512\276\203\231\376\275\337\006\331\275\246\274/>3E1=\323U\017\276\233\3067<\217\303\037=W\355 =\333\356\247\273\373\366\231\273\205\236\314=\351\270\351\275\272T\344\275\241\326\353=\235\032\320=\357\n\237\2753\305\220?\340\335f?As\233\277K\236\207\277c\270y\277\254\006\034\276J;\177\277:\006m?\324\235f?\025\375\221?K\246\223\277m\003\206\277\003\303\201\277O@\216\277 \035\210\277\261\253\300\275\217\'G=\256\344\032>#\333\032\276\367\344\n\275\272\231+>\1771/={\200\253\274\273\022}=\033f\367\274\324\032\002>\304;\000>[b\2469\315U\320=\277\343#\275\033\371\346<\337\336\356\275\320\262\211?C\252\212\277\362\230\213\277=\010\341=\330\340\233\277\356\227a\277tj\224\277\000\255v?\263Bz?\345\371\230\277\222\357\223\277\264;v?K\260\314\274\332\216\220\2776\266\300\275\203*\327\274\206\335i?\313\257\206\277x\326\211\277\260s\205?}\326\232\277\343\037\212?\300\031\216\277\372\304o?}\210\212\277\221\354k\275\277F\221\277\2330\215\277\262\366e\277\376\341n\277>\274\231\277\377a\213?\016\243\227?\020\023\226? \211\221?\022\314c\277\227;\227\277\'9m\277\236|\222?\014I\225?\234H\213?\333\017X;\204\010\234?\326X\214\277@u\225\2770Yy\277|Dv\277\344X\213?z\234\024>X\270x?\354\313\233?zU_\277\313r|\277\256\032\224\277\267\217\204\277\373G\225?\266\320\232?n\265\220\277\360\202\207\277\025b\233\277\n6i\277\r\016\203\277\275x\266=\342J\253\275\213\021\212\277\214\316\205?\014!\217\277Y\202x\277]\232z\277\230\314\214\277\322\005a?\340\023h?(\327\026\276\375\ta?$\377u\277\332\372p\277\022\364\302\275\306\217\232\277/\211\217?%7\226=#\346\004\275\206\024\001>\032\3124>Kk)=\333\351\003;\033>#\275\2326/\276\023\375 \275\014\323)>#\372T=3\325\272\275\213\315\337\274\252\374\020\276O\236.\276\266,\317\275\263\024\036=\233\324\204?\261\t\207\277\273Nw\277N\362x\277\256\'\223\277\2031(\275\032qz\277=\345\231?\027O\227?\304,\224?\245+`\277\346\233t\277F\000\207\2770x\226\277t\235y\277)\005V\275\253\324?=\353l\300\274\033+\362<\343A\217\274\233\325R=\333\2222\273v \t\276\031\305\357=\262]\241\275\234\246\373\275\357e\221\275*\253\242\275\213\277#\276\244\305\'>\333Vx<\003\374\375\274\004\326\272\275\211c\234\275\3341\t>\313\362 \276\272\002-\276N\322\317\275[1m\274\034\3210\276\232\020\034\277m!\321=\371\371y\275\314B\003\276\302\211,\276\270:\001\276\223\322N\2754 />l\331\022>\375e\254=[\347\332\273\313>\005<\037v\'\275|]\004>\013d\006<\313\353\230\274E1\014\276\251\221\020\276\327qQ=v\336\234\275\023D\376\274\203\236\306<[kq\275X\277\256\275\243G\322\274A\261\240=\037Q\204=ff\010>\252\316\347\275sx\371\274C\031\350<&\311\211\275\221q\322=+-d=\365\314%\276\'\304R=\t\270\272=s|\331\275\3533\355<\253\325\225<\251E\301=\343\014C=C]*\276}n\350=\001L\306=\330\031\244\275\333\377J=7\025y=)\305\343=\325d\307\275Q\216\223\275\3230>\275o<E\275q\330\330=\357\356\222=\265\266\316=\233b\357\273{\234\232;\317\377 =\370\036\r>\313\351$\274\237\031[\275\262*&>u;0\276\206\230\333\275\344\014\245\275\325\365\253=\314\304\335\275\367\357\022\275k\277(\274\3672\213=\335\364\004\276\374\373\240\275\\}\235\275\345\216.\276\273\354\034=\033C\273;s\263K=\343\252\024=\023\240-\275\331\025\315=\261A\005\276\033\2440=7\236\222=\322\0062>q\341\262=\367\262\310\275\007\273\236\275\273\n\353\273\367\030\270\275]\007\340=\325\360\367=\365\356\356\275\344\373\361\275\263\264\023\276~\036\007>\2078v=]|\256=\270L&>6\n\200\275\\\335\032>\023\236\n\2753\255\\\275\010a\025\276-D\375=\201&\223=A\0101\276\243\341\021=y\350\374=\272\001\017>]c\322=[\363=\274\0065->F\016\007>\213\352u<\315}\002\276\273k\311;q\354\035\276;\275\251\273G\273\204=\253IE\277\001<d\277\024`\211\277\037\376\037\276\027\215\205\277N\342\230\277\302\364z\277\215\335e?\327\022\006>b\323}\277\376\260\215\277\240Nw\277@\255\200\277\000\036c\277\275\231s\277\224\361\211\277Z{\201?3\271|\277r[u\277!\251\204?\331\364\223\277\013\322\202?r\230k\277\002\035v?\275\332d\277\314W\216\277\220\024\207\277\230V\212\277\016\302\224\277\207\272\230\277\320\027\213\277\riP?\020\354\225?\226\017n?N\257~?%\'s\277\341\367\221\277\215\241\216\277u5`?P\327\217?\372jv?\337iP\275\342kq?Y\370r\277\346\346\226\277\247\370\215\277\262\247\211\277\347\355\220?\362\025,\276)\271\220?f%\200\277)\200h\277\214\227s\277\tt\223\2772\314e\277\245&\217\277\255\005\212\277\254F\337>\035\010\223\277/\373\216\277\271\223\225\277\311W\223\277;\231\234;\327*\246\276\004\334\213\2779\322\224\277\360I\202\277wu\226\277w\232\177\277\3107g\277-\033\203?\020\t\204?`\032\227\275\376_\205?S\215\204\277\207\202\233\277w\242\255\275\355\250f\277\315kg?\216\241\037>d\2161\276\036\346\030>c\2337=\265\024\355=\3522#>\\\205\351\275\243i\252<+\014n<\033\352\372\273w\374\361\275\326k\025>\334e\020>[j\002\274\372\365\033\276k\020\313\274\231B\343=s\347b?\2617\222?\360\032b\277P\304\224\277<\362\220\277s\013\314\274\\\214\200\277\364;\233?,\273g?K\231\216?\300\325\216\277#\034\225\277\0309\217\277\023/t\277\2451z\277\002d\315\275\271\264 \276\227q\223=;g>=\325*\255=\330=\237\275\333\265\252;A\331\265=\n\274\311\275\253H\355\274\356\234#>O\225\024\276*l\002>\3165\022>\256D,>\013G\302<\2123#>\262\274O\277b\260\224\277\313\244q\277\314\306\337\275(.w\277[i\231\277\0043z\277\366\317`\277\2012\262>\001e\207\277w2\212\277Z\207V\277\020\312\217\277\270\201_\277\220\277\203\2775\344\221\277*\225\216\277&!q\277ev\177\277p+\225?\2130~\277\355R\230?u9\207\277\365\213\232?\233\254{\277X\215{\277\231\237\206\277T~o\277K\260|\2771\304n\277A\'\231\277\321\3754?\241\306\216?\317\021\233?A\377\222?Dc\206\277\265\202\220\277q\327\224\277\253\220\204?\344X|?\225k\202?\333\323\341\274\035Q\203?\3653t\277o\267|\277i\206\225\277\0207\234\277\204\274\207?\362\314\260\275\010\231\230?/\260\216\277\303hf\277\022\214m\2771\224\227\277\337\331\200\277\342\363e\277\205\225\203\277Jq\335>\310\225\206\277p\372q\277\322)\223\277\020\263\214\277\363\347\n\276\021\236\342\276x\300\216\277\365\267y\277\034\'\207\277\326\306m\277.\305y\277\262R\234\277\0172\206?o\206\217?s|\272\274S\024\226?}6\222\277\267I_\277\221>\276\275\300X}\277\305\226k?\023tE\275[\216\373\272KYg<\204\206\r>\213B!\275\304\257\014\276;y\210\274`\230\315\275=[\311=+\340=\275\355 \002\276{\000/\275\301\326\237\275\013\332~<\202\200\322\275\272\034\031>\023;P\275_+v? F\224?\364\377\226\277\276f\227\2776!\223\2771\245\206\275\370\303k\277\371\306\223? \222l?9\"\213?\274!\204\277\013\272t\277\027-p\277;9\201\277\266\320\204\277 i\003>\303\335\264<3\237\265\275\236\321\006>\233/V;M\n*\2762\320\r>\000\365\022>\373g`=\244Q\025\276q\207\251\275\361f\343\275\261@\276=\313\0149\274e\'\257=#g\270\274\313\t\013<^\013\217?\010\031\221?\303\334\366<W>&=2l\317\275\277\257)\275\030hn?\245\311\200?n\371j\277A\306\221\277X\025\304\275i^s?g\312N\275,\377\n\276\340\273\n>a\223\216=\210\225\200\275|6\353\275\232\252\036>\000\367\003>!~\257\275\376\205\037>>\207)\276K\235v=\005\242\256\275\200D1\276[F\034\273J\n\202\275\255\206\242=\3539\243<+\222\351\274E d\275\266\220\225?c\316z\2773\024\227?\271\357\311=\233\311A=\261I\222\275Z\354&\276gM\022\276\373\021\331\274\260:3>D\372\006>`\252\350\275\037\302@=\355\361\024\276\272\232.\276\267E\377\275{\304\246\273*\316e\277?\342r?4\344\204?\303D\r\275\241z\223=\200\367\220\277F\267\203\277\021\220\224\277\254)\217\277W\265B\275\201~j?[\014\244\274\273\261\262\275##\234\274s#\347\274\373\031\247\2731\351\345=\3236\260\274\224\303\342\275Ap\266=3\307b=\246\264#\276b\232\000>\343\235\315<\275\343\365=\347Lt=\241\344\243=\350w\224\275fs\'>\\\374\240\275U\264\277=\251\210\375=\273mU<CB]=\257*\326\275g\310\017=\214\213\345\275\377\027\005\276E\031\202=\212\t\027\276\343jm\275\343$\251\275\247\207m=\376\327\216\2751\031\362=Qb\306=\276\207\030>\221f\n\276[\224\363\274\333\255E\274\335)\223=\367E\317\275;\021#\276\267\370c=\r\n\247=3\006\255\2745 \034\276bi\000>\013\230g<\214\033\016>\327\347/=\205\362\274=\223\216\304<\361J\375\275\323\304\317\275\341\034\201=d}\000>\000\367\020>\233\333i;\347\'\032\275\260\016\357\275\360\266\006>\n\203&>\0032\365\274a\022\373=4\037\033>\205\031\305=I\020\254=\270\211\034\276M\357c?\026]\215\277t\035g\277\357K\261\275\354\344\216\275 \221\217\277?)\223\277\310\203\234?\026t\023\276h\031i\277\242\177\210\277C\227\227\277\206\222\017>+\261\203\277\213\377x\277(\373d\277\201\300\342\275\3522\201\277\313e{\277\354\364w?Z\\\201\277\243\301\352\275M\236\214\2770\'\231?\325\361\212\277u\026\230=\027\377\215\277\3714\211\277\203\t\224\277\237\374\'\276>\271k\277\227M\230>#-a?9x\224?\217\r\214?\243\333\213\277\323h\301<B\216a\277ba\206?\333\035\231?J\301\203?z\0373\276\240ko?~9u\277\300[\230\2777\214\217\277\001G\202\277\313\257\222?\254\204\n>\240\370\200?\206\362\232\277\241S\221\277q(\213\277M\250\211\277\321\347v\277#\340x\277\343\2056=\232\3114?lt\231\277\360\033z\277\'\360s\277\2529\221\277\355\251\374=\352L\226\276\264\201\220\277\341g\307=f \223\277\363\215\203\277y~\226\277\303\324\320<\251\312j?a\217a?\213c\214<C\242[?7\363\216\277\373ct\277\217H\206\275\267\034\206\277\217\006l?\310?\016>\035\311\334=\271\t\205=\22703\275\'\275\"\275\020\245\034\276k0\227\274\023\001\206\275\033\320?;\005H\220\275\345N\026\276\307\246\017\275iY\016\276\307\350y=\313\331\300\274Cs\204=1.\276\275\344W\007\276Tys?\355sv\277\377\323`\277d\217\232\277k\344g< \372\210\277\3667a?\021T\214?^y\226?\240\272\027>4?\230\277\221\207\226\277\'\310\205\275\247<\346\275\251U\217\275\223\376\364\274\334\363-\276\273\203 \276\236\251\273\275\260|\010\276U\377\352\275\313\021\002\274*\224\020>\271\374\270=\372+%>\205T\325\275\316-$>\271a\227=#`\277\274\234G&>\254\222\254\275\224fu?\362`m\277\305d\207\277\344F2\276\247\005\220\277,\313\214\277\317J\200\277\313\017e?\211am?\265\001`\277\335\224r\277\216l\207?*L\204\277/\231|\2772\332x\277\376\371\225\277\210\352\211?7\241\221\277kBh\277\372\210\204?\246\263\221\277\314\374\207?\350w\216\277\2543\222?\262\031z\277\322\262w\277\3501a\277\341\027\207\277\273\001\216\277V\300\216\277o\325\223\277E3\227? h\207?\252+\210?\024\321{?\376~y\277\320\317p\277Q(\212\277E\276\223?\217vk?\316\341\230?cB\312\274_\300\203?\3613i\277F\tq\277\023\206\210\277\004pq\277\304\264{?\337\023\266\275\355\344\211?\215Y{?\2307\221\277\216w\220\277\262\215\214\2779/o\277&\300b\277[\006f\277\010p\232?\306=t\277\352k`\277%>\214\277H\"\211\277\2146\017>\2247\231\275\302\242{\2774\275\217\277\274\324l\277\377Ru\277N3\212\277\342\010k\277\274\375\232?\227\317r?;\222\331<\2325d?Kb\202\2773Xa\277\266(\375\275\206\026k\277c\031v?\271\211\343\275\356\016\004>\261\350\244=\033\215\n\2767`a=WA\225=\213\001j\274S\322/=\2754\306=\322\\ >\277\344s\275\235\034\222=3=}=4\340\020>\373\242&\276\313\341,\276&\372\001>e\365{?\344\227i?\250\t\204\277\316cx\277\311\313p\277\233\035w\274gf~\277EAm?\365\330~?\223\221w?_\t\221\277\3571j\277#\375\202\277\017r\223\277\265\220\223\277\177\251\223\275u,\236=\303\022\254<\342\301\372\275\177\332\215=?;\007=\202J->\020\226\242\275\2223\024>C\254\316<\313h\007\274\275Ij\275\301A\216=\233\234@\275T\327\014>\224\326!\276\323\267\233\274W\001\212?d\000u\277\177)z\277G\366;=\200e\220\277_\343\227\277\2241\212\277\350E\211?\003$\200?\005\003i\277=|\220\277\307q\215\277L\363t\277\271qk\277\333\177\223\277\223\355\220\277}\225\206?y\t\203\277I\034\206\277\273_\226?p:\203\277\221\306\223?\016>j\277\224\222\202?!)q\277\322\347e\277\354L\201\277s\321a\277\240\215}\277K\372\213\277-h\222\277U.p?\345_\207?\343\314\202?\301&\214?\346\270\217\277\0015v\277\027\315t\277\367\304}?\3423`?A\213\204?\233B<\274\352\237\216?<T\221\277x\276\215\277\316\204\226\277K\025\206\277\373\311\217?&%\027\276\246\263\213?o\342\227?x\346g\277\"\275\232\277\3404v\277y\241\177\277\202\005\203\277\356\352Z\277\014\207\217?\001Q\216\277\002.f\277r\332f\277NY\201\277S\217\233<\333-\325\274&\357}\277\233\337\212\277\310v\205\277\311Dl\277\2721h\277\"\037\221\277\317\036\222?\330\263\220?o I=5\355\202?l\204w\277`|~\277\'\323\r\275\241\220l\277a\375\226?s\014\364\275\013w\010\276\3733J\275\264\351\000>\007<\001\275{Y\017\275\252\374\361\275\035\031\303=D\203\034\276EV\243=\357\223\201=G\344.\276\241=e\275f5\013>K\354\025\274\223W\303\275\235\032\333\2757\374s?\360\234x?\241\224\216\277\250\306s\277\303\007\221\2777:\364\275\332\r\201\2777#\234?\332%\234?\031\347\216?U\364d\277S\027\223\277\270\227\205\277\'g\225\277\246E\224\277\210X\017\276\227\310!\276\0051\203\275\027\366o\275\227Xu\275\352\3723>a\374/\276\243Z\336\275_j\205=\265V\241=\333\214\020\276\033\245=\273\215w\334=\253U\307\274Kbh<\335\312\333=\257e\037\276\237=i?n\343\224\277\241\225_\277}O\024\276\005\337\227\277\177\300q\277\363F{\277\276\330\223?pN\004\276\030\315\217\277k\256x\277E\256\217\277z\213i\277\216Vl\277Rh\206\277\312\313\215\277j\352f\277\235\362|\277\007\303\206\277\214\252\223?(\357\204\277r\013\225?KV\220\277tC\222?\314#\231\277\211\231\313\275<\302n\277\017\333j\277F\270a\277{%a\277\006M\227\277\001\216*?\217-r?\342X\201?\0026\203?91\177\277\372\365i\277>\255\234\277UW\200?\367\320\202?n\221x?\374\255\233\275nc\203?t\221\230\277\343N\217\277Z\367\222\277\t\271\215\277@r\200?\014\256\271\275\267\256\226?Kb\211\277\232E\215\277\274\252\233\277g\014\211\277z|l\277\306\255q\277\214\257\223\277\273\367-?N\022\177\277;+\205\277\351\213l\277\020\341{\2774`.\276\300\220\221\276G\336\202\277 \365q\277q\300\212\277a\313\215\277n\226\226\277pTp\277r\356g?`Vv?@\236\337\275\\\"\215?\305\273\205\277\273=\203\277\027\226\220\275\307\340\223\277[\351\226?\244H\220\275\343\366\344<;=\201=\035\247\270=\223\302\217\274\010\022\006>I\r\235=Q\266\366=\333\210\357\273\002\203\030>\372\013\304\275\226\026%>U\360#\276\\=\022>\023z\013\276\021t\023\276\210t(>\210e\217\277\021\030\213?\232\264\220\277\022\210\227\277U\311w\277\024\321\336\275\375\211\203\277\342Yu?F\326\224?\366\342\220?\313\200\231\277a#}\277\361\314\177\2777\211`\277\325\010m\277-\212\365=\337\301N=\033\200p<+\216\346\274\363*\005\275\221\251\321=\317&\035\275\003\271\203<\013\277\022\275\255\316\273\275\023\231\216\274\001\367\215=TE\022>H\352%>\273d\330<\217y\204\275+\217\320\275\027\315\200\277\007\273`\277L\037x?\033\3329\273c\027\231\277KB\000=(\206\211\277\374\204\202\277y\204u>L\266\207\277C5\214\277\301\230\205\277\016\304]\277\255W\226\277\225s\336=\"\233 >8W\234?\273>`\277\267\231{\277lp\213?\377\315L=s3\221?\307@\211\277\300\361g?\314\321\217\277g\3231\276\322M\216\277{\320\224\277\234\324m\277\0217\211\277\277\305C=\363\020f?\362A_?H\305%\277di\234?\020\205\204\277\230\363\212\277~\354{\277\207\370W\277\341q\211\277%\207\202?F\331\025\276\007\020h\277\342Ti\277\213\226\206<)\211\220\277\006\026\212\275B\347\231?\2204\024>\364\025g\277\260\233\216\277\343\305z\2775\342u\277\261\256s\277A\277z\277\230L\227?Z;\211\277\230\262I\277\330\021\204\277\021~~\277\213}\225\277\310C\223\277\235\316\220\275\026\361\261\276\317\300\232?{Ul\277F\250\200\277x\366b\277\271x\223\2777\371\215\277\004\376\226?\353\335p?7-\361\275\340?\203?\357\233\207\2773Cj\277\247\323l=\305\367\203\277E\373\210?\373$\031\274O\375\240\2754\322*>\370\177\001>\260>\274\275\363\306\364\275\201\330\205=]\266\312=\263]?=\334A\020>\273\250v\275K\357\206\274C\273\016=\313r\005\276\026\202\032>\273\001q=\035,\003\276Icx\277O\215\221\277u\221\221?\323_\205\277\376\032\203\277\333\025\022;\3126_\277\316|\211?\340-\207\277+\264\217\277\014\215|\277\373W\222\277\"\035\226\277\247#\213\277\356\271y\277\026U\240\2753N.\275\353J\010<A\243\352\275\323\260\371\274\353\213\350\274\204d+\276\373*\302\273\235\367\325=7#S\275?B\304\275\233\240\367\274\333\007w\274c/\275<\265\351)\276[V\3359\036W(>.\211a?\336\214\231\2775\002q\277\211v\376=J3|\277|{\201\277\220\354{\277\311\216\224?\336\330\210\275\241H~\277\007\024x\277\225\023b\277y5\207\277\037\354w\277\3565\201\277\310Mz\277\226\246{?\264\370\215\277\376\335\210\277\216{e?\310`i\277Tk\215?\317\215\225\277q\206\233?\032zf\277N\177\226\277\377\204\205\277@\222e\277\276\323\232\27758w\277VI\211\277\207a\021?\3668\214?\252\214\225?\374t\217?\326\333\201\277\022?h\277j\271\231\277\000\371\206?F\315\232?f`k?\353X\035\275\306R\227?_De\277\372\031\177\277\243\334~\277\013\245\211\277\220hj?E\007\262=X~\204?\200m\203\277|\333\200\277\327\016\222\277\223\346\206\277\203C\217\277J\201z\277w\252\203\277|\317B?\307}g\277\366\\g\277\351:\215\277\300N`\2779\377\277=\'.\220\276\306\215w\277\000\246p\277ksc\277<\352\227\277\307\272h\277\253\316u\277\226Jp?\024M\203?^\210\361\275\262-}?\3318\203\277\344\227\227\2777\333\203=\276\223\233\2772\364\227?\233\231Y;g\263)\276\271v\277=\214\031\002\276\032\206.\276v\'\315\275`\311\277\275\323\3341\276\243\034\377\275\373&8<\002\007\013>{x\036\274K:\277<K\307\t\276\203\322\322\275\3457\223=\326T\235\275\350l\207?\203\372{?\344g\222\277p\321\222\277\205o\203\277[\004B\274\004wm\277\371w\212?\247\225\230?\rV\233?\260\370\221\277\337*`\277\217\203d\277\257\344z\277_\205\233\277\211\243\271=\005[\352=\371\325\262=\3264\023\276\357\227\022\275\243\317\275\2747zg=/\327\267\275\251c\023\276\027\201\373\275;\2438=\016\230\016\276C\002\003\276\337t\005\276\021\273!\276\247\210J=\235\025\232=\214\344e?\227\360b\2779k\205\277\2255\034\276\375\236}\277\304\272i\277a\233h\277\030\233\226?Z\375l?\0137\231\277eu\221\277i\351\213?\234u\005>Yzw\277\035]\206\277*\237\325\275\\\323\246\275\372\344\215\277\300\357c\277\237\025\213?\004|k\277<ss?\316G\205\277t\223c?~\375\212\277\372\267u\277Mz\232\277=)\207\277\322\224\212\277\205\265\364\275\227\322{\277\356\023\222?\345\253\204?:\240\204?G\036\217?\3104w\277\236\220\210\277J:\226\277|\375h?\325So?@\314\203?\032q\026>^o\204?\255\302w\277xAw\277\213\201n\277\242Fm\277:\201c?\003c\307<yOw?\003\247\202?b\000`\277\007\211x\277Hs}\277\235\334\231\277\224{j\277Fos?\212\017\223?\0346o\277 \t\210\277&\027\232\277\322#}\277K\254\223<\024\022\006\276\376\222o\277;\251&\276\r]\206\277\016\256\214\277\354\302\221\277\300t\261\2751V\231?\356\345k?q\224\350=\t\274v\277\222\000\204\277^\220~\277\2737,<AC\202\277p+\205?\321\361\323=cs\265<\311l\372\275\023-\232\274>`\007>\n\244\036>\017{\001={;\034\275}\307\310=\266\036-\276\013;\032<\265\036\321=[\303\302;\031)\356\275\034J#\276\261ua\275\225\213\377=\261h\220?a\364o?<\001\200\277!\355z\2778\032m\277o\n\'\275kU\216\277\230J\213?\367\251\232?@\346\231?2\033w\277\276\332\213\277\000R\207\277\363S\210=\275\250\231\277u\273\005\276F\321\035>C\300\320\274q\204\271\275O\205\201=nK\027>{\326\231;c\262\003\276\334\331\330\275\237k\000\275\303\327\353\274^\023\007>\233\220\227<\253\002{<\031\221\333=\214.\013\276\3435\006=:\367,\277Se\206\277\303$o\277{\250\335<\210xo\277r]\231\277\214\370\201\277\307\034\231?\350\267\023>|\315\206\277axj\277X\317\220\277\3314\\\277\rn\222\277\320%_\277)\010\201\277\331\024\226\277k\241\221\277\006\326q\277@>\225?\221\271\177\2774^d?\264\245\220\2774\362\233?x\314\205\277\207 m\277\366\373\210\277ir\203\277\272|\225\277\245w\222\277R\256\200\277\254\241\036?\234\255\201?\374\212\224?\243\350\225?\200\206g\277%Lv\2774\004\224\277\001\235\221?e<\205?\230\317y?\222\233\035>\360!\202?yCd\277\220\346\201\277\257\353\223\277e\311y\277\323\005\230?\213\030\201=\016jp?y\260y\277\267lg\277\231\314e\277\357\315u\277\344^\226\277\260\323c\277\302r\202\277K\272\010?&\033c\277\357\232a\2774\305\232\277\236\232\217\277k|O<\371\003\315\276\220[\207\2777<\217\277\303\217\216\277u\017\204\277ZAi\277\205\365\214\277+2\224?\021A\225?\207\367\n=\241\336t?\316\205\233\277\250br\277m7\371=\250S|\277\310\223\221?3!O\275\010\322&>\357\263/\276\033\020\243\275\333\203\324: \246\267\275_G\035=\333E3\273\365B\200\275\037\366/=\207`\023\275u;\206=$\030,>\021a\237\275\321\026\217\275<\014\017>\207$\021\276\214\215\203?S\362\233?[pr\277\234fz\277\315\262\221\277\367\234\003\276\372\202q\277j@t?\357\304s?\244&\207?\260\324\211\277&q\202\277j.\225\277\013N\225\277\364\376\232\277\355\231\342\275\350\377)>yd\304=\371\024\317=\227\371r=\366\252\336\275\027\333\026\276dN\010>\233\354\350<\271{\357=5\313\274=\307\021#\275\026|\004>k\350\"\274\213n\033\276\014a\">\237T1\276\276\224u\277\376\247\201\277Y\220\203?|\324\034\276\3772\203\277m>\371=28\215\277\334x\210\277\030]%?;\336\230\277}\227i\277ID\203\277Rfm\277\225E|\277)\020\277=\333\345\220;*l\212?\006\340\216\277\010\177q\277(\303x?\263\304\234\2741s\216?4_m\277\310\262d?\241a\213\277\rIs\277\310\267a\277M\'\232\277\221%\214\277\253Y\207\277\211\363\200=\034TS?7\236\216?\323\322.\277\257\267\223?\014\343|\277\334\214\201\277\n\214\211\277\275T}\277Y\361\227\277]\267t?\373U\352\273\274\256\202\2773\313z\277VN\203\277^/s\277\215\031\223\277\360\364\214?\007\037\204=\234\333\223?\237\363\212\277V\027o\277M\024\202\277D\003\200\277\343\274l??\325\203?vwS\277q\370\316>n\355\201\277\022v\203\277\316g\203\277r6n\277\033\317b=\303\022\003\277\231e\231?\n\313`\277MT\221\277q\226l\277|\213\234\277\205\230\222\277O(i?\212\240\215?\372\024\024\276\302\311\227?%Eo\277{Z\215\277\227\267:=\002<\234\277\326\\u?[\354W\2739\202\351\275\272i\013>\033b\002\273\243z\003\276i\236\254=\307\\%=\033\262G=\035\\\370\275S\371\355\275\345\257\346=4`\n\276>8\010>;\n4\274\027Q\353\275K*\"\276c\246\340\274et\205?\221\025\225\277\365\222\212?o\244\220\277\005J\230\277\023aj=\2722\227\277\260\014s?\230\255s\277J\332w?\033\026\230\277u1\212\277\350}}\277\301Qh\277 }\227\277\025_\307=\033^\270<K\3250\274\333C\002<\243\rU=\350\247\000>\202\375\007\276\271I\361\275\237i\022\275!\024\226=\377d(=\263*\243<k\205\363\274@B\021>#B\201=n\312&>\253\001J\274C\340P\277\356\374r\277\032\r\224\277\227)\204=\t\375\"\276\330\354{\277\274\341\220\277o\266i?\250\n\230\275\234\302\224\277r\347\231\277[\272h\277\311k\312=\336\327\221\277o\242\213\277W\221m\277\014\237$>\2201\226\277\306+t\277\033s\204?\355\330\211\277\311\025\236=U\301\225\277\340\341\205?*]\206\277R\213\263\275\361\331l\277S\334\212\277\330,\230\277\273_\312\273\235\001\345=+\260w?:\223a?\tKb?\221\306m?\301\352\200\277y\213\377\275\2362\201\277\344\242s?\207+\227?\252\353\227?\362\210\213\275Fc\234?\202\214f\277 \247\200\277\246P\225\277mWr\277\026Q\222?G=e=\371\253y?=\357\202?\321\370\221\277l.\212\277e\317\220\277\352b\222\277\2335\213\274\271\200\016\276\027\025g\277a.z\277\241G\212\277\rOa\277\346=g\277\200\310 >k\333\334<\026&r\277CyA=$}w\277j\n\206\277\341\261\215\277d\266\002>@\346\204?\204\354k?\033>\213<\177R9\275PXh\277\2200\224\277`=\">\204\254\203\277\177\300\206?H\343\021\276\271$\300=\002\032\242\275\353[\336\274\323[K=\002\341\033>\272\230*\276\374\0324\2767\205+=\027{\000=\223\0002=c\237\225=\323\203\257\274\327\312C=$_\271\275\365\372\341\275\'M\207\275\003\217/\275\326\225o\277S\315\177\277\353\324\231\277\005\336\222\277\375\240\250=\374\352\212\277\356\205\221?v\234\212?\355\253\201?\224\262\">5\020i\277R\321{\277\033\317\243<\001\343\305=\363\231w\275\220!\315\275\013\246\213\274\352\033\027>\033\367b=:w\014>\322\335 \276\233J\304<\313\367f\275\013\227*\274E\213\010\276\007\230\007\276KXD<c\232\270\275]\206\360=xp\'>\237B3\275\201\362u\277<\352Z?-\324\311=\275\000\360\275^\344\024>\201P\321=\204\325\201?)\212\211\277q<|?\367+\225?E\343\242=`<j?#\376]=\205\256\226\2776\213y\277\255R\374=C!\263\274\250\376)\276!K+\276\007\025\357\275\323\226\213=\261\345\000\276\340\337\327\275\243\367J=w\342t=\207\371\030=;L\226\275>\267\254\275+\016\303\274\373\353\031=ggK=-g\277\275K\334N=\310\247\014>\317\365\000\275\323W\017\276\353W+\275L\226\n\276\315\306\253=\376Z\036>\033\363\027\276\230V\t>*\2073>L\372\033\276%\272\324=o\337[\275\\\261\026\276c\372\321<\326#\002>\206\341d\277\275S\223?B\325\203?\332\235\200?\370w\277\275{b\205\277.Xq\277\223\312\265\275\361h]\277\333\377\363;\031\262\215? \354\014>c\243\204?[\225\214:\221/\212=\033\334\032\274;Z\251\275\303\374-\275\253\220\357\274\022\303\377\275\026y\022>{\375X\275\271N\255=A)\342=\273\2173\274K\030.=\206N\240\275\213E\215=\201\177\245=\2556\314=k\332\370\275\375\237\004\276BS\024>S^%\275\203\027a\275C\375\032\276\217:\"\275{;\265\273\023\n\274\275\253 G\275\373B\026\275\343TN\275\307\003w\275\023\207\240<\371J\374=mi\314\275\347\225\'\276\362\201\025>\215T/\276\r\266!\276\200\275\n>;\320!=[j\352\274\257\267-\275\037\336\314\2754|\016\276K<\232<\241_\242=\373.^=\363\366\345\274\215\2023\276[D\227:%[\370=?9\363\275\227F#=\237\021)\275\300\\\005>\014i+\276c\254\251\274\233\030\200\273\373=\320;Pv\022>\263\323\361\274cS\355\274y\326\352=\223\035q=I\323\212\275a\370\265=\353\252\265\274\267\253\222?\213\261a\277\362\255\224\277\3175r\275\276\231\222\277\334\310\202\277z\017\207\277v\031\224?qb\202?\255\221\232\277o\277i\277g\352\204\277\036\236\227\277\341\372y\277\227\353\337\275Mix\277\234;\215?\371\270\211\277\200\375\231\277D\025\220?\322\346f\277\305=\202?O\236\232\277\247\000t?\350\014o\277-=\"\276\nx\227\2774\014v\277V\032\234\277\272\270\210\277\\}\213\277bB\212?\033\317\177?\3571\226?\213%\223?v\331\233\2774\336_\277\250\332\214\277~\372\215?\305$\227?F.\207?\213K\265<\301\242\215?\256\225^\277\2352k\2777[l\277\0355d\2776\311\201?\230$\320\275q\322i?\340Gp?\377\324\203\277f\262\201\277\237\322r\277z\351\210\277\177\"\230\277X\345q\277\312e\177?\2616\227\277\355\204c\277\026\213w\277\021\254\225\277N\274)>\313\356O<\017]p\277\356u\212\277-\020\216\277;\n\206\277\320\375v\277\244\211|\277\262u\202?\005\365\203?2s(\276\215\233\234?F\320d\277<;\201\277\223\370*\276F]\211\277\365}\225?\021D\324=\331U\361=f\334\023>\275\246\321=+G\336\275\333\355\000\275?\321c\275_$\032\276\315\347\345\275\233\224+\273t\030\374\275{\332\002={\244\356\274\210~\231\275cXv\275\345\351\253=\304\326\006>\3546\221?G\205\202\277\232J\201\277\356\207\202\277I\305p\277\317\327\203=\315\272\224\277*\261\234?\\5\204?\274\265\203?\036\364}\277\236\354\202\277\030\344s\277\203\260\233\277Q\250m\277Z\017\001>9Y^\275W\234\225=3\035!=\177`\022\276\032.\007>\223\246\214\275\216\205\002>\336\305\306\275\362\0001>7\256/=\025\346\351=\205\027\303=\373{\346\273\2766\035>\333d\210=\'\254J=\030zv\277\333/\213\277\312\245\200?\027\"\237\275\336\364\223\277\320\021\017>|\223i\277\355K\224\277\177x\322>\202\340O?\260\250\226\277)\340\220\277\275|\203\277\354R\210\277\200\306\220\2770\036,\276n\267\206?nP\203\277\004[\212\277\323+c?#\331\310<\235\240w?\201ot\277\024\347\227?\227\230\221\277:\330\233\277\204zq\277i\230\226\277.\220\203\277[\344~\277\033\036t\275\304\005\362>\034\373y?@\215\217?\366\336\212?\020Nz\277\377\225\215\277\244\373\202\277\220\261\227\277[\027\224\277h\216}?\276]%>&{\210\277\024\364}\277b\252\211\2770~\213\277\265\210\226\277\0034\206?\223\262\001\276{\214\207\277\304\360\211?\031\223\221?\302Xk\277\033\317t\277\272u\207\277`\022b\277\243w{\277~\nL\277\220\247\207\277\005\341\202\277:\233\206\277\233e\205\277\323\371f\275\3740\256\2767o~?\021\211\214\277\320\004w\277\t(u\277\034\245a\277\002.\205\277<\006\222?\245\"\223?\255\024\233\275J\322~?\021\353\215\277\305;\230\277h\207\253\275\nXa\277q\010\226?V!\250\275_<%\275\306g\307\275yL\246=KdH\275\032K\010\276\036\037\006\276\352Y\200\275@\260\225\275w\205,=\373bm=\234\221\031>\\\212\003\276c\353\360\275\233\307\375<\265\355\217=K\005\004\276\323\225w?[h\212\277Zl\205?\376\241s\277\013hu\277Q>\004\276\262Gg\277\260\276z?\307\235\205\277\020\264d\277\227\020l\277\326\343\231\277\246Vw\277\321\376f\277\005x\222\2773\n&\276d\250&\276\033\212\277\274\370\231\325\275QB\355\275<L >>\221\007\276M\360\337=\007\332\036=\013\332\342<\031\225\374=i\212\356=W&\351\275kt\035\274\263\3300\275\345\360\271=\033\225x\274\341\\\201?=\320f\277\223K\223\277aM\305=\234R\360\275P\364i\277\307\253\211\277\302m\177?\265\227\202?\250\360\231\277\375\273\207\277\033\317\210?\331\375\024\276aS`\2773j\222\277\272N\202\277]q\303=\274\321\203\277\t\246l\277\003\306p?rcl\277\363/\205?%\341d\277Gc\214?\200Kj\277\253\341\034\274\226\262\204\277\246\215p\277\216\242g\2775\212\270=\257B\233\277\374)\233?\003\277\222?\277O\213?\035\013\210?\237 \200\277n\006$\276\335Jr\277w\247\225?\005\326\215?\304\204\212?RV1>{9\225?\333@\234\277\320]\213\277\334n\220\277-\217y\277\352Xp?\245Z\340=\223\321`?L\177\206?BI\231\277\021\302`\277]\211_\277\361\211q\277N6\222\277\307H\007=m\323\202?\203\017t\277\243{\222\277\341Ge\277\217\257\201\277\003\215F\275\377\315a=8\231\231\277i\344\037\276\326\310\202\277f\227\177\277\\\266\227\277\221\346\037\276*Pa?\251Q\206?\373\236\310\274\333\261\373\275\rC\221\277k\270~\277x\377&>\0027\234\277o\373\200?q:\320=\223\313\307\274\273S~<\301\030\360=\307\323\024\276\254\230\231\275\303x\366\275\'$-\275@\250&\276+\330\330\274\204\274!\276N\214\025>\247\3428\275\235\\\330=\215\331\241=;.*<\243\035\355\275\233L\207\277\024\233y?\201\357\202\277\021\351\224\277=\261\215\277\r}4\276#2\233\277\247\036\224?!\264\214?\231\006n?\225\266\215\277\242\342\222\277;#\204\277s\034\273\274\323\\Z=4\000\n>\216\363\341\275\3312e\275\343\375\351<\375\274\240=Z\243*>#\010%\275\005;\257=\323S\265\2751\017\255\275[7\032\274\255\014\206\275\274/\210\275\231\240s\275\301\277\030\276\037\001\t=\275\305\213=f\023\233\277\016U\222\277E\021c\277\325(\331=\356e\234\277)\225\340=\024\317\177\277\037\242i\277\253\353\253>5x\227?\303\023\205\277}\254\216\277\233\235\245\2736 \201\277*%\213\277\327\301\201\2775\272~\277De`?\345)\223\277H\220\225\277\314\210\031>G\273\224?\222\t\212?\257.\216\277/\313`?\320\262\000\276\321\240m?\266$\211?\213W\211?\006\214\010\276C(\233<\367\253+\277\3342\215?\316\245~\2777\026\203?\001\350\207?\320\035`?U_\226?\034a\203\277\266o\221\277|\035v\277\247\0345=|\364o?c$\227?\346\375\025>\301pd\277\2002)\276/8\211\277\r\236&\276W!c\277\240\220\213?\0338\224?J\333\205?\330\262\202\277\034Lv\277N\355\226\277\267#\221\277\t*\307\2764\336\221?xT\210?\312\301 >\271\023\215?*\262/>R\323\267\276\231K\226\277#i\242\274\267\207\234?\016Yp?\362\271\177?\254 \215\277\341U\200?:\275\226\277\324\206&>\267Z\201\277\234\377\212\277lt\221?\243\"\321\274S=\224?>\212w\277V\216\t\2769:Z\275\222\254\022>\203\244\223<u\257\350=z\007%>?H\027\275\213\023:\275\033\315X<s\215e==_\200=\233\007\351\275X0\010>\213\211`\274\351%\010\2761\231o\275\021\372\263=\332\216\204\277\003E\224\277\007\220\203\277\313\342\006\2748\253\202\277\3533\014=\244\"\212?\312\306\213\277F\304l?\002\311\230?&\323e?\014\004l\277jL\220?\032\324\205?\031\267\231=\217\2614=K\"\373<{\370\223<~B\025>/T\301\275[w\007:-F\364=\236y\237\275`o\'>-\304\231=\2709\025>{gX=c^\373\274\023\363\224\275\345\344\234=\253\226\222\274\302\326\373\275;\231\227?a\377\224\277+\275==M\'\243=\352a\014>\371j\340=\214\"t\277\221A\231\275\207)\034\277G\307z\277d\275\020>\276\036|?\254E\215\275\323Z\221\277\r\022\222=\026\006\007>\200\026\200\277\315\321\226\277|G&>E\314\221\277\303\317\351<\240\217\227\277\365\363\217\277\227\363\220?dq\203\277\314\351\240\275\233\\x\277c\372m\277\277\322k\277\251K\236=R\271\275\275=\214\202?\207M`?\027\336\201\277L\333\211?\271\313h\277)\373\226\277\312\255\225\277\006\276\031>F\344\000>_\376\233?\206Z\322\275c\213\210\277\274\321\216\277\322\371\027\276u\244\250=0\377\000>\222\312\225?3Z\334\274\217\200t?\021an\277\210v\212\277+\375\323\274\016\354\232\277\370\362\230?\3033u?\267\375\206?\260\262_?\206G\230\277\032Eq\277\373\0032\276\371\233m?\023?t=\321b\227=>\206{\277\223\246\355\275X\233\216?\207u\220?&\265\214?\241Tv?\277\265u?\203pi\277I\274\310=\244y\227\277\230ib\277\343De?\213\241/\274\017\265b?\364\343\222\277\373\346\236\273Qe\377=\343Fn\275\371\006\227\275\"\271!>|\323\035>K\357\025\274[\336\331\271\351i\362=\323\217\332<s\310\n\276S9\213\274O\375\014=\255\224\350=#\222\211\274Y\274\237=u\005\205\275\233;\231\277\212>\233\277[\216n\271\017\265s=\256\002\230\277\335R\366\275G-\206?\274\256\224\277\234\220\226\277U\247\200?#\030\222\277\311j\307=$\332\225?\266\025\217?e0\355=\333\260w\274\031\216\354=\242\341*>\204V\330\275\327\026p=\351r\033\276\325\301\331=\3173=\275\243\213\220=B_\201\275JG\010>\0011\343=K\344~<mn%\276\246.\005>\203\343\215<s\215\367\274N\373r\277En\207?t\317t\277\254\016\211\275Y/\331=#\303\333\274\352\332\230\277@\363o\277wln?\355\221\212\277\270L_\277\205\034`\277\247\355\201=\212\343\203\277{\267\355\273a\203\357=\275>`?\\\364\224\2774D\227\277\007,\222?+\326G\275\237\240z?Uct\277Rp\207?n\253\216\277+\330\212\275\376\320\233\277\247\'o\277c\\\222\277\340i\234\277\021\223\013\276\024\216\223?\374\372\205?\366\315\226?\244{n?b\023c?\351\014\212\277C.\227\277=&\364=\305\003\230\277\363h\233?Ey\330=$\270m\277h,\200\277\271w\260=\265 b\277cYF=\340\026x?h\t\006>\243\315\226\277\243bv\277iA\200\277\017o\227\277\2420q\277\222.\201\277\374=~?kc\200?\263\243\211\277\302\261l\277\231\334x\277\220\302\224\277\213\233i\277{A,\275\367\372\017\275\365[\231?\215\301\220?\243Gs\277\211$\202\277\302$x\277=_u\277Q\177\200?p\225\220?V\341\034>?Kh?!Z\227\277\300w\205\277\305\326\375=\340\030\205\277\235\201i?N\306\'\276\200\303\003>\'\004\032\275s\200.=\276\341\211\275\253P\000\276+\206L\275U\367\307=\353\366\\=\250\032\224\275\243\301E=\377\205i=\253\252\023\276{y\301\275\376\375\255\275\364\366\201\275\233\261\337\275\262v\233\277\221\'\217?\035\251r?\274\034\001>\r\344q\277\337F}\275\264\230\220\277\016e\226?\037\001\207?\375\206}\277\373J\211\277;\252|\277\221u\207\277\267(\220\277\253=o\277\373R\210\275|n3\276d:\025>\272h+\276;H\017<\274@\347\275b4&\276\023\000\336\274C\027\305\275\027\334\262\275\365\026\361=-#\263=u\032\276=\245=\326\275\360}\026>\360\370.>r\304\256\275I6\301=\265r\267={\364-<\370\020\304\275\242\236&>3\037\316\274\001L\237=\223~\376<\337\212J\275\217\267\031\275\025\274\364\275L\222\000>\033\001\211=\312\265%>\361Q\335=\r\324\224=\354z\036>\003\311M\275\273\016\347\275\353=%\275*i\021>\363\223\273<\300\2104>+\034\023=\244Q\014>\020\010\032\276\327R\014\275\\Q\026>;\220\032<\255\317\334=\315!\212=\223\225+\275\241.\221=\302\035\357\275M\020\314=\023\257\362\275\2158\302=KG\027\274\013\201-\276S\246\026\275L8\254\275a[\277=\234C\000>\233g\356\273n>\340\275[\362!\274\303\260\253\274\2341\036>\361\202\004\276\222\240\023\276\273$6\274i\000\250=\347~w\275Q\240\325=A-\342=/H\016\276q\334\267=J\374\033>\304\034#>\230\243/>\3713\242\275\242k\001>\263\220\332<\317\271j\275Q\264\020\276[\220I\274\341\t\243=\302\372\211\275\033\376\017\276\272(\031\276\352\273$\276y-\215=\n\245\004>\322\0364\276#\225\014\275h\337\262\275BM\020>\271I\203\275\311\177\334=\327\317%\276\003\003\020=\371\224\367=4\351\027\276\361\261\020\276QV\343=p\t\277\2755\263\363=g];=[b\303\273\0338\214;\275\357\345=\217\241+\276\031\004\364=\026\345\014\276\312\357\031\276\315z\265=:=\033>\333f\344\273#\'\212<[\333u;\034\340\273\275\353\374.\274\300\276$>\314\3404>q\373\374=\r\243\216=Q\236\255=-\t}\275\332\310\r\276\025\237\312=wp^=\231\006\217=\303k\220<\364w\360\275K\022*<5\207\306=k\005O<u\362\277=U\\\330=G\277\361\275bG\005>\333sC=\242\233\010>[Z\307\270k\000\024\276\0019\035\276\211)\344=\272\327\033\276\334k\230?[\206}\277l\200u?q\245\355=on\221\277!\020\233\277A\273p\277oJ\210?\371\nl?Q\212w\277\307W\225\277x8Y\277\212\020\227\277\210\351d\277,K\220\2774\2541\276\354Y}?\246\222\215\277\002\031\211\277\350<t?\343\203\240<?\332\220?\3200\230\277\213\006\202?p-\232\277\025X\234\277Vx\210\277\2746\216\277C%{\2773\335\200\277\236e\216\277\023\367\231?\301\334b?`\003u?\2178q?.xi\277\350\033\204\277;\202s\277D\242\205?\343\223d\277\225E\222?\246\321\244\275\010W\224\277\006\261\226\277X\270\234\277\374.m\277\034\005r\277c\'m?3\250\022\276\200\323u\277c\016g\277<t\210\2772\335v\277\030\000w\277\220ni?\222\223n\277\315\313X\277\212\352h?-\252\212\277%,g\277\335\360\217\277SV\220\277\033,x\274\"}2>\2139\207\277\023\270\232\277\307\325\210\277\003n}\277\236\276\223\277\256ij\277\021\201f?\357\"\223?\033\273\352\273\304\303\216?\211\216\226\277B\025\210\277\274\316\332\275@:\207\277q;v?\2411\345=K\022\021<\312\303\230\275\361I\335=Uy\235=\371b\335\275\001\222%\276s\354\367\274\027\257I\275\002N->\274\211\031\276\273l\351;\272>\">\233\244\277\273\3310\244\275A^\224=\235rb\275\364\261\222?\341\306c\277\212\267\234\277\021Jj\277+\260\227\277\335\3340\276\222\001\215\277k\215\207?\306\225\204?\261`\204?\270\201\207\277r*c\277\336,\207\277\232+\217\277\362\371o\277\0254\262=uM\024\276I\262\312=\333\332\306\273\3435g\275\333\253\303<n\260)>\264\245\030>\001E\342=\001Y\301=\233\322\276<\276\332\033>{X\335;\033Oz\273\177\363\'\276\307\267#\276\367x\307\275\263q\231?\307\251\205\277\n\316r\277aJY\275i\260o\277m?`\277\300\223\224\277\n\222p?Fsa?u\233|\277\210\234\216\277\307\\U\277-\037\'\276\014Li\277\242w\223\277\213e\225\277X\372\221\277\343b{\277\234\251\204\277\254g\214?\250\030k\277\203g\210?\257\016\212\277\201Mw?\345\254\233\277\376dy\277\332@\204\277\364Ac\277\014ef\277\373\304\223\277\245\220\222\277\313\237\207?\227\233\224?s\203_?\245;o?\325\373\202\277A\"~\277f\334k\277\353Ml?\315@\207?\203\031\202?\333\361^;\344,\204?Qfp\277\357)\212\277V\222v\277\345k\220\277\240\034\233?\226R\003\276\356\230\223?\270_\211?\245E\213\277\031\313\177\277#\203\205\277g?\226\277^\310\225\277\314\377}\277:ru?\264&\227\277Q\322l\2779\027a\277l\370\210\277A\234\313\275\371\366b\275\032\t_\2774;\230?\214o\201\277\377\020\203\277T*\231\277\\|\230\277\217k\231?7\nb?#A9=\010\022\222?\000\376\230\277x\274z\277\265\310\300\275\344\254y\277eym?\225\264\240=\014{\"\276!\256\366\275\016t\314\2755\225\351=j,\023>;\343\304<\353D5\274(\036\000>\375\274\270=ep\020\276\211\313\331\275M\350\363\275\021{\276=\261\253\226\275\001z\235=A\314x\275@\251~?d\221\215?\364Jr\277r\353\215\277\235\233\210\277\232\300\210\275/\344\231\277C\356}?\232\361\215?\232\004j?\273\321\226\277X2x\277\272\313\221\277\372\301|\277\314gt\277s.\351\274\001\352\273=Ko\315\274\253X\226\274\r\354\252=!\322\343=54\354=7\177\210=\273\206\266<\313\346\306\275\363\236\245\275\r\310\361\275\222\233,>\247w@\275s\313j=\306?\r\2765\374\010\276\235a\204\277Ro\204\277\366\352\210\277\021\267Z\275\214\224\202\277\203R\202\277\177\234\227\277n\022[\2771\005\027?\214Z\204?\225\307\215\277\301\317\204\277@`k\277\207s\212\277\\\364\224\277>\337\203\277\311\021\225?$\301\205\277s\004\204\277\273\271\233?h\326\207\277i\324k?M*\202\277\322\006`?\206!\210\2774\370\217\277 S\233\277<\243\231\277\322b\212\277\212Aj\277Pc\223\277\037\235\177?\244%b?\003S\227?T\220z?\036su\277QLn\277\003\244\211\277\002\025s?\034\276\233?\341~o?\037\372\016\276\335\310\233\277V\230\223\277A\222\234\277uL\203\2772(\232\277\305\261v?3\244b\275\264\304g\277y{t\277\2239\207\277\266\233\232\277\371j{\277\363\276\200\277l\227\204\277\221\323\211\277\375\016\335>\256\215\213\277\353\334\203\277\265\362v\277\322v\213\277\374y1>U6\364\276H\343j\277~X\213\277\236?\214\277\220\267v\277\003\367\230\277\016\177n\277\352c\221?\201\313\212?\305\336 \276\211\301\220?\301\334\224\277\323\364\225\277\243$\265\274\232\255\203\277\205b_?\305`\242==\n\313\275u*\303=h*\021>\262\206\">\361\362\235\275\256\357\264\275\2434\027\276fk\'>\246\227\325\275\223y\'=\210\242/>\363\212\022\275D\030\025>\260\265\001>\355~\310\275\233\006r;w\263\225?r\374\210\277\255\033\202\277aI\205\277s]k\277\330$\036>d\257k\277\312\201\177?I\020\205?N\215\206?L\031\221\277\266\207\215\277^\334r\277\027\007q\277\301Rj\277\263A\235\275\225\212\363=\261\223\010\276\027\027+=\277\344\016\276\233\366\256\275V\254\023\276Sl\200=W\356\032=\344*\345\2753t\223=\013\314v=\216\263\026>\306\374+>\273M\251\274[\224\246\273\366\314)>cdc?\030\311v\277\002\306\200\277[n\200\272\340\364\215\277\321\254\202\277\266\034t\277I\307r?]\241.?b\014\203\277j\323~\277O\316d\277b\262\221\277\215\333l\277%\262k\277\213/9\275f[\231?Y\007\224\277\0254\213\277w\215t?\237y\215\277\333tc?\'}d\277\226\246\212?\247\217\231\277\n\036\232\277>|\211\277S\323\232\2775\331s\277\332\314e\277\244\210k\277\350\257\221?n\262\230?&\033w?\032o}?yY_\277M\312\212\2773\373|\277\203\266\230?\214/\226?\353\270\220?nZ\037>\020\030\201?\360\245b\277\240\330\215\277\242\332p\277u\304\210\277\025\336_?\361G\237=\374\201|?\375Q\203?p\'l\277lxg\277\377\001_\277\251.\210\277T\276\211\277B\236\217\2777\036\236>\265\315\217\277\342\021\216\277A\007\223\277\227\352`\277\177q-=B\013\224\276\343\325b\277\254X\204\277\004\213t\277]\372l\277?|\200\277\215t\227\277ZJm?/@l?\232]\310\275{.\212?\202\317u\277g\032\221\277<(\037\276\021\n\206\277Kz\223?C\n\024\276\024\377\006>K\211u=\374[\n>\332\203\000>ob\003\275\006\374\037\276\n\266\010>y\201\271=\233\322}\273\213\277y=\3559\255\275\233gT;\023\207\226\274B\357\265\275\374\324\316\275\373f=\274&\033\234?\2039\227?\026\203x\277h\350\220\277\260x\224\277[p\2449\265\334\207\277\255\343z?\360\247u?\266\230k?p;\212\277\373m\202\277\243-\233\277r\r\212\277\354la\277+4\367\274\213\260b\274u\025\341=\325\333\354\275\333\016\013=\317]\031=\261<\360\275\024_\010>\026\240.>\361\256\377\275\330\311\022>%S\233\275\330\222\022>?\026|=^\276\034>\375\267\252=\373\005\033\275K\263\213\277\212\023\206\277[\347\224?/w[\275-\210g\277\261V\014\276\265\336\215\277ec\210\277\366=\004>7\352U?q\371\222\277~\006d\277i1m\277\222\302\211\2775\217l\277\311\247\017\276\275\355\221?[\376e\277)\002\204\277O\307\230?Sux\275\246?i?\2376\234\277\255\006\227?\334\311\203\277\373\222\200\277I\270~\277\177\207\217\277\260d\217\277\334\372\202\277;\332\240\274\260wK?6\252\205?\001\034d?\245\330\227?Ygw\277\205k\203\277\216p\202\277\353\324\231\277\260\211p\277u\231i?C6x\275^O\203\277(\024\231\277\003\006|\277,\250\201\277|\\h\277\360:\217?C\271\341\275\266\207y\277\374Z\202?K\320\207?\331\177{\277\016to\277N\n\224\277\215\214\225\277\346\023{\277\315\304\203\277\352\004\203\277\315d\177?\307/h\277i e\277\373\026\344\274\325\243\317\276\201\244\201\277\034Mu\277\274B\233\277~Xe?\320e\216?C\211\216\277[]m?7~\232?0j\005>\3003\213?\2466\214\277b{\224\277\357\375\005=\274\014\206\277\216~\233?bO\017>A`\026\276+\361\034\276\257\355\r=\260\357\036\276\340\203(>\022\232\276\275S\243\336<m}\204\275\266\301\024>\'\251\310\275#2\232\275\200B\007\276q\251\021\276{!\031=`\265\021\276\257\222\200=\377\265\217?\203f~\277wH^?\214\013\202\277\035\324\206\277;k\322;\326~x\277.\004\211?\326\230i\277.\377a?\371\344\177\277\002\032\200\277d\217\206\277\376G\214\277n\331z\277\0218X\275\351\364\360\275\204\004\024>\375\202\314=\315\267\301=Y\311\030\276-\365\214=m\345\202\275Q\200\256=\233\362X\274\213H\244<\350-\316\275\347\301@\275D8+\276\344\270\004>\224\302\r>\200&\323\275\253\220\201=C\2751\276\304y\333\275\332\2564>\003\022$\276?\267\357\275\'\360\030=\333S\266;\216\274\216\276\022\376\007\276\333\264\253:\336\270.>\343\371\370\275\035\235\365=\207-\035\275\233\375}<\306\254#\276K]\306<\365h\301=\003\221\310\274\303\240\033\276\343\300\016\275\351b\224={1\232\274\350\226\023>\233U\177\274M&\030\276k\001\334\275\003\031\215<1\341\362=\331\t\311=_\313\223\275\023\037 \275k\0347=:v.>i\313\207=4\016\014>\224D\005>\362\236(\276\211\254\277=\301S\224\275\320\013\032>)\341\354=\242_\037>C\301\027\276\225\250\303\275\002y\252\275\264o\r>\205\276\226\275x\207.\276\267H\006\2755\330\r\276\251q\243=\376l\327\275\r\317\324\275\303\270>=\227&\006==z\207>+a\014\276\241A\356=\207\032~=_\206\001\276\246\037\022>\2233y=\311\231\363=\230\230\002>\267\027\203=\235\316\241\275\261\357\266=9\337\242=\255\237\327=\234S\035\276\227M\210=\273.\303;\343a\343<\244n\t>[\221<=4\360\327\275k\031|\274\333\256\002\276\250U\255\275Z\260\014\276=`\372=\273\340\021\274k$\227\274\224\315\024\276/Br\275\317o<\275\343h+\275I\236\330=\026K(>\033\245&<\273\247H<\263\305\310\274~\362\257\275\377\245&\276ku\302<\273\275><\366l\001>a\354\355=k\325,\276\004\033\312\275\263\032\227\274\223Y\206=\247\223\377\2756\2663\276\037\002\236\275B\245\315\275qL\032\276\352\357\001>3\233\333\274\203\220\356\275\023\202\262<[V\240<1\267\360=)2\352\275\3051\364=:*)>H\350 >\273\202L\275\022\233\014>+\364!\276\317\036i=\334\003\254\275)\006\254=\005\332\365=\22673>1\034\376=\024\217\227\277|\247}? \305\202\277\274\026\367\275\264\233\272\275\211#\315=\305\'x?\241U}\277\311\365l>\376\350\222?\007\003^?\373\022\220\277[\022]8\321\234\213\277b,W\277\006\316\212\277\322\272\316\275\013\016\232\277\215b\237=SY\221?\313\340I\274\343\332{\277\2514\216\277S\323\224?-\214\214\277#,\222<\033hr;O\326g\275\237U\205\277+\242\207\274\373\327_=S\303B?\001\305\202??\"x\2776H\221?\305\"\212\277\253s\023=jV\201?d\005\232\277\354\007\206\277\274\303\225\277w\001*=\253\211\230?&<\227?)&\205=\364t\221?\026`4>(\177\177\277\270\246\032>\000\314]\277l\017h?\'\232\215?\013\244r?\221\370\201\277\303\335\213\277\3129\210\277;\310\354\275\352]\013\277{\223r?\002\314e?\234\241i\277\226g\216?K\276\353\274\024\200\214\276\314[\233\277\230D\037\276y\'\232?\335l\231?\226\345d?\242\3770>\245\244\221?\020\335\215\2771/\310=a\215\320=s\275x?\370\322\226?ef\370=\030\006\200?6\026l\277f\260\014>-\261\361=\230\272\006>\225i\376=\352\367\340\275\366L\016>\035\020\277=\233\345\313<{Y\005<\271\026\272=\014{\">\277\237\024\276sL\357\275iR\306\275\255\243\021\276\311\333\305=\021?\036\276\201\031\213?D\252\203\277\363\346c?\303`\231?\25701\275\275\356\315=JA\232?\262\030\222\277\362\031\203\277rOg\277{\362\224=\t\244\232?\242\373\202\275\213\024\031<\000\370\035\276O\220R\275\256U\016>\323?\344\274\345\334\265\275x\277\211\275\371\177\302=\023\317#\275k \302<tT\016>\333/\236;?&\024\276,\234\r>\375\001\335\275\201g\221=4\357\031\276\356\030\361\2752\020\001\276 \355z?\356\374h\277\247$\231?\231\364\033\276Y:\347=\246T\016\276\342_\200\277{H~\277\030\353\210?\000q\201\277\002\r\205\277Hkz?\216 \231\277\377Qx\277>M\004\276d52>\276\343\202?\367\"`\277\322\332\232\277Ql\222?\233\025\222\275\344T\207?\251\307z\277s~\207?O\272\225\277,\257!>\254\343\231\277\204\030p\277-|\216\277b>k\277Kn\342\274\264+\226?\201\356\203?K3x?Rf\203?\373\020\206\277\262\313\217\277\235\211h\277\263\367\217\275\033np\277\242,