node {
  name: "x"
  op: "Placeholder"
  attr {
    key: "dtype"
    value {
      type: DT_FLOAT
    }
  }
  attr {
    key: "shape"
    value {
      shape {
        dim {
          size: 4000
        }
        dim {
          size: 24
        }
      }
    }
  }
}
node {
  name: "decoder/conv2d_transpose_3/Shape"
  op: "Const"
  attr {
    key: "dtype"
    value {
      type: DT_INT32
    }
  }
  attr {
    key: "value"
    value {
      tensor {
        dtype: DT_INT32
        tensor_shape {
          dim {
            size: 4
          }
        }
        tensor_content: "\240\017\000\000\004\000\000\000\004\000\000\000\010\000\000\000"
      }
    }
  }
}
node {
  name: "decoder/conv2d_transpose_3/strided_slice/stack"
  op: "Const"
  attr {
    key: "dtype"
    value {
      type: DT_INT32
    }
  }
  attr {
    key: "value"
    value {
      tensor {
        dtype: DT_INT32
        tensor_shape {
          dim {
            size: 1
          }
        }
      }
    }
  }
}
node {
  name: "decoder/conv2d_transpose_3/strided_slice/stack_1"
  op: "Const"
  attr {
    key: "dtype"
    value {
      type: DT_INT32
    }
  }
  attr {
    key: "value"
    value {
      tensor {
        dtype: DT_INT32
        tensor_shape {
          dim {
            size: 1
          }
        }
        int_val: 1
      }
    }
  }
}
node {
  name: "decoder/conv2d_transpose_3/strided_slice/stack_2"
  op: "Const"
  attr {
    key: "dtype"
    value {
      type: DT_INT32
    }
  }
  attr {
    key: "value"
    value {
      tensor {
        dtype: DT_INT32
        tensor_shape {
          dim {
            size: 1
          }
        }
        int_val: 1
      }
    }
  }
}
node {
  name: "decoder/conv2d_transpose_3/stack/1"
  op: "Const"
  attr {
    key: "dtype"
    value {
      type: DT_INT32
    }
  }
  attr {
    key: "value"
    value {
      tensor {
        dtype: DT_INT32
        tensor_shape {
        }
        int_val: 9
      }
    }
  }
}
node {
  name: "decoder/conv2d_transpose_3/stack/2"
  op: "Const"
  attr {
    key: "dtype"
    value {
      type: DT_INT32
    }
  }
  attr {
    key: "value"
    value {
      tensor {
        dtype: DT_INT32
        tensor_shape {
        }
        int_val: 9
      }
    }
  }
}
node {
  name: "decoder/conv2d_transpose_3/stack/3"
  op: "Const"
  attr {
    key: "dtype"
    value {
      type: DT_INT32
    }
  }
  attr {
    key: "value"
    value {
      tensor {
        dtype: DT_INT32
        tensor_shape {
        }
        int_val: 1
      }
    }
  }
}
node {
  name: "decoder/conv2d_transpose_3/conv2d_transpose/ReadVariableOp/resource"
  op: "Const"
  attr {
    key: "dtype"
    value {
      type: DT_FLOAT
    }
  }
  attr {
    key: "value"
    value {
      tensor {
        dtype: DT_FLOAT
        tensor_shape {
          dim {
            size: 3
          }
          dim {
            size: 3
          }
          dim {
            size: 1
          }
          dim {
            size: 8
          }
        }
        tensor_content: "NQ\313=^!|\276\256A\245=q\302M\276\034\221O\275\216\252z\276\323\254\031>\304U8=\000\203<\276\207\203R\276\344\353q\275\3654\">0\277\234\275R\016e\276\333\211c>\236\025\301\2757\360\003>\317Mi>\352Z|\276{M\036>|\336@=\271\2524\276\311\216\202\276\247\362\006>>c\313={\036\254<\026\335\335\275\\:+\275v\'o\276\255(^>%\346\037>\256Z|>$\np=\013\322\006\275\352\307\260=\213\265\\>\375|,\276\223\031(\276\332\210\201=\003\t\320<!\360\371\274S`J\276\374\321\211\275_h\230<u\032\202>\235\201\332<\353M\247\274\352\300\266=Fa\344=\00122>\237zv\276\205\331\223\274\377EV>\223\005\211\276\244\247`\276\035!M>}\325\017\276R\332\265=\272\350\352=\354O\230;G=\027\276b\022\226\275\205sf>\373~\030>\202\215\341=\3623\277=\2645\222\275l\200\275;\303\354\006>\226\300\204\276\314\242\\\275\235e\206\276"
      }
    }
  }
}
node {
  name: "decoder/dense_9/MatMul/ReadVariableOp/resource"
  op: "Const"
  attr {
    key: "dtype"
    value {
      type: DT_FLOAT
    }
  }
  attr {
    key: "value"
    value {
      tensor {
        dtype: DT_FLOAT
        tensor_shape {
          dim {
            size: 24
          }
          dim {
            size: 24
          }
        }
        tensor_content: "\217\r(>4\t\232\276\036\007\036\276L\020\007<8\361\227>\"\361\257\275\274M\177\275\352d\210>\331\216:>\343\312M>\235\306\027>\030\372\023>\365\351\317\274G\347e>4\242>=\251\"N\276\353#\231>\214\034\202\276e\037\n>\334\344\353=22\253=8\347J\276\266\315\232>#\265D>(\001%\276\3557m\276\031\372v\276\2016\027>\024Z\233>\336\223\372\275\r\036\032>\023\005\032<\203\250\236\276\235I\007\276\211\225X\276\235n\024\276\374\017x\2754\021S=M\300f>\273n\021\276\017|\247\276\222\252\334=\374I\256>+\341\017\276\226\027=\276\245WO\276\235\027\033>\273\245u\276<\215e=\336\365\205\275\325\255\246\276\177\325\003>\333\272h>\271N\017>4\200c\275\352M\236>\rpE>\270D\247>\306\271\004\276\330\344\006>jI\202=>\020*\276\017S\036>\036?\007\276j\324>>\020B\177>\223L\030>\000[\375\272\347\236\014>CxW>M\021t>\326\252\010\276\t\032c\276\374\032\250>\221A\245\276&\366\257>o(D<\000U\254\276\361\200i>5\235B>7\214\262<\221\243x>p\272\246>J\315+>Z\224\253=\222\377\262=\031B1>\037\013\253\276\004\244\305=\306V\205\275r\222\370=\315\003\250>\004\232(=\276\213\357=*\177\270\276M\3616>\236X\024\276\235{\022>\314\003n=^\273\367=B\313\217\275\220\240\230>\272\026\221>\200\253\221>y\243\224\276\205\331_>\324\306\252>\240?)\274\001}r\276\243\266\200>/fJ>[W2\276\026HR>\247\254E\276k\355\250\276H\341\240\276|\370\226>\006H\223\275\202\204\340=\254{ \276\304\225\033\275\032\000\215>h;l\276\231\255(\276\365\264\232\274\030J\216>j{\250\275)\314\243\276$\217?=\2027}\276\244\362*= \027\335\275q<\212\276\364-\241\276J\2521\276;\202\000>$\256\360=\004\273G\275T\210\217\276\352Xy>\261_\010\272,@\242>\'\360\000>\t\t\005\276\023\022K>I\334h>\346\000\305=Z\212\230\275\363\000E>N\225\255=\304\317b=^\007\201=\034\031-=\345\033\313\274\332M\031\276\200=\220\276\232\022\211>\031\356&>50\231\276\334L\345\275\237\301\254>\323fK\276#=[\276\366\365\037>\2173\361\274\251\311L\276R\275\212>3\245h>\334\265\035\276<\323x\275e\340e>;\274y>\347X7>\244t(=\304\346\222>\004\353\372\275\277T\306<\347\ri\276\036\002\227=tO\203\275!#s\276\244\232\017\275\227\276\212\276,\004:=Psd=1\247O>/Xs>\"\3005>\304\242\261>t\t\232>\374\323f\275<)i\275\256\274\200\276\311+\216\276`7\242\2762lh\276\002j\267>X\346\202>l,\021=\235)\024><\226\030\275\303\267\271\276\217qv>M\244\177\276\272\211\255\275\306d\221\276\245\\\331:\275\205O>\370\337\314=<>`\275\317\3512>\030+Z=\010\344\256>\200\365\237>\343\377\254\276#g\206\274\276\274\344=-w\245\276F\004\204\276,\034\263>\205X\362<\266\003\r\276\372\361\306=B3\222\275\212v\333=\206\277\226>[\243V\276)K\241>\226\373\230>L\225\004\275>\332\231>xe\210\276\316\206\031>H{\211>[\236>>t\323\026\276\004\352m=\2051\022>\342\273\267>\177Z-\276r^\247\275\311\254\236\276Bn\355\275\300\037\253>u\213\205<d\024\230>\"\n\225=\034\215I\275\364\023\027=\332.\255=l\220Q=\222\254\371\275?\337u>\222V\204=?F\216\276?;\004> \340\252</DI>\312\353\355=\240\037r<f\333\210\275\03304\276\226\327\336\275\215\352k>\251|P\276\255+T\276\014\240h\275\374\203L\275\272\327\200\275\344\250\206\276\nb\275=\232\215\212>\265\265\030\276t\2418=\226ld\274\246q\036>V\023\344=3I\256\276\202\232\367=\016L\246=\250B\225\276p\305\230>(C\267\276y\211\255\276\342]\210\276~\316\t\276\362x%\276\236&\226\275\364\332\017<2\3643\276\376\020\354\275!\232%>\221\302\203>2\260\325=J\260\330=\316\353\342\275@\362/\276Wkb>\024\201\362\275\310v\232=+\354 >m\340w\276z~\206>.p\322=p0\300=\255\351\251\276\252\346\357=\024\345\375\275P\2547<\262\010\206=\203!V\276\245Xx\276\264*k\276V\212\024\276K\020E>\002\261\304=\325>\013<\364\214\266\273\313G\r\275\325:\261\274!\312\020\276u\331s>\257d\226\276\326\332X>\217Xs>\312\224\357=\216\376\017\275\246\004\274=X\364\214\276*T\224\276\337\2358>\224<\255\276\325=\022>!\250\233\276#\252\246\2763\340->TM;\275\024e\220>\312\006\254>\263\352\r=\314\361e=6q\201=4\021\240\276\026h\356=\257\310\014\276R\362\326=\326\273\024\274\010\376=\276*\273L\276\207M@>l\207\274;\177\263E>\250\007w=U?\200>\356\321V\276\000][<9:d>H\215\224>v\274\314={\367\210\276\364\353,=V;\252>\226\220\374=\226\271\344=\001\221\021>k\003\374\273\224\021-\275\0107\030\275\016*\205\275\252vC\276\035\273l\276Vhr>\352z\263\276\005\347s>\300\027\204>\007\3060>v\372%>\000\331K\276>\026\263\275\3714\264>@=S\276N\026\201=X\3300\276\315\203b>D^\230>\263\351\">\214M[\276W\212\035\276\361|\007>\306\205\370=\\\321~\275*0\253=[\024\000>,\0207\275<\263\230>\325\352\n\276\277>\027\275\246\347\354=\301\232[>\256\341\261\276\260-\037=\373\261\217\276T\267 =\354\366\032\276\002K\244\276\007\220/\276\305\317\217\274\326\315\242\276\364\370\\=V\361\227>\222\t\243=\036\261t\274\266t\251=\032A\025\276\304\273L\275\337\205!>|V\253>\332\333\254>\226U\213>\222\373\224\276\264\000\255\276rG\246=\014\361\\=c\322M\276\326(\252\276\316 \241>\033\025\001>\023\037\233>rj\244=\334%\254>4j\201>>M\226\275\254\355\216>5u\037>bZ\257\275nEy\276\265\365l\276\366\201\017\274\234$V=\302\243\243\276?\235\027>l\232\326;7\321`>]~L\276\036\365\317\275\2111J>\216|\327=R\345\246=\243\252\223>\352\222t\274\010\240\241>\332\351\215\276t\271[=\307\275\234\276\317\356C>q\235\246<`\343#=\342.\252\276\014;M\275\036\3709\276E\276J>\352\265e\276\236\320\236>5\273\252>F\r\272\275A\372\264\276\033\312\331\274XA\237\2757[\240\276\212\t4\276\026rH\276\203\344%\276\010\306d\275@\315\221\276\240\344\240\276\312By>\024\013\224\273\026\252\310\275\232\340b>rg\241=<\3003\276\322\357\301={UF>l|\202\276i\"\260\274\336}\'>m\316\216\276\320\217\227>\215\347\032>\220\344\017=\257\225M\276\322+g\276\350\222K=\365\236/>$\205m\275\215\254C>\240\207Q=Tb/\276\033\266)>^\034\024\276\177\013\">\304\323\377\275\200\216\000\274\244\222\245>s\266/>+]\013>\021\370C\276\222\341\220>\035R\204\276\305\313\004;W\267f>\227Q\003>D)\203>:#~\274-\226\036>\0302\013\276!?\032>\352\373\233\275\213c\253\276\206\341\200\276[?A\276\375KF>\\\345p=\020\022\263\274\356\364\262>\336\313\310=\252\323\265=\204\213\325\275\346\274|\276T\273\335\275\314\340\r=>\234\202>\007\201\265\274\253\223V\276\2575W>\016(\371\275r\274\213>\260z\333\275\006\034\201\275\334\272\220\276\212\277\"\276\261WS>S\220\007>\256\262x<\032\251\212\276\276\r\256=\346Q\366=\204S\244\276\214\375.\275&%\357=\215\370\035\276\220Y\220>El\037>Tt)\275\"0\243\276\326$\004\276Q\3262>\014\355p\276\032Q\207\275u.\236\276\326#8\276\003\372\017>\276o\255>\313\'\243\276\3150\213\276\341\325\370<0\324\210>DE\257>\300\356\376\274\273~@>\242\027`<\356\364\325\275,\353{\275(\244\'\276\r\021\342\274L\016\r="
      }
    }
  }
}
node {
  name: "decoder/dense_9/BiasAdd/ReadVariableOp/resource"
  op: "Const"
  attr {
    key: "dtype"
    value {
      type: DT_FLOAT
    }
  }
  attr {
    key: "value"
    value {
      tensor {
        dtype: DT_FLOAT
        tensor_shape {
          dim {
            size: 24
          }
        }
        tensor_content: "\2223\"<\3144\357;\326\265\004\274F\321\021<\344\035\247;\2223\"\274LY\206\273\2223\"\274\2223\"\274\216C\013<D`e\273\000\000\000\000\2223\"<\262\374\007\274F\321\021<\2223\"<\000\000\000\000\2223\"\274\\\031\342;\000\000\000\000\2223\"<\244\213\333\273\2223\"<\2223\"\274"
      }
    }
  }
}
node {
  name: "decoder/dense_10/MatMul/ReadVariableOp/resource"
  op: "Const"
  attr {
    key: "dtype"
    value {
      type: DT_FLOAT
    }
  }
  attr {
    key: "value"
    value {
      tensor {
        dtype: DT_FLOAT
        tensor_shape {
          dim {
            size: 24
          }
          dim {
            size: 64
          }
        }
        tensor_content: "\346Ay\276\000)\356\274\361\221W\276A\242<\276f\363\316=&9\205=\241\3056>\217Ph>\374\220{\275\360A\272<v\212\230=\242x\016\276F\336E\276p\246|\276^\205=\276\272\325E>Q^\\>|\220l\275F\024\240=}{+>\340\375%\275m\307\231<k\214d\276@S\\\275\"3\277=\357\260g\276\177!f\276Piq\275\'\352\010\276jv\203>\002)|>\217>\200\276x\236\343\275\220\271|\276e\240e>\204\237@\275\022f\210\276\006\260y>\215%o>\2715q>y\007\331\274\033\0013>\304\324\017>j\372\372=\264w-\275\326\336C\276\034\222R=(1\\>\3614.>\277\014Q\276\213\315/\276n\346\363\275\275\021\022\276\211O,>\243\001\001\276h]x\276\277\376c\276$e4=\304;M>4I\327=JU\332\275\323\2369\276z\200\217=8\307\343\274h\206x=\\\242\345=@\240U\276\320/\212\275\013\357*>\005\247\224<a\341\034>\225\352\032>\266\236\211=rk\216\275\205&\021\276|\377s\276\264B\216;\006$\005\276\337m\031>!(\234\274\356\r\325\275\332\352g\276\007r8>n\264\312\275:D\365\275\334\361\002=F\211\327=SE5>\264\345]=\225\004o\276q\"K\276\272\237p\276S&Q>\0267\313=v\t\000>`\340P>D\337y=G\2111>\026a\206\276\205\027(\276dvO=\"\305\277\275\213\351\210<\225\347A>\261\257\206\276\374u~\275\200/\317;i\302<>\343\266w><\007\177=RL\243\275\"\214\336\275\3120\235\275g\361\032>Tv\203>\234\214\251\275\207)6\276\033\206,>\000\300\325:\332\272\021\276e\231.>\225\\w>Q*\205>\024T^\276\324\211\017\276\331\037l\276\251\310B>6}\204\276\320\034\215\274\224\333\356=\003\037]>\027\303\035\275\307\017;\276.\353\365=\242(\006=)We\276C\nD>`\262J\275O\304E\276\302X\311=\202\303\235\275Ao\036>U\241\200\276\220\371\014\276\212\207\276=\300*\035\276\303\236\\\276t\032g\275N/\213\275\312\373\372\275\315\" \276.+L\276\241v\366<\"}\210\276L\276T\275\305~v\276s\306\374<\017\222=\276\304F*>\346%\"\276\007\300o>\020wc\275\014\204!\275\305%Y\276\275S=>G\003\000>\335\3648;\300\363\210>\332\277\241\275\352\223\r\276\033\005\n\276\272@\237\275S\013\024>\312\2008\276\242T:\276\021FI>\350~{>\266\223(<\361|J\276\354\263\213\275n\025\266=\3676^\276\350\2721>\323/\201\274\321n_>\235\310\031>\026\233%>l\032\330=T\221E>\363a\036\276/=M\276\032\350\311=\\P\321\275iPh\276!O\351\274\"\023\260=\333\315:\276E\262v>\262\316\344\275\253\003\205\276y\3571>E\210;>\342\363\204\275\227n<\2761\336 >.\026\341<qZ+\276\205\210\353<\366U\204\276\272\206\225\275e\321\223\274\351\261%>H+9\276\240\225%=\361[x>\234yE=\r\261?>\007\341H>\346V\335=\241\0249>kb\032>\013,s>\222\261!\276\035QX>\254eo=\311\234\">\274 \'=\271\312->w O>+\nP\2763H\021>\205\365\213<\004)\226\275\\b\020\276x\231\360\274s4\216\274\005\234`\276\'\334)>\252\225\275=\226Wu\276\322d\351\275i\361\376:\034\337j\275\350\314\333\275\220y8<\263\233l\276\376\376\031\276l\220&\2768\201\006\276\343\226\034>>\265\353\275\2009~<\304\013\006\276\212\236\207=\243?g>\214\034Y<\210\333P>&Y]\276\222]\356=\030\004\210\274\277]j\276\354\225\255;\214\230\031\275\\\225{\276V\255\377=\243\362B>a\225-\276Z.\304\275\241\220\r>\351\274\321\274\225\265\301\274,\305A>V\260\242=\305\024\205>J\232\022\276w\322m>\367\321F\2762\337\336=\217\206D>\253QE>}$F\276\301\374]>W\247\206\274^\350\322=\204$8=\261\024\020>Z\336a\276T5Q=\363\352\255\274\002\315S<\255\306\324\274\214\026?=F\270\307=N\222\266=\022\265\241=\221fL\276n\361\225\275\211\250K\276\246\004\006\276\036\366\210=r%\310=\333\366D>\230\374\235\275\023?y\276O\376w>}\325=\276ah\024>>+8\276\026\325\267=,\360\343\273\3141\005\276\301\014n>\372d\302=.\\\260\275\200\261c=\327R`\276n4\037>\3275\023\276\035M\366\274\233>g>X\300%>\310\177\302=\352\206\310=\206e\002\276\276\325\\\276\003\362:>V\367\037\276\206\242\202=\234\017Q\275\276yF>\256\227\332\275\022nD>\301\222\304<\304\325]\276#\247\007\276\000AK<N$\376\275\\\203\177\276J\212\251\275\023\201E\276\257 P>\360Fx>#\236i>\343\305\017\276\030\261s\275\025Nc\276\017W\025>\340\254q\275\024\325\227\275\254\273\322\273\226\233\241\275\224\013*>r?\344=\033\025p\2760c\342<\264\367\013\274,\213\377\275\346\366L>a\325\022>\254\300\214\275\2007\234;\276D\"\276\n\335\030\276~\303\310=\350\3307>d\262\032>Q\030\016>\320:B\274\001\363d\276?\353p>g\340*\276\210U\030\276|\237\376\275\325\003u\276\256v\356\275\320\211W\276\\\331\263\275\323\214f>\244\t#\275\330\022\025>\346`\017\276R\370\000>V\370h<\340\331q\274\036\035\304\275\266\362\001\276\356\031\225\275%~\336<\340[\025\275\246\224\200\275N\213\244=\006f\252=\3334\'\276\346r\177\276t\r\203>\022\223\332\275Z\366\341=s\003z\276\210v\330\275\254\024@=\273\351^>,\212\035\276\233\272:>p\310\325\272\327)@>\213!\r\276\344\242e=\\U2\276a\320y>z\211\332\275B\237\022\276\234n\242\275\333\301\252\274\371\312\020\276!\372i\276\255\201W\276zp\'<\314\001g\275\314u\326\273M\370\263\274Y\337\021>\354h\243;;\202\014\276\221\237\031>\360\207w\275O\305\200<\320\345o\274^\016\202\275$\324\013=\3544L\276\344\233\312\273\032\025\216=\255\027\264\274\'&\034>\223\034\220\274\\\027X=\025\325:\276j2F\2762%I\276i\213\024\276\264\252f=\346\330N\276\302\014y>\363\356\037\276v\030}\276\013\035}\276O\312E\276\336\365\245\275b\263%\276 \203\217=\265\344;>f\224\202=\325BG>\207\352w>+\345#\276)\225\037>\374\325;=\205\374\376<\262\0160\274Q\2733>\365]\270<iU(>\2415`\276 t\333\275\314y;\275\350\006>\2756n\035<e\2627\276(&\220\275\3743\200>\351\004!>\t=H>x\242\215\275\270x\356\275\323\310\245\274\023<\016>\363\000O\276\321SV>\366-u>\314r\037=\005\363\252\274D~1=\312\377\252\275\2416\003>\214\222v=V\001\331\275\025\3327>G*O\276\345\377\335<vzt\274\014\273\312=^Sr\276j\202\354\275\202\024\253=\201\304-\276s\320D>\217\032\014\276\213\016A\276\254\237=\276\314\240\020\276\036\361\217=\266r\263<p\356*\276K\356Q>W&0>p\316:\275P5!>l\370\367=\246\rt>\257\"\204>H#:\275\352\023\"\276K\342\003\276\200\347\234\273J\010\303\275<\240r\275\256b\207>\332d\032<}L!\276\317\225t>\244+\002=\225\205j\276\355\026z>\376\301\005\275|K0\275\350\025\311\275\246\271\205>lt:\275\246\364\223=4 \354\275r\346\203\276*}\266=\244\231b\275f\276\216=\237bI>\002V\274=\006\031\n\276\313J\n>:5\204\275}\312\220\274\314`J=\252\034\277=\200l\"\276\016\254<\276\014\275\027\275v\333\225\275\0275j>Q{+>\263!\312;^\367\273=f2\365\274@\004Y\276\217\031$>k\377\027\275}eq\276\362\301\236=\357zg>\276\302\304=\370\336\227\2754|\233\275\273$n>\226I\275\275.\312\374=\223\321Q\276\006\254R\274m\021<>\210e\007>A(V>\316\340\345=\336\260\247=\250\203\036=x\244\177\276\200\220\364;\210\005\236\275?\230\255<\276\326\300\275U,\026>\320\377\021=\264\316\231\275.\001u>\2348H\276-\257/>O\361\034\2765\004\014>\352\252n<K:`>\303\316\221<\036\343H\276\243\206#>r-\247\275\316\306\251=\016h\275=&]4\274f\362\365\275\370\3659\275\275\025\033\276v\2649<\366ov\276Z\304\357=iIB\276v\333\211>7\227N\2762C\306=4\341\243\275\235@ >\330\332\023\276\326\216W\276N=\204=G\345a>\271[\003>Y\345\005\276\354\336m=\345\364\325<h\245^\275k\327#\276x\'[\276\324S4=*P\177\276\314\224\r>\223]2>\026b{>\016\221\215=\177A\177>\214=k\275\2406?\276\264\357p=rX\252=,bH=\243\335\004>\262\214\365=\004\317}\276n\316\226=\347\254\032>\374\001\001\276\270\362\225\274\200#0;\260ok\276\275\374\024>\026\316\362=\200\246\023\275(\037\344\275X\336&=\207On>\337\374m>\225\253i>|$\343\275a\004\r>0ur\276\243\240\017>\325`\001\276<!e:t}y>?\017\200>\236\313#\276\242\326\373=\310f\200\275\274\207\347\273p3P\276n\362\211>\370b1\275\327\230$\276\020Y\265\275\333R\260\274[\352N>TY*=\241\302\224:;aT>\204\350p=\037\230J>\313\030b>\360\177\205<D4\366\275\212\260Z\276\020\r\363\274\\\030\303\275\220\244\033\276\221\367%\276*\325\t\276\334\212\217\275\327\0213>;\032\231<\033\017m\276Xuj\275S\210k\276\314\304\030=2\224\257\275\025t/>66Z<;\231o>#\310e\276\241\345\270\274\3208X\276\320\025y\276\265Y`>\362E\020\276=g+>\377]R>exq\276\372\016\266\275\"\364\034>\254j9\275\007\371\014>}\323:>\313\346\247<\020\353\274<`\331_\274\223\205\201>\370(\311\275hm\301=\250\322\030>\246\336N>B\236u>\310\0324=\314\313\266=T\037\200=\310\254\337=\210G^=\252\n\266\275\013S\r\276\000M\223:\000\260\217\27540w\275\230y\023>\222\313\016\2768\t\320=\236\001X>x\001\177\275\363`>\276P\374\233=\220\240\203\275\000\225\224:F\321\333\275\230m\266=\200\275\200;F\223\202\276\233\245\204>(`y\276\"U4\276 \277\013>@\354l\276lsM>\034\367\035\276\312S$\276@\212z\276*\365e\276=\265z\276h\2322\275\330\201b\276d\3073>x\017\226\274\200z\356;H:6\275\324\030U>\0100\271\274b\220\313\275\260U\240<\034}\177\276m\357\n\276\200\347\027;&D{>\343\333\201>\350\353\">9\237S\276\334Gd>\017(<\276`\242\276=\030\210\267\275\243\035\201>\200\026\374\273\350\321G>L\276[=|\006\352=&$\307\2759\343\036>\234-|\275%*Y>\330\277x\275g\371\005>\331\204J\276\370;\020=N\213\255=G\277\021>Y\271\005>\023\263B>\350#i\275\004\262#>H\367[\275V\357\t;\200z\317\275<.R=us\004;\373\031\237\274\t>\377\274\202\330\025\276\324Y\230\275\331M\202>\023\245\030\276\314\246G=\310z\374\275\205\360\357<\007\301\020=\nZf<R/\204\276\343\341O>\312\210\271=_\227\332<\242\305\245=:<\265=\361\234#>\033=\007\276\374\352\203=\177\207\037>\361UZ>[+B\276E\314N>\222K\223\275\000\007P\276UX\033>4\223~\2768r/\276\242\372\231\275\372\232\346=\261A\204\276\371Ij>f\tT\274\351?A>>7C>\3009\251;\245\204\004\276\364}o\276\266f\306=]\001x>\301\2660\276\006\202O\276\332z\016<\276F\264=e\210\035\276\365\3549>i\244j>\322:\207=\033\222[>\346\200(\276\241\245O\276\252\376\377\273q\222_>\200\252\205:D\332\007=\220\352\025\275\372\260\224=\372\260\217\275.\306\337=\375\356\024>\246*\374=\014{2\273\2717u>&u\214=H\217\003\276\301o%>\037\253\037\276\333*1\2764\356^\275#\236E>D\341O\276\026\035V\276\336W\230=\267\010->mH)\276\356\230\032\276k\226\326\274\034b.=\245\302\242\274\374PQ\276\211\366j>\\bn\275\230\2363\276\302u\341=\214{w\275\312_]\276\014\037\317\273\233\'\037>\022\373\336=j\024(<\026s\267=\370/\362\275\241\177W>,2\005=\257\335\201\276\316Z@\276\022\334\310\275i\260F>\346\303N\276\272\rd\276\244\333_\276y\321U\276\337$\017>\362j^\276\244Sk=\010\242\376=\315\005\005>V\317\017=\254\3603=\245\357:\276\347\372\">\354\213\177=n\327\321=\037\'^\276\2707I\276\327\235@>C\243\026>\274\230\222\275<\033n=\207\027\022>.\333\315=P\020\251\274\272Z\226=V\017\235=\314\225\320\275\177\026]\276Q\005\265<!B9\276c?\371\274\374\330\377\275>X\232=\024\250\024=\355\217C\276\265\365;\276\\\206\005\275g\367R\276\026w\323=|\024y>sh\027<B\254\204=\304\177R\276^\032\332=Mqi>\326\225\257=\\\3250\273q\037E>\224#`\276\224\"\201>Hg\321\275%\030:\276\000\345=\276\361@E\276\245\303K\276\221-\211\276/?h\276\373#\342<\t\\r>\255\0260\276Gl\006\276\006\360\315=\\\331\000\276t \270\275psi>@Y\333<\022A\344\275m\031\004>\360\013t\2769rG>X?\337\274\254\202\032\276\233\230,>pEH>\210b\202>,J\216;\244Zg=\206\t\205=\304\216v=\017\367@<n\332\260\275\266\325\370\275\335\026N>\213\036\027\275`\313=\275\214/9=pr\346\275X2/\275j\203\361=\245\260\232\274m\275\177\276r)\231=\2634j\276\317%\022>\212\270\235\275\0262\005<\274/D\275\004\350%=\322\224\203\276\276\210o\276\\\370\254=\317//\276\323\250+\276\311IG\276\2050f\276\336r\376=\'\216r>\375\261^>\360\202\313\2753\241\r>\365\251\005>\252&\327\275D1\314=\222\226\275\275M\017\304\274\215\353\357\274\202W\201>Q\rq>\314\321?=u:\t\276\022\227\242=j\304\276=\321\353%>\206\'\343=b\247\270\275\376\004\332\275l\361\246\275=\203Z\276\270\330S>\004!\313=\344Q\255=s\371\031<NC\252\275\233\366 >p\306_>\260\215\353<\361\326\202>[\245$\276@2\006\275@\017\235;7\200O\276\274\017^>\270\345\214=\004\261k>\010r\307=\316\310v>L\036\377=\224\331n\276\200\357\327=\240\265\037\274\247Z\205>xV\377\274\273\032\204\276.*>>V\204N>\034(\000>^sZ>\374\315:>x\026\017=\350\335&\276\300\327\032>0\037\216\275\036\376A>I\243M\276\\-p\276\210\007\272\275b\253Q>\020\307\023>\340\337#=\300\227Y\276\214\266:\275\336\232@\276h\340\304\275V\354J>.r\352\275\334\343\244=t+e\275`\377{<\344_\033>\260\254\235=\224\205\216=\226\311\201\276P\251\274=D\267\317=\242\355s>\251\376O\276\334\246t\276CZ\000\276\330\361+\275\345;\024\276\220M\345\275\224ph>\215\032q\276T\331\212\275\230\310\255=,%>\276X\250\221\274\202\231I>\234\205V\275<k+\276\"0\270=\226\353\262=:\033\351=\205\035c>\321\024\t\276\233\351I\276qo\350\274%\021U>\\\036\001\276\246f\272\275$\300Z\275\242\314\350=L\333o\275\323\010)>\362m\273\275\335\227S\276\347\220\203\276\205\214\003>\364l\253\2733\364\007\276\353\252\002\276O\326V>jH\210\275\315\273J>\255K >\361\006J\276\212n\316\275`\237p\275\254`2>j\210\211=\031\263m\276M\352\326\274\357M\201>(Q\024\276t\310\226;\n\363r\276\217\2512>\3555j>F\037\223=\315<C>$\335j\275\346/\256\275~\204\311\275i\231;\276\000Yg\275\247p\033>-\366]>#\300A>\3670r>\003cn>\204\326Q=$W\014=!\230\002\276\316]\207=\204\337k=\361\010\016>\344\254\240=\274y!\275\345Y\205\276\016\235\371\275\251\233>>D\332)=k\315\030>\200pK<T\315\020\275\217\214H\276m\033U\276\262\004\270=\326R\211=bo\327=I\322F>\372e\330=\233\345\247\274\250M\223\275\263\322I\273\226\024\316=\334/\027\276\226\2741\274,\257M=\353\322f\276\216e\200\276\214\341\236\275\361sr\276;\007\177>\304\037\210\276\316\034|>w\023\177>\256\200\242\275\tp)>M\201O\274\350B\373\275q\025\035\276\032\330@\276\236_\234=\304u\204\275\246\345\336=t\274\311\273\273lR>\\\031\025\275\237{J><\202\202\276\032M\275=hNi\275R\337\321\275\010\201|\276\273\2144>\205\241\020>}\260[\276A@\n>\221\275L\276>\356l\276<]\204\276\317\"u\276\250\310\200\275lx\204>\n\213\341=n\352\010\276gb7\276s-A>g\265X>J7V\276Z\202x\276@=\364\275\211\244s>:N\223\275\375\266+>\014?`>\304\214\306=P!*\275\230\3165>\036\036t>\200\037\357\2734\2059>\270\033\250\275\330\224\250\2758ce>\260\260e>|!\306\275\250_\374=\364\274j\275\014\316\303=\366\300\245\275\276\177\007>\n\"\004>\3619\007\276\200\352\213;\254\3602>\360=\326\274\204\023\203\276\376\312M>\265\005k\276\256\203q>\002+p>P\244\346=\0248\331=P\355J=p\354@\276\200\024b<\\\021{\275`\351\367=\323\244\205>\360?B\275|\364s>\252\001\014\276\004\221\305=`\220\013>,/~\276JY\323\275\000}{;\260^\205\2746|d\2762a\021>T\322c\275v\365v>\304\300!\276\234b\367=ZZ >H\3131>\300W\247;\232^J\276\024\210\227=\376\342s>0\337\016=\326j\203\275\200\036\324\275\343\335 \276R\301\312\275(@\320\274P!\201\275\005\232\033\276\316?\350=\304\336\231=\210\0362\275ci\'\276!T\005=\244%\023\275B\021\321=_\253!\276\224\027\023=\264(]={\270\204>\201\r.\276>bv\276\\;\203\276\024\277A=\352\316v<\276{\355=}\025\037\276r\355\310\275E<R\2767K\026>\254\265/\275\265Z\023\276\223\237k>\263Ka>\2747\276\275*\223\217\275\371W\027=\207DQ>GJ\003>@\341\261;\252\250\311=\203\200\034>\214Of=\205:\211<\2506]\275@\341\003\275m\330v>\354C\201\275\247\212k>\355\336y\276\260\205\010\276T\342\342\275\\c\350\275\036\254\372=Uj\241\2712K\323=`\323\003\275\207\311p\276[H8>\364x\026=G\350Y>\261o;>\342\267\227=|Wk\276\'K\022>]\377;> \356\246\275$\271\013\276\014l\375=\320x\243=\256z\303\275r\251\256=%\262\227<\366=\260=h(\316\275Z\266\267=D\021\035\275\000\344\007\275\372!\241\275\206:%\274\201\023\020>9\'\214<77E>jk\231=\307\340,\276\233\3051>\232\322\206=\354wO\276h\303\272\275\251\364t>\244\363\256\275D{\r=0\232\007\275\327\0038>eWG>)\334;>\361^L>d\210[=\334\007\333\275heN\276\nj\306\2755\365j\276\260\346N\275p>\301=\003\335\037>b\317\331=\345\316\205\276\237K>>eq\314\274\223\357b\276\346k\212\276\256!U\276\256FR\276\327\337i\276a\263c>\013\226-\276}\373U>rp\224=O\000\030>\001\032E>\002xa\276\244E\215;Is\016>\237\371i>\305\035\022>\017\312(\276.\235\332=\374\376\027\275V\335\225=\327\201\025\273{D\010>\261\245\n\276xh\357\274u:\202>\274Ri=\035\nd>\30300>R>/>\230mI>:\220\205\2758\336\006=d\036G=\273\245\005>\201\3721>\016\337\367\275u:\366<\251\200_\276\t\2434\276xR\221\275\274R\022=\330\223\201\2765M\213<\257]p>\270\276z\275\244\311o>\'\376~>\364\034]=6\256T<\254\003Y=\244\341\254\275j\343\340=\327:\027>\010\304\271\275\317@C>;~\201>\264\225o=\364\033z>\020A\266<\026\310\217\275\013\034!>n\210m\2766\243\247\275z\304\266=\"\215\353=\220\005X9o-\n>?]:\276\260\345j\275l\250\364;fn\257\275\264O\207\275Z\365\205\276\010c\002=}\315\323\274\245\177\r\276\030,P\276\331?d>C\000f>\357f\201>\007P\033>\203\324T>\200\336%\275Q&`>tx\021\276ee\032\276hwL\275\270\020Y\275\312n\304\275\200\313L=M\"k>\2232A\276\000V\030\275\250;\244\274\223GK>^\212U\276Zdb\276\034\261\026=\332\215\240=\331\230D>2\277\261=RY\211\275\320\214S\276\235\022.>I\306g>\022C\367={\371-\276\237\3416\276\374!:=:l\215\275\\`\004=\335\r\006>\367\273\'>\316\230\237=\364\302\321\275<\330-=\203\206O\276\227r\000>\3252O>\212\016\373=\252\360\210=\340n\353\275N\350\027>\334ZE\276\324~)=+\033\231<\222\023$\276\035\370U>\211\274>\276\325\341\006\276\022\036\360=\373rY>\003\251n\276\037\016]>\356\304\'>\236\t\260\275\303]\032\275\242\316\302\275\007:\253\274{\032#>\252\234H<c\342{>2\332\267=\212\236M\276\362\236\276=\210\nP\276\242\370^\276\260l\336\273\034[\'\276\214S.=\246\366v\276\334\345\270=\360X#\276y\207$>\374\313g\276\331\026\203\274"
      }
    }
  }
}
node {
  name: "decoder/dense_10/BiasAdd/ReadVariableOp/resource"
  op: "Const"
  attr {
    key: "dtype"
    value {
      type: DT_FLOAT
    }
  }
  attr {
    key: "value"
    value {
      tensor {
        dtype: DT_FLOAT
        tensor_shape {
          dim {
            size: 64
          }
        }
        tensor_content: "\301d\252:\000\000\000\000&\240\t\273\2223\"<\2223\"<\t\327#\273\2223\"<\2223\"\274\321DX\273\2223\"<\332\245\033<\2223\"\274\t\327#\273\2223\"\274\2223\"<\2223\"<\2223\"\274\000\000\000\000\2223\"\274p\022\003\272\2223\"\274\2223\"<\304T\301\273F\321\021\274%\267\3218\227\273\026\273\t\327#\273j\212\016\274\234\253\255;{\3620;\000\000\000\000\"\030\025<t\002\232;\2223\"\274LY\206;\3144\357\273\2223\"<\2223\"\274\227\273\026;\2223\"<\2223\"\274\014\307\272\273\000\000\000\000\337-\220\272\2223\"\274\2223\"\274\266\354\036<\2223\"\274h\t\371\272\t\327#\273\355\r>\273\321DX\273\2223\"<\234\253\255\273\000\000\000\000j\212\016\274\2223\"\274\227\273\026\273\000\000\000\000\000\000\000\000\000\000\000\000\2223\"<%\267\321\270\2223\"<"
      }
    }
  }
}
node {
  name: "decoder/dense_11/MatMul/ReadVariableOp/resource"
  op: "Const"
  attr {
    key: "dtype"
    value {
      type: DT_FLOAT
    }
  }
  attr {
    key: "value"
    value {
      tensor {
        dtype: DT_FLOAT
        tensor_shape {
          dim {
            size: 64
          }
          dim {
            size: 128
          }
        }
        tensor_content: "\330\236\276<\304V\r>,\223b=&h\260=\302N#> T\225<B\205\225=:,\t>\304g\">\2400\231=\312\311\032>\220\266J\275<\233\312=\021L\'\276 FA\275\214\022\333=\024\001+\276\344\220\364\275c)\211\274`U\210=\036g\324\275\303\237/>\256\014\034>\020so\274\313\016\363\274\352o\341\275\356\002\235;0\001\231\275L\225\321;\312\362\226\275\330\235\n=\254\327+=P\333$\275\210\000\016\275\260b\006\275 I\355;t(\317\273\224&\237\2736X\334=\030!\210\275\314\247\\\275`u\344\275\237\354/>\000\020\3509\323Z\365\274P)v=tn\342=\363\316\374<\306\241\202\275\255|\237\275d\276t\275\010k\010\276h~\211\275L\"\374\275\330\356\350\274\034\317K\275\r*\360\275F\354\273\275\014+:=\214\036\320;\312p\311\275K\345\035\276\200\027\203:\336\377\373\275\003w\207\275\034\256\367\275j\274\203=\035{\205\275\350\220\'\275\340\210\177\275-\024\306\275\360\0006=Ny\231\275\206\240\222=\261\256\210\275\221\341->\343\202\243\275\275v\255:\3527\001\276\177\2504>\330\000\214<p\307&\274py<<\300\240.=\000\010\271\275r|\323=\3401\\<\300FH\274\347B,\276\001\266\267\275\253\236\236\275\325w\025>\236~|\2752p\300\275iM%>\250\003G=\350\241\234<\3005b\274\2530\007>\215\326\013>\005$0>\274\364\017\275 6i=*7->\371k\342\275\014\027\034\276\025\210\024>#!\035\276\326\326\222=\344\220\265=\230\214*\276\200Jd=i\321\026>\337\273\223\275\365?/>\213\321\302\275\255g%\276)\366\024>6\335\272\275\"\325\322=\0364.\276Q{\n>\372g\226=\270\2752=\265\324\333\275\342\205\330=8\022\227\274\027<$>\177D\334\275\340\030\026\274\254\302\035=\217A%\276\352\335\376=\242\341\354\275x\373\241<\r\216\031>\316\014\377=\256X\247=\"\324\255=V\027\377=t\314\352\275\227\223\326\275\312\300z\275\212\264\347=`N\014<\236\367\375=\315\350\034>\362\035\367\275\310K\222=2\362\252=\370\224\364\2740T\024<\200\000\257\273B\201\361=qv\r>8\376\265\274\265\353\t\276\2007/<\000\014\262\272u\224\020>\240\004\003\276\334>1\275\010J\347\274\000\273K\275jp\345=V\013\213=\302\265\267=\200\355n;\000\273C=\310\342x=\200\032x\273\034D\023\275\000\"o:\020\241h\274\227\356\034\276\240\263\253\274\216\202\257=\314\204*\275@@y<\351\2630>\241:\270\275\273\017\020>t\343$\275\013.\324\275\330\3309\275\202l\365=\326~\005\276\037\226\001>o\375&\276,\274v\2751)*\276!\365\022\276T\251c=E\306\000>\210q\300\274\331j\325\275\260\204\270\274\016)\207=Z\267\331=\003\261\320\275?7\332\275\312\354\214=,\2214\2766\223\023\276L\332V\275-Q!>o#\n>\036}\265=P:\016<\200+\036=d[?=\000\346\347:\0217+>/\372\"\276\376\320\255\275`\315==\310T\001\276\344:4\275\002t \276\220\363\033=\222\nZ\275/\334\373\275\020E\373\275\372\321\273=\000{\343\274\350\224)=O\005\031>Q\312\'\276g~\022\276X-\020=&\216\363= \265&=\314\003\001\276Jk\222=\220\357\316\274Q\324\222\275\n-\264\275`*^\274\232S+\276\340\207\322\275\334+\004\275\375\264\006>M\333#>\255\266\017\276\207\332\236\275s\010/\276\276\277\332=\300F\312<%\r\007>T\236\027=+\342\n>\257\274\001>\302\230\023\276\352\224\254=<I@=K\274*\276\020\373\302=<J\r\276X\r\005\275^\265\220\275\375^\365\274\242Uf\275h\252\010\276\340\261\030=\332\220\342\275$7\222=s\022\327\275\222\n >\254\217\023\275\023\006\037\274\360O4=\\Y\254=\274\244\235=j\367y\2740\244\213=.\255\005=\356A\014>j\205\234\275\232\nO\275t\341\337=\006\304\t>\2540\376\275\204Bo=PF\233=\2702\024=\304\376\227\275(\324\311=\227h\244\2754\334\303\273j\255\317\275(\267\333=`\354\251=\223\224.\2760X\351=\270\373\366=\177Z\211\275$\323)\2750-\034>\317{\271\274pr\305=&\026&\276\372\207\376\274\211\331\030\2760_\314=\320\226)=\300\260}=\304w\245\273\344^/\276\212\227\227=\227-\332\275\020\255\375\275\230\032\362=\250b)>\004\020\317<\006\352m<\241\211\005\276\250+\341=\255D\222\275\332\305\">\272=\037>\352\363\332\275\360\035\027=5X\007>\374\273$\276\3608Z\275u\014\034\276\213\037\242\275\370\224\017\276\251\235)\276\035\323\007\276LW\236=\260\333\332=\255+\r\276,3\313\2738\267\337<\324VV=\337!\">\240 \362\273:\177\256\275G\316$\276\364\266\037=\276\263\332=\365u\014>e@\004>\313\322\352\275\373\334\267\275P4\225<\370\021\007\275\361\r\t>gE\035> \361\241\274TTj\275\214\311\'\275HY\270<\346\020\000>J2\023>p\262\310=jM\274\275\302\343\031\276\004\035\017>V^\301\275\004\276\006\276\354\013\014=L3\030\276\330o\326=x\'k=\233\373\300\275\260\216\346\275\250\341\033=$l2\275i=\027\276\313\301&>\351f+>q\212&>\364\263\020\276\226\361\261=\032}\232=\360[5\274\315r\033>l\232\201\275\275\330\032>\2358\r>\000\244\354\275\0309\307\275\227\252\341\275\206\014\237=\314\030\036>\274}Q=\024\354f=9z\330\272\220\332Y\274@d\007>\342g\364\275\034\"\210\275;0\027\276\207\340\034>\214\262U=\000RV\272\276\300\320\275\254l\233\273\243t\224<\317\034+\276\230\232\013\275p\261\360\275\326\306)>\210\236\027>\265\001\303<\350\277;>\314\333\347=<\332{=\030!\346=A\026\240\275pK\">\312\315\217=Z\273\025\276\004N%\275\347\037\253\275\032\364\323\275\230|_=bZ\252=\372\032]\272]\005\340\275hsj=\234=_\275\365\244\244\275S\200\022\276X\301\200=\314 \271=\332<\353=\226\234\033<(s\365=\316})>\262\233o\275\024\370%=\340;\312=\005\266\214\2747\373\322\275&\316\301\2750\351`\275\201c\'<\254\272\364=i\376\026\276\004_\243=\272\321\243\275\344\270A=\220\204$>}\331\337\2753\222\233\275\220\201t=\030\276\002>\034v9=pn\241\275<;\023>\350\362\253=(\334x=r\212\014>-\253\310\274s\237#\276\034\237<\275P\203\013>\312e\270=\000[\367\275\322d\361\275\314P\017>\"\304\243=\214q\314\275\200\252\377;\256\300\320=\030\242\360<=\215\256\275\002&\254=\372\361\367=bW\264=\210\315\243\275#\023\275\275&<\346=\372\325\204=`K8\274\225\317#>\300Lb<\240\3701\276\320\2539=D\002K\275\316y\312=\366\232\203=PV%>\232\245\212\275\036.9>\r\345\022>,\313K\275Rb;\276x\316\262=\220\257\261=\262n<\275P\233z\275\330\177O=\212\371\266=@iu=\273\216\222\275*2\374=\244/\t\276N\247\377\2758\221\276\275\220b\016=Kc/>\202\372\335=$\337g\275\260=\376\275\016\267(\276\372\267\254=\204D]=`+\222;(\313\240<\265S\252<\024\250\336=\244\024\340=\333\246\000\276\202\352\320=\300\1771\274\237\217\372\274\217\203\010\276\273\264\227\275\260R\351\275\014\357\373\273\210k\262=\343\217\237\275\325\360\026\2764\337\021>\006\307s\274\244E\306=F\177\002>\213\210\247<\272\343\240\275,\330\255\275]\353\273\274\221(\340\275~\210\000<4\216\236=\220\335 =\354\314\010>\256\213L\274\0347g\275x\317#>&\223\\\275\235\240\303<\344\362\350=|\210#\276o\272\322\275X\221\345\275uY\255\274<\331@\275\355\033\245\275\355\240\216<xX\303\275F\034\000>\373\002\301\275\214\014\037>\226N\013>\362\025\371\275\334\224\376=j\316\362=v\273\035\274 !->dI\310=\234\211\350\275\302/\223=\000;\004\272\374\232\362=X\226\t>\261\007\314\275^\016\001\276T \242;\340k\005\276\266\252-\2764\320^<t\230F=\335\304\023\276\274!\254=\260s\362\275o\000\256\275`@\336\275\343\263\245\275\316f\000>b\374\017>V;\007>\320\307@<\360\0021\275%\317\270\274\253\017\027\276\374\277u\275\"u\317\275\n \225=@\320\022\276\230E\325\275\200>z;\227\253\001>\200\362\211<x\370j\275$i\364\275o\300$>\320 \324\274b\344\"\276\202\033\265=\312~\005\276/\261\377\275\333w\202\2750\017\032\275\206\034\301=,H&\276\337\313\326\275\024\313!>FU\227=&\255-\276t\337\352=\"\342\037>\302+\030>\220\230\250\274Z\025\265=\\\337\000>\311\276 \276\036A\354\275\260\021\331\275X)\002>\260\357\002\276\235g\"\2762R\\\275 2\265<\250\355\035\276=D\326\275\002p\351=8\257v=\240Ug<n\300\032\276`\347\360\273N\362\301=j\326\332=\000\026\024;a\311\236\275\020\232\377<\330>\256<\264\247\010=\006w*>T\354%>\314D\301=\000\353\307=\240\206\023\276X\2661\276\036\356+<\220,\226=/i\322\275\234\307\273=\366B\356\275`\327\306=\314\273z=q\346\010\276\245b\227\274\324\"\246\275\234\317\353=d\351\n\274\3245f;HS-=S;\313\275\035\351\323< \261)\276\226y)>J\017&>v\305s\274\346\260\t>gK+\276c\000\030\276\320[\370=\376\n\203\272\276\025\r>\216\236g\274\\`\324=I\034\034\275\304\215\314=\274~\252=\032\n)>\215R\207\274\210\2327\275\030?>\276|\234\260=\201\244\262\275\210y\037\275\265\225\032\276di\211\275\240_\345=\326\371U\274\022\235\305\275.J\002>y\263\014\2754\275$>E,\310<^\247\027\2760V\304\275\034`\037>\306Z\244\275\"\026\031>ny4>\017~\224\2751G\244\274r\251\002>\360/ >|\3069=\373\253\207\275\254Y\003=\3505\003=\264\314\372=L\233.\276\274y\270=`\206\230= 7\303\275\021o\237<\347f\375\275\230\315\205=\030Oc=\022\252\215=\337%\t\276\372\302%>=]\"\276\210\244T=\2703\330\274C\335\322\275\366\034\210=\030\304W=b}\247=\264\216\333\275o<3>\342\216\033\276z\376\244=\302A\316=\006o\250=\020\332\031=\013\263\025>\362\\\310=z\r\360\275]\177\251\275\003\272\363\275\260g\030;\363\347\034:\232\274c\275<3\247=\334q\235=x,\331\275\232\351\031\275x\242\234=e\315\027\276\024\370[=J7N<l\220Z=\006\006.\276\020\366/\274\324a\311\275\270\2031\275\251P\247\2754\341O\275\212\232\376=\014\006:\275\333\013\310\275\360B\232<2p\307=\360\310\027=!=\321\275\000\034R\272?\274\322\275\207\2544>p\032\035<+h6\276hW\257=\250\036C=X\240\215=\301G\253\275h\031\021>\363\t\311\2751y\003\276!\206\034\276\2703\335\275,E\343=2|\205\275\276e\230\275S\242\224<U\021\036\276\000g\014>W\257\370\274S\265\200<FZ\n\2764\033\223=\336\353\200=\340\372\034=\346Z=\2744_\327\273\333\262\020\276\277Y\027=\347\243\257\274\362a\016>\344\202\315=\220\202\000\276\354\220!\276\234M\304=2n\035\275};\235<\332Z\026>\2729\017>J\323\327\275\024\235\311\275\3423\003>D\326\341\275}\227\021\276\'\010\207\275(\252\325=.>#>\250\260\024\275\372\227|<x\207\024\2754\366\214=\274\006\276=,\"\027\270[`\215\275\254\204\310\275\354\377#\276mv\222\275;\023\001\276P\362b\275@\223\261=\004\210\032\276\035>\006\276n!\020>\314\351\017>\230\207\324=\362D\033\276\340\032\272\275\004\377\037>0hA=I\3640\2760\r\374=DJ@=:\226\345\275\354\'r\275\334\014Z\275\300\304\240\275\014\203\265;\024\240\022>\362\257$\274\267\013*>\306_,>g\315 \276j\236\333\275\316Z\270=\300p\006=w\364\027>\000e\\\272F\022\265\275\264%=\275\020\206l<`\2323=\312\231\220=\345\277\264\275\221c\036>\367\2321>\334\313,\276\263\022\305\275im\315\275\r\304\010>a\261\237\275`\222\036\275\336\227\003\276\336\256\027\276\334+\030>\356\252\000>\214\0012\276\363\036\353<\334Wj=\177*\250\275}\355\010\276\345!\323<\333\333\233\275\255E\234\274v\032\370\274\332\334\361=`LB\274\330B\265\275k\361\257\275\340\231\344;\034}\000\275 e\365;`\022\034\274\335h\035>q\375/\276\310w\007=\300\270\021;\332.\346=\362\312\331=^\246\344=\020\377\021=`\"\361\275\323\323\201<E;\332\275T.*>\034}\323=\225\035\224\274:\214\320\275^\023A\273\276l\031>\220k-\275\374\236\016\275\340\246*\275\017\034\r=\220&\243\275<\322\202=\001\353\324\275\275\240\202\274\\:\301=\336\\1\276p\374\333=\312\222\021>\014\000\227=h\266\017\275\306\3735\274\310b\022>L\001/\275>\224\006>\274z\022>\251\252\346\275\304\271\231=\330/\212=\310Z&>tO\370\273 -\350=\331E\306\275\304|\021\275\337\316E\274\313\321\n\276t\274\260=e\271\265\275\004`\350=F\202$\276\335\377\250\2758\365->\232\214)>*\210\n>o3\262\275\312\340\320\275\024\204\332\275J\271]\275\020\265J\275\362\337\031>c\0021\276\374\3343=\244 \373=~\1770\2760\024\262\275\336\260\024\276\327N\247\275\330\310\313\275t\362\001>\254|\366=\300h2>k\231/\276\2779\"\273_p\321\275\234\201\201=\345\362\n\276i\301\337\274\200\225\250=\246\2570>\025e \276\034\364\255=\024\256\274\273\026\343\017\275\3050\305\274L\376\177=%2\315\275\254\332\265=\200\257\246=:\333\005>\0027\020\276We(>r}\361=\212?\252=-\201\n>\260\r\n\275D\315#\276uh)>\271\0224\276I\211\317\275lFF\2758k\351\274\212\025\312=\031\364 >[\331\034\276z\372\236=\277)0\276\200`d\274\244G\017>f~\245=\256\253\241\275\036\243\364\275\0140(>\2542\302=\007U\276\275l\036\323;\263\013\023\276\3248\004\275\274\215\003>P}\327=\210\352\350=\226z\355=G\226\251\275\202\0025\276-E\263\275\024\375\265\275\244?8=8\332\230\274\023\356&\276\006\t\201=P\241==F\320\032\276c\364\n\276$]\223=\3074\335\275\350#\014\275@\345\332\274\233!4>d\342\007=PtY=0{\303=\300\0229\276\244\t%>\272\2760\274o\037\200\275L\326\242=P;\321=d\225\241\275jG2\275\350\3629>\010\353 >Nc\010>t4W=\372\270\004\276v\361\2439 \244\247=\360\334\027\275 \265)\276\234<*>T\243,=5P\262\275\344\232\007\276\273K\324\275\353\034\257\274\301F\010\276\000\362\263\2750\307$\275\330\356\344=J\371\225\275IK\237\274\375\224-\276 \0065\276\016R\373\275|x\000\276\2752!\276P\242\000\275|\332\212;\3404\374=\254u\351<<V\336=5K\206\275V\355`<\202R\344\274\374\230N=$~3=\376<\016<\344\251\222\275\274y\000\276\362}\027>\324\334\353=\004\002\032>\264\330\260=\356\314\232=\254[3>\202\314x\274\005?\255\275r\324(\274\010\366t=\032$#>@\0038= \232\344\275vr\341\275\362x\377\275\254\211\010>\002\265\311=J\335\007>`\236*\275\217\270 \276\245\006\002<\270e\223=\370*\216=4\245\261=\314\317\330=p\035J\275\340\2731\274\210.\266=v\264\036<4\263\250\273\321$\027\276<\3043\275%\3160>Xm\004\275\307\365\010>\232l\334\275\026 \367=HJ\316<\265\0234>dj9\275\326\315[\275\341\256(\276.\231\223=\254\341!=\314l\004\276F\231\342\275 \312_<\000M\227\274\260\021 >\217]8\276\377Z\346<\346\1775\274\252\276 >\244\203\224=\312\336\274\275\213U\247<\352\200w\275\361\222\037\2760\373I=\3506\377=\014\366\n>-\t\346\275>\025\212=\260\214\326<\2521\243=\002\250\347=\316\312\265\275\365\210\013>\320\004\227</\036\030>\000 \233\274\340\276 \276\300\035\232\275\275\371\024>yb\377\275\207\024\005>\371\335\270\275]\270\216\275[\000\250\275X\233\034;\314h\376=\370\342\341\275\000\341\254=\377\207\354\275\220\230t=\210LI=\024\214A\275\377\262B\274\262\303!\274\000|\022<\242\276\">e\330!> ^\334=\214P\002\276\014\216o\275k\257\253\275\274\204\301=\346\234\t\276\254\207\334\274\240\273F\275\005\270\215\274\022\202/\274\004#\272:\360J%\273\335\343\247<\203\243\266\275\210\222<>$\253p=*^\255\275\234\322\007>\274\360U<\233\221\253<i\221;\276\366%J\275\316v\331\275\010\360r\275\303\340\306\274[\017\032\276\035:\234<\000T\">gC)\276\340Z\016\275\264>\004\276u\370\003\276\177\323y\273\262\374\023>\204\361\336=j\271`< u\366\275\204\352\355=4\330\211=@\2704>\340X/<\326cG<l\323\363\273\364B\317\274\027%\332<Him\275\260\313\023>$Y\330=i\360\273\275k\232\246\274\230\276?=\216p\004>\205)\037<\306\244\027>}<\226\275\257\374\016>\032\305\200=\200\003\006\275\\\201l=\332\360\306=\250\323\352\275\220\305\016=G\253,>9)\330\274\010\303\266<\225\007\316<P\363p=\000q\331:g\266,\276I\226\014>\204\210=\275w\234\323\275!\360->\242R\025\276\300z\222\274\250\316\365\274\325\276\002>\324\023\003\276Y\220\003>\321\245\312\275a\034\014\276\230\025\216=\325F\027>}\007\032\276$~\277\275YA-\276\010\373\261<\24053\275\216=8>\010S\031>|L9=\020\031@=\304p\034=\256\013\t>\235J\220\274\364\2735=pBz=o\301\'>\200\002%\273\212\324\322=u\214\352\275d\240\031\275i\355\306\275\020\304X\275\330\252\202\274\366\"\302=\006f\332=\224g\242\275\305\034\213\275v\232\311=\0361\306=m\037\301\275\256[\316\275F\242y\275F(\014\276\\\345\225=\'\206\244\275\324\216~=\277\017\324\275\r\271\310\275B\035\337=\266\353.\274\245\362\302\275\223a\n\276\310\035S=q\034\013\276\010\337\037>i+-\276\317\220\002\276v\352\314\275$c\271\272\002\3523>\324\200 >\304\324)=\213\013\310\275\267\360,\276\320\334\020>\004\r\375\274\266\211\202\275\033\"\034\276\006\207}\2748\261\005>\273W\227<\347\036\260<s\003\t<\310\000\020>\236V\215:\004\361{=[\266\213\275\316![\275\004\322\267=T8\240=\351O\305;`\276\007>\310d\006\276\3259/\276\002\020\236\275\220\253\323=\356v\005\276\374\327\305=\004\354\005\276\034\013\034>\276\272\216=\010P\240=\326k#>\034Bt=,\210\013>\306p\324\275\377\007\261\275\2466\227=\301i\007\276\210L\374=sr}\272\360 $>8;d=,\242\300=\376%8>\317\256\304\274T\213\241\275XR\300=JB\344<V\347U\275\020I*\275(\367\227=\244@\306=(\246\327\275\273\002\033=\023m\020>RJ\024\274\273\211\214\275\360M\343<\206y\013>\364`\221=#S\002\276E\006\303\275l\010\213=,\371\016\275(\277u=\220\325H\274-\2504>\365\n\327\275`v\227\274\230\372\301\274\366o\024\276\200!z\273\201\025#>\"\334\274=d\305\306\275\340z\342<*~\321=P[\004\274h\005\333<\233\272\t\276\2504R=P^\335=\366d\036>\252f\013>\216\341\024\276nm\377=\357\365\351\275!\302\002\276\300  >\030O\274\275\327\325\006\276@\210\240=@\231n\273\320\327\375\274\364\345K=\317.\026\276\270\t7\275\211=%>B?\376\275\322\003/\276\232\350\232\275r\274\000\276\340\000\242\274(%\205=`\311\350\274\002;\310\275\267}&>\034C\002\276M\323\013>\371Fl:\334?\"\276\214\266\263=\200\207\374\275\"\250\016>\330\203\032\276\317\022\027\276\220\277\275\275&> \276\346\010\331=|w\032\276\272\373f<4\334D=XV~=\014.\\=\274\270\274=\022c!\276\264\'\210\275}U\272\275\224\356R=\217\357\004\2768\343\323=\304\033\013\276\350J\344=6\270j\2746\343B\274Q\301\225\275*\263\213\275\255V\236\274p\245\240=0\311>=~L.>\200\200$=\260\300\250\275w\"\220\275\310\014\260=,\367\014>\3024\r\276\210L\222=\274\330\270\275\240\342\007\275n`\005>P\177\334=_u\320\275\330\237\313=\346\023\001>\020Z\327\275\314\255\230=\034\007$\276\314\314%\275\211\373%\275H[\355=X\035\331<\303G\036\276\2020\233\275\032U\022\2761)\263\275\370\305{=\330\026d=hi\364=\2265$\276(\214\341=!=\266\272\360n\006\276\010Z_=\244\215\225=6y\205\275\353\026\023\276\240\315\256=\324\227\002>\320\357\222\275\275vN\274\360\227\312=\0042v=\024\035t\275\004\302\007\275\222\220\270=\027)\347\274\244\252Z=\360Z~=\r\007\004\276\325\025\021>\350\275\006\275@$\275\273\2008\335;BR\324=\322\272\342=\250\237\202=\202(\251=\260\014(=\211!3>\022\325\225=\t\003\022>\027[/>\313\313\035>{q\320\275d\320F=\360w\342<\252\233_\275\261C\024\276\204\033\027\275fd/\275\003\323\230\275\204\367n=\270H\017\275R\336\333=\3745.>4\312\177=\365\024\275\275UD-\276E\324\205<9\214\313\275\273(*>B\213\304=F\251\177\275\270\325\363\274t\350\'=Tc/=\024\005\026\276\226\261\356=\030w-\275`\312@=\021\220\n>.\222\243\275\240z\250;\250\220\021=h\225\032=\346\264\352=\315\220\357\273E\347m\273U\241\306\275\235\313\233\274tp\311=\211$\021\276\207\334\030\276\020\345\">\204\214\244=\317\266\013\276G2\201\275\252c\'>\3544)>\037\347\035\275B\371&\274\000\300\013\276\025\362\320<\344\323\351\275&\376\230=x\001\377\275\230G\315:\n^\030>\335t\275<\254\212\305=\314[\371\275\223\225\245\274^e\007\276\346\361y\275H \255=Rk\000>rz!>\331\262\020\276\026\375\253\275\265%\274\274^\3204>k.\234<@\360Z\275\\\377Z\275y*\224\274T\320\250=\375\021\311\274\\n\315\275F\232#>\220\017\367\275\234y)\275 \365\002>\2460\026\274\346\017\'>\203\220%\276\373\352&\276\007\267\355<\350\312M\275l\223\275=\344\361\262\275\274\313\032\276\355\244\336<a\201\246:#l\330<1\267-\276\357\345\006\276T\323\342\274\024\360\030>\204\2236>\302u\241\275\376\352\006>d\0146\2757j \276\232L\031>\211\302\345<\276Hz<\244I.>\310\005\022>(g\007>\242\037r\274<\375j=\335\202\363\274\226\210\267=\227N\000=\007F\262<A\354\n\276E\344!>\203\336\022>\246A\326=8R\024\276\006\241\363=\3703\334<Cb)>\232\216\252=\230!\342\275\036\211\'\276f\213\235=\322\372\267=}\276\036\276\"\236\321\275\026\377\327\275\240\322z\274\022\245\342\275\000\2744;K\224\322\275?\\\n\276\005\t\272<\214\3404>h\322Z\275\200\032K\275\250\363\221=\226\000\"\276\214t\036\275Dh\335=p\344\355=\204W\025>W\211a\273\337\202\314\275@a\034=@\211\314;\270jT\275\330\020+\276\317\204\004>v$\206=y\211\342\275\260\007\030\274\2627\335=\346\373\344=*\204\373=;\266\245\275*w\345=`t\245;\010i\357\275N\366\377\275\210\255\233=\370*\003>\320\3239>\375+\345\274\352\254\201=q\007\316\275\262N-\276\204\203\037>\224\016\243\273%\3415\2765\266\016\276\020\024\026>P\364\036=\326ai\275R\023d\275\364\310O=D\376\336=Pv#\275\223]\274\274\201\213\340<\010\253\261\275\246\362\343\275\306B\010\276\3023\006>Y\264(\276\207\257\003\276E\337\322\275\0100\206<\034\320\343\275?7\304\275\215p<;\354\343$>\204J\354=\004\256\216=!\370(<\320\031\374=\214\326\202=U\230\303<x\264\'>\014#\221;\304\261\000>\274\303\326=$J\326=\224s\032>\037y\272\274|lk=u\244\032>\353\021\232<\327/\254<\017\257\035\276,\203g\275\374\031/>n\\\302\275\221_\272\275\ni\013\276\214\240\236=\254_\376=e\307\361<4\255\034>p\"H\275\026\355s\275\212,(>\301\265\205<\227Y\340<\246\216j\275=\203\010\276\207\210$\276\220_\210\275m\303\244\275\224\0051\275\\-\245=(\243\272=\2543\266;V%4>P\315\337<S\337\027\2764OZ\275R\226\317\275\024*\244=\3603)>\020)H=\372J\365=\307\332\026>\232\322\262=T\353\220=\320\213\005\275\364\014\212\275\360\274\020\276\340\377\221\275\370\340s=\241F\367\275\356D\233=9S*>\"\005\243\275\232!\235=C\274\334\275\t\376\024>~f\367\275\024\024\221=\300\253\371<m\r\256\275\225\376\246<\214\267\263=\270\336\377=<\224U=\264^R\275\304\032\300=d\200\021=\340|\027>\270;\376\275\304\254\277=\002\336\350\275F\355\330=\014\'\005=\262(\246=\357e(\276\034\014\t\276`\006m\275(\030S\275l\020\326\275\024\262.=\025\020\t>hh\333<\"\245\271\275\305L\342\275A\013!>\204\'\367\275\000\240(\270|T\005\275\244\370\357\275\024\2031>\230\343\314=T:\304\273\323\207\313\275\276\233\337=\205y;\276\007\223\241\275\324\346#=\204V\336=\346g\244\274\014\307\233=\270\341>=\274\303\027>\354\3769=\026\341\014\276\010X\217=\303Z\310\275\305@\250\275\373#\335\275\264\330p\275\320ye=\033P\213<\370\312\371<\376r\257\2758\030\265=\303\270\253\275[\226\014\276\271\214)\276\356\357\017<]\014\304\274\025\350\005\276^\270\023>[;\244<\275/\">fr2>6\310\000<\314\364\023=\354^\372=\270\201\371=\200\236\263;\343t.\276\256=+>V\007\000>\030\315\264=%\016\241\27506<>\346z\241\275\217\221\363\275\330Y\001=\245\215\375\272\372a5>\002\227\"\274n\335\333=X\276\346\275\207\370\250\275 \222\035\276\030\316!>.X\006>\3730\351\275d\325\364\275\026\214\241=0\003\367=V\177\036>\\\226.\275-\263,>\210^\006>tp`=\037\312\036\276\"j*\276\340\000\\\275\004\347\013>\310\005\215<\360\\y\275G\240\242\275R\016\002\276\214{\374\275\'\275\227\275\353\365\023\276kZ\255\275hp\021\276\305\014\023>a)(>\273\3704>m\301\001>\300r\027=\267\375\032\276\004>b=\355N\004>\376@\347=\245\311+\276\320\346\244\274L\232}= \240\001\275\033v\245\275 KI<\201\200&>\264H=\275W&\027>\243t\236\275];\357\274E,\t\276\246W\013>\266c\226\275\303\210\227\275v\233\262\275\206\312=>\014\330\324;\306u%>\356\002\256\275.\277\271=\240\200k<<\312R\275\340\256\341<\207\246\000>S\333\025>;\300)\276\304\343i\275r\000\336\275O+\032>\355?\005\276B\014\316=\003)\261\275P\"\024\276\000\024\177\2720\331\031=\270\302\023\275\004/\r>\367W\344\275\375\\\264\275\253R\227\275\300(\314=\254(2\276E\327(\276\3136,\273\256D)>+V\320\275s|6:\014\007\317=?\207\021\276 \345{=\020\351\256=^\2729>.{_<\014I\345\27521\355\273\004\211\274=\2036\367<\222\335\312\275\207S\306\274\364\2471\275\304\363\324=*\022l\274^\306\353\275j\350\014>|\364\254=\304_\307=g\230 \276B\200+>j\357\004>L)\002\275ptv\275S\211\030>\324\312\312\275*do\274\032\356\361\273@iu\275\245\234\251<&1\365=>0\023>\\\204\370=;\206\r\276,\343\327;#;\222\275\366\036\010>\234\246\272\275\300\212\364=\207\017>;\340\356\314=lN\351=|m\t\275\026E\211=\321\255\217\275hR\377=f\335n\274865\275\257-\005\276f(\365\275V\337)\274|\314\213=rI\030>\217]\225<f\326/>\222\337\340\275\214$\353\273{p\224\274\334-\323=\324\366\325;\270o\275=\231Y\035\276\226r\267\275$\\2\275\004J.\276_\332\017>\r=\272\275a7\003>\333\205\000>\300\367\335\273^\262\353=\242I\274\275\226V\221=T\220T\275\316\347b\275\360\023!\276\266\024\373\275\300AL\273\007\205%>l\337\014=\240\251\203\273\237K\027>]\013\270\275\000:E:\353\275\030>kV+\276\303;\341\275\007w\n\275Y\213$>\352\257l\275\353\354\024\276R\032\233=@\027\326=\304\241\355\275\344\346>\275\304F8\276\220\357\220\2750\357\204=\336\013\005>\372\031\373\275^\363\276=\210\010\020\275f\332\204=9b->\363]\014>\330?4\276\r\027\022>8\357\313\275\334,y=\177\361\245\2754 D\275\343\244\t\276`\3752\274\r\364 \276\000\326\005\274X\324n\275:\243\275=\0261\006<4u\342=\342\242\034=\032\027\r>\202\275\r>\310-V\275)\263 \2761M\010\276\360R\024>\371\247\027\276V\371A\274\324X#>\257m\202<\256b\365\275\261\213\010\276\246P\022>\360\r\230=:u\026\276N\353\013>\204M0\275\034X\371=\244\353\244\275[]\251\274\01684\276\234\246\324=\246m\305\275\224H\260=\206J\004>H\3071\275^J!>\212\225\313\275V\216\222=\242\367\335<]\031\365\274#j\243\275\306\021<\276rY\020>\376%\232=<\243!>\211\344\253\275\274p\271=H\205\277=\330\224\277=L\207\371=\340\360==Z\204\215\275\022r\376\274\010\266\365=d\305/\276\372\"\007>\033\362\226<\224|\340\275T\260$\275\002\340\366\275!\"&\276\210\375\306\275\247\363\365\275hM\356=_\322\346<\262\326\234\275\320\265J=\000\177\000>\233\242\225\274\277\247\003\276\013G\317<#\324\336\275\266\331\271\275^r*\276\363\326\213\274\"\345T\274\002\000\242=\224\027c=\273&\361\275\377e/\276\243\245^\273\267h\271<\304\375\016=\213y\\<\237\361\032\275\264\347\231=\2460\252=~\372\245=\376\370\370\275b\023k\275\032\333\r\276\372z\232=\340Q \274f\203\201\275|\251\017\276\"\241\265\275\213$)>\360\301\225\275|\005J\275p\325\022\274\020\355\r<h\365W=b\210\316=X(\206\274\2407\266=\3567\347=\005k\247<\024\037r\275\350\260\177\273\034\265\337=@\215\t;\225!\033\276\214\024\373=\277\317\237<\237\024\032\276G\225\300\274f\001\021>\204\3534\276x,\354<Jq\237=\246t\333\275\212?\310\275\272\312\311=\350(\354\274\035\2321\276\200\273\230\273(\013\370<l\373\r\276o\005\323\275\340\270\266<\220\305#\276l\377V=W\361\032>\366\371\336=\257G/>\t\360\365\275)\241\035>|\203!\276\350\n\255<|\275\000\276l\210\334\275x\364\360\274\351\346\001\276\\\306\024=\007v\036>\323\342\030>\026\350\244\275`d\326<\250\034\024\275X \363<oR\"\276\'#\220\275q|\004\276K\357\037>\022\315\332=0\t\325\274`iz=(\322\206\274\036\031#\276`S\244<X\177!=n\366\311=\024K\355\275\233\036&>\014>\337\275\200>\217\272v\265\337\275X\025\300<J\3471\276\370\373\313\275\352R\315=:f\373=LWz=\027\325\013>\364q6\275\036\233\327=\242\312\244=\300\215;\275\213\303\243\275P@X=\360[\026=\300\365\356\275\360\007\214<\322\"\267=\\\356A=\300\237\020<A]\332\275p\254\371\2746\363\237=\220\t\"\274\322B\276=0\304\017\274\320\354\007\275\366I\375=[\207\034>\000\310O;{\3732\276\216M\241=\034|8\275\302;\222\275\221\032\004>\022b\323=\326o\270=O  >\332\256\273=\363q\307\275\360\253k<\033y4>\350\270_\275P\026\341\274\330\312Q=\037_\004> \205\320\275@\260\306; \273\362\274\2207G\274\300\337x<n\353\232=\273$\035\2764\227\204\275VR\321=\246f\262=\014\'K=\244y\014\276\000}\036;\213\270\034>|HJ=\260\323\276\275\313o\004\276\334\320\214=h\241\316<\213\014\004\276(\225$\276\032k\256=@pt=\247I\347\275\300\261k\274\3361\'\276\216@\242\275^\334\214=mq$\2764\207\200=\320k\326<b\205\232=\360\342\202=U\0142>\310\006\274<\212b\252=Ls!\276\212\240\247=\215n\031>\032R(\276\277\315\021\276z<\241=\371\222,>)\035\035\2767\213\025\276\330\336\276<\023=1\276@\347s\275b\211\014\276vj\322=fx\t>\032\256\216=\204\363\271=\240(e=8\n7=\345\227\"\276\304j\200=4~]=\330\235&>\005\367\007>Q\211%\276\204\237\327=\020|\177=\024R\215\273\220M\343=\337\271;\276\305%\237\274n9\347=\030F\\=\330\376\260=\016\255\021>\023\341\360<\020\216\254=L\004\307=\210\346\252=\240\333\030\273\274\353W\274\350FF=0EI\275B[\n>\222\221\340\275\220-\225=T\343\217\273P\221\230\274J\352\001>\333\025\r\276}q\353\274=\3723\2765\363\007={\336\265\274Z\021f<\322\321\003>\264|5>\264\220\'\276,S>>\324Z\032\276\207$\032\276\264X;=7\375\'=\366\360\025>,\225\014\276(/\007>h4!\276\354L\376\273\234\337\r\275z\031\000>\215\342\344<\332@\370\275T\204\030>\340\031\343=\232*\334\274\266BU\274a\253\007\276=N\006\276(g\356=\376\341J\274\274\016P=\250\345\353\275\224\212\304\273V(\222\275$\201\021\275\202]\351\275F\213)>\202\243\204=\364\351~\275\246f\024>\020\017U<K\220\376;\244\252R=\261\267\333\275N\334\234=\344\317\013\2760\232\220\2758$\337\275\315\303\027>\213+->\200\331$=<\217O\275\221Y-\276\300\017\224<\230K\036\276\330#(=\344MA=.\253\366=\213N\263\275&\013\251=\2426\r\276\256\241\333=X\203\032>\034\217\t\276\376\017\376\275\004X\265=\200\331\343=\312D\002\276\\\222\335\275\036y\350=:\212\036\276N\214\021>\022\210O\275\377~\332\275R 2\276\360\267=\275\370\267\373<\3149\r\275B\036\253=\330\3236\275KR0\276S\177\017\276\370Z\264\274BF\272=\250\000\210\275\260-&<`\376\343<g\364/\276(r\315\274h\260\346<P\225\030<\230\214\246<\344\302\025>w\0271\276\021(\247\275\2130\214<\374\232\276=0\000\346=4\276q=8a\276\275\004\306\014\274I\3702\276L[W<\255b\017\276\344\264\014>f\357\034<\2221\024>\'W0\276M=\024\276\350s;=Y\235#\276\354\017/=V\347\237\275\2606\241=\200\003E=\010o\242=4L\300=\376\306\352\275\335\265\217\275F\342\217\275j9\357\275xl\364=\2623\362\275\322`7<&\350\025<<\300\236=\\.\">\360\236\335=\000\262\221=\234\307k=u\370\027\276O\221\327\275\366\241q<(\275\247=\006\210$>\014\322\303\275\220\253\261=\360\033\315=J0x<\377\246\204<0\3445>\021v0\276\352A\'\275\245g\374\274\255\n\365<<\325\350=$\247\033\275\306\177\005>\202t3>h\313$>\005\356\231\275u\213\204<\031\177\246\274\250>\243=\006:\315\274\300\331\030>\007L\212\275\214\376\360;\264\335\032\276t\003\234=\254f\n=\314B4>\334\350\027>\023\025#\276\232\2276\276\030\320\034>1\302\327\273\333e\245<?`\031\276 UU\275(v\'>h\255\242=\243\014\014>\251K\034>\256E\341=\212^j\2754\002,\276\365W\013\276r\331\376=XX0=0\022\351\274\204\017\001\275\272n\345=\264\222\265\275R\007\300\275-\232\301\275\360_2=\261\021(>\270\274\263\275@_)<\326\213 >jR\236=\020\306\254=jz\334\275\227\377\334\274L\013\350=\252W\250=\005?\302\275\024L\330\275\\\202h=\002<\242\275\252aw<:\n\366\275`9\"\276\332\377\346=\340u\026<\312\013\357=\260\315\036=`\244\335\273\254\r3\275\222\234\342=:\002\337=\360\265\353<\221T0>\014Aq=\323g\025>\250\'\364\274\300\353\177\274\374\342|\275\030w\'=`\201\252=(+\243=\240\224\306\275\330\351]=\340k\333\275\016\214\277\2756\212K<\310\240Y=\333\263]\274\215H\216\275zg1\275\357\203\002\276\324<\230=\375>\313\274\307\355\036\276F\201\342\275\241\267\"=l\036\342\273\300\036#\275Y{\200<P\340\005\275\315\003$\276\250\346r=p\242\037\275\372\334Y\274R\326$\276x\201r=\030G/=J\366!>\234\251\024>gF\366\275\224\n\227\275\212\355\255\2750\356\002\276\006%\231=T\352\310<P\233\236=\251-\222\275\252?\031\276vG\356<\264\301\313=\027F\306\275\312\234(\273Z\035(\273L\331\211=\317\364\323\275t\331\003\276\237\367\277<\252bv;d\337\023>\024n\222=\240\310\315\275\177P\212\275\263\335d\273\300\357\347;\326\246\365\275\356\245\027\276\342\177\\\274\316\302\026\276U\'\344<\354\365l\275\374W<=\314*\201\273`\345\375=\270\2661;l\304\365=\201\367\272\275\354\374\324=U\255\237\275\373\274\321\2752\350:\275<\255\037\276\371\242\020\276\024\206\366\273\324*g\275]\374\344\271$\177\203=d\364\311=\204\231A=\022\276&>\\\273 \276hz\263\275\340\251P<\"\314\370=@\273\312\275\232\243\303=\355\r\025>\"\217i\275\304\231\372\275\200\334m=B\326\332=\322B\271=\210\177\222=\241\357\t>\207\316\331\275XU0\276\260\035a=\326u\263=\0253\016\276d<\374\275D\'$\275\352\2720>]\270\232\274\206\277\277\275\372\221\353\275D\014\340=$\260\373=Bt\216=xU\276=a\270\010\276\020\362\004>\035\"\272\275\203\242->d\2506=_\360\003>\214M4\275E>0>\340\033\331\275\265\222\363\275ss\033\276\361\342\033\276\003\264#>\004\'%=\202\274\345=\275\036.>\303\347\037>\005\3274>\216\277\234=1\204\003\276W\006\036\276\234`.>\010\277\255=\340u(>\"]\023\276\242\240!>\030\322\341=\001\000\325\275\177\323.\276-\026(\276@\027\320=\007\361\302<\316{\\\275$s\024\275\236\212\316\275\210\2535\275\276\266\332\274\306L\337\275\217\000\213<\240\273\027>\234\214\301=\330a<=\205\227\354\275\202%3>\331\377\246\274vn\260\275\020\245?\275\310\267\312=\007\341\301<l\0070>e\370\266<\035V\223\274\207\355\'\276 Re=-\364\277\274\2141\361=\010\0069=\217\'\017\2760\255\031\276-\343\343\274t\035\361\2738\240k=@\252\204\275*L/>\024\242\013>\266\274\337\275\377\321\235\274\302\230\212\275\253\360\"\276LU\222;0\254\343=\236\027:>\022\256\226\275!!4\276>\310\367\275\302\rI\2759\316\371\275\307\267\346\274\213\323\233\274z\241\235=\226\233\377\275\032\252m\275\304\356\227\275;\237(\276\007\210+\276%\255\035\276\254@\273=.\233\212\275\234 [\275\354o&>lRK\275:\273\212=\234\177\254=\340\017\210=\205h\306\274\226\020\252=\216\366>>\\\351\225=\300_\260=\360\221\021\275\244\035\232\275\232|\005\276\260\272\017\276Nk\013\276\r\377\'\276\260H\005\275\340\306\334<pB\324\275T(\n\275\240=\016\276\300\244\245\274\230\266A\275\344\310\222\275 \\\267<\347\014\265\275|\304v=\251\216\343\275\265\021\344\275n\332\245\275\250[\341=$\206\000>\274(\t\275\216\003\024>\212\320\030\276\244\004\025>\341l\222\274<\364t=q0\312\274\200:\013>$3\216\275(_\372\274\007\206\036>\260\007\005\274\322\334\304=\325r\037\276\365\204\001>\344\343,=\367e/\276QN,\276\360OZ<\360\264\001=B\022\271=\341@\250\275\231Q\020>\236\263\344=\200\177\315<h5\316< !\022=<\232m=\356\336\017>\345|\301\275\350\211\317=\364\372V\275\334MQ=\334\303\000==\256\374<D\350\322= \250\356=\370qq\275\244R\320\275,X\320;\\\273\204\275\260\333 >\2756\016\276\240\3667\276\304\331\324=\234\227q\275\365\303\303\275\234~\221=\000\010\211\272\020\314\372=\344\213u=T)o\275v\274\005>\023\260\304\274\032f >\002\277[\275\363\003\307\275X\264\031>DM\226=\334\235B\275\274;~=m\010\326\274L4\026>0\343\"\276\014\305\300=\264\327\350=\305\227\'\276\221\360T;\030X\256=\004\203\035>\263\213\032\276\206E\007>\370\373\337=\360\216\217=`}\272=3\276\235<\361v*\276<\372\346=\373\270\360\274\036\317*>(+,\276\030\240\217=@|\347=\246\220j\274@I\230=\"\030\004\276\312\254\"\274,I\243=\020x\006\275L\343\221=\206A(<\300\260\031>\202\200C\275\314\201\322=\'6\037\276\320\344\025>X\375\022\275\202\221\375\275\324N\356\275\234\300\340\273\0074\r\276\020\344N\275J\247\321=\344\367+=\320\211z\275:\013\312\275\200\027\375\274w\024\033>\277\306\'\276<\3255=z%\357=\334\251I\275\225\225\243\275P\235\022\275\020QX=\314&?=B\243\357\275\320pT=\216\331\330=\026X\263=\007~3>pb%\2760\217\277\274\332z\273=2\331e\274\022\364\372\27545 \275>\204\n>1\016$\276\252\023y\274M\321-\276\236\204K\274\210\\\362=\3144\247=\223\017\006\2760\311\216=\030(_\275\300\233m=1S\'>\036\372\343\275\245P\204\275\233\333\357\275\225\267\r>*\032l\275\340\334Y<|\202k=\007\370\362\275X\037\320\274pU\254\274\256\351\255=\361@%>\000z\265\273 \001s=\372\200\372=\r\237\030\276P\0377=\204w\"\276A\036\025\276\0355\266\274\370\024\026=S\016\026\276\224F\355=Tr\250=t\035\021>\320\342\270\275\351\037\002\276D\243\302=\3142\020\276\230\340*>L\007Z=\214\225\344=\314\345\212;\265\031\222\274B\363\013>2\030\204=\304;\214\275\256\220\257\275\357F\300\275\330\244\323=\366ND\275`O5=\004/\344=};\003\275\305\315\021\276\310Y\346=\312\364(>\313\353\200<Q\371\334\275qL\276\274\001\253\235\275\262\037\201\275x\241\212=o\213\316\275X\322\347\275\353c\213<\"0\274\275\230U;\275|J\036=\346\200u\274\002Pm\275\377\360\237\275\024\316\302=/\317\024: \230\222=\314\367\220==\223\261\275<B\002>b\231\312\274\000\310\n\272\024\037M\275_B\233\275\306(\020>\215\031\003\276\212q2>FX\203\275\\jS=\340Z\030=\376\"\033\276\237T\340\274\330H0=\355r\023>\024\031\006>\242\321\036>\350Q$\275\023\302\320<\004\344:\276\260\030\221=\0328\214=\005l\t\276\020\264\245\275\026\267\324\275\233P\311\274p\314\016\276\354[\310;\345\345\007>\265Y)>\337\300\205\275\030\331\351\275\320\031\310\274\017\334\030>9B\323\275\036\364\356\275\237\362+\276\254\361\007=\035\3171\276\233\342\271\275\036\341\235=\320f\373\274\3734\246\275(\007\261\275\220\346\304\274 \\\272\273\356\263\217=+\336\004\276\211\204\232\275WH\023;\014\267\315\273\324\266m\275jV\340=e\007\204\274\215\023\017\276\306\032\026>iS\364<\357\202-\276\277C\230<2\245\246=B\206\337=\\\017\002\276\260\230k\2741\274\033>.nZ\275\305S\025>\260\2255\275\224\373Q= \344\366<}(\036>\200\324/<\377(->\377\3664\276\314\354\254\275`Q\215=QW\023>\201\353\230\275|K\337=\254\307\212;,S\033=\256M&> O\231=L\026\253;e#\277\275P\355<\275\350%\232=p\270\206=\2468E\275\257\372\346\274\220\2678>\325t\233\275\004<\031>A\264\026\276\033\002%\276\354v\313=\014\245\013>\177c\036\276x\177\273\275^\315\017>\335\326\277\275\254\000\356\273\240W\276=\\\251\232\275X\372\037=pY\232=P\001<\275\372\002\362\275\353u\214\274\300\241m\275\300\303\003\275\250i\016\275]L\017\275<\326\205=4\212\r>\345\025\'\276lJ <\nc\031>!\204\211\275\366\200N\274d\244!=\364\202\347=T\017\324=\270\305?\275\220\252\351=\014\346\312=4\206\225\273\034\220\004\276=Tw\272\"\010!>\370=\370=\230o(\275\035a\272\275\006n,>\346<;>\341|\373\2751\030\016:\342\2408\276\364\254!\275\374x\336\275H\006\277=r\")<|\321\212\275\200\312\372\273\346\251&>\326\346+><d+\276j\337\020>\272\005\367\275\354\215\032>\023\221+\276\350D\347=\224\344\264\275`\303\364\274x\362\327=\202e\200=\244\3526\2757a\017> ^\021\276\202\314\306\275\302\266\256\275y.$>\201\3250>\211#\311\275\375\215\022>\341\257\003\276`F\241<mx\010>\022\236\254=\032T\034\276,\317\341\275\"\037\375\275\250\301\205<\360\306,\275PT\215\275$\207_=\243\034$>\362\351\323\275DA\362=\\n >\226c\214=`33\276\330\264\260=p\275X=\n\240K\2746\022\305\275\320\320t=\2248\267=\000\235\276<\211\271#>ha\265\274\200\364\321\274\"+\013\276\223\326*>\317\031+>h:<= \227\r=\230^S=\300\234\020=\000R\"<\365q0>\000_\377:\376\264\354=\305\r\254\275qR\'\276~(\257\275T:o\275\234l\214=\304\334\220\275\225q\010\276:\356\037>\270)\302=\"\201r\275\000T2=t\222#>&\205O\274\374\235\241=\002\272\021=\211\267\020\276\\\273\303=u\013\022\275\037]\210\275\254\320\225;\262\237l\274\220\316\275=\360\355\355=\352\340\352\275\nC$>=v\273<\342\2435>$\217\355\275@\301\262=\3737)\2764\325\231\2730[:=\3253\372<,\324\323\273\236\353\014>kH\274\275H\031 \275\332\204\212\275|f\345=\202\034\327\274\364\324\242\275\021\327/\274\212\033#\276\234\177\245=zB\'\274\204s\300=\326]\027\276\306\350\004>6\004\013>8\001\014=\2629;>X\273\342=f8\036<]\313\002\276;\'\007\276\306+\207=E\022\036>NI8>\275W\035\276\304\366\013\276\301.\313<\003g\254\272.i+\276\200.\252\275\342\347\020>\351\316\375:\331\324\031\276\254\037\246=6\033\002<nW\021<\256\006\214=m2 \2766\310X\275\204\327\236=\260\265\232=\314\350\330\275\317\212\262\275\377*6\276\300>\"\274\310\345\371\275h+\016=\345X\013\276K\351\000>\007\307\234\275t\245Q\275\272\330\302=]\212\000>`\363\312;\271\n\010>\305\220\005>\262:\232=(c\377\275\335\357\t>o\026\216\2758\2373\276\031\274\030\276%[\330\275\010%R\275\000\021n=\300\271=<\220m\351\275:\357\\\273\272\2043>>!\247=\020\251,=\224\362\231=o\024!\276C\'\205<\354\036\320=\243\034\032\2768a,\275\340w\371\275\244A\244=\177\004\267\275\002z\346=0\013`<\330\275a\275\r7!>jP\245=k\375\">cs\344\275(\324\244<\200\321G\274\360\216q\274\326\336\345=\335\360)>\300m]=\350>\202\274@\246\326<(k*=\006o\014\275]\362\376\2746\356\031\276\200\245\220=\246K\t\276\304P\350=\255\312*\276\336\233\003<\037\206\033\276\260\260\332=\274\032\302=D:c=\364\342\322=\215\242=\2738\327\360=z\242\203\275\314\241.\276\221\261\336\275q\332\267\275\032*\003\276~M\220=\250\2745\275\250=\232=\350\246\316=\206\336\377\275\330~\356=\262sy\275\014\312\247\273\240\342\214=w5\341\275<S3=\215\240\214<\270E\006>\370\367\263=.\320\031\276\214\3037=\376/)>\3546\373\275T\302\354=(\010\023>?\267)\276\323\325\376\275\250\357\025\275(\223\311=by\013>\010)\305=:p\022>\320j\236=\275\031\335<\330\177D=,\200\003>\344X\206=\206\3768>\030\2143>\304\331u=\tF\226\275)\351\037\276bRd\274rt6\276n$3>|/\260=\327\206\'\276H\014J=\332Nr\2756\326|\275\307\220\203\275Q\225\023\276\320P\261=B\304D\2744R\317\275\234\366j=\037\rD\274\374dd\275\250\203\'>u\273\204\274\244!0=E9\023>\323\341\026<\377\256\t\276\224\322\351=]\n&>H\351\224<,\263e=\202\255\370=\002\314\243=\2635\016>+K\266\275&\322\347=VF\333=\220K\345\275b\034\314={\213\260\275\220,\007=\000.[:\002?\"\276\365\227\020\276i/\000\276\320\013\303\274\014\033\021>\253\2075\276\242\365\254\275py\270\274\300r\336=T\316f;\27033\275\225Q5\276x\355\002\275\325C\010\276\364\210F=+\343\272\275\224?\344=\260\223\317<\234\320\256\275\344\0074=\230\302\026\275\360rT\275\272\020&\276\036\275\342=\250\000\210=jA\336=\302p\007\276^\203(\276u\010\340\275\252\251\014\276\354OC\275*\013f\275[,+>\300\210\222\273(FA\275\3427\207=\034Y\211;*-~\2746\341\276\275Dj/\275[\224\250<\315\365\002\276\230\310\013>\346\030<\276\300\207\220=:n@\275\005\344\333\275\204\274k\275\260\367\270=\250$\345=\364\037\200=N\357\236=\324u\240=\\\227\003\275\203g\257\275\300\025\331<\340K\316=I\220\023\276\204C\017>X\240\247= \240\324=2\230\246\275\255\026\366<Z\306b\275\371g\'\276zg1\275\212n\032>\370Y\242=\036\351~\275`\353\224\275\316\002\002>\235\310\222\275\340\261\365= \221i\275\242\325\203\275XM\373=\010G \276\230\300\365\275\340\224\374=\3355\333\274\263+\257<\274\352\355=<\037\300=\320\336\037>}.\034\276\240\302\304=\302\257/\276\213]\305\275\302\247\350=\"\033B\2752b\n>\341\2536\276\370\264L\275dK\241\275\320\367\001=\024d\n\275\214\367\322\273\374\200\374=o\251\032\276\246\230\202\275\300\3027=\013<\216\275\352\014\013\276<\034\n>6\006\202=\360\327g=U\205\030\276\253\270\200\275\370\355\033>}l\031\276\365\367->\321\323\014\276\247c+\2761\240\037\275\300f\223;\334\017\000=\200\304\221\274\242\025\354\275\260_\r<\0306\322<\004\345q=I\350\370\275\252\004\322=\360\354\255<n~\231\275\250\026\255\274\030\325T\275\350\251\370\274\000\007$:ljj=\000\207n\273\030\231\204\274\344`\007=u)\n>\276\356\020\2762P\022>\311\0302\276\244\245\247=\034\306\034\276\010\241\221\275\000\204\351=\345\374\034\276l\363R=\016H\007>X\244g\275\266\217\355\275\372\224\234\275i\267\027>\320\367P\274D\306e= \013.<\245^.\276h\027\366\274\026\324\327=B\303r\275\250\370\350<3\326\021>@\243,<\372\310\000\276\330!\337\274\373&\202\2753\241->\250s\033\275~\356\344\275\\\014\007\276l\325)\276r\375\010\276\224xC\275\t\247\035\276\365\315\272\274\214/\004>\244\332\345\275\211\255\342\275\343s%\276\034\3034;$\256\302=h\221\001\276h_\021=\350=\241=\356\271\301=S\016\234<j(<>\007k\252\275|AD=\226\334\366\275P\025\314\275 \\\316=D;\356\275\303\347\205\274\301p\006\276\036a\275\275\360I\326=\330\305\370\271\304\004\253=.\311n\2758\235\220=N\353\014>\270B\231=\000\010T\275\356\035|<\213\356%\276L*\302=B\267\233=\324ut=\370Y^=\324x\375=\371\231\253<\347\366\257\274\313W\200:j\"\025>\"\207\201\275\264\017\340=\220\362\240=\360\004(\276\242\302\234=1\302\227\275@\252\000\2767\352\270\275(\004]=/\214\034\276\000{\357=\324\337\201;\324\335h\273\352\213K\275\000\002\345=\264\326\001>`\246\276= :\342\275\035\034\274\275\250^\003>\002~2>\274\345\320=,\370a=\264-\303=\\\210q\275\322l*>\244 \006\275Tg$>\304\031G=\314m\240=\345C\020\276\257_\024\276t5\244\275\320s\350<\033\3024>j\366\225=L\0046\275\352:\325=F\271\314\275\362)\237\275\305\217\026>\250\251\226<\260^\032\275\016\214\227\275L_\252\275\250@5=j\257\227=\2341<=\366\023\005\276 \273\201\275\016R\257\275`}\347\275u\\\021\276\344\1773\276%<\214\275B\257\037>d\257\024\276\362?\'\276D\372\312=\301]\007\276\236\220\337\275\022\244\030>\314\0070>J\304\363=BK\240=\037\317.>A1.>@\017\032<}&#\276J\311\233=\022\304\031\276\260\252;\275\3439\277\275\300\315\317\274\004i3\275\\\346A\275\310\355\227<r\026\340\275\363\177\367\275\034\235-=\245o\n\276\326d8:\356M\035>\203w\200\275\332\0311\276z\343\201=\362\336\205\275\314\330\005>\331\302\263<\214Pp\275\026\016:\274\\\250\205=J\227\231=\374bv=\357y\016\275\321\376\247<E\307\211\275F\322D<W\274\014\276\344mx\275\250H\010=}*\n\276\204s\n>&\205\037>\212\201\212\275\223\342\331\275\374U\270=\360Q\002>\010\\.=\004Xk\275rY5\275\315i\260<\363@\366<\226\312\253\275V\234->\016\3407\276\302\227\203=\214.\311=\300\223\006\275T\265\266=\304\355\222=\2064\300\275\020\335\237=\351Y\024\276\264\237\223\275\360\"\031\276\2106\345=\020\224V=lj\306=\214\375\247=\204\264\367\275\331\207\343\2756~\341\275\376\256\'>p\001\227\274{?\231\274\032\013\036\276 \004;\275\331\003\345<\230\270\370=\310WZ=\034\331V=\201\'\035\276\003\320\027\276\020-Y\275\276\223\240\275H\351\354\274\033f\245\275\004E\270\275n\002$>\n\354\000\276J\2751>\314\256\375=\027X\032\276eq\360\275\312y\">\300\017r=N!\006>\322\214\014>\246\033\'>\0046r=\210)\274\274]\027+\276\335\300\005>\205\237\010>\335\324\021\276s\357%>x\221\202<kW >\026\276#\276\276\237\002\276r\233\355=\274*\207=\211b.>\200l\255:\273\237\010>\230:\334<\036\035\262\2752#\001>\007\224-\276\215\302\204<Z\232\300\275gL\266\275\037>\350<\004\303\000=\342\037\'\2754\203\363=\246\004\033>0\210\372=~\361\364\275\302T\023>\214a0=\312\236\306=\370JH\275\354[d=\242\201\270=a\036\001\276\246,\251=,\025l=\300$\235;\361\252\240\275\002\227\t\276\276\353\232\275\006!\367=\324\363M=\351\210\036>\340a\177\274\020Nz\275\210\324M=\304N\021\276_\027\021>f\334\352=EA1>\300\334\026;/\020%>0\347\347\274\010F\256\274\236\r\222=z=\271\275\303\241\027>\235j\022>\000\332v=$ z\275\310g\265\274\034\014\244\275\000\214\302\274\352\300\247\275\tT\034>X\273j=\020I\335\274\245\034\005>\266\226\357=\263n\330\275vX\335=\240a\317;^\332\233=>1\272=\"Z\326=\005\216,\2769l\013>>\323\302=\302\372\336=\370\360\345\274\260\021E=EH\335\275\215\034\035>\317\311\034>\223\020/>%|\027\276\334k\233\275P\311\001\276H\377\316\274#\0053>\322\311\347=a\3360\276E\333\010>\270\352\001\275\243\2214>@\374\342;\220\"\210\274\264\262I\275\201\364\021>\300v\201\273\230H\305\2753\3312>\014G\033\276\332\302\261\275\200\\\224\273\330\371>\275\035P(\276A\360\303\275((!\276\360\216\301\274R\022$\276\345;\025\276\220\301\222<\010,P=\000;P:\200\202v;\025{\343\275:\352\326=\242\177\254=\305\322\032\276\323h\276\275\272\361\342=<\301}\275\207\237\263\275`\236\246\274T\347%\276\354\303\310\275\271\034\261\275\304\377\021\275h\'9=`\356K<\216\000\304=\300\303\023\274X|S\275t\221\356\2758;\017\276.\364\243\275S,\240\275@\336%=\2407\003<\360v\326\274!@\264\275\263\222\022\276\202Mn\275\322\256\242\275\325n\340\275\360\t\272\274:\004\232=\234\341\220=p\334P\274\200\206}=\306\233\367=\3378\033\276\210 \363\275\216\010\374=\004\215i\275\362\371\033\276X`-\275\260@<\274^\013\366\275-*\214\275\350\226\037\275\354\031F\275\370PU\275}\235#>\252\306\357=R\031l\2752\371\001\2767z\003\276 Z\217<<\021-\275X\367\264\274\343g\017>\343\322!>\326t\030>b\005\217\275\000\232\224\271\306\027\234\2758\237\223\274\374!\030=P\307=\275TE{\275\014\202\227;\260\234\032>x\214S=B\033\246=!p\352\275\271\200\302\274\242\323\346\275\254\305y=\220L\026\275\304\225\310=\223\220%\276\276\037\024>\343\203\317\275\356\235\000\276\\\022\221=\324\'\222\273-\342\346\274\024|^\275\"+\024>\\r\022\275\274m5=\305\310\030>\370u\035>\202\341\205\275\224\267\354=\272\323!\276\255\256\025>\271\371%=u\026\300\274\260;\302\275\222s\275\275\250\t\332=\200\262>\274\227\325\200\275\000<i\273x\315M\275\276\232(>\231\224\n>\014[\342\275\371\266\021\275d\005\271\275\266eV\274\034\026,\276\234\022\347\275\340\244\321\275\204d\014\276\220{\211=\242\234\021>\222\254\317;\004\231!=]]\326\275\220\024\335\274\205\270\314<\254\361U\275f\237\211\2744\230\304\275\260\311^=?\345!>\302V\002>L\224D=@\212\227\274\251G\323<D,\274\275\000\024\221=\307\217\031>\010\343\360<.A\210=\251\213\216\275\364j\025>$=1\275\224\332v=\364cv\275\266m\235=\314\243\221\275\220\3021\274\300\347$;@\332?\274\370\210\210=`\205\244;\031)4>H\323\307<6\301\210=\326\225\267=\310G\221\274%\030\266\275\244L&=\005x+>\t\205\211\275F\027\367=t\373\032=Z/\217=\236l\300=2\200\362\275L\340\027>TMK\275+[\203\275ao\335\275|\240+>E\303\302\275\014A\353==_\217<\224\000#=T\360\016=\326\217\311\275N\374\203=\304\0171\276\224\n\330\275\266\342\312=\010\373.=\032\203\247=\270\230\005\275\010ca\275h\036\020=A^1>\001\207\023>1\000\n>\200\331\002\275+q+\276\353\375\006>\360\244\234=b\226\310\275 \241\005\276\264t\250\273\202\254\306\275\356\301\325\275\310\2034\276=\004\202:\354\273e=\364%<\276\224\217\231=h\342\353=L\016\253=\362\031\004\276p\2210\275\335\'7\276t\247q=\222\352=<|@\"\275e\260\245<\005\243\006\275\334\206)\275\r<\222<\034\344\331=\320\301\223=Xp\371=\365/#\276\244\034h;\325\333\014\276wm\256<\371\016\"\276b{h\275\000\t\216=\306\242@\274~\252\025>\223\017\203\275/\332\344\273\214\360\326=\224S\326=\352/-\276\254\267\357<0\372\271=\264\243\016\276\353\210\222<|q\372=M\360\224\275\270\245\003\276\374{\\\275\304\347\363=~H\361\275\276\234#<?6\327\2754\274\311=p\303\314=\016\223\301=s\240\027\276\010\277\033>\2769[<@Y\007=\004\202\365\275\314\336\003\276\303\250\256\275\274\3405=\253\353\224\274=\322\020<\000:\214=\tC\001>X\021:=\013\225\"\276\233\265\213\274@\3454<\265\230\001\274t\357z\275\205\203\201\275\231/&\276\220\031\351=\370p+\275\024i\014>\021\333\024\276D\206%>\000\335-\274\331\004\373\275\177j\021>\235`0>\353\035\007>\014\275\237\275\234[7\275\246j\237=m\363,>\260\253\020\275\013\023\230\275\002b\005\276\032-\321=\177Z\263\275K\234 \276g\000!\276N\343X\275\334\330\026\276Y\217\014\276\274\3773\276~\245\035>W\240}\273\300\037\025>4a\276\275h\370\020=\0210U;8\306\312=\010W\230=p\206\367=\354\353\023=\'\325\267\2740\333\334<h\262\013=\306\003h\275\032-\033\276\342\374\264\275o\240/\276\023d%\276p_\037=\240\245\342;\212uf\275 \177\353\274\255~\231\275d\251t=:\033\263=\322\017\250=N\312\277=@\370%\274r\320#\275\020(\213\275\\\341\002\275\026\336\025>\334\263d\275\217\020,\276\200\0251\275X\2316\276\345\343)\2760\212O\275\210p\031\275\\\210\245=\372\302\031=bl\'\276\360Es\275\260Q\251=T\007L\275\221O\244\275\010\014\">B\364\024\2768,\254=\004\361\301=\314\352\027=t\302(>p\233\024>\3023!<\274+m=\r\207\255\275\202\023%\274\3621\035>\324\312\221;}\320\276<\3605\032>\304\314 >\020]\017\276\340K\340=\226\305F<(+\223\275\334\353\270\273\355\306\337\274-\307\257\2744\023\'=0\215\315\275\360y\237=w\356\n=\346\177+>p:\341\275\250Ic=\014\264\316\275,0\270;\313\020\265\275D!\370<\024\226\035\275\352d\032>\200\363f<\n9\020>1\224\226\275f\367+>\255\205\356\275\252\0136>\206!\022<\204\035\177=Ch\270\275X/m\275\244\311\336=\214)b\275\332\216\261=X\375\231\275\356up\2754X\330=\327M\277\275\030SH=\007\263\023\275@K\235=\326\356\021>\205<\262\274J\026\331=\252F5\275\265g\264<i\212%\276\376\014\261=\271\333->\363-\t>@\363\325\274\237)4>\321V1>e\226\250\275\351\214\333\275e))>~G\352\275l\021\036\276\260\032\322<\340\0170=\257\037\016>\347\350\312\275H\276\034\275\376\350\360=\2216\263\275\254F\364\275\332\000\233<b\021\030\276F\3143\275\340P\032=\004\250,=Lu3\275T\n\264\273b\0324\276\01030=\352[$>\034$ =\354E\204=\320\227]\274e\250\010>\020\345\303\274@\023(\274\344\227\025\275I3\024>R\201\036\276\242\341\322=\032\215\225\275\323\363\026>3\363\r\276\360k1\274\363\261\301\275\244i\365\275|\231*\275\304#w=\036\237\312=j\317*>\352\336P\274\014\211\235=\244Y\376\275\205+\207\274\324\242\035>&\254\356\275|}\256\275\027\337\313\274x4\346=&\240\201=\300d\034=\024,\371=!\354\027\276\324\372`=:\342b\274\354=g=\274s&>\330\311\032>\244\366O=\322\205\260\275e\326\357\274fK5<I\267\326<`b.\275H2n\275\2372\313\275\214\304:\276^\206-\274\002\031L\275\316\271\236=\334\213\227=\310\336\350\275\270?\255=(\310\344=\332\2222\276 \235\005\276\312\024C\274\2443\347=\2739\355\275;R\020\276D\375\303=&\006c<\252pe\275R\260X<\270\336\223\275\355\225\315<\345\301\213\275\213+\013\276\247G\277\275\244\213\336\275\210\363\254=<6\004\275#\375\005\276VP\236=kG\225\275\353\200\330\275@E\020\2754 \013>\220\273d=\\\305\336=\026l\325<p\272H\275\344\331\021\275p\246\016>\246\276\010<{\245\253\275\360^\375\275\300\241\220\275W\350\210\274\020F#>\030b/>Y6\033\276{-\240\275V\220a<{\020+\276h\370\215=\200\245\r\2758(\031\276.\332\323\275\205\2652\2762c&\276\004W-\275\267\2153>\270s\004=\030\277O\275#\353\021\276\334\376*=\246\360\021\276\000\010\030\275\\\304\237\275B\225u\275\366\207\333\275F\272\214=L\235\033=\010\305\224\274\3708g=\306\346\231\275Gn\215\275qw\221\275C\242/\276\234\326 >)\314\250\274L\007\240=N\t\251=\216!\373<\306\356\316\275\374X\033>*q\023>\370\304\022>\200O\247=x\377\033\276b \231=\346\234\262=GX\r\276N\257\304=}\364->\340\363\301<X\223\257<\005J%\276(\376\025\275\004\334\224\275\330\351\324\275:[U\275\344Hu\275\370\226\365<\225{\026>\202\250\341=U^\234\274\177\\\370\275l\330#>\245X\344\274\204\201\324=D\213\030\275\274\022\032>f\254\\<(\334\006\276\020\303\341=H\233\270\274\373\002\001\276\006\355\025>\245\250\275\275\303 \351\275\236\013\016>\346|\216\275\037\352\252\275\272\307l\274\254\253#>\226\324\262\275\314\304\316=m|\342\274i\333\003\276\024D\334=\254^\243=\370\222\013=\302\n\356\273\010\372\237\275!\034\"\276\024\210\'>\306\250\207=\203l\000\275G\235\021\276d\336\001>\330\025\006>\314\376\221=\360\010\345=\342\3164>\033\226\240\275\014j\373;\0149\273=\201\214\t\276\202\3715\276\022\201\006>%)\245<\006\375\033>\002?\341\275\210\311\315=\246 \"><1\016>\006\206\367\275\032\365\347\275\000W\237=\273\372\340\275\354\245\365\275\020\311\326\275\022\363q\275\202|\376\275$7n=\221\271\253\274}\206\341\275\024:\342\275\270\205\363\274\010\340|\275\220R\003>\222\373\342\275/\245\266\274Fk,>k\341\312\275P^\374\275\363l\200\275\\\265\"=<\037\017\276q\001\237\275\274\025\030=\204U\002\276u{\021\276\2446\257=\263\276\256<\002\375\'\276\327\177\026\276\260\016\017=\205\021$>\001\255\031>MZ\000\2762\247\335\275\213\017\013>U\324\240\275\240\344\003\276\320\243L\275`\331{=\253\200\323\275@\241\032=\210D\362\275p\340\350<\240\347(\276hqb\275\010L\006\275\324\216\366<\313\224\t\276\344\013?>\204\333\312=\002\225)\276\025\255\220\275\367\260\242\275d\335\301=\335\030\244\275\tM\251\275HR\347==\372\243<\200\003\034\276\014k\373\275\334\341n=x\234.\275\274\244\025\276\374\001\006\275\326\251\'\276_`\346\275\200\220\203\273Z\234\263=\337\250->\316g\242=\354X|\275P\265L=\347\244\010\2764\236\020=0\317A\274^K->\005S\266<\035\244 \276\014I\210\275\246\225\024>\206\224 >OG\027\276\205M\327<\014\t/=\010|5\276\223\276\026\276lN\002=\364\363\237=\324F\226\275A\335<\276P\004\244=Dij=\326\372\351=\355\0236\276\036}+<\177\375\363<\226)&\276{\300[<\206\372\016>J\035\226=\356\024N\275\2567\224=\300\364\225\274@\246\246=\212\334\002>P}\261=\233\315\023\276\024\203\354\275p,\027\276\\k\017>d\206\235=@L\263=\250\201D\275<L\211\275\360x\337=\364\253\005>PK\352=\374\2157=\244\301,\275T\200\242\275\"\030\031>xU\032>\364\353\005>x\300\021>k\007\021\275}\200\020\276\370\206\201=\244\257[\275s\356\316\275\245\'\027>fv\374\275\377\014\235\275\034.\026>\024\002\002>\266v\014>\2068\263\275\270\371O=^\016\305\275L\325\037>\206\222\366\275\025J\206\274\312\261\001\276d\010\333=\373\321\230\274V\370\232\275@\212%\275\212\306\001>2\243\331\275pL\310=$\310*\275p\377\'\275v\230\235\275Z\321Z\272\322\002\002\276\274]\006\275\276\375\367=a\317(>D\300\203\275\033\357\027>\252=\273=n{\344\275\307\020/>o\223\004\276\317\342\014\276\357\3104\276u*\356\275\320\320G<<8+\2761e1>\256Z\255=\330\353c=3H\263\275\266\353\"\276\216\351\375\275\003^\026>\354\376C\275G\350\227;F\363\240\275\227\270\207\275\304\307\201\275x\341\033>a\200\345\275\000\235\006>`M,\275<sy= v\366=\275\017\020>o\354->\262v\243=\312\315\317=Q|\021>`R\267\273\020\360\002\276\340l\350;\300\367g=\350\324V\275\313\213\001\276\262\220\314=x\365\316<\373\007\206\275\n\272\254=lNh=\'\216\260\275,\023\266;\312;\022>\364\212\021\275\322\\\">\272\016 \275d\203!\276\260r\035\276\212\323\006>\220\344\215=\250\203\376\274\366\360\027<Gx\212\275\021\333\344\275\310\021\021\275\272\266\274\275h[\000>\374\347\034>Y}!>\324\022\034>\241\023\026\275\255\363\020=.: \276\020t\326=n\032\300\274\004\027\225=.\311\003>%\304\341\275\323\301\013\276\340\3518=4y\r\2760\026\013\275 l\315=\030\371\236=\312,\312=\342fg\275*\313\215\275Sd\303\275\236\350\244=NI\t>\237\371\366\275\220\026)>r\350\024\276d\321\033=\300\037\303=N\327\033>\314\3340\275\207+\274\27521\206\275\252\364V\275\310k\361\274\266\200\214\275T\3332\2750#\033>\300\205\010>\354\220\030\276\274\243y=\317\013\004=L\276G=P\266f< \320\014\276\266k\335\275D\340\326=\241\254&>\260c3>\006\014\341\275 \n\341=8I\261<\036\374)\276\033\030\276\275\360\254\226\275\374\251\335=~P\310;t\337\261=\237\241F;\300\275\316=\344q\020>\376F2\276l=\035>\234<\032\275\2305\020=t\243\002\276\022\025\241=\226\006\343\275\2728\257=\270\352t=l\336G=@\023\225\274\270\334\362\275\362\301\013\276\357\220\034>P\0018\274\225\n\'>$\324\001=eQ\366\275\"\002\363=\"\254\203\275p\020|\274s\211\270\2750V\330=\275\325\204\275D$\305=\\7\271=\036\204\033>\202\\Q\274E\223\303\275\261\274\'>\2745\\=\356r#>\276zz\275]=\231\275S\236\251\275\272m\225= D\272;`\370|\275\033\346\030>\000\310\000<\370x\260<\253\342)>\362g\"\276\22038\274\020D\033\2762m\262=\326\005\353=\240\341\331;\205\263\353\275c\277\237\275\264\202I=\260D\037<\362\200$>\177\230\352\275)5\300\274\270\350i=\214\026s=U\351\014\276>\340\003>EN\316\274\310\252\255=\310Y\r\276h\035*>\274\2755>R\254\034=\357_\t\276p>\245=\000\346;\275r\312/\276\316\340\002\276%\253\223\274\375\264\033\276\034f\234=K\025\n\276\244\214\235\275\335F\362<>\366\035\276xmt\275\354>a\275\322\210\355=\020\354\n\275x\260\266=\254\300^=o\325\024\276z.%\276\003O\226\274\343a\255\275a\0257\276\360\366\024=b\220\'>\353F\345\274\335\032\330\275\342\355r<\205\222\265\275\312\253\013>d^7=\203y\302\275\315\305\215<6A\005>)C\243\275\233\014\224\274\330\204B\275\274\237\021=$\2138\275t\3036\275\262\207\275\274b\374\277=\255\356\333\274Z\364(>K\006\245\2740h`=Up\023\276(\306m=\354`[=r?6>\360\234\250=\336H\214\275\310\267\005>\376\346\273\275\005\360\024\276\244\374(\276\201\261\325\275\3742-\276@\260\230=\367c\r\275 \326\273=\220\325\014>\024\351\030=\342N\016\2764*\210;\244qp\275p\226w=\261\222\031>\310\320o=HV\373<\000\376\026; \303P\275\253\2201>`\200\206\274\2635\">@\303+\275\306\306\344=h\356\267\274!^\020>\200\340\244\272\324\340z=\306\213\335\275Sa\005>\241\3161\276\340\331\360\275\220\245\246=\250;\245\275\210F\225=\215m\222<.\025V\274\377\361\r\276\317i!>\343\374\023\276\226^Z\274\200G]=\250\214.=dq\347=\312\200\226=\270\356\266<\200Z8;}K\014>\310\004\026=\316\216\321=\030(\007\276\330\310*\276c\266\032>\000\340\204\272\351\320\033>\000\022\264\273\030\377\325\274\252z\301\275x\000\207\274)1\317\275\236\364\n\276\346B\352\275\216\367\t>\201X7\276\265\206\242\274\344\2475\275\210 [\275\270\334.\276\244\332\270=\214\256\027>\343P\321\275\314\037)=\340\323\'\276\222\234\024>\346\r\034>\355\256\307\274\r\313\206\274Rm\361\275\276\224\t>|b/\275$E\323=qG\362\274\'\247\035\276\364(\305=q-\036\276\262\266\244=\336r)\276\260\362\262\275\263B\211\275(:\\=\264\337\372=\320\225\375=\006\034\216\275\300LY\275\365\277\310\274\022g\304\275\034\'\001\275.\"\005>\364\364\264=x\305\317=h.{\275\217H\035\276E\212\373\275T\344\024=\250\332\314=\354@\237=`\371\026\275H\355\216= \347\302=H\377U\275\227\237\031\276\215\376\207\274 \024\n\276P\017\356\2750=\037\276\232{\242=\2450#>\357d@<dp\356=\265Z\326\274\200\335\261\275\"\247\t=\032\255\037\2765n\227\274\226D\016>x\364L=J\364t<\227\3128\276h\317\024\275\335,\020\276\277C\232<l4x=^k\207=\204\023!\276$\351\005>\214\216\023=\264\373\302\273ln\211=\353\372\002>\350A\331=\244\021\">\0249h=b\357\024\276\337K\033>g\300\010\276+i\352\275\330us=\200-v;r6\231=\310\031;\275\206g\313=\005+\014>\300Ve<\240\357\233<\210\334Z\275\223\210\000>\210\265$=g\305\017>\322\005\370=\276\370\371\275k\212\035\276d\202t<\342\374\367\274\264\217/=f\177\r>\214\277\252\2752p\301=;\237x\272[\203\344\274\336(/\276\265h\333\275\3212\211\275\"M\350\2754m\306\275\n\321\217=\235\202\016>\200`$=^\343\365=0{\214=\266D\317=e\3161>\340\377\355\275\007\244\030>\300\202x\275\016\201\215=\310\225H\275\364m\026\276Bw3\276\370\320\305<b@\345=w\267\204\275\236\036\t\275\233}\251\274\006\312z<\"\224\037>\236}\235=\000:\253\274\346X\206\275\001\317\207\2755\306\203\275\207\010\r\276\004j\035\276\022#\347\275\270\r7\275\0245\035>)B\330<\010\031\033;?\257\031\276\344]\344=\224\236\257=\376j\022\275?\227\351\275lP\347\273\306\347)\276@\220\316\275|\346}=\306\246v\275\210\027%=\214z\327\275\034\326\316=T]\215=\226\275\262\275m\3434\276\344\210,\275\325{\227<\252%\032\275\214\240.\275\261\022\371\274`fw=v\232\006<\343,\022\276\262\035\'\276\322\346\037>\017\320\270\274\010\311\030\275\024W\t\276\231P\234;DL\275\272\331t\327\275\037\310\352\275MO\262\275\032I\002>6N(>\351c\205\275*V\247=2\3339>l\256\032\276\272D\336\275\246\362\002>\024\211\t\276\010D2\275(A\344=\261\276\220\275\\\000\036\275,\320\024=2\261\213\275\346+\376=\353\304!\276\277\177\'\276`\256\216=l\217\007\276\324x\226\273\3300\301=2\024*:\006y \276N1\336\275x#\356<CZ\245\274\210\030\347=\376\3265>S,->\350E\270\274\300\225.\274\002\371\266\275\240\332\245\27308\355\275\250D\257\274\200L\203<%\234\004>\243A\'\276u\346\367\275\311\035 >`\232\303<TWt=\362\204\335\275\"\227\362\275\310\360E=H\341\326<\221\331\345\2753c\222\275\310\3356\275\314\377\375=\246I\006>\302\025?\275\331T\037>\005\254\002>Y&/\276\\\352\344\275\2424\004\276\233\374\221\275\254\213\036\275\233\327#>X\216\252<\202\220\303=\026\253\334=.^\217=\241j\267\275\330\032\375\275\307\316$>\367\307->)/\212\275\246\254\337=a\\\034>\270\327\327\274\024\232\203=\000\033{\273B\351\217=\017\230\335\275\372`\035>`5*=X~\014\276F@\023<\340\0131\276\3244v=\014KH\275\267\006::\250\005\020==\027\357<T\023\256=\306a\027>\334^\350=\"\313%>i\317\255;\354\221~\275\276\341\036\276\024\214->\266\316\005>\215Q\216\274\232\347\342\275P\207\010>H9m\275H\346\000\275!\212\023\276\370 \010>\236q\037>\370Y\001\275\204\355\017>\205;\326\274\022da\275\226\273&\276\364\024\255=\355\177\343\274F\303\007>(\030\370=\376\341\035\276\311\372\353\274w\374\205<\226\177z<%N\332\274\232\203\031\275\340\016\247=\254\246\210=tzP=\274;\264=\014\310B\275\360U\">Ny\n\276\020\315G=\2612\231\275\241\371\022\276f\367\217=\275^\034\276\'\035\'>\224G\314\272\364\315\276\273\354X\300=\320l\270=\376B8>\254FE=\206yX<\354\005\034\275`?\001>,\252\255=\334\364\343\275\312\363\352=VI\032>\010\366\025>\\*<>C\251\005\276\350\234m=\300\204\242=\227V\006\276\014\346\250=X\221\314=\357L(\276\326\3053>\244o\357=\270\013\270\2750\302\216\274\342r3\276\236\212\004\276aB\000>`x\242;V\037\305=\241\341\350\275},\016>c\372%>Pr9\275\337H\006>\032\322\217=\313U\r>\350\t\207<\276\267\243\275r@\341\275t\223\037=L\177\214\275\220b\361=\214\341\204\273H\325\035>\005Q\004<\025\326\357\275=\301*\276\320\233\266<@\024\241=\010\263\235=\\\022P=\340\232\333=\224\212\216=:\275\324\275Y6\021>\260\330\027<v\024\333\275t\370\334\275\350\262\274\275I3\003\276\260\350\222=\035\n&>p\324$<XI\254\275\340\261\223<\242\027\345=:\260\350=7\013\225\275\354\265\004=\265\021\205\275\313]\014>\262\000\247=P\235C<F\255\314=&\t\306=q\202.\276\367\010+>N\255\276=\360\3148=\021\326/>.\022\271=\035\031\362\275\341\037\262\275\371\300*>\030\350a\275=s\010>\354\3029=kz(\276\312\347\267=hh4\275\275M\002>\"&\334\275X\006Q\275\370\327B\275\007:&>l>;\275\276!\317=U_\027>w\r\274\275\237\345\t\276\222\273\257\275\244\221\031\275hx\252<\201W&>\330\231\341<p@\004\274C\337\324\275\272\027\302=8\0364=v\250\364=\225$\025>\210\321\177=HC\357<\270\236\017=5\322\003\276\310\202\372\275\237\032\010>\251-\232\275\024\212\035\276f\305\'\276\337L\313\275\216\023x\275\200e\n\273Jw\034\276\027!$>\200\323\251\274l\315\325\275x\006\227<X\327\370\274av\010>p\261\003\275\323R\301\275\305\3273>,\353P\275V\231\264\275\207H4>B9\274=\325\237\035\2760&\357\275\000\013d:\371N)\276\034\320&\276,\304\200=\351\2551>n\372\271=4\231\222=\362\033\312=P\251]\274\007J$>\250*\343<\270\035\354\275\342\343\350=\250\243\203<\002\314\341=\013\317\026>\027V\002>\342O\006\276\202\357\246=\240mI\275\023>\027>\356\354o\275\254]A\275\342|\274=`IP=\344\262\025\276\251\356$>\216^\223=A\'\r\276\265\000(>\020\374\017<P\021\020=\000\260[:\020\374\037\275\304]\270\275x|)\275\206\273\244=`\030\032=\314?\037\276&\374\255\275\332\266\345=`\230i=\320\364\323\274K\314\260\275\310\363\230<\207\304\'>\334\260%\276\343\'4>\352!\365=\344@u=k\'\r>\000\036\302:\3140\n\276\255\345\032\276\355 \275\275\224\t\221=l\326\022=\346\302\261=\357\312\014>.\244\265=\310\355C\275\234`\317=\261\312\277\275G\263!\276\264\324\347=\324a\300=\226?\235=2^\">\330\032\323=>\227\024>u\005\265<\017\374\323\275Cu\350\275\375\336\007\276\254\022\004=\224[\036>\252j\350\275\0203\273=\024\265\365=\234\025\355=\020\275\370=\230i1=\"\267\035>\263\024\305\274>\003\031>\302\177=>\265N\221\274\233\234\255<,\357\325=\200\3440>\210_|\275\367>\031\276\330\346\026>\014_D=\310\032\013\276v\323\003<\252,\275<L\212\341=\367\223\357<\240\0260\275\367\262\000\275\214\244\216=l>\024=0\2678\274\262\0017>\220b\">\375\312\004\276@\367f=\202\001\016>4)j\275\225\263\371\274\344J\342=\036\246\220=8\326\336=r?\271=^b$\274.\264 >T\260\267;\214\244\302; \321 \275\264\213\363;n\373d\275\364\362~\275L\343\016\275\236\351;>\337+\013\2763\331\010=P\276\365=\202o&>\036Z\204=\003\007\033=\341\016\330<bGh<$K\377\275i3\021\276\350:|\275d\305/\276\364o:>\nDf\274\314\0300\276\000=\215\275\310\027J\275uA\010>\2006\334\273\325\320\256\275`T\001\275l\275\014\276\026\217\014\276\"\245\260=\300B\023\273g)\037>H_\207\275\320\203l\274\352D\214\275\323\333\t>\311\021\030>\251\r,>\306Q\324\2754\347%>\024GA\275\300\316@=\034\026\362=mi\265<\317m\347\275sM\032\276\'x\211\275\215C\362\274\376\317\t\276\027\243\035\276\337\253\353\275\002\304\001>;)\234\275\020\327\n<\331\366\036>\317\205\034>\206\366)\276\304\314\t=e\004\020>J\316i\275h\002X=\202\261\255=\344\033w\275\342\003\241=P\243\307\275\000\376\325\273v\303\273\275\014>==\251\303\033>\240\213\360=<%\262=\216\265\356\275t\230\264=\340\001\210=\331\230*\276$\255\315=\260\242R=\260\225\206=$^%\276\330 \366=\375\032\022\276r`\253\275\330h\010>\230\252\027>\314\215\206=\010u \275\310\022\031\275\2449\213=x72=\025\221\t\276\250\344P\275\370\352\"\275M\300\037\276lj=>\325*\014<\035\216\316\274H\226\273=\210`\325\275\034\3453>\306\371\220\275|h;>8\317\221=\306\0244<n\005\356\274k(\275\275\370b\256=xf^\275\201\203\323\275\310S\320\275\334]\325=eJ\307\275\311\346\243\275\305(\031\275\014\230\273=\030f\300=\266\\\310\275\251&\314\275\345\373\023\276X\327\005>t\203\027=,{\r>\244\t\021\275X\220\373=\300A\037\273\014\210\326\273y\361\355<\355\335\001\272\246&\255\273\245?\r\276\336T\341\275\036\351\220=(\303O=v\242\332\275\231+!;\000\353\246=\267\326\236\2754\003\033=p\2633\276\270\006X=\n\347z<\270xb=B\351\265\275<_\002<\210G\346<\210\027\326=\224\336>\275\302;\020\276\257\035\274\275\261z\032\276g\267\272\275\376\023\235=\335\320\004\276\314\316\r\276R\027\036\276 PF<DM\320\275\376\300\034\276\025\027\025>\300\244\201\274\000;\245\272K\251\037>\327d\t>\360Ke\274\220\343]\275X\030\235\275$\320v\275\240\334]\275\332\r|\275\033\0359\276\245en;Zvd\275\033\233+\276\354\004\303=\305x\005>\307C\274\275\2100!\275l\360\003>\272\031\222=]\361\253<7\201\256<\373c\002\276\"\322\317=\270\221P=\374\312\023=\363\222\035>\"\006\r\276\\\2133=H\254\212\274\252\217\315=\037\233\027>0?v\275\027|.>\270/\317\274\266\230\251=\300\3526\273U/\217\275\252\347\332=\206\2001\274$f#\275\300\332\246\275\200\262\201;\026-\201=|7\306\275\324,9=\272\264`\275\273u\024\276\337\022\034\276n\0141>\034\2178\275\301):\276\332\034\330\275\211\016\220\275\226g\307\275p>?=\220m\354\274d\247\264=-\205\010=\242v\030>\242\262\017\276~\266\001>\220P$=\355\223\311<X\3772=\254F\227=\304\263/\275\t\340\214<`\005\002=\263\t\233\275\274p\312\275\324\306\364\275[?=\276\027\216\005\276q\014\316\275\354\0255\275\027K\020\273\345\221\357<4\347\375=E\216\314<\236\324\005\275T>==\365=\001>\025C\261\274\004z\226=\301;\235\275Q\311\022=+\203\260\275\026\377\026\276\251H\214\275dyv\275dj\230=\310\315\355\275(\035\r\275\037\244\022\276\275@\324\275\364\276a=\300Xm=.\343\'>!\013\321\275\306\222\216\275\201\373\266\275\030\230\227=8\021\277=\014\336\271=@\3062\276\310\267\356\272l\347\036>4\377L\275\270w0\275\235\333\002\276*\252\030>D\307R=\213\n2\276|\'\352\275E\3522>\031I\"\276\224\360\351\275\000pz\275\203?\014>\340y\005\275\263Y#\276\371E\006>`\016:<\376\245g\275\325\251)>\360\206\202<\217\270\033>8\026%\275\366\014\355\275\345[\031>\375\331\316\275\240\231\325;.\315\270=\225\321\031\276\336\236\320\275\014\214\013=?:\000\276\205\317\226\275JFy\274\240\257L\275\364\321q=n*\202\275S\316\027>\315\021\023\276\201Ep\273\236N\375\275h@\366=\333\276\222\275\314\336\253=\024\257\002=\306\241\223\275\030\314\216<p\274\314\274Q\232\277\275\300g\033<\340\2465\2751\270\027\276\371i\n>H\326k\2750\363L=v^\240=dki=\320\225%\276\224\014p=\306jW\275\274\272\200=\334\322?=B\0244<q\376V\273\260^\021\276C\376\004\276\255Y\233\274\350\267\034=\214\345<>\240B3=\250!^\275`j-=`]\r\276U5\242\2754\272\335=\320\247\024\276v\303\016>8\000A\275\360\"\371=U\237\256\2754\021;>r\376\330\275`\360\261<\002I\031>\354\253b=\022\223\215=\232s\243=\314\007\342\273m\0221\2768\"7\276wb\034\2765\301\320\275n9\206= f\323=\300\366\025>\335M\273\275\037Y\213<\300\270\247=q}\345<\337\307\305\275\"\307Y;\232j\001<\233\214\316\275\007\226\331<\271\201l\273\223\014\261<\036\307\025>\024tn=0Rf=\252~\367\275\342\212*>\256)\342\275\024\032\r>\330\211#>\362R\\\275\214\033]=\360\3711=F\023d\2742\035\027>\023O2\276\374\366L=\271c\306\275\270\320\271=\n\341\">.[\346\275\256\270n<H\311\275=&\253\250=Z?\245\275\215Z\320<\010\031\223=880>\227\307\255\275\313\237\302<\216V\273\275\371\004\024\276\360\211\236=:\211\276=\270\272\276=\330.o=\360\317\274=\370\026\000\275q\027 >\221\3034>8\374\376\274\002<\366=\325\230\036\276w\211->\222q\215=\272\0012\276 K\r\275t\'\352\275\342\322\215\275@.,=;\327#>\214\2039=\311p\316\2756&\342=8\351\243<\322\276\214=\262\312\010\276\252\263\037>x5a=\330V\310=\347\336\244<\240\322\010=D \023>-e\305\273o\350\305\275\341\361\377<\264\206\243=\272\234\'\273H\223\244\274\000\212\341\274h\000\206<]W\006>\225\021\006>\030\215\373\274\301\217\t>\257\031\020>[u$>\247D\003>Z\337\310=\305\270\003>\272I\017\276\006\007\272=QF\002>\340\037\362\273\327H#>vB\023\275 \001\322=\010\3529=k\022\215\275\373\227\024\276\256\364\310\275\267Z,>8\177Y\275\005\334\023\276J\033\036\276\366\353;>kg\002\276\250\273\370\275\014G\366\273\r\233\364\274\244\2373=\243p\275\275\360\333\256<\362a.\272xi\n=4\202P\2750\211E=\000f1>2.\273\275\337\276\255\275\260i\007\276\020X\220=\226R\003\276\310\r\022>7\300\226\275\234\253-=\256\013\033>\323m\010\276\222U\376\275\024\300\245=A\235 \276\344\373\370=\234\317\257\2754\2302\275\352cY\275b\367\037>\004\375\333=\024\342{=\204 \237=\2543\274=Tv\227=>\007h\275\300w\034>\316d$>D\002\363=\365\332\214<\212f\362\275K\372\302\275\352\2437>\200j\357\274\3357\203\274\202M\246\275\374@[=6B\226\275\235\321\273\2753\036\335\274\320\327\n>\254\345+\275\240\030H=\004\335\271=\220\270m=\204G\222=\326h\222\275,\013i\275,\"\315\273Y\273\226\275\320\252\342=MP\350<\212\036\244=;y\274\2756\311:\272K]\036>\206\000\340\275_\273\341\275U\004\315\274\200\004F\273b\366\354=\036\261\253\275\362\371\347=\300\301\366\273\354\264\022=Xt\204</\350\034>@\362&\273\353\326\004>\367\036+\276v\002\026\276\316\266\361\275\000^\370\273$\352_=h\321\231\275\3161\333\275X\267\022=\002m#=\264\255z=\366~a\275\033\317\252\275\224\275\201=R\027\201=\200j\304\272\216\005\250=e\372\272<\270\206\225=\205\034\004\273\312\022\315\275\264\246\343=\360$\317\274\271[\t\276P\316\010<\355\322 >h\037\241<J\372\375\275|\360\022=H\320d\275\260b\030\275\233\t\006\276Nx3\276%\245\n>`\360I\274,\271-\275*\300\331=\256^\344=\232\013\325=p)\244=%6\325\275,\306\036\276:\242\017\276\350\206\027\276\274\006\222=A\300\325\275\230\267\013>\010W\004\276\351\002,\276\\\324W<j\036z<\273\267\224<\005<\232\274-e\002\276T\337\352=/\331\333\275\240\251\233=\n/\275\274\322\200)\274\250\321.\276\3209\177=T`\010>\007\343\025\2764ZY\275B\330*>\000\331\020>3\331\230\274\272\346.\276\034\321\006\276F\237\356\275P/+>\312+\004\276\020\240\242=\260\326\337\274L\320\177\275\323B&\276*P\026\276\2165\202\275\217\2742\276\260\331\036><\202\261=\213<\002=\250L,