node {
  name: "x"
  op: "Placeholder"
  attr {
    key: "dtype"
    value {
      type: DT_FLOAT
    }
  }
  attr {
    key: "shape"
    value {
      shape {
        dim {
          size: 4000
        }
        dim {
          size: 24
        }
      }
    }
  }
}
node {
  name: "decoder/conv2d_transpose_2/Shape"
  op: "Const"
  attr {
    key: "dtype"
    value {
      type: DT_INT32
    }
  }
  attr {
    key: "value"
    value {
      tensor {
        dtype: DT_INT32
        tensor_shape {
          dim {
            size: 4
          }
        }
        tensor_content: "\240\017\000\000\004\000\000\000\004\000\000\000\010\000\000\000"
      }
    }
  }
}
node {
  name: "decoder/conv2d_transpose_2/strided_slice/stack"
  op: "Const"
  attr {
    key: "dtype"
    value {
      type: DT_INT32
    }
  }
  attr {
    key: "value"
    value {
      tensor {
        dtype: DT_INT32
        tensor_shape {
          dim {
            size: 1
          }
        }
      }
    }
  }
}
node {
  name: "decoder/conv2d_transpose_2/strided_slice/stack_1"
  op: "Const"
  attr {
    key: "dtype"
    value {
      type: DT_INT32
    }
  }
  attr {
    key: "value"
    value {
      tensor {
        dtype: DT_INT32
        tensor_shape {
          dim {
            size: 1
          }
        }
        int_val: 1
      }
    }
  }
}
node {
  name: "decoder/conv2d_transpose_2/strided_slice/stack_2"
  op: "Const"
  attr {
    key: "dtype"
    value {
      type: DT_INT32
    }
  }
  attr {
    key: "value"
    value {
      tensor {
        dtype: DT_INT32
        tensor_shape {
          dim {
            size: 1
          }
        }
        int_val: 1
      }
    }
  }
}
node {
  name: "decoder/conv2d_transpose_2/stack/1"
  op: "Const"
  attr {
    key: "dtype"
    value {
      type: DT_INT32
    }
  }
  attr {
    key: "value"
    value {
      tensor {
        dtype: DT_INT32
        tensor_shape {
        }
        int_val: 9
      }
    }
  }
}
node {
  name: "decoder/conv2d_transpose_2/stack/2"
  op: "Const"
  attr {
    key: "dtype"
    value {
      type: DT_INT32
    }
  }
  attr {
    key: "value"
    value {
      tensor {
        dtype: DT_INT32
        tensor_shape {
        }
        int_val: 9
      }
    }
  }
}
node {
  name: "decoder/conv2d_transpose_2/stack/3"
  op: "Const"
  attr {
    key: "dtype"
    value {
      type: DT_INT32
    }
  }
  attr {
    key: "value"
    value {
      tensor {
        dtype: DT_INT32
        tensor_shape {
        }
        int_val: 1
      }
    }
  }
}
node {
  name: "decoder/conv2d_transpose_2/conv2d_transpose/ReadVariableOp/resource"
  op: "Const"
  attr {
    key: "dtype"
    value {
      type: DT_FLOAT
    }
  }
  attr {
    key: "value"
    value {
      tensor {
        dtype: DT_FLOAT
        tensor_shape {
          dim {
            size: 3
          }
          dim {
            size: 3
          }
          dim {
            size: 1
          }
          dim {
            size: 8
          }
        }
        tensor_content: "/\266\336\275\035\340t>\210!\014>G\245\271\276\025M0\277#\'\251;\313?D<\2745v\276FOk\274\254\206\224\277!\334\246=\202\035\220\276\327\031\257;mM\326<-\366\257\276\254T\212\277\366U\251\277[\365\244\277>\260\303\276\215\370c\277\224w\027>Ih\257\276\005\022\232>8\177\202>I\333)=\221\205C>\207\2014\276\363>W\276|t\257\276\260\307\033\275\177\270\366=&~1>\303H\004\276S\000\234=c\2377\274nz\217\276eX\374=\233y^\2769\315\200>z\004T\276]\234\245\277\301\001\030\276\rpN\275L/#\275R\366\347\276\220dq\275T\320+\277=\200\"\2772\273\243>\243%\225\276\240m\227\276\367\357\035\276\347\322\251\277^\307\004>\334YD\277\3640I>\223*\231\277{W\252\275\245\244\303\276\245(k=\005\036p\274\354h\276\276\231\313&>h\250\177\276\303Q\254\277\266\tE>`\326\220\277\226\031\252\277.\321\251\277\0300(\276J\025x?\3571\211\277"
      }
    }
  }
}
node {
  name: "decoder/dense_6/MatMul/ReadVariableOp/resource"
  op: "Const"
  attr {
    key: "dtype"
    value {
      type: DT_FLOAT
    }
  }
  attr {
    key: "value"
    value {
      tensor {
        dtype: DT_FLOAT
        tensor_shape {
          dim {
            size: 24
          }
          dim {
            size: 24
          }
        }
        tensor_content: "A\363C>\204 \305>\272\2277=\212\316&\276\030y\013\276\326\361\033>^U\\\277\360&|=8\337\202\274U 3=A\311<\276{\375j>\336k\335=\276\005\343>\374j>\276\357\261\252?M\250y?\220[\350\276\336\177\355\276\237~\035\276n\236r\277\265\271\276\276a]p\277Q_\242>\356k\317>8W\357\276S\367S\276}\326\257>\235\237\225\275*\236?>\237\211;\277<\"N\276\316\372)>\261\322\377>\215\251\036\277\353(\205<k\274\261\276\004W(?\271\031\360\274N\022\242?\344\357\230\275\366V\357>^\261\243>\2171\347\276\353\303p?\034\315\353\276\367\222\203?\321%\007\275\320\271\026>\243\003\232?\005\372\231>i\000\224\276d\332\231\275Es\252>>T\237>X\021\364\274\310[Q\276b\025T>\013Y\032?:]\254<?2@>&\206\007\277\014\301>>\260^\303\277/)\230?\2341\037?X)\371\275\346\245\331\276gKa\277\361\027\\?X,\013>\300\305@?\021\241;\276\262\302\371\276\215<h>\350\210\316=\353\343\005>\010%d=(J\002\277\r\357\205> \225/\276-\243\334>\356\335\031?\377\335\214\277\332\371\326\276{v\003?^\013\024?B\365\253\277c\245n?\347\273\236\276\362N\212=\t\223\212\276\242\343\235?w]\252\276\364\343d?\326\334\240>\023J-\276\303\363c\277\361~\202\276\340\000\035\275\331#\243>k\347a\276=\375@\275(\'\220=\034e\363\275\000\277\342>@x\301\276>\252\016?\354\322\267\275\000\236\267\276\n7C\276\304\342\206?\233\211\232?\257\312u\276\206\000\253\276b.a?\010H\266?\243\2159\275zw\017?\343\270X\276MoN\277\323\366\312\274\356\277;\276\230\301\314<\337[4\276tD\200\276\020\242\326>\240\252\304\275L.\232\276\201\202\323\274\260_\203>\311\035\217\276\312x\026?\357\253u>uD\234\276\270\277\211?\3713\233?\027\226\235>\310\203\334\276Y\350\t\277y\361^?\263\352#\277M\367v>|\013\376\276\177\341\312\275\031\350\246>\326\237\255\276\360\356\310\275\203?\311\275\224\r\002>g0\256>\314\337\331\275r(5>\344L\236>\311\3421\277\0320\270\276?$\243<\235\333\224=\005\355\313\276^\n\277\277\303@d?\223 J>\3429\310>i\342\n=\013:\250\277T\224\r\276\273S\335\275\216\366\034?E\245z?(\332\224\276\247\320W?\200\025\227\276B\177\345\276\305\343\217>f\021 \276\226Hm\276\230\204\301\274\232+\226=\245\344\306\274U\363\013?\264n\217\277\307(e>\016@T?Fc\270?\275\237\210?\312Hd\277\264\356\250>I\271\210\276C\024f?sD#\277\344\022\017?\033\227\r>\350\000\234\277\312\'\247>|\303\347>\032\0026>7\033\237\276\325\001\200\276\247\300l\275X\034\330=\231\374\225>\203y\035?\215K\366>r\343\204\276\251\205\202\2766\304l?\267\231\r\276>\371\222\277\242@\274?U~\277>W\031f\275\224\'\374\276z\221\240?\317t\242\276bi\310\276\330\305r\277\332b\336>U\371\332\276H\331\206>H\236\362\274M\235\334=\202\306\002>\247zI>\235\356Z\276\241\017\234>\213v\001\276\005\311\222\276\364iU>\205K\326\276!\207\330>\010>\244\276\272\nZ?\"\367d?\025\320\241\276\214\350\271>m@\004=W\221\230?a!z>\367\3732>\264c\025?\2607\014\277T\023\244\277A\315\261?h\021\341\275j\216L?\200\305&\2768~\210\277\034U\244=(\014\016=\231o\026\277\241:#\277kS\242?-N\352\276he\300>\204\273\006?HV\221?\246\314s?\331\252\\=P\207\201>\r\305R\275\211rp?\236S\211?\001\207\237\275~X\005\277\321!&>\264D<?\246\226\273\276C1\250\276\227\212\251?+$\240\2767w\354\276\217\244\237>\335x\257\276}#\002\275\321+]=V\302h?\2534\316=\352J4\277p\201\232=\310\351d\277*\031\202\277\317\026\r?\266\006\271\276\267\263O\275}WX\277-\031&?\2572\244\277+\260\033>|\343\021\277\367B\022?aW\301\275\316\274\246\276\024\311\376>p(c\275\036?\231>\276\255D>\335\300\260>\220p\215=\265aE?<\204Y\277\316\220\032\277Y\223\202\276a1\211\275U4\265\277\036\2046>\277\025\231\277>\025W?\254^\247>i\374\261?\025\0176>\307\366O?\001.\r?\275[t?\363\351v>\222\222=>6\026u\276\263\n\326\275A\251\235\276\222\202\263\276B\220(\276?\025\214\276Y2\260>\031W\252\276\351h\342<\361~\360\275\364\240\301>\370p\336\274Tw\252?\271\036\234?\2435G>{\036o\276\246\220[\277\245f\250?\344T)\277l5\037=\353\310\315>\371\234\216\277.{\370=\346\027\237>&i\225\276\257)S\276p\200\227\276\317N\005\277@\230\245=(*#<YU\272>\223\037\231\274\333\210\350=\026\373X>,\233X>\356v:>\002\'\270?\224\013y?\021\036o\276g\261\330<\201Fy\277\302{\254?M9&\275E\233\346=\034\352\306=;7\314=\2726_?\330\216\374\276\016(s>\243!\253>\300x\016\276\226\212_\276\330\350\205<\224\267\373\275\376\027\241\274x\341\235=\261\"E?\203-\352\275\314)\222?o\0361>\274\271\235?N\303\217\277\212Lp\277\230Dq?H\314?\277\266j\212?\350\016\212?\226\303\335>\002M\201>Q\212\033;\214\016\025\275^\244\276<r\001\017>\355\337m=Fb\254\276\355\257\025= \rf=\274\210m\276E\2458\274\333y\202<\261\254\211\274\203\301\240\274Q\206\316<]\235\'\275[^\241?\275&\205?\026\270\006=eu\\\273\331\261j\275\244\251{\277\207\030m<\321\243^\275\343Q\363<\026Z\036=\201\212\355\275\371v\265\2752\240\031>\272MC>\2650\246>\217\321\350=\177 \243>dL\330\275+w~>\341\243\225\274\007\007.\276H5\311\276m4\255\276O\210\036\276\225\235Z\277\320\336\270\277\337\003[=1+\217=\031\324a\276\271\253\302\277{\307\320<|\237\356<\276N\244\275d\244\353=\221&&>\357\"|\274\330\353\237\274\263\204\324>\230vN=\224d\202<I\017\246>\210\316\216\276\247\360C>t\033\205\276\352\200\035\276M\021:\276M\253X\276\237g\226>8\366l\277\341Y\277\277\361hG>\265\207c>aH\354\275\tT\267\277\035\272:=\315O\026>\255\245J\276n\035\006>\251&\357\275\217`\302<\355R\207>\241\377_\276\350\307\207\276*^\201\276\030b\370=7\222\235>_\027(\276\367\351\353=\t!\227>)-\017=\352\351\312=\221`a\2767\235\207\277*\357s>\253\277\t\277\263\304\225<\364Y\267>\210\246\255\274\277k\236\274\225\330\262>=\303\253\276\307\261v\276/\342\345=\377L\014>Sq\214>\232\021\020>z\375q\276|Y\231\276HB\207\274[\214\236>\303\2459\275\244\336\211\275\376\227$>\302\205^\276\177\267\'\275\003\022\373\275s\242\201\276\007\226v\277q\000\202>\361\324\n>A\276\241=|^\205?\214+\271\276\314\034\214=t\232\251\276\305\273b\275!\204\274=\227]\232>\340h\216\276\033\257\306>H\363\261\276s\340\312\275\314\261\337=\376QM>9\353\203\275\311N\365=\347x\236>\010\373\026>\223\016\245>\025\014a=65]?\245\352\242\276\\\331\241>\016\304\213> \3549=\260-\213\277\250\032<\276\306\007\016>\347\364\307\275H\374M>\203\021`>\337\0259>C\342=\276\001\013\322>\264\264\232\275\307\341Y=\377\231\214\276\352q\203\276-\025f>\006\rD=\243v\232>#\364\307>P\\m>\002I\232>\274Y\237\277\226\"\233\277\270\023k<\017\336y>\002\\\217\273S~\223\277\003\234\333<io\006\276\346\351*>\271\354\221\275\031\245<\275\257\322(>m#\236\276\207)\245\275\177\300N\2761\315\341<\254\235\363\275\222\037\217\276\237D\343<o\227H=\032\246\020>\334]\314=e\327F>\265\3219\274\214L\230\277\336>\305\277\343\303\230\275Qw\024\276\365\251\234=\321$\253\277\251\314\202\274\207\220\225=\371\026^>"
      }
    }
  }
}
node {
  name: "decoder/dense_6/BiasAdd/ReadVariableOp/resource"
  op: "Const"
  attr {
    key: "dtype"
    value {
      type: DT_FLOAT
    }
  }
  attr {
    key: "value"
    value {
      tensor {
        dtype: DT_FLOAT
        tensor_shape {
          dim {
            size: 24
          }
        }
        tensor_content: "QC\310=\022\3438>o\025\227\275\000\000\000\000\264\214\304=\000\000\000\000\237\230_=\000\000\000\000\000\000\000\000\362,=\275\330\3500<\221\212\231=42\202=\357^.=\204\326P=`D\231\277h\t\231\277\311u\036>\357\337\353;\0376\330=`D\231\277\257\362a\274T\n\210\276\335@\215\275"
      }
    }
  }
}
node {
  name: "decoder/dense_7/MatMul/ReadVariableOp/resource"
  op: "Const"
  attr {
    key: "dtype"
    value {
      type: DT_FLOAT
    }
  }
  attr {
    key: "value"
    value {
      tensor {
        dtype: DT_FLOAT
        tensor_shape {
          dim {
            size: 24
          }
          dim {
            size: 64
          }
        }
        tensor_content: "\341Gd\276\205\367\223\277`\377\203>V\227\027\276\330f\267\277\325\t\305<eVi?Oy\021\276\311ML\274\0305\025=\014Rp\277\003\371\321>\357\204\241\275\003f\262\276C$3\276\306\202\205=\344\317\376=t\262\226\277J\177\260?\024\351\264\271\350\341z\277\334\206k\277\037\177:<3\027\033\277Ss\373=\260\364\276\276\315\333\204>\007-\235\277\375\205\241\276\024\024\272=\215\302\215>\321\021\213>e\n\017\276\245K\245=A\023\264\277\312F\231?\343)n\277\345hb=\275\022\377=\2561/\276\310\224\235\277\301jy?AQ\311\275^\020+=Wm\301=\312\374\207\277\270\263s\277\023\312\204?\020\275$\273?\220\253\277&\360\261\277[nX\275z\331\231\275\225\221#\275\220\310\035?\314\3741>\365\230\274=\217\232\036<s\007K>\223~?\276\346Z\240>\235\024\250>o\017\223\277\216\003\371\276\277g\t>\340\251\212\277\235\325\037\2763e\001=\340\030\257\2777\002\252>\016C\265\277Z\320\013\276a\356F>\305\245;\276\014\353\035\277O2+>\270Y3\276Fs(>x\345L\276Y\256\021\276\264\330E\276\331\357i\277\340\205%\277\256\007\350=0\243\200\277\300\262\177\277\234\016\362<\333\026#>d\201E\276\317y\205\275Oo\240>\200\213\226\277Ub\243\271[\035M\276k?\223\274\226\013\341\276\216\251\242\277cJ.=cG~\277J\004\222?\305\311\260\277M2\210>\277v}\276\224\205\226\275$G\210\277\356g\244\277\020\361l\2769lE>k}\321\276\304w\221\277\305A\233\277\303X\263\277a\352\206>\257\'q\277\3401\243\277\274|\262\276\220r\273\276\304\256\217>\215\236\301\275b\004\255\275k\254|\2769\214\014>me\361\275\270e>>Q\005\306=\371\373h\274kL\211\277\271\372\221>y6-\2768\243\250\277\\\335\242>\222\371\234>\202\353\205\277\365\215A\2751\274\201\277\235U\234\275\257\212\207\275\324\255+\275\017\354B\277h\364 >f\034d>Q\270,\276\357K\033\2734\024\212\276\030\203I\276\272j}\277\212\236\216\277i\343Z\276\247\031\257\277\363v~\277\252\264\304>Y;#=\272\373u>\207\277\230\275\315\341\232\275\207{\245\277\233\305\252=8\206\200\275\312\303\241=1\027\263\275\232\262\205\277\224\304\027>\017y\270\277\252\037\210\277K\336\260\277\251E\322=\002\337\211\275,C\200\272\363&\230\277\277/\203\277\233U[\275\265\322Y\276\310\225\356;\3234\230\277\211L\237\277o\341\207\277?rt\2768\332\241\277\247n\200\2777\255\000>\301A\351=u\353B=\'85\2766\202\256\277\034x.>\356\232,>\234=5\276\211m@>\253\335\375=\007h\342\275\033\223\234\277\353\361t=\200V\357=\230\274\251<lre\276\355p`\276\340@#=d\324\245=*x\300\275)\315s\276\2704\232\274\005\246W\276H+\310\274?7i\276\236\235{>\210\2473\274\204\270\030\275\240\264\021\276//B\276\354 \024>pbm=\236\325\'>\352\270\005>v\246\005>\2148\217\275p\2336=\242\2421\276tP2\276\233\030$\276|\265X>r\367N>\003r\031\276H\340<>\257\2645\276J\353\257\2756&\016\276\020\300\\>\010a\257=p\210\255\275\024E\007\275h\334|=\305\367D\276\230\267\266<\364\316q\275\316\340\223\275\246\2349\276\340=L>\272\252\212\275\323{V\276N\000\032\276\026\247X>\210E\335=\000?\353=\335\344\003\276;\3008\276P,3>\304\263>\276\217Fb\276\242\315@>\004\275\307=\364Q\355=\354\311(\27696Z\276\326\306S>\270S\003\276h\033\314:\270:a>9\201~\277\230G:\276;\365B>\370\252\245\277\rg\210=\177\345w\277NqN>!P\204\273\035\220=\276\227\235B\277\371\273\220\276i*\341=\307\273\237\276_\007\202>\311\006\303\275,\250\224=\002:t?\253\224\204?qM\202=h\n\250\277\316\214\205\277\367}{>#\201I\275T \006\275\347\343\260>\257\025Q>3\017\260\277\204\213\000>\315\222\010\276\023Z\222=\335w\343\2749\025\202\277Q\004\343\275\022P\203\277\304Ox?M\001\215\277S\254\020>|8\342=BA\032>\224j\236\277\202{\212\277j3\'=\003\370\357\275\013\014\307>,\026\213\277\272\003\225\277\225\224\211\277\370\202\214>\361O~\2774\333\266\277A\326i\275b?\232\276\325\026\307\274\377\223|=Hz\244=u\205\372={\000a\275\200\307\037>\323\020g=;\272G>6\325\r\276\212\305\221\277\350\227\256=\016\313J>\366\357\030>\354U<>\"sl\276\324\342.\276\030\2610=r\324\277\275F\235\341\2754\316D>\3727,\276h,\030\272\024\317V\275\020z\217=\320\361c>\222\206p\276\264]p>\264\242\267=h\260F\276B\230G>2\231D\276\254I\272=\360-8=\230\343\267\274\372{(\276\370zP=\202[6>\332vA\276\322Md>\317\215\202>\326\351\265\275\240\2619=\270:\344=\224\260r\276\2021l>\323\274H\276X\303\017=\010\022\213\275hm\203\273\330\320\304\275\370-k\274\330c\267=\216\266e\276\022i\037\276\310\007:<\362k\367\275(\006\223\275jz\r\276\301\324}\276\314\324\035\276\036,+\276\302\r]\276\210\032\255<tN\254=\231\226v\276J+X>\013\r\203\276\312\006_>\010\207\342<\346WF>\250\370\005\274\316\204h\276\263\023@\276P\355T\275\232\245e>F_\226\276\222\232\231\277;\313\351\276EQ\343\275\233\226\265\277I\201\360=\013b\262\277\357P\023\277\217\241\212\274\240\320\345\274\371\376@\277\007N\246\2750\374\033>a\352\362\275m\230\025\274\300\301\220>&Dv\276\004q\242\277\t\273\271\277\252}\354>\r~\252\277\177s\255\277U\310\034\276%=&\277Vj\302=\341?\236\276\336\336\222\276n\343\253\277\231\036\314\274\316Oc\276\325w\243>\006\374\253\276D\035N>6K\237\276\265\227\237?\370\266\255\277\374\032\263\277\3055\331\2759\t\243<\315\330-\275\223Bb\277:\270\200\277\275\346\233=\002\255\233\276\207\031\223\276Ou\200\277\257\253\214\277\336Rq?_H\304=V)\216\277\216\313\202?6\r\362=c\334\333>}\263u>K\321\\\276\200\343t\277\335\244\007>\267\233E=\267g:\275\325\031v\276\2633w\275;\t\267=\037Oy\277V\267|>?\324\203>d/\256\275SU\202>h\240+:r\206\316\275\226J\241\275ve8>\350>\\<~,J>\330Y\273=h\260W:\310wD\274\342\3205>\266\"\376\275\262\330!\276\314\t\377=\030hD>pm\r\275P\352h\276\346\271\005>\330\2749>\244\210\250=a\"d\276\240.\335=HW\347=\373~(\276X \002=\310\216>>\030XO=,~\372=\346\322\202\276,\033K>:\247W\276x*5\275\230\314\273<\215?_\276`\355\226=hq\316<\306\236\017>\360or=\3301L\276\313;O\276\2545.>\006n.>\310\254\037\274\\/\364=v/\221\275(\322\365=hq\033\274pg\025=\266\273\241\275 \017M\275\222X\227\275\264$\356=\257\020\205>\240Ts>H\257\311=h\275\241\272\260I\216\274&\232\177\2768\033\313=\322lY\276h\3275=\210\'7>1h\201\276lJ\306\275\250V\205=8`.=\306\310\006>4}\025>\\J\276=\330 \200<\346wx\276\266\177d\276\030 :=\210\220\'\274h\200&=(\210e=X\241\016\276\336}\261\275(\307N\274\026\354F>\310\004\277\274 Z\261\275\230\243\206<\256F\250\275\256\212(>\260\326\365=8%\\>X\177\263\274\004-\024\276\330\273\357\274\220:h=\240\351\206\275$\227\206=\026\000\324\275\242K\224\275\030\313\324<j\311;\276\016\377\026>\350+);`Y\276=P\265\262=`\336>\276\220\337<>(\237\234\274%\025l\276h\246\364<\016\357\025\276,\253\244\275\275\352\001\276\360\310\363\275\3503\353=`\022a=\216e\372\275\024d\356=\304\317\361=$<\002>\316\240X\276,\265\\\276\270\344b>\2660\213\275\016\255D>\\\302\206\275\000\360\361\274\230b\247\274H\326\332=\324\035.\276\362\002v>\025\262\213\277\321:\330>\000\206#\2763\027w\277\303\350o>\317I\211\277\203\201h\275Fu\217\270\030Dx\274\212\262d\277\262\035g\276\241\022-=Ugp\275\230\016S\276i.\223=\344\212\020\275\317\325\240\277A\031\224\277\250\265\364=\025\260\255\277~\201\247\277\212\235\313>-\207\241=\232\200@>\270\315&\275\361s\320\275\231Q\244\277l\024>>x\305A=\376\007[>\272\025\212\276@hp\277\202\236;\276Dc~\277:A\211\2772u\210\277\345H\250\276\262}\200=\224{\305\275r\357\201\277\305\016y\2772\277\030>\243\025p>l\374\255=8\274\200\277\230]\200\277@\200\261\277#\\\257\275}\t\207\277\234\316\230\277\355\345$\275\267\365C\275A\246\246\275\325>5\276\260\315\204\277\301\376\370\275\254l\244>\357\373\314\275\252\222\n\276\321\216V=\3501\227\275\0031~\277\350\372Q\276\266\303\215>\023\233\204\277wj\026>\277Q\373=\323$\223\277O\036\021\276\rM{\277\227\t\361<\024\312a\274\370\r\201=r$L>\217\266\223>!\200\006\275\235\343\343>\362\242\237>|K\323\276\370%E=\375$\263\277Az\235\277\371\355\211=\347{\223\277>c}\277\0171C?\2405\203\276\025\010\200=\220\277\251>[\301I>\036Qv\277\244\025\210\276\200\203\\>\277\\\200>\315\300\233>\271\377\245\277*\337\202>\352]\201\277U\231\260\277\224F\205\277\2416\261<9\221R\276/\365L\276\003\225R\277\010?r\277KO\261<\243\311\317=\345<V\276\266\310\227\277\323m\244\277\t\311p\277gZ\275\275_}\203\277\260\246\217\277\331\254\262=\010\275\000\277G\n<\276>\250\217=\317\265y\276\311[\364\275Jy\215>\017\250*>\203\256X\276\356\222*\276*\010Q\276$/\217\277o\205\331>\372P%\276U\366\211\2776\305\352:\340z]>\227\311\245\277\025\\i>\307\202\250\277\021\221\232\274\342\367\022\276\246\316V\276\r).\277\023m5=\311l\024\275\247\200\331=\212\345N>\r\001\367=\3122\017\276/\311\210\277{\312\227\277[\233\207<8\277\253\277k\223\262\277\200\004\020\277\033n\253>~\311\261=H\244\006\275v\224$=\205\212\221\277\262\2022>\350\213Z\274\271\032\235>\0064\021\276\'\223\267\277G\203<\274P\270\206\277\333\244\211\277\252\021\217\277,\246\022>\252\373\261\275=\202,>\016\355\241\2772\307\207\277z\2616>k\207\351=\n\240(\275\210y\261\277\035N\242\277\371M\217\277\313\005\037\275\315\324\207\277b\026\202\277\363\016\274>\301\306\246>\377\274\266>Xd\243<\267\231\217\277\031\225\204>\263\206\223\276\305\210\377<\342S\240\274\206\310;>!\250\260>\017h\261\277J\271u\276\377&\013=5\302\224\277\300%\206\276\242\372N>p\002\250\277A\227\250\275\262\032\227\277B\251\344=)\301\220\275:pw>\322E\036\277ES\220\273f\242\212<\222\306\321=\001\355\024\276P,f>r$H\276\024#\264\277\365c\211\277\207\224>\275\005My\277\030\332\247\277\205P\264\275[\375\345=\207\256&>s\276_>dN\030>\313\361\233?yw\r\2768x0\275\241\300q\275\351\221\357;\275\325\263\277\302\2331>z\017\216\277\023\350\225\277\342\002p\277\366\217m\276\200\324\311=\360\320<>\363\355W\277E\276\251\277\372\273\245>\2378\007\276\034\364\205\276C\363\270\277\316\251\267\277\021O\247\277\252\357\013=\330.\235\277\213\265\230\2775\361\031>\031R\376=\227q\314>\'b\303=\031\267\201\277\"\001w\276\210\373\215>y\200p=}\t\210=\365r\024=\026\226W\276/\307\235\277\3755`<\302l\035>\253\007\230?\017E8\276\302(a>\177T\254\277\234\217\021\276f\007\270\277\335\263\270=\006\027+>\242o3\276\274nn\277)\003\202=S\251\014=\017\302\247=\333$\355\273\357z|>\360=\'\276h\277\262\277\017\361\265\277s \243=\rF\257\277K\337z\277\357\234\253\276e21;\305\302\214>\317\372\010>G\361\200\273|\215y\277\342\326\006>\272\013\220\275\257Ke<sj\226>\225\235\232\277\273>\212>\261\246\240\277\014X\267\277\271Y\257\277Q/\303=\371\n@\275q7\333\275\220!\247\277\313\211\266\277\270:m>\306\343\205>\244\252\304<\340\222\261\277\007{\265\277\371\001\210\277\307\340W:\336\n\222\277\201B\237\277\215\\\007>7\264\036>\2734\345\275\325\216\367=B\202\215\277\232b\250\275\272\261V>\246h\\\276\371y\345=\222w\323\274w\343\322\275\347\320\247\277EAA=/\340\225>\214x\216\277-e\256>+s^>\223\246p\277/\014\226\276\337\265\212\277\007!\207;\255qv\275\021/8\276Q\223D\277y\372c\275\316\314\201>\363\320\255\275n\3536> \213\030\276d\033\177\275\360\016|\277a\"q?\231\316h\276\002\022\201\277Z\037\251\277*\310[>\025\031`\275\254\222\211=\026\277\332=K>U\276\362\307\267\277\223\240S\2769\367j\276\200\343}>\373\302\256=U\210\256\277\344\200\000\276!{\220\277\320\t\257\277\246z\223\277\034\245;>\240\220\241=\244\236.\276Ww\213\277\215Z\251\277I\326\317=\023\177Q\276Q 3>\034\272~\277\276\035\235\277\267\353\211\277\257\345\200>u\031\214\277\275\231\262\277\245eX>\231R\202<\340W\'>\275&{\276\255\025\253\277\376\0002>\325 \014=\200\2611\276k\341M=\251\273u\276\002m\037>\374\217\223\277\266kx>\364\303\220\277\246\274\241\277\303\324\235?\353\025\271\277\204\254\232\277\004\340\255\277\304\n\250\277\240\037\350=\036\210\263\277H-\324<\264\335\345\275\035W\211\277\231\006\202\277\363N\245\277\273\220\237?\nT\214\277Enr\276\335$\267\277\332\244\234\277\024\026\003>\017\304\260\277A\262\252\277\010\342\256?> \214?|\006\214?*6\264?\316\331\265?\221f\221\277+{\241?x\020\223\275\360;\217?\303wp?\306}\207\277\002!~\277\250u\233\277\257.\205\277t\216\205\277P:\214\277\203.\212\277\354\207\231?\022i\353\275\324\031\202\277\223\341\206\277\325\324\215?|\253\233\277\307G}?\0130\265\277\210\333\227\277\243 \250\277\236\232\204\275\304\252\237\277az\254?\205\313\217?\007\357\214?\3016]\276D\377y\276\037\241\200\277\236=p?\332\252t>[e\272\277H\266\266?Pde\275\000\0102=\362y\200\277D\265q?\016R\214?A\016\211\277\207\205\243?\030\3545=\365m\226?\221\225\232?\314\270+>\212wp\276(\232\213<h>t>p\370\333\274\263a\251\277X\361\252<H\343\021\274\244\362S>\361\274\014\276\200\306\227\275M\324\244\277h\260\2339\004\272\272=\277\022\226\277\010\036\271\277\340\240\222\277\232\030\261?O.\205\2774J\264?\010\303P<\000F\252?\270\244o\276\034\213\206?\310\320\307<\302\342\202\276\325\265M\276[\317\252\2776\266D\276ic\212\277\035\243\260?4\036\212\277\210H_\274\256]e>\004\263\205\277\3704\216=\256\324F>\246\331\244?\367\255\205\277(\374\342=\232FJ>:\016v\277\362\r\030>\350R\231\275\243?\225\277\000Pw\2752\370\240\277v\304\023>Ffv\276\323:\207\277:a\224\2774\367\344=\310\006\231\277g\337{\277\235l\006\2769\217\250\277=\251\205\277Z3\031>\002&\203\277\341\353d\276\0325\222\276E\377\200\277\362bS>`U\246\277\313l\246>8\206\022\277\300C\377\274(\372\"\277\225F\373<\277^\277\276\377\003\251\275g.O\276\0034|>\342\305~>\030\032a>a@M\277?%\232\275r\342\016\276\236\213\205?\035E\333=\022!\016?\335\242\211\276\306\377\311=\"\335\t\277\037S\'\276\337\250D>\036\3069>\0238\272\275_\000\273=:\254P\276 \275\313=N\032~?\2116\205>\374N\177?\343R\006>\314\360\n>\344~\231>7\320h\277\014[\260\277lC\001=\332I\321>7\202\211\276\357\227\215\277\250\025\310\275\025\320\267\277\223T\256=\235eW\277gk\246\277\037\177\351\273(\006\214\275\325\352\371=\241\033 >\262Q2\276\237a1>\362@(>\033\261\'\276M\250\245=\310\000\240>\371c\342\275x\014\006=%\255\014\276\316;\025\275L\230\231\277\3558\321=\265\"\356=\027\260\257\277\025\300g>\352\212\247\277\177\333X\276\343C=>4\270:\276\270\325\017\277\363>\027=Rz\024>\345\246:\277\371\230\300\273\244\337\202>@\315.\276\232w\263?\332O\236?\243y\313\274\371\237k\277O\252\255\277\362\317\305\276\375\207M< \341\024>o\033\021=\303C<=\177-\220\277\320$\030\276\320k\277\274_\332\333\275\033\300\026>]\005\257\277\321>8\275\023\024\271\277\201\266k?\377\246\252\277\004\3759\276\226m[>z\253\213=\022\230\203\277.\356\237\277\214;\010\276\030l*\275\333\020\320\275\373\243s\277\307#\263\277*\024\203\277\rP\335=\373\221\202\277f\216\235\277\200\344\306;\371h\310>\004\225=<P2\206\276K\035\017\276w\025<>Yt\273\275\313\024\246\275\315\202k\276\\\013\006\275\264\250\263\275%\207\256\277\027\361\027=9\221D\276\034\036\243?\357\242n\275\0209\204\276\020J_=;\343\007>$\237\237\277m\343`>\1779\340\275\200\031_=\303\203c\277\025\202\223\274+\216\017\276\341,\370\275\334A\242\275\373y\317\275\370\205t=\316\207\265?\271\367$\277\310`\220>JIu?~z\204?G\344\\>\263\007\347\276\006\206\017\276\205\021\001>\341Y\242=\310\006\245?k\004\277\2758\320*=d\2541>Aw\206>(b\270\273\353+\020\276\305\206u\277\375\024\215?\006;\223?Iei>\273\003\n\273a\031\037>\266Zv\277\264m\207\277\006\016>>OTJ=q\235\320>\002\031\232\277\315\307\235\277\340\256s?\036\356\313\276\204\204V\277\007x\237\277\010\242\340\276t\320\002\277\353\246\266\275\005\315q=\210B\244\274Ic-=\2211\331=N:\246<\266A\026>*%\022\275\323\354\201\276\026\244Z>7\017\235<\263\217\200?\207W\267?#7\212?\n\372\251?>\230E\276\325\225\203?\277\232\212?\222F#>\376\230\366\275\010\204\035\276X\224Q>\374\353\201?\200m\245?u\3435\276A \267?\177\006\217\277 ]\004>a\031\204?\223\345\212?xP(>G$t?F8w?\216\321\205?>\022\222\277XN\234\277\034p\261\277\270\026\272?\222~\270\277\262z\264\277t{\245=\315\017\234\277\320e\356\275\200\205\343=g\251\253\277\346\025\251\2777}\203?n\233l\277\251$\241\277e=\251?\232\321\241\277\320\373K\276\254\231\232?p\327\254?:1\231\277\306\301\250\277\254/\253\277\232\021\236\277\271\213\210?\326\235\253?\307\331P\276d\202|\277\326\325p\277g\306\263\277\344\354n\277\330z\246\274\234\350T>2\002\261\277V\266\227\277\320\332\333\275\207\340\271\277>/\236?\010\240\347=r\373\230?\207K\230\277y\0003<tp\252\277CQ\242>\263\352(\276\2501\223\2779\207\375=m|\177\277\227\255\316\276\3276t>86b=h3\227;\373L\022\275\322Z\260\276_\272R\276\004\275\252\276J\216\033=\266\234\352\275\333\030\210\277V.\260\2778\3106\276a2\212\277\240\364\231?\213\025A\276u2\024>\371\212\257\276\274\305\254\276P\245\010?\317t\211?\037V\361>\254\031\267=\000R\006;B\016\351\274\251\267(\276\303;\300>\367\217\243\277\352\313\231\277\337\315\231?\317\262\001\276\nA\022\276#\254\024>\374\330\021\275\216\332\256?\203\212\340>l\025\230=0\204->R\254\216\277\224\246\205\2775\357\220?\345\246\275\273_\334\000\276\223ay\277\021\217#?w\007\232=5\246R>\347\344r\276H[/\276\255\241\023\2765a/\277\222\017\307>\324s\341\276\017]\325>E\231=\276\353\373\233\277#\347H\276\025\272\374=Wb\253?d\262\217=\\\325\267\274\353\330\267\277\305z|=3^r\277\233\341\027\276\200\226D>\350\206X>\000\027\361=\341\241\222=\324\023\357>T\023\376\275\317\017b=\237\030_=(%\270=8\352\202\277#\212\233\277B\014\030>H\235\332<\315\330\266\277\375-R\276\026Yl>\023\230\250=CCQ\276\365\264\023?0%\200\2777cx=\330\206V\274\220|\266>x*J\273\330\215\177\276!Xu\276M\256\231\277\336\215\240\277\247\027\225\277\322\372\202\276\271\336&\275\356\246\262=X\243\005>\332U\234\277\357\374m\276m%S\276?\310\241>-+\244\277\347\327\214\277B\330\201\277zL\340\276\226K\036>\207\275\237\277\375\344\206>\315\013\251=\336\350\366>\021\336\312<\216\374\214\277c\"\005=\272\017\213\275\2550\205\276T\032/\276\213\265\352>\326\243\032=\030m\352=\245\365\265\275j4G>/A\261\277\340\321F>_l-\274c\274\266\277\375\031\311>\355\251\210\277\301\372\336\275F\347\234=\324\336Y\276\271Q:\277`?\203\275\013\"\246\2765\377\034=\227\312\n=\325)\004\275NmC\276G3\234\277WP\202\277\013\224\374\275f\347w\277\2662t\277\317\033U>\327\320\304=o*\n\276\264\232@>C\262\246>\267_\220\277\270\354\">@\255\221\275\302\355l<\307\030\253\275\206\374\266\277e\312\350\275\032\223\223\277\251\341\213\277\373$\217\277\003[\343\275WT\024><\252\236\275\311\024\244\277\021\253\201\277O\325\237\275\213\256\300>S\267\2649\251\237\233\277\325J\207\277\306\024\251\277\367\275\215\274\232\346\250\277M\346\213\277];G=\344?\'\276\225V\315>3\353\244<$\211\201\277\271\322y\275\214\351n>\311\211H>\363\026\027\276\236\273}>\3510#>?\233\256\277\234\276\037\276"
      }
    }
  }
}
node {
  name: "decoder/dense_7/BiasAdd/ReadVariableOp/resource"
  op: "Const"
  attr {
    key: "dtype"
    value {
      type: DT_FLOAT
    }
  }
  attr {
    key: "value"
    value {
      tensor {
        dtype: DT_FLOAT
        tensor_shape {
          dim {
            size: 64
          }
        }
        tensor_content: "\257\244D<B\\\220\277\035\0237\276=3\235;`D\231\277\275\334k=`D\231\277\361\223u<\254\235\034>\000\000\000\0007:4\277\311\022\375\275,\333\225=\005\344\260\275yd\223<d\251\257=\000\000\000\000`D\231\277`D\231\277Z\327\255= \275\223\277`D\231\277\037%U>\t\250G>a\261\312=\214\255\214>\215P >`D\231\277D\000\034>\000\000\000\000MSn=p\266\027>\214:\231\277-`N=`D\231\277`D\231\277`D\231\277\311\270\272<\225\242\277=\211n.=\270r\212\277`D\231\277j(\032>\351\031x=/w\311=`D\231\277`D\231\277`D\231\277q\371\200\275\334\243\212\277`D\231\277]\320\340=\031\3230\274\333:\035>p\203\344<\314\216\215\277\335\340\260\273\351\355\366==\257\214=;l\243\275\256#\305\273\263\345{\275`D\231\277m6\330<"
      }
    }
  }
}
node {
  name: "decoder/dense_8/MatMul/ReadVariableOp/resource"
  op: "Const"
  attr {
    key: "dtype"
    value {
      type: DT_FLOAT
    }
  }
  attr {
    key: "value"
    value {
      tensor {
        dtype: DT_FLOAT
        tensor_shape {
          dim {
            size: 64
          }
          dim {
            size: 128
          }
        }
        tensor_content: "\341\017\254\277\210\211\356<s \236=\370,\234\276,\3012\276Q_\202\276\315\222\r\276\264\020\230\277t\033\237?\216\265\030>\346\350\226\277\357\\\227\277\222\r{\274\361\017\314=\366\265\205\277p\271\256\277}\"\231\277w\273:>\263nT>\275\211v>\341\305\227\277\317\221\241\276b\321\205\277L\210\t\276\333\025\233\277\332\213\241\277\362`\016=f\316\227\277\372\034\001>\232\323\253\277\301\271\031=\245\252s>\363\271\376\274\361\277{>HU\221\277>C\225\277\214\320\215\277\337\tW>\255\033\221\277_u\177=-E\212\277\270\331\220\277*\026\245>R4\215\277\351\345\014=\031\244<>\335z\220\277\215{:>\023%\235=\337\007\233\277\377\346a=\020\\\225<&\037/=):<>\366\014&>\353\243\203\277\201\306\241\277W\265\244\277\206\310\">\005\232\226\275\212\245\020\276\033\370q>\335j\202\277\307\252\244\277\245\217\364\274\314\025\240\277_h\024>k\177\340=\211\343\206\277x\021~\277\"w\214>o\311g>\017\334n=1\300\211\277\265\030\214\277\037\177\234\277\'\3570\275\037\220\303=+\204\205\2771\354\205\273\260^\217<MH\">\363\223.\276\210>\242\274\336\020\264=\263\215\014\276\016\020\202=\313\255\351\275\314\341\254\275Tr,\276\323}\001\276\326\322\266=0\"\340\275(\266)=\313\375\031>\306?\350=3\275n=C&K>\304\321\006>~-\000=^\030\230\277\255mN>\257\321\255\2774\200\237\277|)\232\277\025\265\214\277\275\321\237\277\253z\212?j\215\372=\'\343\211?\306w\243\277\ro\223\277L\311\001\276\376\025\237=\017\033\030>N\356\373=g/\t>\302\251\343=\334K\022\276\310>\255\275es/\276\356j\214=\231\\\301\275\354|\017\275\270\376Z<\036\324\363=\ng\232=\376\000\320\275\254\272\231\277\035\336 \276bt\223?\273\373\221\277\256\340\345\275\363\252\250?\002\005\024\276\371v\235?\310\347\241?3\335\234\277\031\337\211\277\005\371\204\277\333#!>\371\333\214\277p\362\234?\375\277\253\277\036)\353=\022jt\277\313\216\252\277\036\314\215?E\034\211\277H!\224\277\037\231\222?v\206\223?\242\316\254\277\223}\226?\335b\220\277\224\317\234\277{M\210?\241\316\244?k(\237?h}\206?M\323\245?\366-\241\277R\236\234\277i\227u?\324}\232\277\026\230\202\277V%\225\277\024`\177\277\310G\235?\007Zz\277B)t\277\\\336\213\277n\021\203?\300\026\220\277z\036\222\277\313\275\214?\260N\207\277\n\030\224\277h\342\236?\223\275\216\277\233\253\016>\335\034\217?8\340\211\277Q\213\203\277H|\352<\t\362\207\275\035:\206?Z\315\232\277\361\205\221?_\263}\277C\301\224?\237\305\246?\323k\227?*r\252\2772+\247?{\334\213?\251\240\256?O\363!>X\376\253\2776\230\244?\377}4>\"/\232?\230cQ\274T\314\234\277I\3052>P\013\200<\266\274\251?w\033.\276\003\330\024\276\017D*>\372#\224=\330\030W\275\250\351\307\275`\221\014\276@4\003\276g0\037>\030\364]= \315\342\274\016Z\377=r\034\272=\r}\020>/\304\">V\270\272\275\250\2453<\336\342\223\277\257\257\204\277\210Z\217?r\320\213?\346\362\232?A\256\232?#R\214\275\236\356\214\277M~\253\277\356\306\235\277As\202\277\231\363\225?n\031\303=\027\237\227\277\255\004\224?\313Z\237\277\324,(=<hu=\2642)\276\t`\032>a`\026>R\335\344=\000U\305<O\036\226\275\010\275b\275B)\350=\250\361a<l\357\214=hp\2128\347\300\356\275*.\323\275:\000\255=M\007\222\277\275|\035>-\206[>\254\0068\276\350\206g\274#ie>\037\243\210=\300k\252\277 \221\201?G\0176\275\251\200\244\277#\221\246\277hm\202\276\200\202\024\276\000\200\207\277%\275\207\277b\222|\277\255\305\377=\036H,=\267\'<\275T\\\246\277\205>\232<\370\274\222?\224\350Z\2764Z\250\277\377\372\207\277\245R\263\275)K\242\277\003\2670>\326Y\226?A\2656=\277?P<\376/%\276=\370;\276d\352\206\277N\002\252\277\326\r\206\277d:m;\207n\255\2777\262\302=\263(\240\277\306\035\225\277\310/N>iq\233\277\263\027\227\275\307|\212\274\270\261\226\277N\273\271=I\264.\275\341\244\224\277\367N\222\275\313\ne<\202\001\220\275\037\204\\>+\251\361\275$\343\215\277\034\303\233?]h\217?c\311\261>\211zr\275\316\312\204=\367\317F>\275\333\202\277\330\247\231\277\321x\222={\027\256\277\343\3507>S\033\270\275}\035\223\277\352F\231\277\365\202\336\274\360\330F\276#\3005>w\233\256\277:w\222\277\271\244\246\277\203<e=\204vL\276\025b\221\277\354\0211\275;\275/>\231\350\021>{\277\227\275:\214\252=t\260$=\200p\031=\236c\347=a\2422\276\343E\236\275\251\022\031>\030[M=d\203\375\275\036\255\025\276C\340\004>\376\313\357=\316J\274=\201\276\025\274QD+<\235\014\254<\255\177\316\273\221\371\214\277Y\007*=\337\266\246\277`M\234\277\277*\213\277\226n\220\277\261\206\254\277\315\006\253?X\021\275\274d\214\205?\025\225\216\277\2241\253\277\345\211\033>P\025\006\276\346\254\037\276P\341\364\274\202\371\352=\272\222\203=\010\276`<3\317\017\276\310\353\213\274\376t\342=6\020\253=\3323\370=0\022\325\274h\226\002\272\340d)=\360\250\271\274\235\311\211\277\026B\331\275\234M\233=[.\343=\014\371\352\275\036N\200>\365\303v\274 \227\212\277\021i\244\277>\010:>(\001\254\277E\'\241\277\270\334R\276\005\344w\274\303\332\202\277\345?\211\277\'/\245\277\2214f=\221\225V\275%\247\361<\265\375\234\277\025\025&=x_\241\277\266\227\n\276;\360\202\277W\240\215\277C\224x\275O\267\231\277\"\301O=\241|\212\277\207\006\357\274%\252\004\275\220\257\310\275\030\277D\274~\261\242\2776.\232\277\331\203\247\277\341\0245>\036\360\243\277\333\236\311\2742s\212\277;\251\204\277\037R\261\275\304\230\212\277!\205\362=A3\030>KG\232\277;\027\313\275a:X>B\216\231\277\023\006:\275\227\274\377=$C\261=+\2467>\244\032\313\275\371\021\233\277\334v\244\277\372p\224\277/\336\336\274\001\222K\276KYO>\235a1>^\373\211\277\363\226\220\277\207\243s>\253\234\204\277\241`\232=\240B>>3F\240\277\312\024\252\277y|B>\030\023?=\271\\\337\275\225\324\213\277\357_\220\277]<\220\277\205\014\312\275\2559W\275\261+\252\2773\355z\275\364\033\t\275L\037y=T&\031\276\210\203\026\275\031\027/\276\004\364K\275j\350\257=>\272\r\276(\013O\273\247\202\022> \013\336\274sg\033>QK\212\275H\364+\275\326\276\370\275$\346>=\216a\242=ead<5\3217\275\204\204\017>\371\263\253\277\370\222S>b\237\222\277$\271\211\277<\231\210\277\206\224\205\277\224\343\232\277\237\311\227?H\326\017=\275\032\231?\032\254\214\277\242O\220\277-\'\014>\210d\305\275hc\232\275\006\350\311=F\354\n\276J\226\370\275\360\217\371\2743[$>\312\264\335=\340\232\246<\331\300\036>\211\325\003>\320\316\200\274\027x\300\275\332$\331\275\367h\017>\367\236\227\277`f\364\274\004\\\227?\313\031\245?)\0202>-#$\276\310\006s<\263i\214\277Vi\220\277\241c\222\277\371_\242?\030\360\206?\312\264\304=\345C\226\277\311~\247\277\346E\204\277W\241$>\245\323\202\277\233=\231\277p\033\246?!\367\021>u\314\207?5\370\241?\377Z.>\244\022\204?:V\241?\374\373\205\277\243\235\206?\016y\215\277$t\241\277\017\016\214?\301!\224\277\3639\243\277\004\006\215?h\340\333\272\353R\212\277\206\210\206\277\263I\252\277\337|\255\277\333\201\252\277\272>\227\277Y{#>\251n\252\277\337\331\207?%\305\210?bm\240?\330\246\214\277\237\220\203?\221\020\254?\237W\217?\343\322\216?p\235\222\277j\024\376=\007\310\245?n\263\241=\264\300Z=\031\003\032\276\341\022\252\277Pt\203?O\314\226\277j\261\233?\345\361\212\277\017Z\202?q\221\256?\273\256\232\277\327S\224\275mP\245?\'\301\253\277\315\265\241\277\005\332\002\2766\016\211\277/\233\241\277X\210\003=\371\254\213\277\026\024\256\275!a\245\2774\336\027\275\251\367\">\013\342\205\277\272Q\260\275\\\005\036\275(~-\276G\301\007\276\007\017)\276\215I\016>PE\005\276`,\371\275\247&\022>X\375\317\275h\202K:gt*>\310\267\326<\010\324\236\274P\207\221\2741\334/\276\360\224\032\276\037I\257?\010\343\220?\346\227\227\277RF*\276\303`\236\277\245\240\230\277\205\2501>\347\031)>\235\364\211\277\303\314\203\277\331\243\247\277\345\341\253?\362$\246=H\311\244?t\352\227\277\236\367\210\277\245+\n>\372\323\351\275\321\372\007\276*\322\361\275\366\345\310=\037\275\003>\'\213&\276\326&c\275\356(\234\275\034\350\313\275\326T\322=B\013\232=NE\033\2769T\264\275\224\344\013\276\337\016$>\372\212\227\277\364HV=\223\201a\276\264\313->\310\016\250\276\236#\275=g\017Z=t5\243?\332.\215\277\021P\343=.\236\236\277[\254\250?#g->\342\330\033\276\214&\223?\236(\213\277\361\350\227\277t\364\307\274Sp\310<1\035(>\206\000\227\277\252\223\013\276\221&\252?\335\222\021=\331e\234\277\341\302\204\277h\215\"\276\256\016\251\277\356\217\236=+\352\224?\224\277\030\276{\3523\276Al\005>\3642\271\276\002\200\244\277v0\217\277\305(\205\277\374\317\240:\332.\254\277\263BL=\243$\223?\263\220\220\277\300\377S\276!\027\231\277\301\363C>F\\};q<\251\277\010S\373=\016W\203<\221\013\233\277\023{L>\362\354\t\275\321\217\207=\272\017\300=c\035D\274\342`\230\277\322)\217\2776~\300\275\261\267\211>2\333\025\276!\036:>\337@\022>\313J\207\277R\263\226?&_5\276iz\222?\330\364\213\276o\031\256=\300e\250?\202.\244\277^\262\203>\371f\214=\330\264,\276\010(\230?\3610u\277\272\205\224\277A\317+>\205[\030=\262\222\241?qjg\276l\002)\276j\2400\276\340\3226\275\010\0072\275@H\211=\250\333\364<(\305\305<\203\263\021>\023\030\025>d-\013=H\360\324\275\260\300\307\274\304\317-=\344R1\275\003\177\034>?a\200\275\355\360 >$\303\027>0gr\276\361\204\201\275dv\237\277Rm\032\276$K\206?K\207\246\277_\031\233\277=\372\251\277\033\361\232?\306\237\237?\247\257%>\3752\257\277V\244\223\2773\021\205\277\267\213\034>8o`\275\360:\223=4\020x=\302\242\320=\230\0042\275\351\3523\276\260\356G\275\270K\005\276\224\226*\276\n\307\326=\341\021%>h\227\240<\030\200\035<\270\325\225=^\317\343=\337t\224\277\2020\264=\321\320\231?m\345\234\277\271\"\031>\010\213\236?@\013`=B\206\236\277\313\236\251?\212\345\256\277\0333\237\277\246{\225\277\010t\330;\032\250\247?\375\323\205\277@\253\220\277\374Oq=\354W\251??\366\251?/\230\230\277u\"\243\277K\321\201?\026~\252?\323\001\243?3\033\246\277U\035\253\277\010M\213?#\001\215\277;\n\223?\223\343\236\277\217\240\254\277?2\255\277\340\207\225\277\205R\206?/L\255\277\206\243\213\277\266\364\215\277\312\013\240?\352\"\206\277\005(\235\277Q\341\220\277\313\223\234?DS\224?\356~\224\277J\220\235\277\235\005\233?\313\031\204\277\3728\251?\271\243\241?\266V|\277\205\266\223?\302!\231?u\324\253\275!\365\213?\213V\221?(\003y;\243\263\251\277Kl\243\277\023\367\221?\237\016\245?\177X\217\277\372S\247?\324|\230?\357\255\205\277A;\231?\243:\242\277\002\276\225?\213\231\250?\\-\212\277B\031\370=\305\341\236?\031`\247?h+8=\250\366\206\277\305\307\216\275\3402\216\277!\3351>r-\275=\302\216\215\277\032_\273\275r\313\256\275\025\032\017\276Z]\001\276\225T\">\332[\264=_\356\006\276\304\272\003=\030\023\031<\351M\242\275\322\227\256=\250\213.\274X\232M\275/\r\367\275>K\224\275\000\034!=g\326(>\212\221\215?\255\021\257?\312\304\211?~\337\237?\226\034\216\277\\\207\245?:\321\255\277\225\\\203\277<\244\217\277T\306\220\277\206H\224\277\341\372\213?C/\000\276\206\230\214?q\274\224\277\002W\214\277\322\373\375\275\0004A\275#\002-\276(\264\014\274(\326U;\274E\215\275\357\333\006>\220S\247\275\224\335I=V\356\023\276\203v\203\275\356\374\036\276i\206\013\276h\210\370\273 E\033=\316T\246\275\\\200&\275\310\207\177\275\361\353\007\277\3507\255>0\343\225<\223M\250\275\224n=>h\272\027\274\347\364\014\276\337D\237\276\212\300(\276\210\232\363\274\257g\367=k.[;\337\256\211\2753Y1\276\341>\024\276\005\243\213\276\3664\243<\354[E?o\036\025>o&\001=l}\031\276\207\372\355\276\376\330\214=\023\"\231\275\201\204\334\276~\241\322=o\325\244\275\246A\246=\342\026S>\306W\230\2761\010\227\276\242\204p\275+\303\034>5\260\032>\222\214\031\276\037\277\310\275W5\225\275\202)\362\276\260A\304\2759#\235\275\034\244\032\277=B+>\312\274\350\276Y\370H>\342\317^\275\346m\002\277;\326\347=L\204\235\275\360}\030>\235\355\037\276\345X\221>\223\273\217>SY\344<\332\274\312=\020\227E=G%,\276\344\276\230>\343\314J\276,\267R>\022\177<\277\213o\324\275\270\347\002\274X\200\202\275\370lc=\215\245\247>\255[K>\214\270?=LW\023\275\255t\340=\270\374\351\276\217\264\305=f\253\'\276\2357\341\275\311\307\217\275\215\311_>\213\234X>b\007\020\276\330\270\211\276Fk\243\275\235\247\006>h\326\257:\240\224\225\274\366\037\257=Z\201\363=\314\275\234\275BI\354\275hx\036\275\311\244$\276\237c\316\275s\276\000>b\341\330=i\3351>\310\001\232\273\210|\361<r\347\265>\254\367\310>\236\212\217\276W\022t\276m\020\006>s\361\321\276\207\371(\276\362!\303=q\325\261\275\314\006\243\275\034H\017\2752b\352=e\214\025>\216\240\361=\316\037\240\275\350L\225;\374\001\025\275\032\037\300=\240e\247\2748i\265\274\342\243\367=\235\030(>;\006\">\312\201\216\275\221\305\310\275\340?@=\327\377\313\275p\363\340\274Z\200.\276\032\022\261=#|3\276\364+\005\276\\\226\233\277\000\253=\275\333CC>T\300\251>\035D\232\276S\311_>\273\034\321>\3503\206\277\250k\020;~\271\252\275h\333\020;I\030\220?f\203\276>\306\345\026>\277\234\210?\0373\224?\350,\334\272\263\353B\274\253/\001<vz\353\276Gk\023\276|\031D\276\251\025\221\277\027\207\002>\035i\255\277v\021\223\277\231\221\276>\301\010\237?x\006\207\276\010H\366;y\257\342\275c\003\021\275\260w\217>\010>\330\276(\266\201\277\232v\243\277\256\'\243\277\371R\"?d\270\250\277E\302\000\277-\032\257?\025b\251?\306\363\277>P\253\211\277X\322+>\247\327\352\274\n\330\222\277UR\223>F\024\257\276\343i\216?B?\032=J\317\213\275\225\374\210\276\007\177\324=\356\273\026\276HQ\204<\332\263\345=\013\227\035\276\205T\237=\351\344\\>MF\204>!]\331\275\003\221|?<\342\244\277\227\322\340\276\020\034\241?\321M\353>\225\010\r\276\363c\226\277\240\022\201<\253\354r>\202\034\364\276o7\337\276\245}\247\277G\335\314\275\023\207\217\277\216]*?\035\234&\276f\233\204\277\202\300\344\276\237\216 \276d\320(=f\230\344=\240\345\341\274\353\005\031>m\212&>\260\350E=\224\005\030\275\322\357\372=\232~\357=\320?\345\275\276\243l\275\360T\225\275h\367G=\210\220\032\276\033\016\">\260\2516?d\215\004?\341\241:\277\275\361\337\276\312Z\244\277\306|!\277s\370\010>*1\241=\2147\251\277\036\267\252\277\036\224\231\277:\361\300=\353\204\030>\005\275\220\277.\334\241=\306\370\312=\256T\271=ig.>\216K\375\275\304gG\275\371\256\023>p|\204\274X_\356\275\234\206\226\275\374\371#\276\tN\027>\273\2221\276\340E\302\274\010\0253\274\270\321k<\260\315_\275\250\251\036\276W\206!\276\001\271\244\275ph\213=z\2363\276\244q\033=1\327\000>\242\317|\275\014\242F=\030W\002<\366\256\303=\323\374\206\275\210Z\232\273HT5\274\0103\237<\002\033\332=>\201\002\276BO\314=\300_\363\274@P\336<\304~\031\275\327S\020>\314\311\360\275\330f)\276:\227\270=\332\321\256=\202]\205=\236\254\225=\177\361\366\275\376+\366=\"\362\022\276\0103\341\273\376\005\312=\224\363S=\0270\004>\001\373+\276h\260S8\2222\315=\316\366\227=0{\225\275\211\237\023>D\330F=\204\'5\275!O\002>\267f\023\276v\331\371\275\010\306\246\275\270FG\2749\004\323\275\212Y\322=\030\364\023=\322]\200\275\r\244\030>LO\216\275\332+#\276\340i\213=\2665\347=\310\t\207<\"Zz\275\034\247\212\275\320!\023\275\340\331f=p\364*\275\254\305^=\273\305\'>\304d=\275\250L4\276\313\036\035\276*\343\302\275\254\224\003\275\031d\t>(j7=-T,>\310F\213;P\022C\275W\3653>5=(>(\321\352\274(Cg;\300!\017\275\330\214}<\312\350\307=\004\035p\275\257w\030>\306\244\317=,\316R\275\260\177w\275\203\2773\276\227u\233\275\004\374r\275\023z\374\275i\347\">F#g\275z\245\271=\263\266\035>~6\006\276(\223\215\274\000U;\275\240\302\'\275\275\032\016>\370\370e=\300\310.=\271\222\006>=\207/\276y\216,>|\242\024\276\251\307\032>\332V\321=\010\350W=i4\335\275D\004`\275\203B\035>\250}H\274\310\2757\274\230\027\324<\027/(>\0350\027\276b\373\353=j\336\023\276\376\224\232=\250\377\205<\356\261\265=\346v\362\275\340\223\324\274\255\367\315\275\2700.\275X\0307=`\312\036=\014\031\032\2750\257\243<\014y\204\275X!\260\274\262\217\300=\346;\257\275\265\214\026> \253\211<\216\367\220\275{\235\030>J\347!\276\244\031E\275\342(1\276$\221b=\204yN\275\250U>\274\320\356\341\274Z\375\275=Ye8?.\252K?p\205^\277\n\372\212\275\210&\r<\240\362\214\275\361\023V?\217\215%>%\207(>\026\276W?H\205\307\274\020\206\026\277r\035\374=A\326\016\277\010\337:?\335cX?0\021<\275\006\002\234=\302\222\206=\036\346\323=MIO?\210\355\366\273\347\317U?\021\342\247\275\364\345\353\275\304\017\037\275T\351\017\275\222\376\314=+\334\n>\270\364s\274\020\324\300<\206\3152?,\325\034=\222\223@\277\200\347\376<<2A\275\023\326\024\277:\302-?\250\2074\276zy\302=\264\305\036\275R\216O?\310\276\032?\211x.\277~q$?\222\301\236=\222\245\366=\005\212!\277\010\036\333;_\345\014\277\316\216\024\277\224b\007\2758\035\023=9\350\022?\034\276\034\277\230\002\214\274@D\364<\226A!\276\t\013\">\025?%?\377\247\201\275~#\365=\272xs\275\205,\257\275 ~\'\275\253\231\001>hb\271\274@\020N\275\305W\023>\336\261\266=\230\320\225=\310\335+\2756c\356\275\223\266*>$\316\214=T\345\323\275\226\010\252=X\313m\274H\301\335;\343\231\036?\0361M?\313\253\014\277\366\006\265=\030\035M\275\224\263C\277\330^\020\276\030\275$\276\336)\352=\302\006\357=H\030\251\273\344\2424\275\036{\007\276\226\252\375=\370\254\365<\260t%\276_M\r>\370\244\"=\207\371&>\204\003[\275(\355 \275b\203\266=\014*@=\360L*=\350\274\211<\2725c\275H\277\220\274sK\006\276.R\302=\340\200\240\275\250\227\253\274`\034\364<\351\215\222\277?\314\230\275\266\016\351>\363\262\201\276\000=C\276\2113L\276%\213\241=\362r\203\277\352\275\243\277F\217\203=\3711\252\277\337\245\225\277\321\234\355\275\3303\277<\0346\213\2770\372\207\277~\353\206\277^\225\327:1\252B\275e,\214=\200\255\232?\276\224B=\274\265\250\277\037(\272\276\223\342\217?\027\202\242\277euV\275Q\351\204\277G}y\275\323\307\230\277\312\313\252\272P\353\367\276{\005\367=\215\325\230;Us\253\277(\'\216\277\2434\251\277\037\365J\275o\222\231\277GFi\276\001s\237\277\220\206\237\277\254T\363:\212\222\255\277\210\333\274<\357\342\355=3c\220\277\376]0>\337q\347\274\341?\242?!\322A>\257\232\265<6\300\217\2765E\212\274\0377\266\275\316\342\244=\261C\225\277\273\250\232\277\322|0\276\333B[\276\312\300e>&\n#\276\366\314\226\277\203_\204\277D\330\000>T\333\245\277$R*>\343\316,>\357\322\210\277\025=~\277\241\213\272=\316u\010\275\353\377t=\343M\210\277JT\202\275Bp\206\277\\\240}\275b\022\247\276\032h\233\277\377\016\027\275\223,\'>\355\036\001>C\005\251\275nB\336=\244\301\272\275P\203\033\275\210dN\275\242i\360=8\334\013=m`\030\276\240\344\330<M\347\014>\236L\370=\233H\025>Y\231\007\276\326\323\300=\360\270\223=\367#k=\207\326E>t\260\\>\322\213\251\277\234=\260>,\326\240\277x\313\242\277\335\214\245\277R\354\220\277\\\023\226\277\034K\206?\320?\304<O\306\246?\264T\254\277\226b\240\277\211\253\246\275\375\301\025\276hZl;\026\277\322=7@\340\275l\032\001\276\216\317$\276\364KN\275\351\274\004>\242\311\006\276\242\227\272=\362F\373\275\036\304-\276\347\344\016>\3576\010\276\232\210\247=T\343\245\277\322\353!\276\324\302\332\274<\365\340>\264\246\323\275g\276\026?\233\367\374\274\331\372\256\277\201\177\224\277\374K\n\275\362\264\204\27769\205\277|.\237>E\335\350\275S}\255?\205\215\247\277\313\357\027>\031F\256\274KT\202=+\n\336=\033{\243\277!\r}<\026\351\230?\030J\310\275\234\035\251\277*\225\214\277\005\033\201=\367%\236?A-\203=\306h\210\277\021\320\211>o\320\374\274\247N\210=\276k\306\276\000A\244\277\357\356\224\277\2509\211\277\001\022\351=\224\020\217\277\3470h>\221\217\230?}\031{\277#/\213<\263\006\234\277V\225\325\275\205+\017>z\352\233\277:K\363=0\212\314=\366\374\235\277\017\352\203>\263\202\360\275\227\\\210=#\0367\275\226G\021\276!\217\216\277\037\311\256\277\177k\213\277g\335p>\316\240)\276E\213Z<W\033\202\275\276\250\230?\260\250\207?\325\327\024\276h\326\256\277lU\244\275ln\250\274NI\212\277H$\271\273\006\264@=\200\326o\2765/\n\275s\343\204\277\353;}\277$\326\215\277\244E:\276\223n\247\276U\032\256\277\203P\362\275\323\334\035>H\364\354\274\347\333\n>\216\262\343=Z\003\363\275$\215\021\276:R\302=(Y.\273\233\230\344\275&\221\356=\250\313\201;Oj\204\2755\204\021>\253\206*\276\334\036\363\275Rz\270\275\373\352Q\275!Y\024\274\250El>U\023n>\364!\226\277\350\003\254<\034\215\205?\360\204\203\277\r\014\222\277\314\334\224\277n\220\217\277\261\350\205?\307\377\306\275p\027\245?i\251\207\277\252\210\220\277A\253!>\203\010\026>\362\241\356=\3126\357=\340\365\273<`\373\210=\233\346#\276s\215\230\275\000|\003\276(\211\\<\300}K\275hUt<\314\320>\275!/\013>\222\241\367=\264\315p=\\\374\215?(c\032\274ch\245=y\036\007\276\201\225\'>\312\337\007\277y\266\375\275I\217\250\277H\354\026=\343\201\215>\237\014\220\275{\242\246?\302\241\247= \264P\276\261F\256?\370]\255?mY\204\277\210V\230=\031~\257\275\364\256\235\276z\301\003\276WV\005>\025:\237\277\357\361\023\276\214\275\215\277\006\016\207\2771\376\365=l\301\233?85U\276\346~\237\277\221\021\353\275\2258t\276aL\\\275G\202\233=\326)\203\277%\035\245?\324\302\210\277\357\322}\275\327r\231\277\200\255\273>\200\237\214?d\224\213\277|\214\250\276\305+\246?\345\212k=\236i3\276\n\336\232\277|N,>\250\030\213\275\025\n\254\277\367zb<e(\353=\367 \340=\211\375\333\275\023\342\n\276@\204\364<\310L\261\274B\221\352\275$\n\232>\303\351\347\275|\256\213\275\221\324\342>\201\034\227\277\273\030\220\277\307zx=\267 \254?\303\202\331\275\274\200\211>\373\214\250\277\201\336\252\277\235YL\276\027\203m\275\215\353\032=JQ\215\277\"V\256=p\310\211?5\3230\276\370\225\032\276\\\262\247\277g\255\220>\360\352\235\274\013F\034>\032\032\207\275\256{\213=\240\214Q=\270\247N\274\234\\\035\276d\212\001=\210\220z\275\375\033\036>R\303`\275\204A\021=\0103\360\273OZ\004>\254\314\343\275\352\224\267=\214\362\316\275f*5\275\031\277\020>z\003\220<J_\247?\027\\\026<\306d\254\277\211\025*>\341\375\244\277@\266\245?\220\017\244\277\372\370\317=\233\007/>\325\271\224?\214=C=\342\230\275=\204R\276\275M\303\t>\373\2073>\334\312\374\275\270\017\024< \005l=\234pO=$SH=\346k\200=\360\245\005\275\376\r\217=pq\r\275\035* \276\350\337)\275\242\032\244=\010\275\271;\252U\213\277\3608\226\274\020\353\210>a\023+\276+\314\014\276\221X\326>`\267\031>S\223\257?\213J\222\277\033Aa=\230{\245\277\357\007\227?\007\371\r\276k7q\275|\033\236?\t\266\214\277_\367v\277)\230<\274\010Fe\275[\371\344<\371\'\334\275\315vW=\252G\236\277\241\'\333\275\021\035\226?5\360\236?G\016\237=s-\252\277\327\017\325\275N\"\246?\307\267->\nj\274=\273xt\275,\017,>\273\n\213?^\306\230?\335\250\206\277&\232\236\276\2225\211\277\364\032E\276\017\360\203\277|\261\235\277\260\226\224\275t\215\254\277\211\333\252\275Y\276\234=\315\356\206\277\355o\304=\365\360r\275\326\353\234\277\3209\022>\244;,\276\216\224\253\275RMk>\325\202\351\274k<\214\277\246N\354\275\035\367\037>?\272\333\274\235\201d=\252v\327\274\343\000-\275\243#\221\277\001\216\244\275\315\260\224>\321\2262>\347\337\227>p\364\\=E\027\225?\241\305\026>\020\035\234\276a\305f>\265E\214>/4\217?\233a\206?pd\214\277\312\224W\276\311;\274\275$\007\216?\235\376U\275\211D\007>\0308#\275\320\010$\276\214\325\330\275\321\222\013>(\304\223\274\030\024\007=>\025\365=\230\305\000=\013q\">t\231g=\267\211\024>u\253\207\275\025\321\351\275\265\016)\276\250\226R<&\301^\276a\246\243\276k8<>]\251\037>\010\345\213?\334\265|>\212\236/\276\342\355\201\277\370i\252\277\260\016\220\277\270\261\220\277\223\252\244?\213\2214\276\310L\256\277\017\323\247\277\350p\275;(\034B=\000\333u=\026\\\004\276\360\363\353\274\3374\'\276\205\372\007\276\317\200(>\274j\033=\030\255y\274k_!>\307,\006>\326O\265=\260\211\212\274+~\226\275\360\306\342\274\356\037\225\275\001a\207? n\370\274\007f|\276\275T\314=\267}C\276\245ZX>\247F\221\275\245\366\226?5\200\212\277\341\260\346\276\302\211\207\277\376\270\251\277S%\374\275\307\264\001>\'\022\226?o\332\244\277\333c\211\277\353jV\275UTy=\221X?\275\253\323\255\277\nI\006\276f\n\222\277b\267g;u\037\210\277?&\222?;\232S=y\001\240?s\350\273=\013[\207?\321\374\035>k\245Y><\203\350=\217\220V\276\271j\213?\231\t\225\277D\347\202?\320Y\255>w\363\230\277\025^\332=\334\315\205\277\204Y|\277\206\257\327\275e\204\236?\0343\356=\346Z\212\275\347\365\224?\245w\270\275\220\201\233=d\310\223\277_\265\264\274A\355\\=\2537\004\274\360s\005>\360s\034=\240/|\277\272\315\215\277\375V\244\277\263\237\374\275\245.\326=[\241`=\271\276\177<\276\027\212?y\352\233\277\341\020\334\275t>\210\277\231\274\014\276\024\031\272\275\205\372\246\277_k\200\277X\324\225>\0065\364\275-m\001>!|\211?\"\256\210\277\355>\204\277Q\'\007>\264\276\004<>\001\237\277\037\323\232\275\244s \276\252\270\300=\023\1771>\222\323\335=W\352\'>\335\200\032\276\022:\256=`\210\324<\320\263(\276\023\222\035>J\251m\275\022,\343\275\366\343\361=\034]\201=\335%(>\000\201\022\275\356\007\221>\021\375\261=\0239.\276^BY\276d\245\214\277\221\213\000=\035\346\314\275[O\020>\207n\225?6\244\205\277\272J\231\277\'Q\212\277~\373\217=\375\255\254?\324O\207\277\334\361\225\277\344\277/\275\332\246\252\275\334\302g\275\031\t\036\276\205\311\215\275\347\345\034\276nC\336\275\223S\024\276R)\351=\310\246,\275\004k\204\275p\216\307\275-Q+\276\002|\267=\350\264\352;M\234\023\276\310\263\324\274xd\331\275x\352\264\274p@~=a\215\001\276\210\307?\275\350[\313<gm\235\275\254\032\031=\354P*=i}\r>f\233\316=\266\363[\275\021D \276\312_\214=x\360%<\303\002\210\275\000\267\007\2767\314\215\275-\233\002>--\027>\252@\311=w-\035\276@}\361<\305K\017>\316\225\316\275x\237u=+\032\350\275&\005\257=\373\023\036>\220\323-\276lZ\033\276\224\221-\276  ~\275\240ho=\324\303d=\256\213\311=\330\372\204\275m\244\037>h51\275\240a:\275\020\300\336\274(\272\364\274\332u\316=hl\237;\216H^\275(\357{<\305\263\017>8O)=W\007\026\276V\327\256=\345$\014>ul1>po\373<o\004->\226\016\\\275\332\366\340=\217n\">\352\325\336=\300S~=\304Dd=\360\373\246\274\350\221!\275\216\256\000\276\031\275,>X\273\223=\031\277\035>\332y\265=\036E\344=\224\370Q=8!A\275\327\237,>\361&\024>1\201\243\275A\300\002>:\225\255\275\266\020\315=\250\331\213<\017O)>Z\342\237=\032\272\220=(b#\273\205@\036>p\230\233\274\202x\306=h\006\273:\'\013\201\275\350\201\345\274Fu\213=\340\236O=N\254\201\275h\026%\273\010\247H\274\016\032\271=\200\353/=\231\353$>\210\244\210<\246\222\315=\346\317\316=\372\222\374\275f1\254=Ry\317=\312T\337=>\375\350=q6\215\275\364\201$=\306?\376\275\304\0365\275\310\244P\275o\"\306\275P\024,=\320@z=\037\316\027>b\202\274=\016\000\333={\1771>\324v\206=P\366\270<(\"l\274<\320\270\275\246(\305=q\267\030>d[y=\336+\333=)\007*>o\027\004>\316$\271=\r\2222\276\331i\222\277_\n\"\276\032\277\207?\032\177\244?\037\365&\276\226\025\244\277\274\2276=\377?\255\277\355\224\242\277\252~\220\277w\223\221?\032\324\245\277@\205\203\275,\023\243\277\261\244\206\277\363A\216\277YE\031>\3546\256\277QV\236\277\322\220\253?7\265\215\277\0323\206?h\370\212?\2426\203\277\223<\205\277D\t\224\277\014\007\236\277\223 \246\277\221\t\233\277\307\367\245\277\020\345\244?\310\353\206\277\240/\252?h\264\250?\225\246\214\277\021\360\232\277\321\205\242\277I\260\243?Jw\254\277\023\334\233\277\375?\234\277L\246\212\277\023\247\236\277\300\'\240\277\207Iy?@\307\251?:\226\215\277\200\032\215?\tG\221?}H\206?:w\242?\374\372\224\277\314\020 =\331:\255?\332\333\252\277\272\313^\275\272\335\255\277]\274\242\277\260n\203?&\230\217\277\306\001\255?\205\373\233\277\3540\210?\221\217\217\277\250\355\225?!\373\225\277\tp\225?\305n\202?|\202\240\277\357\264\276\275\013|\206\277\215c\207?\234\215j\275\360L\220\277*G\373\275v+\257\277\345\342#>\335\033\235\275\211\213\207\277\254\020\206\275(\022\314<\010\330_=\037B\004>`*\265\274\313\002\025>\016t\304=X\3213\276\275\303!>\216\036\352=f\037\371=\013\325\354\275\310\247t\274\021\002\237\275\304\007\022\275h\317};(\356\022\275\246\027\217\277\221\233\242?%\001\211?\276\202\212?\215\312\211\277\027\261\236?5!\233?6{\261=\333\273\206\277`S\244\277y`\237\277\303\215\242?\030\330J\274\177\323\232?\026A\203\277lW\230\2772\241\255=\205\014\342\275\236/\320\275\241\207\345\275\2175.>([\001;c\213\020>\365\326\010>\252s$\276:}\026\276h\250\"9\035\023,>\256\030\371=\356\307\353=\246*\344=\240GS=,\303\235\277n\325\314=\207\206\210?\202\232w\277w\256\002\276 \304\235?\3504S\273A%\240\277\376\354\236?T0\240\277\364\336\247\277\021o\253\277,\n\027\276\326\325\225?[\224\234\277\355O\255\277E\3450\276i\020\204?\r$\241?\333F\214\277\254\216\230?\r\255\202?\005\017\244\277.\004\223\277\226\036\230\277)-\256\277u7\221?\024n\216\277\224\353\233?\014F\256\277dJ\232\277x\246\223\277$:\203?\346.\243?+`\234\277\322M\235\277_\275\216\277\027S\233?\212\216\232\2775\304\216\277\363&\216\277+\234\225\277\341\277\227\277\257j\236\277\002\354\242\277-\024\254?H\036\213\277\267\360\255?h/\235?\315\204\222\277\"?\233?b\350\213?\367Y\227\275\205\301\216\277\272\202\232?\2252\007>s\256\242\277)n\217\277\355\304\226?\007\323\226?1J\220\277\354o\226?!\265\233?=\'\213\277sP\236?e\244\233\277\342\360\225?\311p\230\277ZN\214\277M\247\017>\333\240\246?\372\241\253?\340\226\341<\004(\212\277\264,\021=\302\333\223\277\003\232\204\277H?\215;\014\\\203\277\251$!>\243u\022\276\341\026\217\275\321\311+>\016\306\377=@.\021=H\300I\2752\235i\275\224l\257\275\200Ad=t\3348\275Gh*>\3707\r\276\227\n(>\323\230\030>\274\301A=\020>\217\274g\221\217?xO\230?\335x\237?xSZ?\311\264\213\277\026\270\247?\023\364\231\277\203\257\">\200u\235\277\372b\255\277\022\375\245\277$\204\221?\271>2>\034\215\217? \331\236\277r\233\207\277\201\031\026>T2\211=(n\217\2740\370\321\274\350a\364;\250\226\364;\250(\017;\372\016\366=8\246\205<\237\336\331\275!\372\020>\035\025.\276q\224+\276\r\024\227\275P\367J\275\251\362\033>\300C\330\275^\245\325\275\365\274#?\213\311;\277\376y\204\276\016\004F=\351\352\221\276J5Y\275V\365\300\275%\000\220>hH\203<83\355\275\367?S>\376r\200\276>^\232=v\014\256\275\334c)\276\027V\335\275KR\221=F\206\354>\336y2\276Y\213\265>\270\211Y\274-\347\025\275\300\374\245\2758\211&<~\312\275=\340,\314\275\306\303\263\273O\256\316\275\354\330\374\275\247t1=\301k\'=\373\274\026?\000F\267\274\0349l=(\016M<G?\034\277\343\3510>y\312a>\310\247\214\274\210\013:\275\322\006\311>$9\\=\013\347\262\276\377\222\030>\252^\265=\177\242\204\276#\371Y>h\n\352\272b\272\236=\336\332\331\276X\260%>\317\352\201>!\310l\276\022\300\251=Y\030\341\2758l\263<=lx=\223\202\340=\031\247\276>\213\300\344=\032\306\361\2758\020\325<\300p\337=\236C\343=\270o\273\273B8\252>\250\264\006<@\312\005\276\307\2066=\224\023\266>\002W\031\276\250[q<\271Y\275\275(\255O\2757\006(?\377\245\223\275\242i\002\276\235rX>x\003\330\275\010\326\213\274\333\247\306\275\374]k=\262\225\317=\033\036\343\275\220W&\275\304\305Y\275\373\260\r>]\243)>($2\273\331 !\276\261\251\275\2759\0022>\261\376\000>\310%}<zM\322=\374\007\242=\234\254\014=\030d}>\211<->\333\001X=`n\200=@\027\246\274\250\225\311\273\202c\262=\240\017\001\276\020\245\010\276R|\371=\233?\004\276PH\036=\250\023\257\274\250L\021=\374\247\"=\033\014\023>\260\216\311\274r}\014\276WU\004>\306?\365=0\311w=\272\\\316=*r\270=U\222\255\275ff\271=\350/\006\2737\263->X\270\273<\270\036\003\276\335\350\224\277\350\336\276<\366S\203\277\223h\240\277\271\035\026>k\t\237\277\240\322\370<\377Y\025>\366$\245?g\260\235?1\230\207\277\'\303\217?\330#\002<\214\344\231\277}\276\240?\226\246\247?[{\237\275I\003\255?J\326\243?\367,\234?P\247\373<\266\350\252\277\242\310\224?\221\204\223\277_\231\223\277M\t\237\277\3477\177?\"\215\202?\303\311\224\277t\032\213?&U\246\277\313A\211\277Y\335\020>\332w\221?\003\245\247\275\003*\212\277\357\351\221\277G\324\231?\316\312\211\277\326\035\234?\354:\217?(\336\203?i\211\235?D\244\207\277\233\351{\277~\317\236?3?\204?e\327\244?Db\225?\010{*\275\'\027\205?Fq\231?\240\254\215\274e\023\253?\"\267\246?\216\034\021\276\203\030\265\275c\017\"\2765\010\244\277\311\347\214?>\024\230\277bm\235?\026}\254?5!\254?K\233\233\277\3766\353=A\006\232\277b\024\203?k\330\250?q\2234\276\353>z\277X\202\242\277\360\231\354\274&\265\236\277\210\333M=\034)\232\2778TX<{\276\014>\037\031\243?\352<\264=\240\210\204=[k\227\275\342P\302=W\261.\276sc\274\275\344\356\351\275\026\372\311=\270\226O<\202\250\226=\210\270\032\274\370\027$<\250\272\264\274\354n\034\276\224v \275\340BM=\255}\233\275\335\222\235?\353J\232?\341\334\230\277,\331\245\275Xa\225\277\274\212\206?\370\366.\276Ob.\276j\255\223?\032\311\223\277\235\376\206\277N=\226\277\364\350-\276}\273\253?\0362\243?7\206\235\277\272.\357\275\210\007)\275(z@<\324T\017\276\016#\217=\314\320h\275\211\274\013>;\265\024>*2\252=`\222\207=\374\340\027=B\375\312=h<7=2\361\005\276c\275+\276DpE=\376\\\253\277\016\315s\275\334(\235?L\237\222\2774\374)=u\275\251\277\035\032\"\276\251\021\205\277_\312\243?\263\215\225?\367\212\226\277\225\005\204\277\"\033\252\275S^\216?\025\270\210\277\tr\213\277b\231\244\277\274f\213\277\322\356\214?\236\251\204?\025,\235\277\211J\231\277\356\016\236\277\265\035\227?\023P\237\277D~\232\277*\021\200?\370\364\211\277f\332\201?iQ\204\277v\254\222?\377\340\214?\354R\252??\306\223?\353\265\250\277\303r\211\2770\245\214\277y\210\221?\247\306\256\277/\214\246\277z\377\223\277\224\030\237?\036\335\223?z\003\243\277\350\r\254\277\231\326\236?\2220\204\2775-\253?\244\264\240?\340h\230?\200O\203?\313\317\241\277\367\"\035>\006\203\254?\335\256\244?\350cx;s\306\242\277h\206\253\277Ci\236?\264\204\210\277\024L\226?A8\217?\224\323\244?\317\363\246\277\224\206\227?\336S\216\277\207\371\233?\322\255\231?\326+\237\277\213\255\243\277\362\243\204??\005\241?v\302\221?\377\005\206\277x\207\024\276}\323\245\277\366\233v\277<1%\275\016\270\203\277X\320\206\274\340*\320\274\210\3568<n\022\375=\221\361\344\275\030\331!\276\337\016\006\276(\304(\273\242\270\315=\244\236\261\275\013f\037\276h\217\265\2728\202N\275\222\265\304=@Y\342<PW\267\274IP3>\244X\206?\225V\257?\243L\207?e\033\233\277\232\357\214\277\267\004\242?$z\247\277\301\255\226\2774I\214\277CT\242\277$t\223\277\354\302\205?4\222\023\276\350\346\207?\247\n\212\277L\241\257\277h\335\327\274D\306\000\276\01476\2756?\'\276\006\372\366\275\024\307c\275\364\013\014\275\346\323\025\276&\227\230\275\250\021\345<\010\t\223\274K\340\250\275*\304\r\276xM\222<\302\010\272=(<\030\275\0328\222\277\205p\'>\334C\202\2762\213\'\276X\373\232\276oW\206\276\000Wd=:\237\231\277\000B\203?\323]V>\021P\247\277+\016\244\277\250\024\360=\214\2660\276\016\253\230\277F;\242\277\037\241\205\277\235\361\270\274\343k\212\273\325\210H\276`\031\243\277\215et>vL\253\277\332M\235\274\026 \250\277\260\311\216\277y]Z>\250\031\255\277\223\300\034>\235b\243\277\033m\246=\353\r\033\275M\231r>S\222$=a\355\245\277\256\267\205\277U\"\212\2773PY>\254_\204\277\322\2657\276\032&\235\277&\323\217\277c\330\252=\217\006\216\277bC=\276\355\336\324\275\204\322\232\277M\353\r>\330\001b\274\273p\242\277[\177\305=\362\257\007>6\223\200=\300\246\007>\267\322=\275\013i\225\277\274\355\230\277\025:\252\277\016/*=\'OP\275\"\300T\276\2217\252>\300G\204\277V\274\221\277\027\024\341=\201+\247\277\2713\031>_Z\320=\274\233\257\277!\250\211\277\315\200u>\365\rt\2762\202->\222\310\247\277E}\215\277gC\204\277\363;\253=\r]v\275\252\303\253\277\245+y>O\3304\276,@\"\275\002G\264\275\010\"\n\276\351`1\276\025:0\276 \002\232\274\213\350/\276\200\274\202=\3704\003<\004\355\344\275`\350g=\007I\031>\247\253\251\275@^\224=\304S\004\275\000\365z=\222\'\311=\220\313#>g@\247\275rv\216\277\301\212a>\225B\215\277\225\254\204\277\232\202\253\277\rl\244\277PL\254\277\025%\246?\342\r\332=E\330\256?\025\217\231\277\032\007\236\277\246\326\232=\3225\321=h\340\374\275o\207\220\275\371\376 >\022-\262=\200\264\312\274`\201\204\275\302M\257= I\225\274\326\210\025\276\251\323\010>(\216\347;\373\027)>\207\027\310\275L\003\251\275\350\325\231\277\016\346\327=\247Y\256>AC]<j\371\277=\205\320\243\276\304W\004\276\346\005\245\277\350V\205\277\035\004S\275j\277\234\2773\256\257\277\r\246k\276\344\341\036\276\206\002\217?\323\341\203\277>\343\204\277\364\\\t<\374}\225<\361g\016>?\225\224\277y\3536>\2379\251\277\221\215\322=\304\355\220\277\031\214\227\277v\340\335\273a\223\236?\0379\317\274\274D\234\277\004\000\335=1\334\211=&\217\343\275\221\240\004>x\371\243\277\274\227\215\277&(\255\277\363VA\275\252\014\225\277\0212\022\276\222\216\220?.D\242\277y\"\276\275x \231\277s\301$=d\355\307=\\l\223\277\277Pc\275\033\252U>\002\265\234\277C\006l\275y\223\">@)\247\275\003gE>}\246\351=\351\227\243\277\365j\217\277s\365\227\277\247\"\256>\205\225\275=\377\006\037=P\022\304=\002\340\230\277 \346\202\277\2600\005>M\366\252\277(\213\363\275\267p\224=J\001\242\277\317`\220\277\220UE=\023D\263=\306u\014\276\030X\256\277\357\266\233\277\033\346\250\277iT\334\274\263\023\325=X.\222\277\272\251T=x\017*\275l7\245\275\002z\371=|\030y\275\215~0\276\264`\217=\026}\345=qI\033>\260Z\304<\362`\265=)9\"\276\n\363\310=\312\267\316\275hJ\021\276\336W\n\276\212\301\357\275\301Wz>\0237k\275(\225\344\275\317\034\230\275S+\237\277\311\2237>f\355\231\277\030?\243\277M\024\224\2773S\257\277T\026\250\277\204\272\255?\271\254\026>\202\\\251?h\021\257\277s\336\231\277(V\027\274\324\226V=\344y\213=&\230\301\275\346P\220\275s\223/><x\031\275\\\345\007\276\352}\203=\216\243\253=2\207\217\275\255?\003>\004\324]=\027\363\220\275\374p\027=\250\001\022<\215N\241\277\023\026\033>\020\314\246>\310s\275=+\225\343\276\370\314\274>\260O\267\275\177\326\250\277\247V\250\277y\217P=>\267\216\277\000\362\252\277\236-\344:vg.\276Q7\223\277R\034\244\277\020\226\205\277\373\365a\276\026.\037=\r\230\006>\324x\222\277N\0257\275c\302\206\277#\243\325=v_\233\277+\277\220\277\225\274\033>\r\247\203?q\n\312\275\374)\230\277\213\377S>\343\r*=\352\000q=\367z\"=$,\203\277B\265\212\277\305\270\252\2779\373\223=\020\227\204\277\230|\252=2\277\205\277\313\352\245\277\3634\261\275\266\014\246\277\303\364\277<\347\247`\275\314\233\232\277\241\255\004\276C\325n>\343\341\241\277\204\351\265\272A\261\035=\214\234\320\275\003y\272=&\264\010\276`#\214\277\263e\217\277\367\254\202\277\263\374\241>q\207C=\267\010\221=\027\233\355\275\365\275\223\2779\351\235\277_G\352\274\360\261\227\277yZ\331=\006F\211=\3059\237\277%c\222\277\211\315j>\247\230A=\255\232\361<k/\222\277:v\230\277\037\246\245\277\215\256\021\275\230\266\204\276%\005\241\277V\2520>\333\010\002>\317\270\305\275L\267K\275\336!\034\276\000.\254<\327\204\024>\236\201\215=w\373\303\275\254\377\017\276\301\213\212\275\254\271\357\275\252\324\252=\024\343\202\275\327X\000>\343I\034\276\356\220\366\275\017\330u>_\205\336<\217\017\340=\013\272b>\251j\246\277\327\377D>D\234\243\277N\010\204\2774<\257\277\027<\253\2774\307\205\277p\314\227?\026z\330=\001\234\247?\031\362\203\277\325\206\240\277\200X\271<\024\254)\275q\022#>\226\003\265\2758VP<\367^\032>\014N\003==\0041\276\310\330\026=\240v\030=\024\315#=\010\322\264;\230\0013<u\301$\276\223\3260\276\2454\343\275\274\220\216\277\335\014\003\276[\337\360<:1Q\276\324\330\261\276\365\261\250=\203\245\202<^\315\252\277u\332\177?4z\026>!u\225\277:\232\206\277\310l\037>R\033f=5\376\240\277\023\205\245\277\345m\225\277%yO\275\2039B>\311\271\237=\277\271\222\277\034\257\023\275\205t\226\277\271\320\356=\"\231\232\277\253\003\226\277\370p\353=\251\010\235\277\233\301\303\275\022\312\211\2777~V\275\227\032V>\235\315u\275\373\023L>T\202\205\277\245\315\234\277JV\231\277U\236F>@\261\225\277\017\005\033\275\266\013\232\277\366\271\227\277\254<\340<\371\252\226\277\2571_=\0053\261<<\036\254\277t\3010;<\367|=i\325\237\277\356O\002>\023[\370=\031\306\336\275v\020\337:/F\347=a~\242\277d\345\216\277{r\257\277\032i\204>\337\003H>\351\277\022>3]:>\003\355\221\277e\n\230\277\243\270\221\275~Z\230\277\335\333\t>\307t\372=\307r\220\277G\021\215\277/\001\177\274l+\307=\315\232\257<\371\231\213\277\314gr\277\224\353\225\277\276c\202<\037$D>O\217\232\277#&*>\263\334\024>\253\007\220\275[\336\026>2\r\034\276kE\026>\t\341\225\275l\207\233\275\330y\213<(/\326<\310\254\353<X\217\010\276\026\313\222\275\207\336\031>^\232\237=\214\365\217=y\306$\276M=m>U\236}>\307\207\001>K\371\224\2742\230\223\277\227\331\014>\205R\231\277\301\375\240\277Bx\220\277H\034\246\277\346r\231\277\026\257\246?7\346 \276u\003\244? T\252\277\356\351\226\2776y\305=\034\377C=\231\221*>\202;\371=\025l\013>\365\034\027\276l\260 \275\272,i\275\205\376\023>\264\221\222=\271\362\t>\004\333\010\2769\236\035>\360\223H=1\034\021>\250T\301<\031@\217\277xc\311\274\025F\211=8M\352\275 n\006\276_\025\224\275\277\210\t\2756\\\257\277Q\203\252?\036\234\326<\245\330\223\277v\253\254\277\376\220X\276W\210[>9\246\224\277\266\265\240\277 \250\247\277\360c=>N\014\331<\237\310\260=\340\211\257\277\034\262(\276^\204\231\277\351.\005>\213\034\255\277\037Q\246\277}\034\210\275\245:\247\277\227\222\010\275Y\222\213\277\325\264\034\276g\350\225\275\371Bc<\374\">>=\254\256\277\213\037\230\277\251\003\245\277\211Uh\276\305)\242\277\013\362\335=\344\244\215\27701\225\277/\365=\275\312\353\223\277U6\320=\331\177\330\275\3223\237\277Y\016\023\273m\032\327<\022H\235\277\375\177G=\335\303->\233\232*>\310\357\365\275\317\3066=\301+~\277\257X\211?\325\313\253?L11>#\273\331;\006y\r\276\261\272\315\275]_\226\277\330w\243\277qR\024\275\363o\234\277\364\231\215=s\250]>\025h\216\277\326L\207\277O\3223\275q\344\375\275\344+\321\275n\016\220\277\341\023q\277\334\357\245\277\356\362&>g\253\314<F\254\220\277\345\213\365=\274\214r=\306&\374=b\004\213=\352\323\020\276\016\225\305\275;\004\'>\376G\355\275\360\314O=~\363\265=\300\361\301\275\267s-\276\360~\312<\360\215K\275\233\337\213\275\3701S=~\317\345=[\257\033=\321\3553>\2578\365=\324\023\310\275H7\240\277\324\211\236<\316%\207\277\204\351\227\2775\266\243\277Z&\233\277\240,\245\277E\224\216?\035\216\r\276\032O\223?RT\250\277\022F\231\277\002w\367==\316\000>\361\237\371\275\210\375\346\274\253$\000>^\217\331=\014a\'\275\272\360\022\276\341\265\314\275+\025\n>r\233\314=\374A\'\276\t\350&>P1\200\274\320\344\224<KK\223\275i^\211\277pv\231\275C\323\214\277e5\226\277\237\267\020>\027d\204\277H\371\360<O\333\256\277\270\261E<>+\250\277\277\272\207\277\227#\210\277\273\242\002\276+5\215?GA\253\277\270x\230\277\210\034\n=\356a\213?&\300\257?)7\227\277F!\321=w?\211\277\n\207\240\277I\343\241?\257S\236\277\035\343\216\277BE\177?\353\025\242\277N|\225?\000\225\254\277\350\370\227\277m`\254?\204$\227\277\'0}\277F\341\223\277\315r\220\277\243\232\254\277\346K\216\277\324z\210\277\246\334\216\277T\231\226\277rJ\207\277h\327\241?V\343\222\277\317%\245\277\0041\205?\230Y\245\277\376\027\237?\312\217\204?k\235\204?S\245\204?\276\030\225\277\342\220%\2767\004\236\277Q\361\210?x\314 \276@(\230\277re\211\277\307r\225?\037\311\246?\214u\203\277\221\360\247?\005\376\206?f>\213\277\025\341\202?\312\230\222\277;\317\203?\322Z\226?`\026\227\277\341\253\240\277\277\005\204?!\265\232?\354w\205?X\335\252\277\217\"\330\275_J\231\277h\322\210\277\004\236\004\276\037)\222\277\214Su=f\223\222=7\316\007>2\254\376=\310d)=n)\335=\007@\321\275\017\r\002\276\210\245\177<\310n\001\274ql\035\276z\216\363=fM\304\275\250\2216;\350\261\030\276O_\021>\306\326\263==2\246\277\204G\245\277\374\273\232?z\326\246?|\242\226\277\0236\210?\2709\204\277~;\013\276\025\031\234\277\002\014\241\277{\316\223\277\315\026\241\277cC\226\2753\330\217?9\225\255\277\230\315\235\274(W\306;\215\225\200\275H\n\340<OH.>Q\316\320\275vZ\304=\352v\362=\035-\t>h\347\253:\250Bw=\265[4>\001T\321\275\210\360\307\273=\030\033\276k!\275\275H\262\035\274\350\202\223\277\303\2034>o\214\201=\3610\267=\372\215\242=?\032\205<3\273\004\275Dy\253\277\246\321\243\277s\013\347\275\2757\242\277\276\224\241\277\022\352\364\275+\002\363<\263\305\252\277b\234\231\277Z\367\205\277\363O\303=\0045\326=r}x>E\341\243\277\034{\255=\317\263\227\277L\344\014>\033\273\226\277p\361\210?\253\354\"\276\036\305\236\277\371e\010=\252\303\250\277\177%b>\025\331\337\2754\267\031=\342<\272\274<b\253\277\222\347\203\277K\251\225\277d\263!>2+\246\277p!\241\276 \303\257\277\321\375\221\277D\237\336<SP\244\277BYF=-\033\030>Fj\210\277\320_h\275?+H>\256\305\234\277\273\340f>\235\033\313\274\035VX\274\000\254\346=IX\n\275\323\246\205\277\275\324\222\277\323B\252\277)\333\215>\324C\205\275\327I\221\274\t\264(\275\204\034\245\277\220\257\253\277\243\312\240\275\337\003\234\277\211bL>t\3232\276\007\037\222\277\364\365\247\2773\nN>(\211@<\224\354\223=\327m\205\277p\357\212\277f_\221\277&\023\357=\033o\256=\262\270\203\277\317\2727=\217\2630>\310\266\r\276\026\246)\276\254\336!\276\210U\247\273\364w\202\275\306^\277\275i\271%>\212f\247=\250\201[=\360W\200\274\240\356\270\2742\321[\275if\032>\3002\026\275\360\0014=\360\346\010>F\034\210>n{\302=s:\302\275\327F\215\277\245\362q>\301\251\242\277t\001\233\277\303\351\242\277\001\306\212\277\211\341\257\277\222\320\240?\312\357\'\276\243\240\214?\207\317\250\277\0259\224\277\221\233\032>\356o\373=)-\304\275\250&\n=\264\013k\275 \375\027\275\255\231\363\275\233\233\021\276\257\031+>\224\314\010\275\242\377\346=\350\362\247:\312\356\357=(#m\275R\304\336=`\344\356\274\030\026.\274LtH=\316\236\372=\251\'\030>JC\251\275h[n\272\272\372\253\275\346o\267=\027\017\000\276\305\261\004\276\022\277\375=\026\301)\276h\266@\275\006r\301=\352+k\275h\371`=\272\352\353=(9\245\274:\315f\275&B\316=\230tP<\216\276#\276\230tj=8\364i=\030\252%\276\337\215\021\276\302\352\252=\313V\017>\264\321\037\276\347\350\004>\300\204\022\276\242\362\023\276|\351==\220\337\024=\2457\317\2754\363\020=\246\037\370=\343\202\213\275\357f \276\2326!\276\340\025\035\276\237\242\244\275\002\'\266=(@&\276\204.\207=(\211\256\274o\3031\276\036h\373=\230\362+\274\375\345\020>\206\310\232\275\n+\336=\t\337\020>\014\320\276\275h\n\3169\014\013\273\275\270JC\274Tn\004=\370\304\317<`\215\233\274\202\032\372=e\257\027>|\247k=\277c4\276\220\336\203=\262\256*\276{\245\027>j\350\031\276`\225\376\275\020\322\023\275\035\300\317\275NG\351\275\277\220\r>\365,\342\275\334\'T\275p\265S=d\016S=\034o\217\275}\024$>\366^\321=H]\213=\374\356&=Hw\210\274h?\357\273B1-\276\360\301P=8\032\033\276P\r\216=\232\343\235\275\316\211\350=\250TU\274\002\312\211=B\335\313=\353\233\025>\203\262\336\275\221\204\003>\200\275\276<M\223#\276Pz\301<\032\257d\275\330\354\322\274\302\342\335=\005j\002\276\371\361\004\276\323\213\r>\222j]\275\320)\371\275e\232\n>\31763>\010\215\310\274\311+\000>9,\036>f1\270=\nN\247=\"<[\275\237`\035>\230\367\211<\202;\234=\216F\321=\271\\\003>j\320\357=\250m\337<\260\216x=t\006\016\276\307\003\235\275\344\316H\275\324\377\002\275\257-\036>8(\246\277\245Y\246\275\307\372h>\254\0065>\354\n\007\276l\336I>\216<\231=\t\354\212\277\333l\232\277\2411%>^\010\221\277*\330\253\277%\264\323\275*\243\367\275#\354\235\277\313\225\231\277\320`\230\277\276\266;\276\013w\014\276\213\0333>\000\317\224\277\003\241\216\274\240\241\204\277\253\177\256\2751\236\241\277\312\307\242\277\026\025\312\274x\251\226\2776t\036\276\372L\213\277\033\'\350=e.\024>9\275.\276\322\370\034\275\372;\210\277\225\252\226\277\230!\250\277\256\366\205\272^\210\256\277h\353/\276\'h\232\277Ky\222\277\327y\335=\242\202\256\277k\216\000>A\017\270\274X\317\254\277\355U\017>\307Io>0\222w\277\266\215\205<\217\242$\275\2269\302\275\247\033 >)c\030=\243\202\223\277D\376\252\277\3152\231\277\303\255,>h\337\342\275[K\023>YX\032=\240>\211\277M7\231\277\374\034\351<\324\004\251\277}^\250=\357z\025=\'W\251\277\324*\204\277\325vg\275\257\310@>\031Z5>o\245\215\277CZj\277j\376\252\2778\351\033=4+\003<m\365\235\277\375\241q<\\\"1=\3677\005\276\002?\006\276\020\325\310\2740%\200\275h\322u;h\034Y=\'\355\036\276\210\3272<\327\t\306\275\026\203\276=\276\016\026\276\302\251\270=\3104\277\273\026\014\344=\240\3663=a\014\222=\342\346\333\275\247\263!=\223\2201>\0315\241\277\221Dg>k\017\242\2774\330\253\277\236c\205\277z\221\240\277y\314\222\277\002.\223?\374y\271\275\235A\230?\3557\251\277\245\331\244\277\2764\313=9C\t>\000\3036\275\000\210\365\274>1\250\275>\227\326=-\030\235\275\317U\'>\301\217\201\275@\374\232\274\206\231\222=\337\364\031>\217\357\333\275\362r\200\275\214kp=h/_:UL\237\2770\'2\276\213\211e\275#\3230\276\316\235\277\276&F\377\276\227\267G=}\010\233\277\210\271\003=\247*\205=&\335\\\275\014i\216?\344\221j>\372\023\251\2766\331\247?\271\251\226?\362\320\363=m\312$\275|\277\355=,\343#\276\250\025r\274O>\221=\343\261\253\277\014\212\256\275\204\230\215\277B\372\203\277\n\352\270>B\261\235\2779y\023\276{\005\026>\315\367\340\274\373\353\316=M\374\343>\275\361\261>\200f\242\277\030\362\241\277u=\251\277\327\035\204\276\213\357\241\277M\333\030? \034\217?\207\014\220?\374\256\361\276\311\203\257\277\327\202\271\275\216\254\034>,X\220\277\206\301-\276`\010\225><\014\244?\221\332\337\275eT\233>Nc\371\271\342\023\211\276\227T\245\275\250\346\262<\000\224\360\274(<\262;\221\226s=\231\252`=\335+\345\276\024\r\"?r=\220?\234?\253\277\264I\201\275\234;\250?\231u*>;\364\304;n\256\257\277\2624\221=\371G\257<tf\003\276\261\306\024?\201\301\216\277\0002\265<\224\363\203\277\024=\006\277\364\n\232\276yi\256\277\024\266\250=05+=\213u\370\275\035\302\243\275d\263\r\276U\2503>\363o+>\351\325\004>T\"x\2758\036\313<^\002u\275\261u\014>p\212\217<%U\306\275\300\266\346<\350\254\016\275\034\321/\276\321\326i\275\241\323O\276w\333~>\021\237\202>\234x\241\277\347*j;,\2708=\331\0162>\004D\224\277\340\237\203\277\217\340\224\277>\005\350\275I\341\r>\246\342\225\277\033\344\267\275f\304\002\276}V\241\275\016\221\223=\223\2721>zE\207\275\356\243\320=\255\350\030\276T\236h=Ni\320=\265\034\001>,\327\'\276\236#\324=\371.\t>\332\r\270=\266I\353=\0302\221=\366\"\332=\277,\216\277FZ\227=#1\225?\3409\325<\221\275*>z\346\307=\016\207\341\275\356%\246\277\250\361 \274\026\240\226?\347L\223\277\261\216\214?\025\273\004>v\214\241?J\236\234?\302\302\263=\000\233\337\274du\221?\030\217\224<\226\364\240\277\\\313u\275|\242\022\276\177~\217\277\351g\'>\300t2\276C\312\251?<\317\217?Rr\210\277H\213\'\274\224\231\253?\177\371\250\277RA\234?\360Mp=\221[\227?\\u}\275X\350\244\277\003=\235\277\223f\206?\206e\232\277\\I\222?\357$\242?1W\002>\242\022\301=\257\014\217\277\2132\221\277\030\230\221?j[\225?\246\353\205?\312\226\257\277\250\223\353;`\312\234\277\257\265\204?\312\025\361=I\342\202\277k\202\033>)\327\303\275\260\273\010=h\215G:\356\211\203?\262>\336=\204\351\243?\3523\251=\362~\031\276\270M/\274@F\240\277\275@\216\277~~\220?\3450\205\277Z\020\203?W\277\037>V\006\237\277\277\241\232\277!W\033\276\337\302\210?\224\234:\275(r\231\277\002\301\237=\357\360\025\276eB\225\277f\244$\276\026a\247\275a\367\n>\304\244#\275o\352\">\210\207\345;\024\2628\2754\255=\275(\201`=\300\260\241<\032P\323=c,\020>\321&\035>P,\375<#\323\006\276^\'\274=\2307q\275>\266\216\277\037P\210\277\362\200\236?\337l\303\275\223\233\241\277\373\311\224\277P\377\245<`\366\306<\307\246\247\277\262\030\227\277X*\225\277\344\003%\275 \323\006\276T\261\234\277\003\276\307\275\2677\r>\240\246\307<\370\345\n=\235\374\n>\372b\343=\037e \276^\227\220\275&~\310\275\310F\004\274\266P\270=(\335%\2756\'\362=L\353:=\200Y\\=\227\016\t\276\257\371\000>Va\371=-\306\254\277\372\312\253=He\t\274\341\331v\276\353\323\025\276nY\260<1m\343\275\366\372\253\277\347\216\243\277s\222\355=\310\275\241\277\257#\230\277\035yh\275\025w\225\274\311\244\240\277\235\231\214\277\252\rx\277\213p\264=\224E\245\275\217jt>\\\030%=U\307\317=\003\036\221?\030(v\275\355>\207\277\341P\242\277\321\211\n\274{\254\224?\\\026\322\275\274\026\256\277\275JW\275\331#s>\202\352\013=\325d\324=/\365\234?\225`\215\277s\270\222\277\377\n\n=/\013\210\277\317\004\264>\021\373\254\277\364G\201\277}W\301=\204\351\237\277l\304\014>c\363v\275\317<\251\277\213{+=C0\202\275]R\231\277\377(\360=\377E\002\276\027\363\337=]^g>P\243\201\272X\003\027\2757\001\213\277b\265\211\277m\271\334<f\267.\275a\226\021>s+\270\274\205\237\233?\237c\221\277\375\'\202>&\275\240\277p\t\241=\351_\036\275\231k\222\277\254\312\206\277\211!\317=\004\004\211>\211\370_>VW\211\277\332\177\237\277\334@\237\277\304\223\036>\303\004\"\275\356O\226\277\322\034D=RL \276\2303\t=\250\352\177<\036\310\303=\272\313\356=\341\210\004\276\025\242\035\276\221\263$\276\371\331(\276pD\243\274\220\204\026\276\325Q\013>J\205\220=\020i\250\274[\313\314\275\222\010\251=\245\311}\275#\302\r<\265\267\t<Z \270=\315I\226\277\226\236<;`\373\217?\310;V\275R\337\233\277\214\231\231\277\2014\256\277\227\234\275\275\010\252\332\273\322\211\246?\300?@\275x\235\250<\344\007\004=\310\333\205<\006\274\252\275\206\252\231\275\\\326\177\275@~f=\347#\221\275\t 3\276\000\225\207\274\210Q\034\276#\346*>a?\032>\310&\202\273\276\"\303=h\250\312;\354\315;\275\320\206\212\277\342\264\376=\0019\257?\330\243\202\277O\230\274\2754\310\205?\336h\361=\003z\233\277\372Z\207\277\276]\246?0\251\212\277\034s\240\277\255\230\265\275Wr\245\277\035<\224?\257\027\207\277\224\323,\276\314\374\220?\t\365\240?]\261\207?V5\232\277\034R\245?9\202\220?\242\236\231\277X \250\277\254>\205\277\343\013\217?\315\017\237\277\007\302\205?\356\352\250\277\272\343\241\277\362\354\231\277\350\342\224?\366\337\204?\226{\243\277\330\223\244\277m\032\220\2775Z\240?\314\247\233\277\231\373\254?;\255\203?g\033\216?1\205\245\277\273\033\257\277\t\337\221\277\233\214\233?\250z\203\277\275\362\215?S\017\214?\203\312\242\277\231p\210?\242\255\232\277\210\334\356\274\346\363\236?\345\211\217?t\247:\275\361\203\252\275\326\237\211?J\325\211\277\212\340\202?&\230\241\277\362\200\257\277\366_\207?\031>\237\277\347u\222\2778D\250\277\310,\214?2}\236\277UL\255\277by\217=$C\241?\023l\221\277\274!\026\276L\274\252\2771\036&>d\372\233\277\2660\367=\211\234\016>\243M\240\277\030c\034<-C!>r\374|\275\250TV=\316Y\210=\260\357H\275\330\001I=\0050\220\275\010|[=g\014\005>\244p\027=\312lx\275x\331&\274\3775\026>\"\365\021\276\305\020\035>\n7\305=\313\220\202?N^\214?\316\310\220?\022]\235\277\266\256\222\277<\205\246\277\303\273\232?\241\236\201\277Qm\220\277_\222\207\277\025F\206\277\221\001\221?\210[\205\274a@\204?\023W\217\277\350\266\235\277\332\177Y\2753\n\026>lN\221=tsb=\021)\275\275\314\002|=_\353\037>r\032\235=\211\366\330\275\316\0202\276\364\215\020\275\025\307\014>T\352\013=\'\214\032>\350\273|\274_\275\214\275\251Z\224\277\350\332]=\305\360\225?\237\331\250\277\010r\033\276\272\327\215\277\206\371\324=\330\375\234\277\214\td\275M\262\216\2776%\222?(@\234\277\030\303\225=,\217\231?\n\272\211\277\031\253\225\277\213L.>]\214\216\277N(\227?\340Y\233?\212L\345=4\342\243?B\004\220\277\316R\230\277o\256\207?^\177\230?i\365\245\277\2113\243\277\205\235\254\2776p\222\277\316\207\253?\367y\204?\316\202\237?4\354\205?\344p\201\277\020O\206\277\311\236\222\277\266{\236?Q\003\214\277a\204\220?\311\332\220\277\252|\214\277\204\356\200\277\022\337\207\277\350v\244\277\340\355\236?W\375\202\2778\201\244?\005\342\251?O:\224?NW\205?\004S\224\277$\ts\275\326\300\216?\307\035\223?,\2656\275e\253\255\277\254\346\203\277\256\033\233?\361\370\223\277M)\221?\007\346\246\277\245\271\245?\235\351\202\2770\370\254?\233\025\222\277r\244\250?g\321\255\277\346\201\251\277N\030\235\275P\225\213?\\\206\227?p|\336\274\302\207\250\277\0147\317\275#\360\212\277\276\332\230\275\270\214\016\2754\355\221\277\024J\031\276?\330+>Y\304\274\275\021\023\023\276EV\241\275\"\221\225=Z\023\373=\"\326\264=q\203\023\276\036N\345=\330\2403\275\361\322\276\275h\235A=\376^\335\275?z\020>\3267\205=\200\352#\275\203M\235?\314g\243?\241\355\231?]`\216\277he\213\277\245v\251?\032t\217?r\316\030\276\310_\234\277\362I\243\277\007\216\231\277\021\007\207\277}\201\010>\3502\223?\002\030\250\277\315\314\210?H&\316\275\3300\345<\354C\017\276\300\205m\275\234\213\030=\230J\224\274\212\374\366=\035G\003>\230\025F<|8\354\275\014l\017=Bt\371\275l\205~=\256\330\225=\360\030b=\022^\007\276L\247\246\277\250\2744=\'\377\250?\266\250\223\277\364C\217=\n\231\227?\2603\221<EF\224\277\330\r\240?\241\327\244?\203\310\215\277\344\354\246\277hQ\t<\205\307\211?\262\374\234?\207\200\205\277z)\370=\032\364\205?a\017\224?4\320\210?o\327\255\277\374\305\210\277\016\005\211?\021\n\220?\324(\212\277g\260\222\277YM\236?\316\216\252\277\230~\203?6\312\252\277\216A\213\277\370\217\211\277S\027\215?N\316\210?p\037\215\2779\025\216\277\253y\241\277\010\354\215?\006D\215\277\302 \203?\003\007\235\277\314(\246?\253E\231?\276\310\203\277\035\306\256\277\326\025\204?\372\234\225\2777b\252?\004\247\237\277Y\331\233\277\022\376\222?\212\356\217?Q\234\030>\343g\233?\004\334\224?*\337\370\275h`<\271W\304\217??\346\236\277\243\201\242?f\"\247\277GM\226?\262k\247?NQ\206\277\001\016\246\277+\377\234\277\277\301\253?\350\036\250\277\210h\220\277\230\314\277\275d\315\203?\263\310\255\277\271\336\004>\242\310\223\277$\002.\276\2603\211\277\347\350\262\275\337\226!>\275I\217\277X\223\n\276k\355\013\276K\\\024>x\360\033=\350W\364:D\277\331\275\336\3232\276\216\022)\276b\2672\276{\375\026>\236\177\235=\222\305\022\276H\212\364;\230\375W<\341J\226\275\0225\227=ho\355\2745\023\213?\202\227\244?\325\234\225?\240\362\252\277\032\355\226\277<\314\240?U8\237?\302\177\226\277\253w\212\277V\016\233\277\251\221\240\277\355\322\255?\006\222\340=*t\205?\233\005\246\277X\312\251\2770\036#\276_\327\t>\214O.\276}\311*>/\3110> \343!\276\240O\241<\265\277\034\276D\235\203=\023V\">h=\034\2730D\225<\270\343\357\275V\265\206=(s+<\346\221\321=j\341\205\277h\234/\274\204\206\241>\362\177\000\276\002\313\352\275\337p\003?m\307\341\275\016L\214\277HJ\201\277\223\333\t>\262\242\217\277\262F\210\27788\361=\227\221\021>(\362\205\277\230Q\225\277\314\253\234\277\252\206\016\276d\310%\276F\226\332<\030<\221\277T\225E\276I\202\206\277\022\267X\276+\314\221\277\252\'\246\277\340YG\276t`\243\277|3,\276\246\302\232\277\2006\022>\355b\312=\003{\370=9M|\276l\322\206\277\325\r\214\277\353n\246\277\r;_=\367\336\205\277n\232\037=\220$\251\277\214\204\222\277\236X]=\271\304\211\277\3732\007\276\017\350\214\275Ol\215\277\335u\022>g#,>#\261\250?\375\244T>\306\275o\276gY\004\276\026\316\032>{w\270\275Fu\204\277Q\233\232\277\222&\242\277\251\333H>b\300\353\275\314X\010>@\221\254\275}M\221?\243\034\240\277m\303\322=\003\313\217\277\232J\262>\202\213\234=\206D\221\277;E\243\277r\201\017\276\003\200\302=\201\020\031=\345\257\222\277\333E\207\277\312\t\234\277\000\220e>\241\274.>\274\304\253\277s\213\016\276u.\332\275g\265\013>\353\212\023>\026\345\245=\230\361\277<(\0206;\370\247&<G\334\'>Y\372\374\2758\276Z=\370q=<\343\353\021>@\262\256\274\233\307\224\275\302\r\003\276(\277H=\361IT=\'<\017>\'k>>R\206\205=\370M\230\277\203T\034>\260\301\233\277\2018\255\277\355\227\220\277\250\303\204\277\r*\220\277\247\322\221?\222\332\234=\370\325\230?\2574\254\277V\013\224\277\270\341\324\275\265\366\263\275\377\316!>\370\352-<D>\215=\010\305\270\275\372\351\353\275\244\234\036=N\316\202=\203O\023>pFQ\275\312\020\237=OT$\276\323p3\2765\363$\276+\031\256\275\240\345\200\277~F\375\275\231CH=\375\316B>\367\004\300\276)\360\333=\036F\004>\351\263\203?i\346\252?\236\301\213\276v\271\252\277\357\364\222?\353E\225=C\332\372\275\355\337\253?\271\366\236\277p\014\205=\236\331\t>\336\216\326=\251\037\231=`\031\215\277\335\2244\276\3418\204?Q\230]>\223\222\253\277A\275\216\277q$\327<y\'\230\277\"\355\304=\374P\222?\211\311\023\276\023\224P=(i\242>\006\205h\274\2176\215\277\317\021\243\277&|\222\277;\204\205>\375\002\224\277\n\316\211>\377\254\217?\016\327\254?\200k\346\272\262\204\236\277k\351\320\275!\"\026>9a\213\277\315\332\245\275\330\372\n>#\200\242\277\253t\354=\362D\266<n\342\000>/z,=\344`\261=J\302\202\277R\374\314=\230\323\002=k\350\n\275e\342a>\036\363#\275Z\020\027>xb\225\277,\353\247?\217\263z\275\354>x\275+d\226\275\352\277\222\276\301\206\223?\250\004\n\273\330:\'>i\016o\275\343ON;\374\225\254?\336J\206\277\2379\221?\314\010\264=\217?\362=\272g\247?*\310\355\275x\253G\275^\005\317=\n\320\377\275r\177\006\276{s\224\275\002=\363=\232\\\247=f\014\220\2751\251+\276(\263\027\275\344\251|\275h\033\223=\277\304\211\275\036\253\302=^9\341=\000\302\213=&\330Q>\035\212p>\026\266\335\275\036\005\034=$\\\215\277\t:\341\275#8\r>\264\014\253\277\232\313\253\277L;\241\277W\300\222?\3332\253?\206>\326=\210\270\255\277\032\256\213\277\206\346\231\277(\035w\273\275\003\024\276\350\027W=\251\223\021\276\3204\005=\177\312\204\275\276\361\372\275x8\273\2748\351E<\357\222\002>\030\327\035\275\017\006\024>0\374\013\276n7\004\276\334yK=\262\t\335\275\3040\215\277\246\232\342\275\306\204\036\276\244{\247>}j+\276\206\207\205>\304\344N>\220\036\250?\352\013\254?\301.\257\275\334\367\213\277\003\037\225\2777-\200>/B+>\232\335\221?\311\212\242?h\360\2773*w.>\237w#<\355)x>\364\244\234\277\315{\231=\213\243\227\277<X\220\274\376\264\234\277&&\210?\341<_=\202\245\212\277\242#\030>w\215\235?q=\347\274\362f%>\204\324\201\273wO\312\275g\013\233\277\216\352\237?P\265\225?E\332{\275\212\031\235\277M\277\000>\333w\222?\364\022\251\277\356\224\332\276\207T\256?4$7\276Q\232\t\276B\355\251?F\263#\275\363\213\355\274\243\307\233\277;\t@\274\343\0263=\264[\304>\306-\225=\353\226\375\275\225#\216\277@\030\266<\314\204\022\276\235F\263\276}Lq>\025\330\353\275\327\343\014\275#\223m\277X^\233?\315\234\200\2743\250*>\303\022\013\277\201\311\030\274\237\256\225?\343\221\020>\364=Z>\357\224b\274ha\"\276\t\256\202?>\317\206?\201\252\221\277\221\354\223>\017\245\253\274/+\244\2776\370\250\274\210\023\242\273\223\217\212\275bb\307=\230\240f=\214\005>=\312\224\371=\304\365\020\275^\315\r\276\315^\t>\205\177\267\275E\250+>(n\324;{6&>\333\335\344\275\366t\035\276N\016\344=\344\267\354=\361hP;i\257\021\276\271`\231\274N\203\250\277\000\230\373\275\270ER\274\300c\211\277\3665\245\277\342)\226\277\020\003\253\277a\240\256?q\303\232\275\316\016\217\277\267\245\217?;8\214\277,*\367\275$\274\213=\013$\272\275xo\375\274*\305\237=P\230\240<\275\3072>X\236\225=z6\306=\376\363Y\275tRc\275~e\231=b\275\002\276\024\333 =\270\315!\274\300\027\377<(\257\236<\250\335\204\274\333[n?\316\223t\277\250\3502\273@z\210\277r}\235\275H\333\"=\030,]\274GRn?h>\020\273[\367\037\276c%\031>\362,\221\277\363S0>`\'\237\274\2500\035;\255C\202\277\007\027\221\277\372\262n\277\361`,>r\035\022\276X/\036\275\030\274\344\274\250\002\374\273R\260\333=~\267\217?xvM\274\n\314\220?\306\254\342= \315\231\277\336\027\214\277x\002\365\274\205it?rc\353\275b\216\300=\323\306\"\2762\223w\277\350\351\254\273q\r\236?\\\033\007\276\242\346\231=!\327\207\277x\315\354<\3339\210?mE\233\2778\273T<\337\271m?\332\336\226\277B\306\231=\r7\235?\330&/\274\331\315\024\276\241)\235?\216\247r\275\002\241\266=l\333-\275\"]\237=\316\346r\277~\315\222\275\207e\211\277\010~q?\254A/\2751`\344\275q\361\230?PZ\017\275\272%\206?\304j\211?-\r\013>\316\035U\275&\305\206\277\203\033\214?\300\t\340\274Bv\367=B\020\232\275\230\251f<:\263\361=\314\223\243\275\266=\200=\020\237\213= \333\335<R\230\347=N\374\245\275\317\337\013>\350j\257<DV\252\275\240O\333<sM\351\275\356d\274\275\350\215\262\274^(\242\275{&\014>P\0220\275(\245\004\274\226\301\336=\223\007-\276\217Q\213\277\266Y\231\277\274Mq?\273\304\221?\2515\250\275n\370\200?\250G(\276\270\363J<\305?0>\363<-\276\326\376\362=\274_j=\330\245m<\324b\010\276\230HA\275v\324\320\275MM3\276:\326\034\276\320; \276d\353\033=\370\347r<\266\217\007\2768h\002<\024\0311=hi\351<\206\355}\275\341\'\211\275s\005\006>\360\364\016=\272\2501\276P\2401\275\025\355\034>\361\201\204\277]\240\026\276e\377\237?\312\037\202\277%\006\313\275\351\341\226?i\214\312\275\001\224\203\277\353\204\203?\r\345\236?\317\316\214\277\342\302\234\277h\367\317\273_\327\242?\374\275\210\277`\370\236\277\207\0244\276\231\335\245\277#\306\235?x\376\234?\366\277\251\277Tu\203?\226\226\244\277\r\344\200?\200\007\225\277\314\326\214\277u\256\224\277\010\215\234\277\361\216\207\277$\026\244\2778M\230?\221\364\236\277[\227\210?&t\214?\0306\253\277\371\227\205\277\233B\216\277\274\330\253?\\\n\206\277CB\247\277&p\212\277\204\313\235?v1\205?\351\375\254\277zq\256\277J\231\246?\027\251\202\277z\341\252?\322\370\205?\\2\224?\255\022\211?\003o\257\277h\364~<\217\035\230?\004\005\226? \004\030\276\033\335\234\277\352\221\225\277\343`\217?5\024\217\277\246]\203?\307\363\235?\013k\216?0\324\237\277\336\311\202?\230\227\207\277\2154\251?<O\216?\177\212\251\277\351\313\204?O\207\210?\243\365\230?a9)\276[\341\212\277\315\217\257\275m\231\226\277\352\367\316\275\\8\202=Z\255\231\277\263\370\023>\317T#\276H\316u\274\302d\263\275\236\316\270=\201\2553>*\210\314=\"\007\362= \375\302\275\310\301\375\274\007\314\020>\010\265\022\2764dX=\244\0072=\031H\025>\240\214\225\275\350C\251\275\233\272\254?\225\273\233?\334%\256?\352\303\225?\210b\235\277\375#\224?l\217\204\277\301\002\246\277\270k\253\277\225J\244\277\200V\203\2774Q\235?b\333\016\276O\337\246?\362\"\204\277:\337\242\277\220\"O\275n,\267=\334\260\352\275<\204\016\275\33080\274\010\273\212<\324\341L\275\206\360\363=4\035Y\275V\\\254=\262\006\320=\014>2\275\210\354\375\2751\244\227\275\017(\366\275\357T\026>_\244\252\277\302\'\334=q\036:>\221\222\364=;\214\264\276\240\t\365>\347\316\341\275|\245\206\277\262\342\213\277\343\0342>g\246\215\277\201\235\256\277/\332\253\275\3452`\275\361\260\201?\233<\210\277\005\276\213\277\221\022i=\033\217\034>\315\004\211;\3565\353=\263*\231\275\324\227\253\277CE3\2751\222\224?:\246\205?\021PG\275 \370\251\277\321\0372>Y\306\220\277\353s\013\274\367u >\305gs<\025\010\327\274?\223\220\277\226\017\215\2777\210\256?\033\247 \275\232\321\223?#+h>_O\222?\205g\242\277\256\345\026>\322\315\203?\364\247\276=\306\'j\275\361\352\225?9(b=\006\010\256=Z\273\220\277\211,\226=|L\035\276\326\224\271\275x:\212\275\357\314\330;\036\354\244\277h\312\226:\267\217\246\277@*\230\275!\020\372=\314\206\366=\265: \276\220\345\222\277\316\215\221\277\000\237\r>\374\242\221?\217\351L\276D\324\313\275I\323\247?\242|\241\277\271\344\256\274\266$\024=\375:\277\273_\216\226?\215_\240\277\216&\221\277\177\311B=\317\341\027\276?\020\253\277\261\266G\275\356\207\216=S\027\237\275\336\214\021\276-I\264\275/\253.\276H\222\267\273\n\256\347=\000\\\027\275\3147;=\270>\342<8Q\272\274\303\007\203\275\312\365\026\276Gl1>\255\3572>\0304\331<\277\331m>)\214l>S\343\233<\371\317\357=Zz\247\277\320\230\002>\300H\006=\222:\227\277\036g\206?+\266\254\277=\225\216?Mn\211\277\0103\272;0`\204?\272\355\206\277\275`\247?\234\375\014=0\221\313<y\370!>\250U\220<\"o\367=\371v\032>R^\257=\000\326#\276\276<\340=\212\036\231=\204V \276\r\265%>\204\n\010=\250\270\362\273\313\023\'>\265<.>\372\376\240\277~\034V\275\371\351\030>G4\333\275\034\336\301\276\203!\202\2767\303\335\275Q@\227\277\363\366\222\277_\341\322;\032[\215\277WJ\230\277\177\267B\275\261\356\273=\215{\257\277\227\304\235\277z\024z\277\206\245\332=\341\255\204<\265\261+>\020\177:=\3574\200\274\032<\222\2773\n+=5\271\204?\210\317\210\277#\343O\275\337\007\211\277\r\0342>\363\361\212\277\210[#\276yrT>[Z\375;\347\247>>\324\215\214\277 \303\232\277\201\311\245\277\216}\200\275$\335\220\277\007\202b=\210_\204\277\322\337\212\277\360\235\272=\2143\205\277S\006\347=\016\302\001>ve\246\277\334\005\n\276\337\016B\273\355\354\214\277\n\306\005>\276\367\314=\251 ->\233\270\222\275]\253\230\275b\343\317\275\034\212\231\277\227\363\202\277H\005\230>9&\351=\007\331\304;\335~\357\275\014}{\277\246\315\247\277\211\201\223\2752\335\215\277\017\311K>{\025\257\275\360\374\240\277sy\207\277\265*/\275 I!>\025\034\000>\367\345\234\277X\346\221\277\351\370\213\277\246a\000>\325\3734>%2\242\277w\343,>\272Y\321=T\026\305\275\345#\000>\307\305\035>\353\341\010>; \026\276\215\225\320\275|=\023=4)#=\036q\261=D\023\000=\366o \276$\273)\275n\350\247\275f\323\034\276\004\365\t\276\3430\277=E;^>\371J(>\343\247\022>&\236\227\277\037\314Q>\205?\231\277\264\275\313\275\235\223\203\277\026\270\247\277\371t\244\277\027\227\233\277\254\321\205\275M\351\202?\213(\223\277\200Y\242<O\360\266\275\214F0=\210\246\'<\200$\333<\300\275A=\306\006\332\275x\355\023\275_R\352\2754\223\212=\256T\277=\020\360\371\275%!\204\275\250\237\241\273o\247\017>\034r\324\275*\260\240\275\317\334\207\277>\276\033\276\263\244\222>\006\214\314\276\025\347\337\276\256\013\254\276U\350\375\275\r\236\236\277Yu\235?\004,\305>R\277\205\277\3222\234\277\334.\263\275\323\013\024\276\305\262\254\277\213B\250\277\236s\337=J\005\001=Q\257\223=k\0201?\336%\254\277\034\tD\277C\326\251?@\275\021?;\256\233\277\0058\253\277\270\326\306>\241u\220\277\210\r\250>t\267\240\277\213\366w\275aO\224>5\341\200>\244\350\343>\374u\240\277\231\002\236\277I\003\232\277\270+3\276n\212\203\277,F<?.\314\207\277\267\343\204?\231\027\030>^\t\217\2774N\231\276\365l->-\220\207\2774\036:>Y\355\247;\341m\216\277r\274\200>\370\035\363>e\231\375\274\314\035\r?\036c\263\275\024e\250\277\305\234\224\277f\260\214\277\033\371\000>\373!r\276D\235\230\276\314h\025?F\013\220?\375\312\257\277<\324\023>ct\236\277\005\346\004=)\2718>\022\252\231\277/\235\216\277LJ\347=OC\207>\r\304U\272#2\250\277\007\035\206\277O\373\213\277`W\2639\026\030\n\275\247\037\213\277\007\373\204>a\352\021>\371\377+>\235\223\034\276+l\245\275\20620\276\\i\013\275>\264\225\275*S\247\275\356\213\367\275Q\030\223\275\010\245\221\273\022Q\267\275`\\\211<\347\373\000>\360\260\256<\236)\255=\233\021\234\275\365ER>?8\177>\216\223\223>\217\241\223\277)T\014=\273\022\227\277\276\203\237\277(E\222\277.\241\231\277yQ\216\277o\253\240?+o\200\275\341\007\211?\017\350\216\277\030\'\203\277\030\245.<\360\346\204=\324\022y=\010\013\244<x\202\267<>\224j\275\020_\334<0\223\007\275$$\374\275N\003\206=\034\311\037=Xs\t\274\244G\013=\272\033\356=PV\325<j\254\246=*\347\215?\333\371\377\275q9\245\277\013\017\256?xD\016\275w\340\213?\346\266\240=II\217?\221\245\256?y=\246\277H3\232\277\357a\211?\014f\251\275T\260\211\277\304\335\231?,\275\234\277R\002\335=u\327\212?x4\206\277\306|\220?\276\322\214\277\035\t\206\277\370F\254?j\263\233\277\2738\226\277\274$\217\277M\304\234?\002\235\206\277*\270\234?\207\203\227?\245\216\203\277.\257\204\277\334\3423\275\263\216\255?\346\013\250\277 \207\224\277\201\224\246\277f\006\246?\003\330\212\277\232b\214?\335\373\202?\030f\210?\313\224\254?m\230\231\277 \361\213\277?v\223?\244\\\253\277\312\344\232?g\275\202?\005D\013\276\324\227\212?z2\214?\3200e=\0146\220?6\025\247\277\270\240\251\277\330s\201<\243.\023>.\302\205\277\037\310\206?I\255\223\277\236\371\234?HC\245?B\232\255?\261\252\226\277\'\310\221\277\3563\233?\372\036\227\277:O\211?tH\r\276\274,