node {
  name: "x"
  op: "Placeholder"
  attr {
    key: "dtype"
    value {
      type: DT_FLOAT
    }
  }
  attr {
    key: "shape"
    value {
      shape {
        dim {
          size: 4000
        }
        dim {
          size: 24
        }
      }
    }
  }
}
node {
  name: "decoder/conv2d_transpose_9/Shape"
  op: "Const"
  attr {
    key: "dtype"
    value {
      type: DT_INT32
    }
  }
  attr {
    key: "value"
    value {
      tensor {
        dtype: DT_INT32
        tensor_shape {
          dim {
            size: 4
          }
        }
        tensor_content: "\240\017\000\000\004\000\000\000\004\000\000\000\010\000\000\000"
      }
    }
  }
}
node {
  name: "decoder/conv2d_transpose_9/strided_slice/stack"
  op: "Const"
  attr {
    key: "dtype"
    value {
      type: DT_INT32
    }
  }
  attr {
    key: "value"
    value {
      tensor {
        dtype: DT_INT32
        tensor_shape {
          dim {
            size: 1
          }
        }
      }
    }
  }
}
node {
  name: "decoder/conv2d_transpose_9/strided_slice/stack_1"
  op: "Const"
  attr {
    key: "dtype"
    value {
      type: DT_INT32
    }
  }
  attr {
    key: "value"
    value {
      tensor {
        dtype: DT_INT32
        tensor_shape {
          dim {
            size: 1
          }
        }
        int_val: 1
      }
    }
  }
}
node {
  name: "decoder/conv2d_transpose_9/strided_slice/stack_2"
  op: "Const"
  attr {
    key: "dtype"
    value {
      type: DT_INT32
    }
  }
  attr {
    key: "value"
    value {
      tensor {
        dtype: DT_INT32
        tensor_shape {
          dim {
            size: 1
          }
        }
        int_val: 1
      }
    }
  }
}
node {
  name: "decoder/conv2d_transpose_9/stack/1"
  op: "Const"
  attr {
    key: "dtype"
    value {
      type: DT_INT32
    }
  }
  attr {
    key: "value"
    value {
      tensor {
        dtype: DT_INT32
        tensor_shape {
        }
        int_val: 9
      }
    }
  }
}
node {
  name: "decoder/conv2d_transpose_9/stack/2"
  op: "Const"
  attr {
    key: "dtype"
    value {
      type: DT_INT32
    }
  }
  attr {
    key: "value"
    value {
      tensor {
        dtype: DT_INT32
        tensor_shape {
        }
        int_val: 9
      }
    }
  }
}
node {
  name: "decoder/conv2d_transpose_9/stack/3"
  op: "Const"
  attr {
    key: "dtype"
    value {
      type: DT_INT32
    }
  }
  attr {
    key: "value"
    value {
      tensor {
        dtype: DT_INT32
        tensor_shape {
        }
        int_val: 1
      }
    }
  }
}
node {
  name: "decoder/conv2d_transpose_9/conv2d_transpose/ReadVariableOp/resource"
  op: "Const"
  attr {
    key: "dtype"
    value {
      type: DT_FLOAT
    }
  }
  attr {
    key: "value"
    value {
      tensor {
        dtype: DT_FLOAT
        tensor_shape {
          dim {
            size: 3
          }
          dim {
            size: 3
          }
          dim {
            size: 1
          }
          dim {
            size: 8
          }
        }
        tensor_content: "\275\036\321=\230\233%\276\024\036a\276G]_=\217\327j\276\037\366{\276q\200\343<\217k\306\276\207v\227\276)\301\327=v\327\037\276=\216\007> gk\276K\321K\276\366\334\205\275\303\307\334<UU\020=\217\253\360<\257\231Y\275T\240\306\276\310\301\363\275\300\353!\2769\004\336=G\341\000\276s\360\261\273\304<\321\276\367/Y\276\331\010\372=\035o\210\275\305`\251=\217N\324\276h8T\276\335\204u\276\216\273\312\276\257^\253=\301<\214\276\t\301\013\276\203\350\327\276\202t-\276QN\004\276{\002\312=\035\220\213\276\211\316\224<\177=\317\276\275rm\276W\010\327=\\u\245\276K\270\006\276n\300\205\275\010*\324\276}tQ\275\305\235\354=>\316\321\275\211\226\253\276q!\260\276\003\034\201\274jMP\276\026\345$>\327\330\326=\305\300\311\276\301q==\317\354X\275\030\016\204\276+P\036\276?\335w\276\003f\034\276\261\333\273\276\323\337\023\276\340\217\034\276\246\266\260\276G\024\352\275\237\005#\276"
      }
    }
  }
}
node {
  name: "decoder/dense_27/MatMul/ReadVariableOp/resource"
  op: "Const"
  attr {
    key: "dtype"
    value {
      type: DT_FLOAT
    }
  }
  attr {
    key: "value"
    value {
      tensor {
        dtype: DT_FLOAT
        tensor_shape {
          dim {
            size: 24
          }
          dim {
            size: 24
          }
        }
        tensor_content: "\207DK>\t\352\232\276\305\225\003=ys\244<^\365\351\276\355U\373\274zBm>\341\255\223\276\245\036\324\275\203E^\276g\217B>\3676I>A\034\204=)\276\364=\026\2155\276\237\253\247\276A\242\367\274\325\351\353=Q\356\265\27574A\276\331<\024\276W\021M>\221\310\320=\235\343\363=\375\225@\275\376-C\276m}\227\274\251\300?\276t\360\363=\251\002\365\275Wx{>\312\352\235>\351F\333\276\320\224\031\276\314\244\t>\251f9\276\007\342x>\023\3429>\215\264?\274ho\257>S\233\014>#\372\345=\315\343\332\275\351&\363\275\324\275\030\276\034\241\372\2759\356\207=\262\206\362>\3455\331\276E\247\000=:\344\241>Q\354;=!\024\235\275:\221f\276\222\245\256>\375EL\275\326\227\336\275\255L\317<A\002\202\276\213\366\364\273\267\027L\276\346\363\264\276\331j\272\275@/v\276\312\225Z<&,\027\276?\034#>o\351t>\203\303$\276\016\267\004>\222i\020\276\355\3660=\013\031r>\244\"\253>\343\231\226\276\257\211U>\037\277\254<\306K\216>A\327_>\\\353{\276?F\317\275\004\256\271>>\010>=\212\246\316=\306\273\257\276E\233\025\275\213ea\276\225*s\275\371\271\211\275\241\271p\274\311m\306\275\211\034\210\276\275jt\275A\335\004>\021\244\340=%<e\275\325\035\266=\263\242,\276Mp4\274u,~\276\026hk\276\035\355\022=\3553\223=\247\371b>\330\r\347>2\355\322>J\317\237>\261R\361\276\202\025\223>\006\253\024\276\255\206o<\035\370\013=\006\323\232\276Ck(\276\370#\241>=\240H=\213\346r>\257\034\262=,?\215>\271\366\362\276\270\277\007\273\345\325\207\276e!_=n\277@\275\345i\254\275\377\016\024>\270\240\026>\313\337m>\246\316\032\276A\005@=\363\251\200>G\270\025\276\363\"l>!k\275\275^f\232>\316>\203\276\213\237\245\275\212\"\316\275c)\254\276\255\217\233\275+MI>\246\360\013>1\373\230=\321\276\023=\3616\247\276\023\016(>TT\255>[\343_\276U#\037\276!\306\315={\301\207\274\213d;>}7&>\027*\347\274\312Es>A\313\225\276\262\370[\276\352\275\231>\031\272,\276wfo\276l\365\232\276Y\314\247>\350i\010>\004\273\207>y\235\231\275\303\354\n=\301\375\314=\315>P=\226\341\232\276\362\303\243>\245\024\034\275srB\276!\366K=\006\304\260>m@\030>\027b0\276\216\310\263>\207:|>\277u\213=\313\354\021=\337\320\025\276\r\345\275:I\236\274=\240\315%\276\257\364\275\276?U\344\273mT\014\276-\262 <\214\030\231>E\222\376=\315\325\370\274\277,\t>\036\336\225\275`2S\276\r\234C\275o\325c\275\301\336H\276\035\363\355\274\005^-\275K\342 >I\320\306\274\022\366\220=\032\261Z<\020\022\231>\242\310)\276\313\010)>\021\304\257=\261\014\362\275\252]\243\276\177^\205\275(\213\257>\205\035\n>\224)\220>\323\177\001>\\\366\002\276\r\345\335=?#\023\276U\021\263=\272!\221>\013\201#=\335]\271>\311(\230\275\245jK\276\243\243U>IV\337=\034(\263\276$\234\341\275\370\265\244>\222\022\246\276\231\031m\276s\252O>\357\301T\276\254\365^>\0013\200\276\027\036.>m2\331<cOP>K\201\241=\323\rW\2763 \225=\343\377\350\2764\303\244>u\272S\275\255.E\276\233S\333\275\337\373\">}\250\344\275\005\230\312\275\347\323\372\275\345\351\251<\017L2\276\233S\324\276\325\306\256=\361\231\216\276f\034\215>kFp\276\347\236\277<\375\001\357\275\231\326\017\275\256i\241\276\215\356K\276\337\230\212>\311\252\006>\241\370\260=B\331\035\276\267F3>%\211&=\3022\231\276\317\341u>K0\\\276$\254y>\021\302\377=\374[\277>iG/>C\'(>\222\257\235>\267Dd\276e\002\323\275\177[l>\r\362a;\245q\337<\213\377\214\276O\'\242\276\344\200\250\276\035\354\227<\360\320\263>}\362\313<}\257\024\2769\r\241=;\2428>\236\316\243>\363T\272=\333\264\330=\313\266j>a%!>5\347\244\276t\257\222>\232\r\333>\305P\302\274\243\313\252\276\371/\234\275\005{|=\351Z\270\275\r\016\364\273~\n\265\276\325T\203\275!\261\264=\373d9>\t0\255\275tO\306>\021A\004>\021\277\016=\263O\342\276\273\023{>\221\206\275=\275x\345=\226\364\236>\332\271B\276\307\020\352;\235\347\207<\210X\323\276\316\341p\276K\031\200\276\271\202^=\2527\206>\021\002\257=T\312\252\276<\203\252>\333?\254>\377g\227\276d*\236\276\2061\220>b\275\245>\350\326\220>7m\214\276\371\326?\275\270\032\353>\340\375\211>\350D\223>\322\0171<\317,\371\274\324\370\261>\007B\206\276\240\346\260>\013\344\265\276\315\n\273\276\230\3554\276\346\245\211<\265\321M\275\255\3343\275M\030\321\274\360\226\232>\374\004\207>\221 J\276SYq=\027\201^>\027\r/>\231\377\307\275\253\213W>#\202\310>{7^\276\302\247\244\276\3152\177\274K[\217=\306%\214<\303*v>\013\371\221\276\t;\327=n\227\264>\247\332\267=3\002\216\276\265\321r\276\345\022\217=C\267`>\343\020\362\275\263\221>\276=3\252\2765\276\322\275\217\276W>\367\031\214\276\3450\363=ZF\n>m\267R\276\237\003:>\211\324\220;\342\226Y\276\023\331p>\221\213\224\276G\247\'>\014\321\035\276w\2463=\354w\037\276\026e\010\276\303\230\323\275A7T=\201ld\276Z2\213>\013|9>\217\353\032\276\341r\227=g>(>\367\370\025>\005e\263=\\\001O\276\353\237\331\275c\332\315;\215\002H\273\372\364\254=D,\022\275\377\301\242\276$\206\252>\213GF>?Gp\275\225$\317\275\267\023:\276\355\366\207=\257\007->vp\006\276\207i\322\276\257\356\206\276\311+\302=o={>_jR\276\017\213\037\276\206\004\302\276\t\365\350\275\322\027\300>h0\255\276\204\037D\276\243\017\023;L\032#\276V\361\325\274\372\250\234\276\315\272*=\364\347\220>o\235\360\274\301b\317\276\'\023[>\245x\000\277\324\320C\276\2648\221\276/\327*>\363#\350=\330\245N\276(3\263>\244\353\200>WM\264\276c)\262\2767\353\241\272XP\271>\305\361\356\275\335\330\257\276\025\221z\275L\273\222\276k\023w>s\361L>\0328\361\276f\367\006\276]U\232\276A\261\225\274f\"\016\274\275\203\013>DE\211\275\225\233\251\275@\257_>\355\210p\276=7K=\177\030;>\037\263\022>\t\346\332=\330\271\225>\352\206:\276\341\223\370<W\002\263>\230\215\201>_\214\355\275\355\2412\275\263\350\236\275\225e\n>=\276)\275\033\230H>\255d\357=\023\257Z>\037\376b>\256\277.\276\235\027\316=\322\260\262>\345\005J\276\033\242\220\276\235\376\205<\031n\350=\305\211\224\275k{\"\276\031p\257\275\353\2443>\331\205\230\276\2331t>\320 \222>Ei\231\276\274\003\254>\257%v>M\033\372;\367Xn>\320\233\261\276A\230\204\275L>\032\276\263\014\003\276\371R\346=\037\352\214\276\277K8>\257t~\276\275\274\307=}>E\275\307\340@>\323\225\032\276DR\213>L\010\264>\230L\205>\031\250\336=#\375k>a\'\256\275\337\327\027>\223\017=>y?\224\275\225g/=\rO\362\273\265!\020\275\007\3507>16\207=-.Z=Md\314\274><\023>k\361\242=\365%\305\275\017\217\332=q\222\001\276\033\272\320<\230\357\204>\377Q\326=S*\005>\230>)\276\005G3\275\324O\255\276I\275\224\276Y\357\023\275\206\371\342>Ra\236>\215\277T\2735QI\276\337X[>\315\305\274<c\203\305\276\210\275\313\276\214\272\203\276\276\306\214\276\235\317\022>?\306G>\303\342s\276-v\000>\351\271\252\276UZ|>\003\225\276\276\013y5>!\246\320<\031.\303=\237\336\201\276}\326\276=\035\225\\=\233\234\233\276\341a\"\276Ic\"\275\336\2526\276El\275=o\315\254\273\313\3353\2763\323\031>"
      }
    }
  }
}
node {
  name: "decoder/dense_27/BiasAdd/ReadVariableOp/resource"
  op: "Const"
  attr {
    key: "dtype"
    value {
      type: DT_FLOAT
    }
  }
  attr {
    key: "value"
    value {
      tensor {
        dtype: DT_FLOAT
        tensor_shape {
          dim {
            size: 24
          }
        }
        tensor_content: "\r\276\375\275\000\000\000\000\000\000\000\000\334\240\005>\034J\031\276\000\000\000\000\026\375\024\276\000\000\000\000\002E\245=JP\r=\234\003\005\276\034J\031\276\000\000\000\000\000\000\000\000\000\000\000\000\000\000\000\000\034J\031\276\034J\031>\034J\031>\000\000\000\000\000\000\000\000i\010W\275\000\000\000\000\034J\031\276"
      }
    }
  }
}
node {
  name: "decoder/dense_28/MatMul/ReadVariableOp/resource"
  op: "Const"
  attr {
    key: "dtype"
    value {
      type: DT_FLOAT
    }
  }
  attr {
    key: "value"
    value {
      tensor {
        dtype: DT_FLOAT
        tensor_shape {
          dim {
            size: 24
          }
          dim {
            size: 64
          }
        }
        tensor_content: "\326\034W>\367\362Q>\024\270m\276\371&n>\177\304\227=9$\234\274-\220\000=\215\006\263=\357`\243>6\350y>\332@\316\276\320\344\016\276\313z1>\332\260{\276+t\243\275q\271\273\276]\200V>3[V>\267\"_\276QG6>\222{ \276S\013x>\367bB>\325\222\033>y\262Q=t/\010>\360\265\006<R:\255\275\333\263|=\n\242\305\276\031\232\336\274\311\376\333\275\005\253\257\275>\215Z=\021\313\373=\345!\037\275ij\332=A\007\214=\021\017\227\275\271\230\000>\202\206\230\276)y\035=%\ty;\246\210\213>?L\217\276\246\010\037>I$\000\276\0314\246\274\204t\362=\301[\005\275\263\331\177\276\345;\201=\251a#>\343Q\322\275\315;\037\274\275\304|\276\005\265\207\274\023\005Y\276\344\014\364=5\254\231=\265\300{=\033\234\273\275\231\253\272>\360\347W\276+\223\375\275\035\027\323=\251w>>\241\323\257=\366\227\203\276\r\200L>\237\357\"\276\217\217\265\275\235\001\345\2747\370~>W\357+>\261\030I\275\304\213>\276\367\270\201\275%\316$>\311\266\265=\005\302\306=\345c\017>U\367\320\274Mn\326\275\211\001\245=\330\n}\276:\271\203\276\207\267\\\276\241]0\276~\275\033\276\215K\233;\255|\022<\0234.>\275\315\236<=,\244\275\335\311!\276l\325\203>Q\266P\275m\3400>\275@K\276[\320\035>\017}0\276q\214`>\225\346\212=\002\226E\276\230\315\202>\205x,\275M\321\220=\215\357\230\274\303x\364\275\365P\371\274\344\215L\276=\337\020\275\235\3013=\rf\314<\\\263\201>\361\'\014>\t\374\364=-\245O\274\2077B>u`o>M:\240=\263\252}>\242\323&\276\305\233r>]\256+=\244\304k\276\347\352;\276\211E\377\275-\007\317=\215\346\254\275\211\200]>_\267i\276=g\022=\245\376\036\275E\0139\276i\274\002\275W\203*\276qf\355=\313\211\243\275\245h\201\274\313U,\276\r\350\240:\231\307\240=1\315\325=\225p%\276\205\'\330=\315\216\243\273\361\376\206\275\245\034\243=\025\234]=q\213s\276\377\242h\276\205{\210=\211\371!>]#\372=\321\027\340=\355\023\202\276\372\225\200\276p\347y\276G`\033>\035`g\276\255mV\275\245o\270\275;\037b>\tyi>\223\215\376\275\375\205\177=#7Z>=\240\366=\013\230H\276\365\300\020>b4h\276=\361|\276u\0271=9\274F\276\224\210v\276\265\214Y=\007 \326\275eZ\036=\023\374E\2767\032v>\335\262l\276\2112\363=\365\301!=e\351d\275\245\355\000=\375Xy=\305\313O>_\327\217\275\235\303\364\274}\327\320<W\036$>\023\334L>F\330\253>\227\003\272=;\3355\276^W\244\276GP7>\225\005\'=\r\275\010=\317\030H\275%\234\236\275\215\363\251=\033J\035>\021\255\036\274D>\205\276Gx\242\276T<\212>7\3719\276\211ef\274GPO\276\241U\030=\321\201\240\275!\212\231=\351\312x=%#@\275\257i\007>\205\350c=Y\014\312\276\353\232#=u\321\252\276\203\216\317=\317G6\276M\342\035=\353\370\275\275I\0177>\005\252\333\275\r0\350\274\307v\357\275p\005U>\344\016\201\276\352&!>\210|\300\276\316\232z\276\341\3144=\001\335\240\276\320`\314\275\376%s\276\351\327\276=w\025\233>\365_N\276k)!\276\331\355\370\275\241\322D\276\3225N\276i\032S\275\245\300\214\276\r\254U=\"\204b\276\323\350\376=V\246\225\276\002\222\211=\257\203,=\305\233\300\274\224\024\224=\357\345\327=8c\256=_<_\275\260;\002\276\014`\372\275\304\353\033\275\242\245:=uk\234\275\202\270\202\275\226\254\251>\373\036A\276\006\004\025\276\272\202e>T\353\313\276\306/\212\275T\351\214>h\355T\276Yd\342\275\001\271\237=Q\022*\275\3653\347\275\335\246\251=\207\246\r>E\312o\276 \330~>\002ge\276\t\006\223\276\324\241\302\275\263\241\030>\355G\322\274.\251\353\275I\006\'\2759w\226\275K\014\316\276yu[\276\037?\030\276m\3415<\227\376.\276\005\356\211\276\202\022\025\276\001\222\261<|\320\336\275O\006\262\274\321;\034=-\310\312=\210\214\272\276\205_\212\276\213N\277=\300\273\246>\2012J=\233Q\207\276\345\275\313\274\373\017a\276!\317\215>\243\254-\275\r\221*\275\033\325\273=\267\216\326\273\253\002\361=\016\216\314\276\205\330-\275\336\337\301\276\341\277\037<Q\361\372=\315]+=\255:&=\005?E>\361+`\276\321\360\347\275\215:(\274\005\343\355\274\305B\037>C\205\026\276\260f\205>9\003\365\275\231R\212=\035\363K\276\211\312q\276\315\347\264\273Y\304[>\365\356\n=Q\332\267\275\301n=\276\235\000w\274)R\020\276i\246\t\276U\322D>\215\260\211=O\024g>\307%\224\275\275.j\276t\251\205>=\207\003\276:\370\027\276\331~\250\275-M\206=\207\006|>\265\376m>M\314-<#\017\226\275\371\272C>\341\337@\276\357#\307\275\307N_>\373\330\016\276Z\330]\276\215\313T>\r\r5\274\217|P>!\201\323=\235\000P>%\342\330=\224V\201>\371\036\025\275\207\361^>I\243i\275\324U<\276\032\365\203>=\177\207<}YC=\275{W>\361\232\307=]p\300\275\271%\026\275K?B\276%\263\'=D\211\204>\r\361\361:\236a\204=}=d\276p/\346\273\355)\n\276\373\274\240=\305J\376\274\327D\371=)\001Y\276%\303\027=\247\255\305>k\220\232=\2272C\276?\266\200>U\245\237=\346M\023>\272@\251>6\321\204>!\322\201\276\2073\330=J1\201>\t/x\276y\311k\276\027\'T>\357\2100\276\211$T=\207\002\230\276_B\340\275\313\262\301=\320\244\">\370\006\346\275\025\247\033=\371\276\201\276\323\374M\276\312\352\346\274+3\201\276\001\357\275=y\350*\276\221\364\236\275\330\375\244=S\201i>s\342\303\275\343\304\350\275\0072\372=+\243\364\275\332 \006\276\004\275\211\276i\024\266\276\341\244\232=y\tB>K=\234\276\306\304\245\275\035\262\354=\253\363\007\276\267m\274>\t\233\340\275\242\251\312\276Uy\004=\221~\364=\342\345K>\323\r\320=\305\017\263>/\036\253<h\271\236\276\340\237h\276\'\317#\276\007\357\367\275\231z_\276L\275e\276\215iG\273\315M\233\275n&\204>\321\3018>\215\2202\2747vZ\276O\311\351\275%\241\023\276\313\007J>k\265\000>&Or\276MW\251\273\r\003\n\274\353\222V\276\024\024\205>\277\177\324\275aL\013>\235~\367\274\311\356/\276u\363\023\276\031\033^>\001\306=\276\027\235\226\275u\277;>\331\317\245=Z\032b\276g\264u>=>/>;~&>J\224\n\276\222\306\204\276\363\2007>\365\003\302=\177.\345\275\375\343Z=\267\246Z\276\227\237*>K\367:>+\261i>\221\275\034\276}\337\r\275\271-\364\275\235\324]>aS\372\275\354\236v\276\223\257)>7\024\n>U\220&\276\201\241\242=\207\\u>\225\212\365=\355hv=\025\274\341=\253\031\\>\255\345\316<=\240\362\2757\266>>\376\264s\276\264\214\203>=\3661\276\274W\243\276E\267\204\276\221\344\240=I\021\301=}\227\342=rb\252\276\\ay>\017\320*\276\223\005\315<\003Y\002>\273\321\324=Y\233K=\025\242\250>\215~\010\276D\373\212\276\260\242\r\276\311\013\273=\375X6\274\"\344\035\276\245\302\203\276\354\201\270\276\215B\033\274\272\322\000\276s\004\313\273\033\266\246>\177\367\023=\314~\300\276\025h\215=6\271\303=\310\333\317\276\361Lb=\315\314\353<_/\007>\005\035\315=\333J*\276=,\323<\355\000\256\274\334\3639\276>\342\'\276\247\013B>;\304\253>9\023\206\276\"1(>\262\261(\276\004\211\024\276Mzf=\344\263\304\275\325\036\267=N\001\216\276\310?\301\275\332p\313\276\327\353e\276\365\201\260=\026\303\001>\233\236\222<V\335u\276\305Or\276\361\247\224\276\310K\300>\000\312\210\275*\304\000>\272\350\203=\341g\207=\344\216f>Z\223\005\275\351\265S\276\246r\223\276\357p\026\276\030\023>\276u\303\315\274\355o\205>\263mI\276\245\206I\275H\023\321>S\307\226=\345\014\025\275\000xn>nC\324\275\237v\227>C\363\255=}}\n\275\241\241]>\340\356\014\276\'h\013\276\327\003\357<ioR\275\374\316[\276\224o\000\276\374!%<\252M\310=@l\225\276m\330`<\372\006\262>@t\t\2761|\265\276G\035\221\275=\243J\276\033\211\204\276*\224G\276\247\370\225\275\205|\007>\010\232\000\276\304\360\t=\303\001\021\276\022\370\236\275\214O\206\276\001\200\t>\216j\245>\363\372\314<\240s\215\276F<\216\275\2547\232\276\023x\223;A`d\276-W\033\276+\0022>\r\346\237<\265\370L>\201\355a\276\355\314\252=\007p\265\276\314Y\014>\303\337;>8\304\370\273j\257->|e\265>\241\340\273\276v\213\031\276\334\264\010>\005\312\266<\'\032\305\276M\016\202\276\262\333\241\276_\367T\275k\337\246>\031\206i\275A\230}=\020#\302>.\206!\276_]|\276xK\031<\020]\247\275\354\256p\276\200\304\323\275\001p\302\275\235];=M\275\317\275\271\020a\275.oq\276\3414V\275\3134\315\275\247u\n\276w\255\207>\343\374\201<\225Yw=\306]@\276\266\nA>\017\320Y\275F\233\275\276\245\371\345=\r~=<a\361\327=7\017@\276\332/:\276\242\017S\276\307\0317\276(\364\217<m\353\204\276\210\n\231=\027tK\275\261\315\311>\271\225\241\276\351\202G=i\240\324\275g\322\214\276o)\304\276\203\374M\276\203\tT\276\333\205|\276o\013h\276\203J\226\275\321\373)=\021\233\006\2763p\306=8\303=\276\230\210p\276\025\246h\274\302\305\003\276|\004\240>\333\270\210\275\373\356\233<\rz,\276\230KZ>\214j.>\372\2523\274\352\263\351\275\341J#\276\245\200\340=\341p\234\275\365!,\27510=\276H5\321;\362\365\211\276\266!\024\275\355k\273\275B\310\260\275\321\036C>\223\325\303\2740\352\376\275\241Q\"\275\205\n\234=\305\007\206\274\246m\026\276\335Ir=\017@\000\276\326\353\226\276\206cq>\307[b\275-F\321\274>\262\213\275\363\305#>\014\266\276\275\375\003(=\351\270r\275\013\257\036>%o\306\276\221N6\276W\243n\276].\274=\035\241\216\274\360\324\335\275\001\255\017\276\274\037\242>\310.{\276\322\346s>\341%2\2757\003\257\273\362a\023\275\001\275d=\351\226P\276N\343\272>\337\356\\\276\357U\371<\315J9<\275$6>;\257\202\275\027\361[>\272\375:\276\366\303\260\276K/\206\276|u\241>\272\223\312\2755\216\200>\355\\-==\027\201\276Mq]<\267\014\033>\031[\323\275\205\257(\275\353\251t\276\r\304G=MV\224\274\277\217]\276\'\007\027\276\r\027T>\327\244~>\323\005\">e\373\357=u\374\212\275\361L\230\275\375\323 >\253\300A>\265@\341\275-[i<7\235L\276\373;>\276=\367\010=7\310t>\333\004R\276a\001\220=U\316o=\262\016\204\276\r\265\023\273M\215\342\273}o\004=\371cU>\347K\201\276\215`L\273E\"\006=-\016c\275\327\336\336\275\241M\223=N\2544\2765\000Q=\305T5=\001\023/\276g\351\364\275{\327 \276\255\370\022\274Si\350\275\211\247G\275\345?\341\275\303H}\276\201\220\035\275\214\344F\2764\001A\276\2754\222\275aV\372\275\331i\017>\361O7\276\301O\036>\243Q\006>]\336\345=\275>\\\274\277\363d>\267G5>N\032\203>\r^\311=\341X\306=V\001\205>\241\2345>%\311[\276\023\375D>\245\201C=\355s\t<i(t>M\311\250\275\355\250\026=\005\255\370\275\013s\365\275\301\351\366=\333\200\313\275g\2002>\034\201>\276m\345\331<Ew\206\274u\234[>r>\202\276)19\275%Z\360\274seL>\3707\010\276\263$(\276\201t&>!\0208>\274U\'\2765}\354=\005\254->\025\260?\275^\314`\276\242I\201>\361\312\345\2755\271\202\274G\330J>I\244\363\275\001\230\200==|d>M\246\324;\001\227i\275\361\243\307=\215`v<\231\312H>\315\344\225<m\273\271\275\361\300\276=\r\234w=}\001j\274\025^9=\373\367\035\276u`\014\276\322BX\276\t\310\365=w\224]\276\255\212X<\331\300\210=Wp\350\275)\240\201=!\210?\275E\253(=\274\356\204>;\337o>M\331\236\273\315c\212\275\235\254\256<\315K\255=\255\372\037\274\375x\263\275\223lQ>q\010\375=J\243b\276\215<\031>q\001L>w\251x>\005\220$\276-z\350<\325S\034\276\rH\023\274\231\001\236\275\235\035\006>\327\314T>\033\260\331\275\257.\034>\001\242\326=\200i^\276M\336\322<9\320\331\275\031\376\212=e\352P>\315;\324\273\371\236.>\335\'\244\275\275gA=m\257\255<E\347\341=\334\000\034\276\r\205\303\272\031\357.\276\2410f>\r\242G:\273\255\324\275\005\307\001=u\332O>\235\306\331<\033\276t>\215E\243\273\363\354B\276\351z!\276\331\314M>\207p\274\275\375\2040\276\367\370\304\275\333I\344\275\247\234\021\276\3356\224<\241&\335=\265&0=\311\313\247=\275~U>\003TK>G\373\341\275\365Y\374\275\365\310\304\274AG\374=\355\224\367<\231\274\224\275\r\n8>l\026\203>\303\211\310\275Y\355Z\276\351G\035\276\235%*\276\357\316G\276\345\375\341\274c\317\024\276\375.G\274\r\330e;\rxe\273\355\203u\274Q#@\276\247\371\'>\216n#\276\225\272\305\275\343f\037>5>*>\223(k\276\213\302A>\265\240!>\017AJ\276>M\205>\r\365\276\2725\360K\276\335\263\352=\331\204\221\275B\002\203\276\355\301\020=\361\033c>\277\002_\276\343\214.\276\035\037\276=5\220J>\2271=\276\rV\224\271Y\233\362\275+\330v>M\201\334;\241\314\224\275o\017O>\325_!=R7\036\276Z\005O\276\344{w\276CE\023\276\232D\020\276\355j\270\274\333\276S>\343=\031>\215\314 =\005\355\006>\267\214\004>\'\\M>\251\221\330=\025\016E\275\353{\023>\rD\r=E\177\302\274\001\027\236=\361|\021>\010\233{\276\263\325\230\275}\357\272<a\222\014>\017\232<>e\037\331\275L\231\203>P\312\255\275\263#P\276\251z\236=\206w\264\275y\370\000\2743b6\276\342\221|\276\324g\254=\254\252\005\276\215\355]>t+=>\2351$\276p\261\025>\350\321I>\235\332+\275Q\231m>\365\204C=Mf\016\276\313\244\301=?\337\004\276U\240\004\276]6\305<\207\2301>\216\350>>\205\036\207\276ev\341\274W\022\335\275\232\245u\275\343(:\276\215\243\232;\263/z>\351\271k=\207y\255\275\271\347\033\275\345\031$\276}O_=-\2032=\r\302\235;[A\365<\303o\322=3\212\312;\010\351z>i\007\232\276\302\320R>\347\003\304\276\275JQ\2756\350\n>\215\214\313\273\300\323)\276\362y\205>\363\253\312\275\0351K>r-\201>\001\300\330\274\261F\233\274\035\270\307=\237\274\230\273\264\025\232\2767<\306>!al>\214\352)>\rl\334;\347\313\266\274\377(s>\261\206\207=!\022\242\276K\222\274\2762\213\017\276LK >1\344\\\276\267\325\035>\342\005\003>\374\325\301\276\227\223i\276@\004\022>6\360\347\275\313m\233\274\025$\270\274\311\334\367=\241R\341\275\303\335\234\275\345\353t=c\354\217\276\363\212%\276i\211\205\276\215S\006>nz\314>\031\030\023>a.\266=\341\376\'\276\264\261`>\004\224\226\276+3\255\276\r`}\276Ue6\276v\351\264\276\215\235\242\275!\316\255={\n\037\276yA\200=\006\255\267=\355\301\312\274\207n\256\275\225\366\233\276W\341I<w\306\001\276\271\255V\276\237\365\203\276\364?\332\275\346\310_\276K\203~\275U\223#>5j\216=\270\211A\276G\213P\276\350bn=\230\335\214>\3114\335\275^M\333\275)\273\320=\313K\226\273f\323\210\276\023\034\360\275\035i\r=\353\226\365\2747-\254;\003\002\014\275\202\352\300=\330\305\203\276\250a\210\276I9\024=(5/\276{\206\332\275s\te>\375\2522\276vOq>\036\272\222\276\266}\276\275z\3204>\346\310\277\276\302\315\002\276\026>5\2764x_\276\303\007T\276\327\020\304\2757\317\247\275M\021N\276\347q\201\276wE\014\276O4\037>6u[>\241#\257=\006\365\026\276\002\246\302\276\265\234\207>\265\027{\276k\252\275\276!\355#>\t\263\261\275\273\r\353<3\000\337\275\365\021/>+\312t\276\205FA=\335\207\261\271\177\3400\276\262\"\264>\323\020\203\276Q\336\372=\035\375\262=\334\347B\276$\263%\276\211\230\323\274\355\271\256<\004\204\016=o\220\336=\265\362X<\373K5>\221\226\276\275\267k\367\275\231b\032\274\014\'\205\276-\326&<\225^\221\274\274)\253=\315\363)\275QrU>9fe>\270)\006;?>\367=\243\307,\276%\243n\276N\300\020\276\021`3>\021.p>de\001\276\355\3750\275U\303\213\275\375\3566>\0326]\276}\200Y=\327\203=\276\233\376O\2765\227D\275L)y\276\313r,\276U$i>\235\346z\274\'\251E\276\005\322\373\274wp\202\276\r@\373\275m>\332<W\366\022>A\264\203=\372\357\030\276\375\256\225=\275]\204<\211\321\341\275\035.2\275\210\021\201>\315\317\356\273\311s\204=\361K3>\025O\360\275\263\2356>\253*R\276\353\t*\276e\002g=\211\363\367=\357\246Y\276\361 =>5\2000=\311\'d\275\371\241\034>q=$>-\030\330=Y\223\274=\323\361\303\275\235\031`>\365\367`>%\030K=\r\256_>\275DQ\276N\000A\276\231\237\016\275`\342i\276xN\000\276m\2164\276\325\241)\275\213\377J\276\263\366 \276\315\331\030\276\335\266\253=!\210G\275\235\247^\276\305\t#=\373\262\003>\005]\360\274\035\317n>U\242\340\274\005\3029=\355\001:>\224\207\024\276\r}=>\235\n\377=-\366\n={Gc>\005\304\216=\240\264\t\2761\0227\276Mp/\275\353\313\254\275\215k\364=\227pc>\241B\020>m\027\035\274s\337n>\235\343\345\275\225\367z=\255\335\351\275\333\rw>\2313\252\275}\'+\275\rd|\272\265j\332\275c@\033>\225\230\361=\301\366\222=\273\343\261\275\215\014\033\276t\343\203>\353\223{>\341\0343\2761S\314\275A\017(\275^nj\276\321\362E\276{\241K>n\276f\276m\252E\2751\301O>}\237s\275\013yK>B\321s\276\263N->\373\277=\276\261z\267=Q\366\254=\225t\340=\t\262@\276k{%>\361a\035>\021\350\200=Y\225c>\r\034*<\245\000\267\275\027V<>\333Y*\274i\217\251\275\302\254\240\276\001\325\311\274\237\226\266\275\023\371\205\276)2\251>\365e\006=\033\302t\275\363\304\014>stJ\276\230(/\274\222\270\254>m\356\230\274K\037I=\353\016\316\275\036\n\350=\205UD\276hCi\276Q\207\020\276\201\222\270=\r\214\022\274\211\225r\275oq\t\276\255\353\021\274\000I\036\276O\335\013\275=8\274\274\251\2628=\316\272\035\276\035Z\240\276U\333\267\2759\014S\276-\246\266<\r>\360<\307wD\276\203\300:>\235\367T>J\362)\276\201\301L\275\355L\245>\336\256\311\274\337XJ>C\273\233={o\343=M\270\325<\3375\305=\'q\300\275\232\300<\276\024\244\334\275\317\260(\275\001\177]\276\327\345\263\275:\364\311>\267\355B\276x\004\010\276\347\030\207\276\003\005O\276\022\322i>!|\003\276AJ\340\275\212\352W\276\376e\007\276c\375\370\275\315\301\035>\345\337;=\363Z\223\275\365\220\006\276\3751a\274m\372\002<\215\020,>\233J\016>\265\351\022\276\377\304\244\275\323\345->\215\325\'\275_\3206>+8\200\276\007\325{>+o$\276\303\010O>\373\0266\276\245\307\361=\373vJ>~\003U\276\231\240\234=\331\214%\275\t\006\017>\375\230=\275-\376\274<\301\346\223=\177\260A>X\230U\276-\3740>\365\r\240=\201j]\276\233\261~>\201\244\241=\235\t\207<\276\215\000\276M\207`>\321\020\200\276\035\320\237<\31402\276\331\346\004\276\341\250[>}\306\352=\275C =K\303^\276\247vH\276\255G\017\276\341\200<\2765\3679\27696\325=\227p\207\275G\rw>\224\007\n\276ET\004=\221\352i\276v\265\204>\233\000D\276\033/3\276\305&\024\276\r\325 \276\247\000z\276\275\225\366=#:\006>\215\350^\273F\031\224>\304Uo\276=<\220\276\013\021\265\275\365\342\253=\342G\211\275%\220v>w\317\037>\350\342\254=\257`\247>\321\360g\275^\354\020\276\021Ms\275\035Nw=\036/8\276\2227\207\274\265\354i=5\030j=\234]\254\275L\342-\276rK\253\276G\271K>W\353m>\225{n\275o\001\263>M6g>5\306%=9\265\311=Q\240\253\2755\022\303\276\010\205\217\276\356\267\203>\023L/>J*\242\276\013\234\371\275\247\010\327\275qZ\273\275c\334}>\035\230\271=\r\n\026<\233R\216>Ji\255\276I\376\327\275H\360\007\2764Ws\276\006\331\320\276~\251n>_\021\215=\311UO<g\025;>\235I\214=a\375]>v\373\204\276\233\251\201\275U1==\246\310\031\276\341aR\276I:\'>M\332Q=\243|\225\275\333\007\240>\005\303\342=\016%0\276\354r\003\276"
      }
    }
  }
}
node {
  name: "decoder/dense_28/BiasAdd/ReadVariableOp/resource"
  op: "Const"
  attr {
    key: "dtype"
    value {
      type: DT_FLOAT
    }
  }
  attr {
    key: "value"
    value {
      tensor {
        dtype: DT_FLOAT
        tensor_shape {
          dim {
            size: 64
          }
        }
        tensor_content: "N\337\255\275_@\002\275\034J\031\276\'\212\354\275\034J\031\276\034J\031\276\034J\031>\000\000\000\000\311k#\275\034J\031>\034J\031\276G\255\307\275\034J\031>\034J\031\276\321r\306=tM\021\276\251\335\202=\000\000\000\000\034J\031\276\000\000\000\000\034J\031\276\000\000\000\000\000\000\000\000\274\226\177\275`\232\025>\301H\235\274\034J\031\276\034J\031\276\034J\031>\034J\031\276\034J\031\276\000\000\000\000\000\000\000\000\034J\031\276\000\000\000\000\000\000\000\000\000\000\000\000\000\000\000\000\202DX\273\000\000\000\000l\232\025>\034J\031\276\034J\031>d\272\247\275\034J\031\276\034J\031\276l\232\025\276\034J\031\276\204\335\202\275\277*\207\275\034J\031\276\000\000\000\000\000\000\000\000\034J\031>rt\223<\034J\031\276O[\376\275\027\200\246\275\034J\031>\034J\031\276\300\305\013>\310*\207<\374\324\026\276\036\364[="
      }
    }
  }
}
node {
  name: "decoder/dense_29/MatMul/ReadVariableOp/resource"
  op: "Const"
  attr {
    key: "dtype"
    value {
      type: DT_FLOAT
    }
  }
  attr {
    key: "value"
    value {
      tensor {
        dtype: DT_FLOAT
        tensor_shape {
          dim {
            size: 64
          }
          dim {
            size: 128
          }
        }
        tensor_content: "\336\235\372\275\211\235\367\275Q\252V\276\260\216\212\275\246(\260\275\'\302\223>DdR\276\241\356\356=o\312\320\275\000\342K\276!\033\003\276_e\313=\034\232l\276\303\317~=\253\263n\276W\034u\275\265\204\226<H\022\263\275\323\027$\276\035BO\274u\200\332<\034\030\203\275\271\266n>\210\232\035>\341M\272\274\325\217O=\032\335\017\276\366{f\276O_\263\275Y)\025\276\332b%\276\363\324\326\275\277\3053>c\036\364\273\221\022V\275\317\373\344<F\246`\276M:\027\276\315\240\212>\330\031\235=\340\251\255\275\315\231#\276]\010-\275\263\341I<\213\273\304\275\013Kc\276F\303#\276\311 \220\276\220\014->@X\276\273\256^\347\275\216\230\233>P]Y=\024\373\020\276\332(\321\275\371\226\021\275\017\006\304\273\272\334\177\276n\243\202=l\265\233\276\227\367\r=\363\tE\276t\214\325\275\321/%=\300U\234\276\331\250\236\276\2413\214\276I)\364=A\205\001\276\241\364\367<\275\265(\276\343\226\200\275\036\026\214\275\352\323;\273\253\261F\275\2230\010\2769\262-\2752\004\023\276\227Ia>\271\023H=\251\337\030\275\366\362\024>\332;.>\217\270\353=\221\355\'=\t\323)\275\201(I\275\355\226\010<\031\224\004=\215X\030;Kq\244=\331m*=\347\257\014\276\t9f\275y\217 \2769\345{=|*!>\267O\302;\343\2714\276@\3225>|\032\244>\262\022\363\275\313\233\257\273#\214)\276\371\205B;\371rw\274\205\354(\275z\027\225\275\327\224+\276\347\014:\275\022\214\223=Nu)\2733p\220=M9\273\273\013\243\226=\246\327\032\276\367\242\353\275\344\321\034>\025\324G\275{y\341==\241\007\274I\372\007\275\343\033\265=\377\255\277=l\225\022\276wW\003\276$\255\023>\020\321\034>\346\327\231\275sX\305=\016\203\004\276\021R\361\274\272\000\250\275:\246n>\235\035P\275\013\037\265=\256Z1>\375\366\262\275\262\351\">_\364\230=~\256|\276lt\224=Le\226\275]\240\026\276\345s\212\274\252\014\033>\026:\203\275\r\354\231\271\373\2330\276\024 \375\275\345\234\221<\022\214\337\275\273\246\366\275\372}w>UcO\275MA\260\2733\275\304=\306\325\034>\305\356\231\275\245\336\325\274\353\336\246\271+ \367=\373\315\214=`\353#\276*4\026>\374\212\213\275\322\270\027>\310|}>\317<\002\276\335y\311\274G\t\347\275oY\333=\264\277\266\275x\324\341\275\247<\240=\342O\034>k\304\315=\355\177\032\276 )\030\276\206\300+\276\355\030w=\215o\216\272\253\215\325\275\275\300\'\2748\014\030\276?\253_\275\340\262Q\276 \323\037>\302\320\305\275\r_\375<n\005(>\325\235\347<\251\217\n=A\256J\275\211\234W=\025\250\352\275/\272\370=\000\241\020\276\355\'\033<7\264\347=x\220\004>\266<\033>^\212\213\275}\213\373<g\366\270=m\260(\274\215D\330\273\251|\003\275}\003\353\275\030\373 >\215\261?<\006!+>7\"\377=\271\244\231\275T\213\257\275\204G\016>nn\010\276s\352\222=\r\005\241:\352\000\">\220\206#>k\314\002\276e\3701\275 \017\010>\243\351\205\275]\316\024\275-\227\334\273)\021\r>\262\333\">\211\303>\275\264\032;>u\270\242\274\031\247\233\275\344\360\026>\2432\317\275}\034\022=\'\244\350\275I#\'=\335\357\317\274O\207\253=\255m\006\276:\362.>\261\277c\275\3018\366\275O\242\267=\007\356\232=\267$\267=\0257\034=\365=\201\274\365t\273<\375\014\314\274\370\372\344\275\303\000\225=U\020?=\265\027\202=q\260,\276\224>\202\276K{\213\276\017\022\306\275c\020\213=v@\023\275k\311\211<\300s6\276G\030S>h9E\276\321\214*\2766\327\310\275G\316\226=/\204\220>O\310\325=\321\'e\275g\301\263=\205\272\264<\017\276\360=k\271\345\275\r|\030\273)\270+\276\304\317\241\276\035\343\261=\257\223E=D\302]\276\267%\221=x\322\250\273\r\031l\275\301\332\010\275\222\3302\276\357\244$\276g\314\331=\367\235\303;\223Am\276\363j}\276RT1>\3324Z\274/v\247=\330\020\251=z\014\272\2759\"\207=\231\215\234\276t\260Y\276\301\350+>\r\004\315\273\304\340\016\276m\275l\274\262\230\211\276\367\375%\276\243\016\212\276a\322.\275\001\027\305\274!75>D\227\272\275\327\014\033\276v\227\340\275\243*\265\275\006x\217\276\251\270\007\276\177a\222\275[\271\204>h\216\203\275U\242#=\367\001\342=\377\353~\276\231>\023\273\006\265\\\276Q\310\233<\347\370`\275\024t-\276.\004M\276\033\017\275=\315\220\361\274Q3\237<\267\360N\276\215\025u<\343p\251\275\243\223\365=\245\t\346\274\305\371q=\315[?\273\177\274\"\276!w\367\275\344\326 >E\215\t\276\r\325Q\273\354\204\366\275\365\367\010\275\362\241\013>:r\017>^\003\277\275\227=\277=lz\257\275cQ\325\275\277\372\210\275=\272\245\274M\345\036\273\320\253\003>\010\024\361\275\\\261\224\276\306\010\214=\203\271\336=\236\313I>Y\215\177\276\270\301\234\276V][>K\250\270\275M\274\023\275\355\035\200;^\'\266\275\335\006T>\017\013\035=[\345\234=\177\252\333=\010\224%>\277F\245\275\364T\014>xW\210\275G\224\t\276G\326\277=\207\224\230=\245\305\210=\020\275\243\275n\323\023>\325\370p\275\014\330/>\272C\014>\345wO=:\337\016>\265\344\332<TJv=\260\207\343;=8A=\375\004_\276\222\237\033>\033\3129>9<\'\275\210v\'>&\344\000>\274\261&\276\304\024\356;@\006\303=Ze\327\275u\327\372\275U\367\267<7~\364\275\313\315\352=\r\311\251\274\234\253\342\275%|\323\274\335\236\227<\206-+>\214g.\276\236O\214\276\014R\247\275\326C\275\275\010L+>\250F\370;\025\266\305\274\215;\262<\315\342q\274ys\n\274\357\223\360=\031\333 ={\375\245=\376\326\n>!b?>\204\253\305\273\0067\035>\367\312/\276\265\220\213\2751\247\202\274m\r\257;8\t \276\360d\023>\260\365\334\275\323I\232=C\314\325=\371\273\036\276\323f$\276o\237\277=\355-6=\363\270\373=\025\004\204\274e\213\227=\231($\276\225z\217\274\222\301%\276;H\003>\3439\332=\n\243\">\036\345\004>\rS\340\274\235P{<\352\260\r\276J\257[\275\r\254\220\274\r^l8Vx\275\275\257\250\254=s\311\334\275s\302\332=\254\023\335\275u\261$=W\215\025\276-\\S\274\223\326\365=yg\002=\215\201C<\356?\325\275\001\310$\275\001\355g=/\017\222=\313\021\336=\355\210\021=>\336\220\275\376Q\035\276\373ao\275k}\307=/\032\344=}\204-=\273[\310\275}\033\377<\365V\354\274\264\307\235\275\315\016\256<k\317\312=\241\032\201<\022\265\217>\r\254\r<\351\0205=_\216\027\276!n\026\275m\311\266\275\250m\031>\345\n9=\017\204\r\2769\344P\275}\035\222<\301\302d\275\035\222\276<z!*>Kk\310=q\006\035\275\253\007\260\2757\263\340=\257_\257=\315<:\275c\345\365=!\364b=y6\'\275\211\013+\275_P\267=\273\245\321=\321\227\001\275\351^\236\275\262=\014\276\003\006z\276p\273\226\276C{\'>\3262\246\276\017\242\260\274\232\330W\276\004\265\316=\231\206\331\274?\303\204<\343U\244=\215\302\353\2739\345\213>ayz>\2146\n\276}:d\274\333\347\340\275\256B\365\275\340\272\232\276P\275\027>\203\274\'\276\346\231\215\276\326\241,>\203S3>\217\333\034\275/\201s>\373\273\036\276\215\244\025\276\357\347\020\276+\3772\275\276\246\200\2762\203\032>h\034Z>,^\246\275\3478\231\276\016R\207>>\334\245\275\337\351\245=a\363}>\326 x\274\211\334\221=f\331X\276\200ko\275\232-O>\252\316\235\275$ \333\275.j)>+\370\003\276\2467\017>\313\361\235\276\351\220\355\271\207\231\211>\320\241\215>\213<\304=\241\0013<\354!\036\276bV\236\270\265:\241\276\317\326\342=\202\362\211\275\313\005o>b\316\002>\245[-=H1>>2\331\201\276}\331\212\276\375\243\027\276\221;\317<\226\337\221\276\n\370\013\274e\357\336\275\r\036\265<z\216x;\032\333\266\275\264\310\221\276ng\302\275O7\233=\261p\025\276\2358\246=f\325\277\275\302d)>\304\354\030>\242G/>\005\255\206\274\265\017I\275\205\260\230<\323<\220\275\364\026\230\275\2434\377=\r\0078\273\023L\371=\355\233\211\2735n\242<\203i\332=\361\232-=G\311\241=\300#\034>\371\265v\274\244\337\033\276\361U=\275)\374\250=I\341\304\275\233lE>\364\222?\276\335\377\260\275\355\367\236<|\213 >E 3=\355{\276\274\326\313\270\275\224\2466<\3017\230>\002\261\025>\0250\037\276kB\272=\3503\006>_a\224=\365\352\275\275\244(\017>\245\037+=\352\034\035\276ME\255\273(\356\002>\257FV\275\316\330\340\275\275<\333\274\217\241\352=\363\276\345\275\364\277/\276\032\270~\276\206\263u\276\330\374\220>\212y\030\2768\211\246\276-\322>\276\253\223\222>\206\246\332\274\372Po\276[\373\243=\215\014\020\276\021\313\270=\017{\353\273;\034\330<Zg\026\276\375\007\031\276\033T\275=\\\010\006\276\037\365\301\275\017\222\000\276\360\364s\276\204\365u>\316\232\'\2736h\366\275\345\231\261<v\247*\276M\035%\276\005\257D=;\030\222\276W\265\202\274\267_\227=\315\242\364<\340\257$\276\240\200/\274\336\322\223\276\345u\224\274pR\234\275\351\242.>\031\235\241\275\333\217\304\275o{b\276Z\305\"\276\2277f>e\350\002=\250\\\312\275#\262\246=q\370\221\274\215\354\336\274\005\274\356\274wc5\275\276L\215>\330\007\227=;&\315=Xw\212\275\370+\203\275\357m\r\275t\r\"\276X9%\276\031\201\262<\347^<=s-\333\275\265u\257\2746\217+>C/\244\273I\2443\275K\3160\276\3759\312=0\236d\276\330Pm\276\327\014\026\276\314#\014>|7f\276\340}-\276\351\027P\276\331l\355\274A\231T\275+\307\237=\343\272P>-\267\272\274Is\242\275E\032\253\274?\243\005\276mY4=\316\204\033>M\014};\231\312\036\275\255\321\r\276\255\250\277\275\027~\356\275Y\215\014\275\362d(>\r5\002\275\211\313\222=\255\033S=\323g\312=\276\264\307\275\340J~=\272\202V\276\317\246\230>wi<=\n\260\020\276\023\027L>\375\025E\276\325\034\306;G7\215>!\366\224=\361\207\206=\260\\\224\275\275\027\014\276\325\310Y=e\276F>I\251<={\003\354=\235\n!<\225\230\346\275\277\367\026\276\205\262\225\274T\'&\276\221\016\352\275\255\211\317;;\360\271=\203\014\335\275U,\323<?\341!\276\242\0363\276.w\006>\351\377\032\275\253\363\377\274E\236\n\276\255s\317\274P,B>\323\264\325\275\202\247&\275~j\311\275\200\307\200=k\272\236\2765\332\005<\214\213\007\276 \237\253\275j\347\251\275p\333\324\275\217u\232\276\345\205\214=\340\2374>\215)\204\275z\tE\276\2512\344\275\255W\253<5\216O\276\326\213\037>\037\030<>\250\264n>\225=\322\275:C}\276\262E\240\276\233J!\275\364<\023\276`\356+\276\234s\016>\207\214h>\305L\211\276\374U\214\273\322\320-=\226]<\276\013\305\316=s$\221\276G\321a=\316>\331\275\353\365:\276-\225\'<;\205\271\274[f\206=\026\n\237\275\273i\307=\230\230\206\276\245\2641=\222f\213\275\301%~\276 ~\270\275\333\263\314=f\265\007\276\014@\n\276\326\330\217\276\364u\204>\373?\004\276C\031\374=\210x\355\275\201\275\345\274EO==\313\371\302=\3317t=\247\251\231\275\212\205\177\276\237\303C\275\236\260s=\375\036\312\275QE\355<\006\327\006\276\337\242\241=[2\261=z\360\242\276\251\203\241\276\272\252\361\275M\230?\274\305*\r\275\341\266\271\273j\001\033\276YWV=\213\013\341\2757\317\354=\251\333>=\323\377\263=-;8\275\224I\034\2769C]\275!\035\026\275\265\305\271<Q\200\212\275\300g\032>\033\216\271= \357\014>\207Z\017\276]U\306\274k-*\276Z\371u;\0359\024\275\271\006S=F\246\204\276qjc=\230\003\026>#\231\002>\035\002 \276\321\270c>\344X\306\275\217[\277\275?\242\303\275\276`\027\276C\304\256=\007b\005\276}A\242\2748\000\343\275\365\3154\276}\301\362\275\215\337=\274uW\203<Q/\366\275\334&\272\275e(\216\2755W\360<q\331>=P\351\037\276a\205g=E\354\261<\250\320\032\276\3410P\275\250[!>\304\223\016>q\205Q\275\001zG=\357\372\265=\024\205\256\275\332u4>m\257%<s[\344=\337\302\360=\345\210N\275\004\234\023>\215e\305\273\246~\017>M\252\217<\345\221\360<\004\350\004>w\\\360=\t\317<=]\271\227<-*1\274KT`\2751\332\356\275\204\210\016>%z\026\276\037V\214=~\371\327\275\342}(>\034\346\224\275\215p\r=\266\016\'>\315\365R=`q&\276=\357\363<f3.>7\024\"\276\035\252U=\215\230\230\274\001\244t=C\275\274=\325\304%\276f^\037\276\333\273\315=$j\267\275$6\003>\rg\203;V\261(\276\035(\306\274\257\343\234=;\022\347=8\177\232\275lb\237\275\272\030-> C\244\275\276R\334\275V\232$>A\025\312\275\371-\235\275/\210\237\2757\353#\276{`1\276\251\266\031=\373\314\226=O$n\275W\263\305\275Uj\026\275>\260$>\r\232\364:\271Y\036\275\274\016\217\275\035\2244\275E\265B=\233U\177\275o\330\224\275\315\346\261<\237\272\265=y\245C=ae\206=\214\025.>\273~\304\275\347\225\202=\315(%;}\227(<?\243\260=\023c\301=\023\270\236\275M\'|\273\177\235\241=>e\007>1V!\275\367i\300=\r\363\n:ES\353<M\241>\274\3339\361=gP\317\275>k\267\275\\\r\001\276\245\335\220\275\215\027\307:k\353\364\275M\240u\273\323O\341=\211\320/\275\214\257\027\276K\276\255\275/\313\301=s\212\203=G\223\367\275?N\226=\034\351\320\275\201H\373\275I?\212\275\265\347\013=1\3637=\023t\254=O\263\026\276\277\244\255=\311\303|=x\206\017>3k\307=\r\353\336:\255\232\333\273\264f\036>\377\265\211\275\251\354P\275\027\321\232=\307g\330\275\234\321D\276FE\005\276\331\263\333\274\265)\r>V]\020\276\261m\253=\35106\276_\260\233\273\004\306\354\275:6\310:iNu=\371\206|=\001\332\225\275\256\263\242>\3648\030\276\347\331\242=}!0\276X/\340\275\201\031>\275\225\245\r\275\345\224\344<\275\330\214\276!\342\247=>,\336=\303\331n\276\304\376\213>\270\325\271\275\233\216g\276\303\022P\276n\273g\276\024\360\276\275\270\202\255\275j\272b>\230O>\276\316\372\036\276AyI>!\007[<w\303|\275A\254\225>8\202+\276\362}\022\276>\001\364\275X\305\227\276\217\274}>\304%\346\275\210I\233\275\375\002\311\274\030w-\276\221=\026\275i\354\355\274\261\307\035\276\341\372\351=\321\321\306\274\177/\n\276\324\'x\276\345\2346\275\'l\353\275\345\231\345\274\rP\262\271\333\"\013\276E\202\203>|q\r\2762\333\354\275\341R\267=K\343\272\275\303\376w\275\320TZ\276\033\003\233>W\200\265<\035\324C\272k\014\030\276\\\272\030\276P\272:\276\347w\206\276(\2534\276\225\"]\275l\354+>\355Gw\274\177\334\017>\236L\263\275\241\201\372\275U\242+=\303\016b\275\313\334\335=-zz<\305\326\351\274\341(.\276\355-\034\274\365\374\371\274\261\336\244\275\r\370u<\033x\002\276\300o\341\275\364\303\002\276\373.j\275\361\245R=\325s\031\276g\263%>\317\240j;P\350\226>\211\327\305=MDV\275J\244W>\221lh\276\205\331R\276\343\336\304\274>n\033>\272:\272\275O\271\265=(ls\276v\313\275=\315\376\315<\210\330\315\275\264[\342\275[`\307=\t\217V\275\235kP=[%\331=\325\344\210\274\025\236\260<\353\273\362\275\335\255\342\274\361\342\263\275e3\307<Y\264\016\276\215c\022={g2\276/2\212=Z\0066\276\257\337@\276y\246\022\275G\367g>\251,\222\276M\362\006>Q\253v\276\265\240\016>\032\005\323:$\201\223\276\261w\'\276\320\n\200\275\023 \000=\376\374\311=oY\177\275\355KM\275\355\371\223\274\224P\'\276,\001D\276\333\377\323\275\3610\014\275\220_b\276 \257\372=%\345}>\346j5\274\270\343\010>+B<\275\033\307_\276{\363\301\275\202c\013\276P,\006\274\025\357\354\275\337\020e>D\203\355\275\371\247\004\276\215\017X>\222\236\014\276\355\350\376\274Ut&\275\357\000(=\375K,\276\242NS\276\325\217i\276\321\312q>\035K\215\275\215H$\276\225\030\276<mm\215\276\307-\203\275w\274\245\276E`\223\276atf>\033H\000>\202h\235\275\177nf\275\n\363\020\276\371\305O\274\201\000\235\276\305\177\222<\215W\017\276B~\223=W\2502\276\316\254\242\275=\206\031\276\023\301\307\275U_\212\276\242Ko\274}\r]>2\217\020\276\252K\370\275\315\006\301\275\266V\264\275Y\346\024\275\253\303\032\276\003L\327<\255a\221<4\010\036\276B\242*\276\007\367\276\274\260\004\346\275Mkj=\002D\251\275,\242\247\275e4\205\275\371X\026=\005@4\275L\372\026>\n\003\272\275?\276\371=4\260\022>\343\214\244=]e3\2763\023\311=mC\213\273\242\266(>\250\220%>Y,\305\275\271\325\014>\246\3745\276\267\020\203\274Z\027L>\217J\216=\232\2603<|k\214\275A)\204\276r0X=\364P\'\276\331\3622\276\000e\004>A\2503<\232\224\210=\003\230!>\253\217\251=S\342\356=\377\212\377=\222\0141>\215\314\r\274\nA(>\355\234d=\035\341\250\274En\221=\235\336\252\275\334:\'\276}\330\036<\367P\367\275\261\264\300\275\360\305\234\275\370k#>\253\376\222\276@Q2\276,(\305\275k\274 >F\215\007\276P\375\\\276\t}\240\275\032|\325=\331[\202\276\233\253Q\276\026\333\021>\310\034\024>/aO=\315\244\235<\357\031m\276\032m\330\275\353e\034\276\330\2772>G\035\213\276CN\311=R\272\316\275\206O\342\275\316\234\325\275\265|\'>\307\0320\275\233\203y>!\234\007\275\221\334\255\275\002\026,>\216!x\276\224 \267\275\003\270\023\276c2!=\277\273R\276\362\306\036>\272\261 \276v\362O\274\307\345\271=4\270`>\023p/\276\237\250\362=\317P\276\2744\031\241\276\'[,>\301\362\364\275\260\332\343\273\315\004\250;\2309[\276sj\204=s\275\016\276|\222\300\275\257p\235>\010\202\201>-\013`<\301\273n\276_\266\230;\212\306\343\275\271h\236<I\237\021\2759\'y</\335\n>\265$\200\274Y\222\275\275T\247]>\206\303$\276\333\007d\275\363h|\275Cl\023=,UG\276\375bU\276\3131\254;(\232\021>\272\033&>\357<\320\275S\223\304\275A\310\257\274Q\234\031=\214\236\035\276q\323V>\010\371\035>w\224\350=\201`^=\007\264Y\275\223\356\312=\357R\254=O\367\236=\224\371\005\276\303\320\251=\327\262\002\276\317\017\376=\335\305\272<\r&{::^*>]\027\247<c\376\"\276o?\230\275\0308!>H\024}=\0178I\275\r\314\261=\2619\216>\273\005,\276\3421I>\245\306\323\275q\013G\275\023\377\234>\333c\243=\215\201\271\274\323\211\356=\025\271\255<\332\210\013>#\275\244;_\301\306=\rC\315<\337\274\320=\225%\374\275\ro!\272\261Q\037=\215\326\203\274\275\000\272<{\216\275=\035\221\371<g,\242=<\340\013\276\263\263 \276\237\341\366=\205\332Y\275\377:\350=$\013\036>\353\300u\275E\266`\275\355\177\003\275-\353$=\220\266\016\276\315\370$;\020\023A>u{\032=\322D2\276\275m\255<\216\376\017\276\301\255\312=\315N\212\275J\367\311\275\224\320\304\275\000\333\">\304\221)\276)\r\210=@\305\020>*s\032>4c\000\276\355\262*=QbT=G\327\006\276lI\317=u\200\275<[\375\374=\333n\243=\224?\t\276\371]\230\275\376<\226\275\005;\232\275[\315$\276\203\321\356=R\343?\275r\334\023>\177M\005\276\210\233,>m\243O\276\364\005(>\275\352\302<\321\177\t\276\313\371\245;\223\000\300=\245\201\266\274\373n\365=\r\"j<[\370\253=-&\273;\265\201\303<\275\303Z\275g\'n\275\325F/=\321F!\275\017G\302\275\225\341}\275\355B\306\273\17712\276\364\265/>\'\307\031\276\247\253\311\275\tu!=H\247\220\275\377\267\301=\331a\033\275-5\305\273\275l\313;\325\354J\275\020\374\004>\r\332e\2736\234\017>h\376\010>W\313\311=\252\206\205\2759\331u\275\260\334\005\276gg\334=sV\211\275],:=)\357\\=t\352\t>\333:\355=\353\333\315=\001@\024=]\021&<\315wl\275_`\336=\334\362\024\276\'\036)\276;\357\356\275\355D\323\274\307\004\311=\261_\014\276\361M\026\276\241\200\377\275{X\235=a\023\377=\014\207%\276\004x:\276m\305\200\274M\"\036\275]\261a=\311z\247<\301^\336\275i\372\314\275=\033)\276\355-B<Gy\204=\337\221\377=\251A\004\276\034\264\007>\367\205\307=\233\231\242=TS\014>\355@\246\274\374\363)>j\025#\276:\0174>\323s\262=\232\205\325\275C\t+\276\357m\332\275m`\213\275\375\016/<(f)>\020S\332\275c\034\303=\032^;\276\331X\211\276\003AX\276\243>\021\275\273\022d\275\021\032M>m\374\236\276]\253\214=\234kn\276\000^\244\276\350\365\307\275\037\310\365=p\375Z\276\343\232\r>\274\277\240\2761f\001\2765\010\354\274\357\237\360=SJU\275n\316\305\275\303\027\006\276\351;\232\276%\177\370<\324\335]>K\323\214\276\006\332\005>\002\225\221\276\322\271h\276\231\276H=\277\260\026>,\252\251\275\023\000\221=\255\027\312=1\327\302\275\371\344>;\342\244\021>\235L\217\275\035\271\361<:e\251\275i\036\374<\r\024\360\274$\334A\276\"\'\230\276\3053a>\210\"\005>\277\335\276<~\027\'\276\325/\223\276)\3233=`\200\347\275\311\244]\276\001\377\"<\340\366+>\263Q\235=)\377\346\275 ^\347\275TO\306;\207\352\334<S&q\275\260\357\342\273>]\010\276NS\354\275\355\004,\276\354\022\2578\"\246\260\275\341\252\256\275\333cD\276\233\200_=iBY\276\226\006\262\275(~N\276\210R\027\276\343\034\245<\034]\333\273\"\222\034\276x\347J\276\2467\351\275\335\321\244\274\251\001\r=\272R\034\276\363\242\017\276\025\255}=C\263\006\276#\002\276=\255\325\341\274A\344\313\275]\202(=\264\252\020>i\206$=\317\321\313=\361\007\'=c\271\016\276\303\001\315=\025\274\032\276$7\031>\030\260\036>\361\202?\275\354Q\n\276u\215\205\276\335\316\235=\370<X\276\263H\243=\201\273Z\274k\214\213\274\203*\247\275\014\330\313=\355\301u<\245\225\352\275\250\345\022\276\231G\210\276>y\027>@\3533>\215R\255:\261\365\n=h5\202\275\346\340\234\2751\030\240\275\232\027\367\275\013P\302=\313I\016\276\006\313.>s\0264\276\315|8=G\214\256=\335\240\227\275\266\313\250\275)\345S\275\t\241\020\276\250\223\244\275\250$\010\276\n\232\213\275%\r{>|C\211\276\301\374)\276\t7.\276O\327\353\273\036`\321\275\214Xm\276\003\027\262\275]\316\022\275pt_>\264\377\\=\225\377\210\275\' \373=\370\253\004>\335\\3\275\350\272\333\275\326?\250\275\005\201\367\274&\355~\276\217D\337=\262\202(>\026:>\276\003\376\246=mb\207\276EK0<u\346\017\276_\374\333\275\240\226\010\276\323n\372=\212A\304:\003,\203\276\243\326\322\275\203\336#\276e\213\016\275\377\251\016\276\211Lh>\327\257\303;#4\364=\262\033s\275\027N\322<W77=y\025\271\275\t\3129\276\377h\362=\241@\274<x\2353\276^\331\214\276\326\271O\276\365\255\032\274\276b\224>\311\357d=\033\326\245<A\007\214<\364\264\022\276\214N\032\276E\263\n\275\266\316\001\276\010\347\200>\345\265\033\275\275ci=H\237\016>\177\324\347\275M\247N<[\252O\2756\025\005>\241\316\265\275\177iQ\275\372\370*\276\275\246z<O\360\207\2763x\346\275\221\030h\276\273\377^\275\231\375\017=-\003\211\273`\303x>\3558\327\273\317\235\032\276\235x\031\274\005\227\027\276\335.\037\275\235L8<Ym>\275\316m\032>\377\353\035\276\0310h=$V >8\275\n>UO\325\275\235C\026=9<\000\275\205W1\276\224\3103>7\245\261=T\340\221>+\3773\276\323\275\216>\025i1\274\010m\020>\231{?\274\020q%>6\003K\276I\357/>\2470\266=\266\2620>\271uO=\205%2\276BT\377=\225\377\206>\235\354\314<V\363+\276_\245\301\275\240\326*>uv`=\230}\017>\377\341\277\275qe^=\355\337\006\275\245\205\334\274i\360O\275\356\004\367\275\021\346\220=\266\304\003\2760\033 >y\253\212\275\216s%;\206\252\216\274\267zv\276\3454\226>/C\"\276\236\332\244\276\365m.<\332\200#>\313)6\276\230\251$\276mc\204\273\214\375\"\276 ]G>\034\360\204>\370\r$\276\201\340o\275\273\363\305=q-\262\275\0078=\276\034\305\253\275\245\227\346<\224\020h\275!\251\"=\375\237\321<EW\'\276\211\265\374<.S\026\274\201\245\262<Y\375T=\352\004\354\274\236\373g>\347\212\254=\223\275K>\2534\237\276\363\321\334\274e\301\234\275U\3640\275?*\337=lX\253=\272\324%\276\026\020\233\2755\032\277\274\342l\211\276\253T\260\273\\\3103\276\367:\353\275,\002\023\276\020\013\037\276\022y\002>\201;\327\275V\240\245\276%\323,>\207Q\240=\207\220\220=8\373\237\276\261U\233\276\325T\325<\260@\214\276\375\003\024=\352K~\276\355<Q>\361\3412\276^\340\030\276\3318\221=\315\214-\276[Hc\276\010\361\235\276\257\323\226>\360\3210\276\003G\232\276\234\374\312\2759\014\201\275y\017\216\276\331\372B\2753\377^\275s\223\336\275\375\341\222\274%O2\275\337\226\240\2743\2201\276\201\225\"\276Y\223r=N.\001>\027\220\207\275\r\315\213\272\352\341\327\275\321\274&\276\027@\300=\204\247\">\255{\206\275m\363\006\275}PC\2755%\302<T;#>T%\000>\006D\235\275C\211\353=\256\274\243>\207\256a\275\207\222,=\315\347\035=\255\033Q\274\314\247\323=N\024\000\276\224d9\274\001y\234>)@\r=\214[\250\275\273K\334=&\270\013\276$\263\221>C\010\315\274O\026\207=\025\247<=W\016\233\275\r\021;:\177\031\353=\263\267\005\276\303\273\233=\321\357\343\275\265\353`=i\3700=\000c\021>\212R\263\275\261#?=H\200\027\276\254\245\002\276\033\273\006\276w<\372\275\267\357!\275\365\252A\275\223}5>\037\331!\276<R\307\275\342}\206\272\322\250u=\207\345\244\276\262>\311\275u\236\317<\240\002\001>P\301U<\031\345P\274\231tc<\200#4\276\r\305J<\r\033\301\273\325}\326\274w\305\356\275Z\327->\013\276\246\276\315\033\203<J\370\253=\244%D\274\007\311\205>\013\212P\275r\020\t\276hh\254\275\035\305\216>\242\313\004\276\265\275\247\275\233\355\216>\247\363\031\276\206\215->A\342\263\273\252\316\365\274)\024\372\275\333\274\222>\201\330\307\274@\216\307\275]\346\261<\347sW\275\256\312\031\276\245\365\354\275a\371\213<7~\r\276\025\324q\275\017t\300=\302\r\000\276\344@\314\275\223\225\241>t\326\227>\253\033\357=\246\375\240\276\"\304\231\276\317\264z\276\251$6\275\377\r\315=T^h\276\234\265\256=M\020\220\274}\004)\276<K\206\276\340\324Z\276\266F\264\275\257s\214\276\007+\317=\261=2\276\265\345?=\335$Y\275:#\t>\355o\257\275%X\217\276h\310.\276\3510\355\274\313\371\247=;\223\206=V\024\"\276\003\035\357\275/|\213=\275]\220\274\334\026\035\276r\350\034\276\373\354\245\275\215\236\017<%L\263\274\023\335\354\275\r\2562\272\353\3120\276\232$\000\276\003\367\310==\037g=}\322\220=3\343\353=i@0\276\024\031\035>\356\333\020=\226\315{\276\367\204\301\275\363\212\314\274\r\347B\274p\214R>\304\376(\276\236\r\231>s\037J=,!\023>\307\005\230=u\270J\275\255\314M\276\301\313\223>\nF\234=\235\346\241\274N\3720\276\323%\026\276\364\2224>\231\306\000\275\363W\211=\363\321\247=\025i/\275\243\337\334=\200\010\003>S\004\007\276\277J\333==\005\030\274\272\r\023>}Q\256<\325t\375<\331\277\353\275>\235%>rX%>\252\320\342=\315\300\337;\305\3531\276\350,\325\275\202_\034\276\001\317U=?<\276=\rL~\273\205w\265\275\'\013\305<\32778>\370\035&>\'\3464\276E\255\252<m\315\203=\215\013\244\275r\007\004\276\032\027\303\275\365\3644\276ef\367<\363]\207\275n+\345\275\027-|=$\003)\276\203r\373\275x\334\211\2755\244<\275\036\324\252\275K\216\035\276\365`\345\275\303\376\274=e\t\224<\220\357\240=\241,\035\275\200\375\020>\375\264\360\274\177\007M\275\255G\345<\207\370\347=\026x4\276=<9\274\237\255\233=P]\004>\035g+=\345D\347\275%\261\n\275\370\363\360\275\223$\216=%u\215\274Gt\030\276!Z\217=\231x(\275\r:\216\272\020\325\362=\231\313\033=\371\347\242\275i\211\014\276\302\254\210\275\025\316\217\275\376=\266\275\317\324\222\274\205\\\027=\215Y\320;\222\2020\276K\256\031>l\305\362\275\265\272\206\2744\333\006>\323})\276\274\'-\276\t\322\222\275\233<\306=@u\253\275e\264\377<5\216\334\275K\242#\276\265\354\276<\323a\302=7\r\010\276#\002\251=M\314V<;m\235=\353\330\341=w\244\342=\246\247\002\276\315Rf=\337e\315=,\337\010>\r\207\355\273TY\016\276\032\"/>\330u\005>>\207\031\276\203\0321\276K\n\n>\035\370\017\276W\253\341\275\367\017\334=\320\315#\276gix\274\307\"\246\2759[\201=\275F\205=\235\025\361\274:\254\n>w\014\030\276eS\341\274\227H{\275\037\252\217=M\236\"\273\265\202\363\274P\3002>\322f3>l\353!>\311u\031\275n\034/>\322\210\030>\255e\365\273^\326/>\275x{<\201;\017\276\275\212\347<\235\3231=\364\344\036\276\235\354\366<\355\200\331<\026\001-\276W\275\262\275\317\312\263=m\006\223;\246\365\003>k\346\347=Z\032\004>\224\036\035>\233\362\326=\225\327\346\275\r\265\372\275bP\323\275\241\374\255\275\223\222\264=\377k\320\275\265\342\325<\343.\276=R\0211>\215\300q=-s\375\273\261\204/=\350\2551>\r\360\375;\331Rk=\235\347\\=*\346\031>\301H!\275\355ct<@\373\331\275{\n\305=\232\272\024>5\203\003\276\265\225\317<\265\375\321\274\370W\022>\035\030\314<\365~a\275\330\310%>\216\237!>\271\007\005=M\031\256<J\330\257\275\312\270\024\276\201=\032\275\223\254\353\275\006\025\210\275\363\261V\275\304^\003\276\377Z\305\275e\324R\275\213\376\246\275\320[4>6\273\020>:a\000>\235\003\006\276M\223\325\275A\033\256\275\r\326\220;\326!\221\275\322\037\311\275\264\\$>\334d\303\275\203\300\300\275M\017\\;\202\373\002>\331a\177=\374\235#\276]5\275\275\3465\003>EEp=\355\373-\274\361l_=}&\231<\315\213!\275\365\235\357<\215\223,;\221P8=)\024\314\275\247\244\263=-\037^\275N\023\207\275|\t\205\2753\323\330=c\326\320=i\263\002\275\303\260\313=\247K\'\276l\353\006\276=\244\007<\177\305\344=Q-\024\2754?$>5|\341\274\375 \330<[F\375=\262\306\311\275\027\364\330=\254\226\017>Fa/>\3409)\276+\034\203=\263#\334=\325\377\211\274\227\224\027\276\247P\326\275\277;\306=|z\001>N\"\307\275\317 \312\275\264\273\010>].\271<1M\352\275\350#$>\255\240j\274\221\377\255\275\205\356\321\275\337\370+\276\372\027)\276\274m\035>\350\000\010\276S\306\263=&(\031\276\307r\246=\321s\356\275x\247\013\276lo\035>\367\300\'\276cw\246<\370\273\t;\325\277M\276\361\376\274=\273C\260<\313\0245>F\353!\276\313\025s>%\3161\275\031(\217\275Y\265\031\276\337\r\227=\331\340\000\276\233\243\223=\206\336\320\274I\023\203=\\~\t>\340\013,\276\211\257d\275\rQ.;\323\025\272\275\010Ug\274\305\2643>U\266\241>X\233\212\275\034\336P>\034o\036\275\237\263\r\276\316\013\220\276\217\220];\256\022\226\275E\273\352\274\t\036\217>\265\245\270\274SV\177\276\325\033\354=\226\216\223\276\315)\346\274\317\177\202>\001\256\022\276\207\375\372\275\324b\236\275\230\351\266\275!y\201\274%\342/\2761\234\355\275\215XU<:;\310:\252\322\014\276@\277S\276\215\000\n\275\312u\026>n\001c<\037G\334=v:\021\276\363\360G\276\372\205;\276E\317/<UU \276\215\250N<eIy;\353\375\305\275\242\242\374\275\203\357<=\211\220R\276\033\255F\276\316\246\034\276\2766\237=1h\306<\037NB\2769B6\276\275}\036=\017l\273\275\264\210\205\275\326\207\252\275\270$\022\276\223\314\263=\003\330\307=\210\005\226>\2471\360=\177\271\210=\352\344\324\275\336u\024>\205q\332<\2348$>\327|\343=\275\037\265<\215~\241;#8\241\275\021\2364=\337\006\006\276\030\355)\276\317\325o\275\r\216y<6|)\276BH\237\275\006\272\307\275+\000 =\036\r,\276-\241\210>\003t\206>\372\002\005>\220l\213>a\010%\275\360c\261\275`q:>\311\261\230\275U\310\203<\377\004\346\275\002\226\037\275{\234|>\245\346\201>V\236\214\275\307\216\243=\232#\342\275\352],>\260\3463>m\244(\274E\224\200\274\346\374,\276\224\233\032>-!n\275e{\236\274\033qm\275{\351\363=\370\272/>p}\'>\345~[\275o1\377\275s\271\350=v\242\005>)\351\007\276]\324&\275M8\255;\0163\022>\373\220\216\275UIh=\374\307(>\325\271\364\274\315.\336\273\332\002\315\275\'K\260=7\322\030\276W\265\377=W)[\275T!\007\276\205e\220\274@\356\233\275h\277%>ET7=\245\005\004\276\036G\004\276\263\314\267=\005}|=\003\000\245=1\035N\275Y\234-=\253\306\261=\315\2032<\007\246\214=\202J\025\276\334k\253\275mlt<Tp\023>\357\032\346=\274i\025>@W\000>\321vs\275E]\002\276\333\366\240=\365\006\017\275-\324\246\274\023\221\310\275(\255+\276\243\321\347=I\033\007\276\207\227\021\2769\246\007\275\375P\341<3\201\226==\241\001\274\365\311\307\275\315\232\274;\250\206\005>F]\010>\371\037F=9\330\211=\233\201\304=\1777.\276,\'1>KD\265=e\021f\275Z\336)>B9 \276A\035==\276\213\342\275=7\027\276\r(\221\273\312h\304\275a\303\254\275I\005Q=m\330G<\317J\355\275\276\334\333\275\207q\001\276m@\310\274\026\001\352\275%\266c=\312\230\031\276\275f\324<\246\366\016>\003\302\267=\237fj\275\3158\347\273\010\341\030>w\216\036\276\256\200\025>w\344\325\275!\377(\276\342y\"\276\255\t\017<E\336\022=\373\211\341=o\274\344\275%X\203\274\275 \035=Y\037`\275]u\245<Xy&>a7\362\275\315\231\031\275d\000\r>\017\017\014\276\377Q\r\276\300g\211\275\375\357!=\275`\001\275\277\267\220=\260q\227\275_D\270=1I\t\276S[\332=\330C\007>\277\224d\275\275\2618\274\035\357\256<\235\356h=\355\372\300\273_D\352\275\275\267D=\021\033A=\275|P\274\225\303\020\276\365\2421=\034-\">MJ\221=b\352\244\276\350\232\245\276\326e\276\275/;\244=\207\350\237\276\211\352\201\276\225\2549\2761\002\225>\377\"\261\275\370\304\226\276\315\001\220\274J\027\010\276\273\336H\276\014\235\313=2\200<\276\273e\316=\325\272N\275\255\373\220\275n\326\215\276G\374\265\275\375\355?<=\231r>\347\000 \276\335\256\362=@\222\t\276\3261\003>$>?\276x\"3\276\211\371\002\275\253\206r\276\r\000\210\272=\202\263<\271\314\332\274Z\020\365=\241\203[\2755PY>0D\366\275\257~\377=\242\232]>\016I<\274\0374\244=\361\363P\275\327\037_\276I\254\366=\213\255\034\2768Q\007\273\014\016\032>\337\006\274\275`/\n>\264\334 \276X\337\346\275\325\210\000=S\315?>\307\323|\275\014Yt\274\207\264-\276e\262I\275\305\236\302<\264\014\004>\342In\274\313\332\214=qU\203=\301A\213\275/b\021>\242\315T\276V\\\234\275\337I0\275\202A\220=Z5\253\275;\220\034\276]e\243\276<\305\">\353K|\276\203\254\010\276Q.\231\276\203m\234\2769Cj=\210\2303>~\2060>\005NI\275\273~\324=\236q\t\276T>\034\276hA!>\226w\250\275?W\352=\315\207\240\273\0078\024\276)\306\010=\'\353\374\275{\340\260=\314\337\250\275=\177\004\275\345\231\004\275aL)\275;\273\243\275D\366/>SY\364=\007!<\276\221}=>|\304\374=\305:\250<^m\214>\315\223\254\273bhr\276\035\225K=Ld\004\276\370\315\315\275\360\026)>Y\206d<a\211x>\020Y\003>\r\036\302<3\374\310=\377\242\362=\231\376t=\361\236c\275\222\224\016\276\215\'\'\273\010\032\264\275\251\275\201=\t\375k\275\r&\017\272\212\203(\276\207\206\327=\260\2172\276)$1=Mz)\276\255\316\232;\250\232\035\276\314\235%>ug\227\275\244\033\233\275\355\267\220=\201r\013\275i\366D\275\027y\261=\2019`=Le\020>\310\033\005\276\357\000\326=-]\266\273\272\n.>\221t\r\276\036\201\t>\273\327\212=\243\324\254\275X\307\003>\207\2162\276\361\272\016\275D\0224>u\375M=\257\363\227=\0007\033>Kz\325=%\321h\275\327c\361=e\\\304<\202\366\'>\375\356:\275;\037Y\275s\332\216=\360q\036\276\205a\r\275\247\202\220=\250\236\031>5\203l\275\274\027\016\276\202\207\303\275\275j\004\276\230\000&\276\006\3563>5<S=>\224\203\275\013|\376\275\031\007a\275\330\250\260\275\255!\262\274\251\275\037\2769DG\275(\254\006>-C\261\274mnE\274o\025,\276\r\205q\274\221`Z=pe\035\276\377J\375=\255\321g\2747_\021\276\r>\216\273\277\246\310=\034K\001>X \">\375u\374\274\342V#>\025\364-=\315g[\273M\317P;\0253\305\274-\037\222<\226\343\007>\n\345\034>\025\215\n\275)\212\t\275\027\226\362=\330\310\232\275\007\241\372\275\316D\032\276OZ\364\275\325\276\250\274\335\035\010\275\225\210\373\274\241\276N\275\243\250\354\275h\336\336\275\337\321-\276a7\021\275\0138\366\2752\346\006\276\256f\021>3f\301=\323f\246\275\010\210\010>\035+\225<\250\340\244\275\267i\275=L]+\276\336\345\032>\264v\021>;\r1\276\304\316\007>\363\014\305\275=\0353\2763\232\232\275f\214\026>\225\371\331\274\217\300\263=}\014\232\274;k\227=\361\222|=\267\257\254\275M\344\264;\304E\236\275\311\235\272\275\274\003\037>}\030\177<\306\274\006>\375\344R<\227\037\263=\t\224f=b8!\276\357(\362=\031\230\253\275\300\356+>\236f\'>\373O\266\2753\326\227=\307A\034\276\005\017G\275\2331\234=\211\273F\275-@-\274\r\010e\274 \350\001>\025\325\254\275\212,\203\275U\013>=\355`.\276U&\375\275\242\2301>\335N\034=\261V\310\275\356F\353\275\332:\006>=\033b\274\255\r\n\275v\372\'\276}\353\204\274\3558\216<\031\211\200=\235?B\274-\030\376\274\315;\023\273\303;\232=\365\204\260\275%C\366\274\343\203\366=\232[\002>KI\332=\233\"\305=i\236\202\275U;\003\276\245\016A\275,\354\332\275\225\212\305\274uC\350\274\n\235\">\367\005\300=\311\242\027\276\203\306\372=\321\2049=\240\260\016>\n\310\271\275w\324\346\275\353\300\014\276\335V\301\275\327\254\017\2769o\r\276\235K\233\275s\271\376\275M{\204<u-x=S\334\312=w\344\353=\r\306\210<\312\304\003\276%\237\315\275\030\230!>M\263\340;\273\327\274=\354\351!\276\204\333%\276\257Lr\275\031g_\275p^\022>\236\244\312\275\"\244\244\275\327I\256=\234\245\035>,\0322\276\316\363&\276\376@\003\276\324A)>\346\275\227\275kw\245=4\257)>m\321\236;m5|\275\317>(\276\317\016\376=%\360\001\276\232x\006>\035\202\261\274\016\036\003\276-\356\246\274\213~\375=\315\336\267\273m\021\352\273\016e\003\276\r\314F;\204~\277\275t\216\030>ET\272<T\363\013\276\021\223L\275\0357j=J\030\346\275ak\320\275\373a\336\2755\027$\276\225\313*=-dK\274\340H\000>\0054\255<\201\025N\275 \203\022\276}~&\275t\365\202\275p\225\036\276u,\302\274\305\177\260<\230\372\033>\311I/\275\255\331\217\275\'\214\316=\335\206j<\250\275\343\275o+\220\275\266\220\014>\260U1\276\023>\227=\240\325\n>\245z0=7;\354\275\366\356%>m\\0<s\207\206\275\325\000\243\274\005$@\275+J\307=\205\236\345=\033\327\204=o\351o\275\323\004\r\276\235\344=\275\243pB=\020^\263=s\224\352=\230\371\032>\204\255\000>\223\205\312=\233S\231=\005\232\347\274\037&\247=\270\035\037\276\313\\\330=\2459\232\274\ra\241:\333\035\255\275 U\003>$\232-\276\252f\332\275J\224\322\275\347\335\232=\275\327f<\2719\334\275t\004\334\275=\266<\274Q\241\240<\021\016A\275\325\246\260<\2411\212=\323\016\203=\215\345u=\211@K\275@r*\276\3337+=\333\230\313\275\363A\307\275]\311b\274\215\337,\275>\202\226\275\332!0\276\205D\353<\251\2065\275{f\332=E\215\010=J\263\023>Jj\016\276\335\177&=Y\302\000=\353\364\337=\370\300\"\276U\305\005=]51=\220\376\034\276K\305\r\276q\204\025\275L\216\255\275\322\301\221\275E\313\217<=\3009\274\r&=;\215V\264\272p\316(\276g\257\337=3\264\275\275?g\277=\353\210\024\276=\033\201<\025\333`=\3271\266\275-\207^<\301gy=Mz\362\2731\264!\276SW\344=g(\004\276\363|\345=kF\021\276\346\224*\276\301\276\375\275R\001\333\275\321\211!\275\204\310\010>\031rT\275\350\014\212\275\327\003\332=\215\212 ;oA\242=?\246\234\274\375\036\277\275\315\373\033=\226\266\227\275\311/\272\275\221V\321\274\214K\001>T\t$>\230t$>\271\027\\\275\324\037\013>\353\217\216=\3313r\275\201@L=\310\3573\276+\210\247=\321\366\272\275l\342\323\275\203\214\326\275m\204f=\373\345\021\276&M\004>%\311\277\274\231\220\224=c\343\375=\010g\001>M,\\\273\273\300\300=\211\234W=\321\201}=\005\267\206<\271\317\201\275\0043\233\276\235\261\007\276\310&\032>\334\332\222\276=\'g>\202\325\260\275\021\237\342=e\027\t\27690\305\275\365\r\334<bN\026>;f\303=\307\340\347<\362\242\375\275\031|e=\re\330:\357c\371\275\001\253\234\276i\265\213=\337\267\240=\017\315\034\275G\276Q>\363vi>x\313@\274A\220(>\"\372A\2752/\204\276Q\364\235\274\304v3\2769\372Z\276\245\220\301\275F\"\337<\nY\033\276\031~\326\275\323\204&>\2532\222<}Y\223\275\255\242\035<\277\177\312=\325\0226\275kqP\275\312\025\020\2766\303\216=\3072\363=\211\245$\275<\366\021\276\237K\221\276\361u\204=\337\227t\275\255Q\206<\240\276*\276\202m\231>u\304\375\274\230$\n\276,6\\\276\263\035\022\276x\256#\276Y#\034</\234\201\276\2759O\276\225`N\275\255\370I<<\254j\276A\215)\276\332\303\235\276\3725\223\2767\214\313=\'\010\237\276\236%)\276\022\242\035\274\237\t\017\276-X\025\276hN\264\275\003\357#\276\036\335k\276\267\214\243\2756\272(>\236B\016<3\253\337=\344;\027>E(\246\274\315eb\274U>\307<\311\347v=\215Sm\273Y\236\013\275\315-\270\274\2152\311;\365\032\036=\307\233\333=~p \276\2325$>-\342\026\276\215\002\010=\365\250\016\275\000\260\206\275\027\226\234\273\365\356\214\276\202.V>\037\324{\276\017\345#\276\034w\237>0\310\366=n\341I\276\305\353\244\274\327\021\313=v7\271\275\005\353\346<\371W}\275QQ\234>;\024H>]CN\275\215\372\340\274\327\233\340=Q\363\t\276\373\262\233=u\004\375\275\355\341\001\275(\336\317\275=\003\224\275\217\274\305=\306\"\001\276\255\203=<\2555\216\275GI\253=\321\217]=\273\010\330=\"\274\031\276\215E3\273I\030\013\276\227N\210>\267\355\234\275=\323\344\275\272\023 >\366\334\023>y\037\014\275\345\226\207\275.\031\016\276\274\325\026>\272\3029>\000\003\021>A\347&\276%\017y=\001\226H\275\360\305->\305\366W=?\371\345=\345L\201<\rh\032\2729B)<\271\353L>\003\217&\276\335Y\\\275z\n\300\275\220\3240\276\306$\030\276\311\343c\275\246dq\273`61>LM9>\275>K=\261\022j=\2666G>`\372\005\276\223\330\'\276\270\226\222>\357\013F\275\205}\267\275\315\361}\275e\025e=\223x\223>\300\344\212\275~\3421>\2358\222\275\020F\003\276\325\000\324\274\203&0\276\3130\256;\203b\336\275\001>`=\302\020\200\2757~\333=\365.\345<\222?y\276o\367\347=_\023B\276\371\232\020\275\275\226M<\037t\222=\333n\265=\240\373+\2767\355\352=$\030\037\276\rN2;\0347\t\276\274\224\006\276\207_\003\276]<\322<\337\340\266\275!F\371\275\306\177\211>V\306\225>E\016\211<\275\"\270<=\310\213\275M\027\007\2765\352^\275H\300\007>\261A\037\275w\207\330\275\205gN\275s\245\344=C\302\242\275\342\256\003>\305\256\002=\271\232|\275%\211\352\274\317\317\302=\235r\251\274\243\375\331\275\342\333\312\275\3524\005\276E\200\'=\255[\035<N\373_=\337w\370\275c\254\233=\323\240\211<\202,\016>\203\360\n;\275\331~=\232\255,>\257\000\017>e\264\274\274\255\0067<\223Fl\275\023j\353\275r\353{>\003\201-\275\263\221\\\275x\232\027\276\315\031p<W\255\323=U\327\370\274\177b\354=\370\250-\276;\245\266=w92\2765j\340\274f\2513>\212|\260\275\030B\005>\255\353\373\274u\212\246<\203\265\304=\017\375k\276\371\245\276\274\253:Q\275rh\234=93\211\275\242\"\205\276\000\022\306\275\215\375\350=}\247\300\274{o\351\275\375\317+\274\377\313\227=?\305@>\237o\346=j\207\251\275\311\225\266\275\'\365\027\276M\\a;1\303r\276\217\267^\275\215t\246\273\273\346b\276\255\324H>\270Y\211>m1\220<\231S\225\274\267\312\202\276A\017G\275\276\360b\276\026\236\273\275\245\002\340\274\r\322\321\274\301\257\235>\362,\007\276\305\320\214\274\250\212\025\276Q\233\256\275x\3431>\321p\303<\031\242`\275h\314$\276k\272\005\276\205\324x\276\327\210l>\233\027\366\275\316\006f\274\013\355\351\275\366^\004\276%Z \275e\342\242<V\323\357\2750\312\017>\\\211\231=\324\200)\276\354X?\276\214\013B\276\\\013i\276\223 \020\275\017\'\261=>\022\212\2760(\223>\233\036\373=\235w7\275\377\036\334=\375\376\200\276s\006\013\276qW\371\275>\231\220>\317\223j;\365\276\355\274\323\314S\276\0231\365=\372\356Z\276\236\236\237\275\017\227\242\276\216T\213\276\217w\214=\367\341\333=\373\023}>\231g\001\275\211\207a=\340M\t>M|v=\273\t\334=0\355\202\275-\352\340\275m\240\346\275\263\331\305=eXK=\021\234\306\275\351\2630=\2057\212\274\273g\221=\"\301\335\275\372\320\242\275\017%\267=\016\241\005>\027\254\264=\177\312\227<Y\241\243>{\315\272=\001%\323\275\245\217\327=\001\254\370\275\301\\I<h\231\037>\216h\n>\006\274\n\276\220\352\270\275]\335\246\276\016\272Y>0H\207=\265\372\364\275\037\321\r\276\330\326\r>\002,\350\275\031a\026=e\033\240\275\341\323X\275\375U_<\335\265+\275\221\2415\275\275ks<\360\366\226\275\336\324\007>4\033\014\276\231\206q=\026\240)>\315Y-\276\013\310\377\275\313m\007\276Uaq>\312\351\207\276\247\251\022\275\014\364\022\2763\203A>\374\233(\276\r\275N\275V\3664>\"\\\266\275,Fm>\036B:>\367u\274;N\320\275\275]\226*<r\375\230\275\363\352\263\275Q\240\032=\365E\177=\300\255\276\273_r\234\273\004b\360;\\\332R\276\317\216\231;\375O\245\276\244\347B\276d\304\257\275}\330X\273\310\027\034\276\377F\322\275\340\242\216>P\004}\274}\033C\276~\203\274\275G\347\335\275\034\303\371\275\003\264l>a\304\332<\315\205\253\275\307\245\345<\317>\r\276\267\302\177>\016v\241\275\321\r\367<\001\274\177=\212\200\326\272\005\"\245\275\273\000\037\276}\362\023<\256\225\213>\004\3556>\306\224\265\275_1\010\276\330\230\007\2769Q#\276\361}Y\276\2422\r>1\241\332<\005\022\216>_\371\242\275]\2340\275\237AO>\036\005\340\275!\020p\276*<\354\275\272\254\246>\267\272\320\274\375\315R\276t\002\305\273}\"\032\276\030o\207\276\227\025\242\276\266\204\201\275\031z\346\275\275]\300<5\304\013\276\257HJ>&\341\332\275\245\313\233<\245\301B=\r\315\030=H\352\002\276\241[[=]\334\204\274\2223\333\275\241\271\207=s\215\221\275\351,\376\275P2\002\276\231\350\257\275i\261.=\330\272\251\275\3131\256\275\020\3662\276\355\253l<N\003\312=\024n^\274\250\276x>\273\227\244>\t\344\312\275\233\352t>\267^A\276Ma\260\275\337\300\237>M\035\n\276\313s\205\2751\3210\276[\355\031\276\027\273\275=c\354u>R\335\025\276\244#\004\276\rm\202;kH\r\276M\241\373\273\025\320\213\275-\013\007\276\216y\006>\r\202!\273^ \343\275\2558\323\273@:\205\275\362\233\017>\347\323\365=\337\320\344=\215\000@\273\265O\035=\267\310\r\276\224\246u\275\371\306p>!W\033\275\325\215@\276\314\225J\275\037\331\017=N\260+;\354H\205\276W\036\363=\240\2113\276P\202\204;\373\362\304\275\375\221\021\276\241\353\242\275\355\251\010\276\315\251\352\273\361\233\303\274\274\361\207\275\315\202\255\273\330s\217\276\353\024\034>IN\227=\245\rE>\277\355\216=E\375s\276F\331\r\276\344Jq\276\275\364\204\275T\266\032\275\330[\314\275Q\341\361=\255S\264\274\221\314\306<\263{\">i\363\226\276Wl\343\275\265QT\276\373v\217\275\360\031\261\275&^\036\276\202\257\243\2767d3=\255\r\200;\247\336K\276M\305Q\273\000\320\022\276\316\306\002\276\345[M\276\235.Y\276=\210\033\276\307J\231=\353\365\206\275\253\205(\275\343\240C\276\311q\032>F\220a\276\346\210\002\276=\240P\276\031g?\276o\022H\275\241\376\013\276y\027K\276\325\0245\276\211w.\275\361\367\316\275D\367\272<\013\235\317\2758\303\227\276G7q\276\205\263\313<\3111h\276N\272Z\276i*\212\276#\317\026;\210\304\014\276\313\237\314=BxH>\026\217\032>\262\343\036>oN\262\275=\035L=\334\036\035\276\241\327\t=mr\246\275\357i\331=]\201\010<\004\223\021>q\225F\275\264 \016>{\337\242=z\240\037>\343\257\243=k\365\000\276\357\260^\275M\026\311;*\0241\2767Y\231\276\223J\225=\031{t=\365\375}\275[z\013>\315u\027>\035j\021\276\375\023b;\024\346\226\275D\201\233\275\345H\223\275\020nA\276\271A\232>\351r\211\276\364\272\220\275\222\240+>\000s\000>zO\034\276\262P\037>w\342\340=\257\357\302=\306\326\262\275\315\310\211\273*\365\343\275\215he\274\276H2\276(\327(>QA\020=-w\354;\346M\026><\356\234\275\031\264!\276g]\332\275\021w&>D\351r\276\201aa\276\331\207\240\276\355\277\222>;S\037\275AC\347\274*]%>8\274\017>\373\302,>qcs>\337\362\312\275b\352\212\275\r\034\324\274\334\270\333\275\220 \375\275\255N4\274\215\221\017;\2437p\276\347\263O\276!\375\001>\221,\362\275\236\347\363=\242E\303\275\200\205a\274\r\245\311\272\304\2100\276/;\021\276H\373!>\204\017\234>\356\021\224:\351@\227\276\244\344\336\2751\\M\276\326\252\'\276\376\361\253<-\035\243\274\213+\322=\020M\010\276\202s\372\275\3730,>\377T\314=@&\006\274\242\331\037>\035\005\367\275\033w\007\276\223\003\014\276\265\032\\\276_\335d>T\227\364=~\320\021>\255|S\275\376\260\343\275\210F\223\276hn\322\273\030\365/>\354\316\033\276\014X\241=\001\215<\275\\\002\025>>bU>\241\371\224\276T\025\323\275\236\200\310\275\265\277\207=c\375\226\276\271\264\225\276_\010\226;!\256#=Z\330\227\276\263\201\303<\345u\306\275}f\241\276G\214\242\275M3.;]\r \2754\350\034>\355\206\006=\013a\024\276\031\3250\275Q\346x\275\033\031\257=\235\010\341<\361\033C\275G\241\361\275\365\0146=Ne\245\275\247\352\022\276\321\375h=P\334\003>Z\262\027>\204\032\037\276\257\032\262=\255j\334\274\355\205l>\032;\260\275FLw\276\'\324\244>\016\n\363\275\225\035\215>}p\014\2749\032e\275\3577\253\274\266d4>00*>\005\260d=2\3727\276g\\$=\217{\222>\335\340A\274\003\255\255\275S\261h\275w\026\013\276z\215\002>\371.(\275\n,\004>\025N-\275\275\325\000<\346r1>\023e\303=\033X\034\276\3259\361\274\233\224\367=\003\273/\276\033y\372=G\373\215\276A\327\273<\235\t_<p^\202>\177\337\213\276\314\021\364\275\2578\253<\200eX>q4\200<\367!?\275\215a>\275\205\237\351\274\272*\233=\261\277\232>{\3172\275\206\261\r>(J\035>\375\245\033\275\001\210\242\276&\356\025>\025P@=\305\036\200\276\306\204X\276\236fT>\211 \332\275\365\202\267<%\273\013\276j\315|\276\035>\212=i\211\242\276[\276\377=\264\351\335\275\203\263]>9P\030\276y\371\026=BYA>\260\'-\276U2\275<]\213b=\037w.\276e\324\362\274\373eR>\207\352\022\275\317\223\352\273\351\200\010=\250\230\234>B\224\341\275\016\014#;\320\276!>f\216\272\275\005Ll\275Q\241\001>\253\016\034=.f\034>X\370\377\275uw\250\274a\371\215\275o\227\344\275\316T\021>\306\343%\276\255\240\233>\345>>=\206\1771>\345\202d>\021\345e=\304=7\276\273\310\345\275\022\3516>\210\007;\276/\376\211\276\245\351\202\275\000\252\006>g\370~\275\2318N\276\007\337)\276U}g\275]\310y=}f\324\274K4\316\274\371\005\016\275\375\360\307\274\237\364\007\276\355}\246\274\220\364$>\373\337\335\275\0230\276\275\250\335\311\275\'\027\367=\315-[<t/\014>m\377\026<\235\342\334<M\317\332\274q\353\037=\321YC=\375\321\t<\r\335P\272zL2<\302\377\225\276\365\327k\276W8b>\017I\t\276\275\212\021=\017u\256=Nk\242\276\2445\354;\017\227\257=\255\177\324\273\375N\354\275c+\312\275\371\343A\273}\324_;\355\261$\274\310\365/>\23589\274\303O\252=\200\315\301\275\275\250\310<\226t1>\237 \237=;\273\264\275&!\005\276a5\030=\373\020\355=\215\350\202=1C\202=\317\3501\2765@\013=m\"\030=A\271q=6\010\245\275\335\316\227\274\331\t\030\275U#\217\274Ds\034>\177n\324\275}\364\207<\265\304\260<\361h-\276\342\370\003>\257\344\265=\235\266=\275\031|o\275\253B\352\275\r\270\337:}\350\024<MU\026=-A\000\275\234\026\030\276\tK5\275\002\371\023>\265J}=\317\273a\275\r\356p=%*\311<\302\316\031>\215o\320\273;\262\264=B\255\240\275\2331\275\275lh2>l\354-\276*\014\n\2764\3121\276\'\376\317=\3624\216\275\334\307\001>\315\342g=\353D\301\275\234\316\222\275\231)c=\215:\262\273^d1>\345\236`=y\335-\276)\363\004\275\240Z\215\275\343\217\351=\260n%\276\241m\r\275\245DP\275\201\277`=;\307\334=\276%\006>\227^\322=\205S+\276\203\237\313=O\"\251=1\326\263\275\363\005\362=M&\221=rz\r>A\226 =3K\222=\010\264\362\275\0218y=\215\220\264:=\256\035\275\031\241\004\276\351\020\035=\ty\\\275\203=\254=\341\261|\275\3413 =M\341\356;=\275-=/+\021\276!~8=\243\236\263=C\017\332=\265\r\256\274{e\241=\"\341\023>\363\267\314=\007\343\244=K\003\234=Wn\252\275eh!=\275\245\313\274\033\366\n\276\204\233\n>7\274\246=VW\006\276;\031t\275\252\177\324\275\304\0371>\215\020\363;F\335\306\275=\3222<\237\362_\275\037\353\354=m\301\254\273\274\352\034>E.\376\274C\353\234=\035\355z\275e;2\276\t\247\r=\321\341\221=\022\031\034>\2013\'\275\215\014\374\272\276\027\033>e\201\222\274\220\244\007\276\177F\300=\305\016j=\3571\255=<\215\272\275\213p\212=]\325i\274\215/\312:\025 \316\275\277\222\237\275\325\024A\275\255\251p\275]Qf<\022\235\000>M\265p\275\207z*\276\375l\004<]Q\026\276\315\322\366\274\231\"\306\275\337UU\275\304\210\236\275\007\\\265\275\257N\361=\3566\n>t\373\330\275m?.\275\330\377\005>s\207\252=\214\014\244\275\022\345\010>un\234\274\242\234\200\275\356%!>\337E\233=]\240\220<\360\021\032\276M\225*\274\337a\325\275-\261\222\273\037\327\320=\335\205L<\254\350\340\275\036\352\031>\275\347\016<\315\006\023\275*\223&>\004\307\376\275\361\001\301\275\276\331&\276\347j\004\276gf\201\275?\360\345\275\335\217\016\2761\022f\275\215\343\201;\335\177\355<\375\002\005\276y\t9=\350q0>\215Q\307\272\013\260k\275!/\206=\315\027\202;}\\T==\335\210<\372\261(\276QL\026\276\335:N\274\200\252(>]\216\222\274\367e\307=\\2\037>4\2164>\373G\257=\\\350\000\276\026\253\307\275\005\330\357\274\341\327i\275\356\2771\276\215[a=\004\201\214\275\363\r\304=\026Z\025>]\272A\274\205F\305\274\013\367\010\276\230I0>/;\325=\321}\026=\3540$>\027\222\373==\351\027=&M\246\275%c\231\274{5\247=\203\001\331=!\220\204=J7 >\320\353\005\276!\263\303\275\014\3341\276\rb\024;\207\\\004\276\205\375k\275\245\333\265<;\310\352=\371\214o=\327\002\371\275\262\247\020>Ei\326\275ky\375\275M\275\220;\3178\327=SI\342=U\364\272<\373=\251==\346\262\274\003d\'\276%w\204\274u\261C=f{\372\275\275\211^=\336c\'>\333R\323\2751\374\244\275r<\241\275\006\334\030>\225l\267<z^\022>}\243\266\274\035wQ\274\250#\001>\346\322\036\276\371Y\333\275\366\307 >\235~\004\276\271\2013\275\241#j=\022\250\026>\275\tP\276\360\034\034\276g\363\334\274\343\365\017=\027$8\276\2542\236\275\261\214\306<\002*\250=\317\241j;\037\205a\275{N\227=\314$\002>\010\260\005>i\267h>\217r\361\275\355j\335;\347\304\365=\035\014\316<\277S\315\275\340G\017>\021u\016=Q\313G<s\234\007>%\343*>Zy\267\275\211\352;>+\362\240\276\271Q\"\276@#$\276t\216\002\272ha+>\315@E;\251\300\223\273V\247\215\275\252\362\251\275\350L~\276\315\251F\276I1\007=\3226\212>\006)\003\274\ru!\272\250/\266\275D\374\362\275a\"l>\355\027\006<\314T\200\276\375\030+\2748\267k\276\315\253\257<|h-\276\333\341\207\276`\202\277=~s\225>\331\366\336\275\223\223\360\274=\003\243\276\255\272\030\275\224W\207\276\025\316\030\276>\254y\276\213HY>\"\035\033\276j\350\337\275{\341\232=\t\270\347\2757n\332\274\275\032D\276\031rN=\002\367\247\275\225\311\354\274\361\276\373\274\355\231\020<\t\337\247<\274T\226\276\376\373!\274\337\243\021\276z\355\033>\247F\356=\025\375\021=\210\364\267\275bG\016>\335\223%<}\247\325<\254J\000>\315\336O;M5\227\2739\333c\275\367%\363\275\255{\361\2740\210+\276{q\323=ur\205\274\235\250\222<\325\2240\276\3766/>8\033\001>\300\364\037>5\036\267<\3515\302\275\250\203\211>\262o\035>\225\356\017\275\310\000\021>\351\341q\275\003\352\020\276\333\242\230>\347\304\262=*B\013>\311\327I=\225K\305;\215>\315\273\321\356\203>g\374m\275\227l\257\275#\201\335=\007[\354=\312Z\007>\317M\"\276\003\313\315=\022\"\027>\177/\014\276-\303\213=\341\332\n=\353\305\272=\224\\\014>H\265*\276\231g&\276\235\263\241\274k\302\236=*\253\023>A\367\215=*}\006>\236\226\001\276\203\035\334=z\235\001\276\256d3\276R\266!>\275\255B\274\2617\024\275\263c$\276\2751(\276c\324y\275\025\0323=\266\000+>\235`\211=f \007\276\373}\362\275\365\204$=\307\346\370\275\377G\307=\003*\335=\215o\306\272\315\217-\275\201\273\204\275\215\207\203\2747\352\242\275\215\232\217<\203\225\355=\244\022\245\275i\304.=N\353\213\275\031\344\004\276\3352=\274\350\373\237\275\001\343<\275eU.\276\365q\026\276\302\360*\276\255\245\201\273#g\276==\223\\<\275\250\036=m\2007<#\227\374=M,4\275\316 \n>IJq=\277\242\206==\2623=\315\374\006\276}\2210=\371\320!\276\375\250N\274\245L\276\274\007\303\300=\237\377\352\275k\215\006\276\360\025\271\275\255\225-=Y\334+\275\243\335\376=|\300,>5\364G\275\033w\253=.\023\004\276\3051C=\326\376\005>\221\225\203=g\227\316=\345\371\310\274F\263\014\276\223B\302=$\004\225\275T\357+>\233\223&\276\275|\024\276\024\363\010\2764+3>u\364\206\275\355\237\204=@\344\000\276ad\034=S\343\275=\337\236\361=D\244\000>\005\354\330\274\031\276\027\276O\036\276=\t\"H\275\234\203\n\276\375\221=\274;\306\025\276\005)\337\274\214Q\014>,\022\031\276\323D\234=\376\272/>\203\024\242=\331\350\030\275\003V\330=}\330\241<U\030\315\275\261\246\\=\213\364\270=\344\331+\276\220\235\037\276\361d\022\276\007U\300=\231R\357\275\r\226\205\274o\204\237=\005\001.=\375\254u=S%/\276\013\034\312=\231\207\334\275\033a}\275-3w\275\275\252\202=\234\3674>)\275z\275a\363\026=\252\356\001>L\231\021>\177\302\027\276@f\013>I\236Q\275\r\025-\276Zq/\276\3457%\275\362\002\t>)_\221=\225h\273<\300\330%\276\347\314\374\275\355\262o<\017\361\001\276\'9\014\276S\036\210=)J]\275\333\021o\275\003\301\317=]\334`=.\0303\276I\257%\276f\274\227\275u\215\035\2753E\245\275)\351\026\276\317\256\337=\251m\224\275%\202g=\321\307\005\276P$\366\2758\202#>Uu,\276\325\341\270<\265\211,\276\270\242\275\275S\265|\275\254\336\006\276k4\211=z\364\013\276\3356\'=\303&\253\275\rT\330:\3571\245=\270\216/>\371\337O\275\027T!\276\325\254\005=\301se=\250\246\326\275v\303\317\275S=\303=\303\036\007\276i\376\210=C\\{\275\020\336\235\275\ri\315<\221\227\300\275\3335\373\275\231\272u\275\275\360\246<\004\306\304\275[2\375=\227\266\253\275\n\203\036>\305\262\240<\206\365\342\275b\3154>\275\014\031\275h\247\010\276\317\2760\276\227\'\334=Wf\317=\207;\321= \324\036>\317\221\320=Jk\366\275\364\340\257\275&\247\021>\275\237\031\276\355\035+==6|<\355S\026<\220\222\354\275G\314\354=\366X\374\275G\310\035\276\275\346\t=\317\0201\276Is\373\275\345\354\236<\215\213r\274U\312\007\275&\247\034\276\345OR=\315J\356\275\316\227\014>\027\243\316=\315\345(=\301\244d=e\346\036=\024%0\276m\270\016\275i\006\003\276\020G.\276\367\332/\276m\2618<\232\232\n\276\021\2720\276\365V<=\220\273\033>\031_y\275u\346Y=\351:\301\275%\376T=\245\223\275<\271\262P=O\361\245=\334.\001\276\r6\026;\275\204\222\275\035:\031\276\311\033?\275\t>T=Z\206\030>.Y\002>\265\352?=\356\350(>l\0013>L~\037\276\020?\260\275\315(A\273\327O\246=U\326(=\321M\266\275-\362\226\273\315\261L;\315\273}=\333}\360=\010\260\032>-\324\307\273\322\366\005>\225g\337<\035\217\024\275z\236\033>;\354X\275\007\376\300=k\321\377\275(, >y\013\352\275\200f\001>4\231\022>\255\243\345\273\267b\307=%\210f=k\221\270=\315\237\"\273\r\227\307\272\036}#>\006d#>\347\023 \276\tf\276\275\321r\315\275Ig\222=\302`(>\003\024\355=2\310\r>PH%\276\177u\200=\034\343\271\275}\2470\275M\355\307;MC\n\274_\243\346=\035!\235\275\354`\005>\351\031[\275\213\002\363\275\r\245\323:\r\255\372\275\t\014\272\275M\304~\2751<\014\276]o\034<W\n\370\275xV\300\275J\213\033\276\217\330\323=]I\t\275\333\222o\275\375\n\341\274\211\256\017\275\217Z\301=\367\235\361=l\240\326\275\245\312\004=\"\207\004>\001\323\336\275M|w;-\232\022= H\000>\033H\237=\350\335\n>\307\226\256\275dM$\276=m\017</\247\374=K\213/\276\345\006g=\033}\032\276\215\273J\275\235\361\303\274\372\267\027>\375\220\031\276\205m\021\275\265\3009\275\355\276-<\325\030\035=\255\354\002=\255\237\227;\250\302\005>\334\212\315\275\014\"\034>\020\206\025>-e\272\273\244\352\034>\255\373\004\274\315m\351;\035\361\220=\252\300\n>m\206\022\274%\271\277<^\365\037\276\203\261\274=\341!+\276\3533\306=\2558W<\235\222\227\275>\373,\276p\205\312\275!{\001\275\204\304$\276j#!>\205=\206=\'\021\245=LG)>\211S\027\276V\036\002\276\277t\235=\265\001\373\275[\334\372=-\221\315\274\345\305\334<\377\300\306=\365\\F=!p\221=v\000\035>,v\017\276\023\233_\275\311G&=\233>\243=2\374\006>\310\247\004>\226\311\244\275\2458\252\275\2511\"=\330\261\345\275\016\211$>\252\344\032>wY}\275_;\217\275\241\326,=\305P\000=\026\036\210\275\361\356\t\276\245\224\277<A\264\376\275\035\035\223\274\2339\306=h-\">L\032/>c\351\337=\r\342\343\271\251\217\025\275~\210\002\276.c\021>\035\005\034<\t\324!\276\247\022\367=\263\371\271=\337\r\207\275\177\003\325\275P\233%>r\2644>U-\357<\206\030\007>\241\263k\275\200c\032>\301\250\002\275\003\321\223=iKN=\2157\020;\005\2107=:G\231\275e\035\t=y1S=\024\224\025>#C\237=\377\027\010\276\375\242\276<+\267\314\275\375\367\025\274MR\377\274+\250\350=\212d\014>\215\212\026=G\001\321=\377\035\302=\001Ld\275\272u\013\276\234;->\213?\364=\370\272%>\016\276\027\276PF\212\275:@\037\276#\3303\276E\332-\276T{\321\275m\237\312\273eg\206=\243\260\365\275\363\311\304\275\211\027\321\275\373\335\251=\017\240\252\275\030\216,>\306\022.>\rU\346;E>\022\276\347s\310=\265\303\224\274\217\307\237=\321\350\031\275-f\201<\275\266\027<b;\023\276\201U\355\275\275\371/<\351\267{=#Z\236=\355\210d<\242\335,>\256[,>\317\201\365=\273\365\307\275\240c\026>\245\203y=\231\306\022\276\332i\001>!\0330=-q\376<-r\212;-\\\232;\241DB=\215\r\020=\335\2453\275\335\322\245\275\320\'\312\275\231\231\n=\303^\025\276\223\007\306\275\275a<\275\250?\031>\315\221\365;-\325\030\276\201h\210=^\313\n>`\230\030>\3557f=\001F4\276V\0034>B1-\276\032M\023>@B$>\221\351\363\275[\323\250=\010\277\024\276pX \276\025[\312<\363\340\351\275\215\3655<\346\332F\275P\257\000>O{\210\275\302>\346\275\234_\322\275Gc\276=Ey\305\274\376\201\"\276)-\323\275\235v\016<=~\033\276T\230\024\276\003}\372\275\305\021\207<\364\305\n>\333r\343=\350d\235\275\302\037\236\275e\261\224<\rj\314\271\361a&\276qp\340\275\332\265\020>\010\010\016>j\')>\371a\036\276\356\250\223\275\376_\323=\2625\311\275?c\365=\0131%>\215\274c=\320\351\037>\265\231\365<\366\355\205\275a\222X\275\246\360\033\276\335\373\003\274\003N3>\016E\004>\3721\276\275\005wR\275\261\030\204\275d=1\276\027\300\310=\320\330,>\214`\032>\r\300\303:\234u\027\276\357\220\312=$\201$\2765\273h\275\356\221\025>\025\202\222<\321SV=\2333\246\275\360\032\264\275\265\225!\276Q\017:>\306;\'>\377\311\351=\r\346\377\271\201\244\030>\262\241(>\357\014\376\2758\262\003>L}\002>\255\366\316;\247\265\354=E\323\034=\231a\234\275\034\177\366\275\205\246\241\274\307\3252\276\335\371~=]\201z\275\033\0014\276\210z\014>\243\016\373=\247{\271\275Ev]=]\030&=\275\037R<\026\375(\276\177\215\354==I\311<-\230\334\273\r\207\034\274D\306,>\032\014\354\275\334\302$\276])g=6\242\023\276\373Y\243\275.\021a=\022\251\001>-\303\006\2748\366\225=\233\003C\274\365\177\306<\360i\032\276\331\034*\275\356m$\276\257\334\306=\327\336#\276\201\005s=\255\037\361<\337\r\240=\t\257D\275\240%\036>m\347\300\273YP\216\275\t\240\001\275kt\273=>\313\251\275\3419 \276\320\235->z]3>7\013\337=?\"\337\275\014)%\276#/\221=E\322 \276\246O\024>[\335\327=\276e\004>\0348\253\275xd\017>\227T\265=]:\"\276q\027\207=\226>\r\276\341\270;=\025S\225\274U8\352\275Z\214%>\353&{\275\323\024\220=t/2\276\021\247\003\276o0\272=j!\036>\r\202\265:U\302p=]\236\315\2747\302\316=/L\213\275MP_;5h\025\276\265\315k=\227\277\231\275\370\356*>\0142\021\276\243\221\302=\223@\215=\336\304\026>\273N\232=\375&u\275]\203[<|\333\333\275 d\r>\377n\024\276n\364\016>LG\006>\315\2566<\362%\236\275\340u\025>\n\254 >\000\032\251\275\375pT<\357\201\377=\347@\342\2757\272\030\276ri,\276\277\367\315=\235Kw\274JN\233\275\355\253_<\321$-\276\311B6\275?(\345=]Gq\274\213}\372=\333\364\342=f\323\370\275\325\367a=}zI\274\355\215\353;\377:\373=/4\375=\037\220\237=I\207H\275\'\276\325=\222n\326\275\022H\'\276Ju3>\350\377\016>\377K\267=W\241&\276\203\317&\276\355\355Q\275zN\002\276\rd\027\273Cy\265\275U\313\337\275\355M\245\275\374%\006\276EC\221\274a?\036=\235o\277\274\324\2023>\370h\231\275\0278\200\275,>\n>3B\240=\362\000\026>\255Ph=\025\376\346<\331\201X=\345&\201\274\334E\256\275)\253\001=\211\030\021=#\257\207\275\215\323\213\275\257w\246=H\212\305\275\n/$>\335Q\341\274\373u\347=\r\363\361\272\232\n\017\276\373\t \276\3453\336<M\025+<\335D\303\275\373\377\307=B\377\007\276\367\204\211=-\200`\275\177\214\370=\353\226\312\275\357\224b\275]\325\035=-Zc==\026P<\375\026\313<:\302\013>\261\2023=\377-2\276\3156|\274\026\271Q>\226R_\276Y$\r\273\217\016\216=j\355\243\276\365\271\247=M\2721\275\217BH\275-~\231\276\357\034F\276\273m\360=l\200\261\275\006\3305\275\217\031\321=\010c\025\276\014\006\036>\200\224\215\275\235\261@\2759\003\031\276\255\232\331\274]\264\271<I\323\002\275?\026\210>\217\r\242>8\013.>+\335\206>\262\242\270\275^\363!\274y\243\014\276\341\370Y<\350q\217\276\t\223\357\275\250\365\254=A\017\225\274IJ\251<\360\255B>r{\221\276\2408\235\275\303\257\214\276\333\030\331=\230\312*\276\t\023\227\276\326\"\341\275\344E\332=\323va\275/\311\204\274#}\337=E\233B<\366\337\242\275\211u\006\276\273\252C\276\321\227z\276cM\210=\300\356/>\266\032\200\275(6\335\275\014\325\326\275=\277\221\276\t\344\226<\206\275,\276\203lS\276\341\306\340\274O\\\273=\273\311\211<\213\371\036\275\023\301F\275I\361\202\276.j\245=\2313\205\276\036b\t\276J\333\227\276\215:4<\223\263E\276\347:\236>\307\300\034\275\340\272\227\276\260\252\n>\207\317\260=\204\300\356;\256\376\010>]\325b\274O\237\307\275\005\301\000=8-\267\275\250\305\353\275e\017p=ST\244=\375)\241<\240\366\035\276\267U\305\275\345Q\272\2745\253\250<\236\001&>N;\240\275\344i\300\275\007\361\333=\266\2163>Q\2461\275\026\251c\276{\257\365=\337Y\200\276\200\2600\276\365\242)>\253ea>\235\324%\276=\275\237>a\330#\275\222\314\265\275PB\353\275G7:\275\227\303T>\t\020q\275\032^%\276Wk\213=M\260\017\275\014\311\002\276\021\262.\275DE\010>\323\350\253=e8\305\274\207Q\241=4\010\300\275\007\276)\276]$\272\274\270Z$>\312\244\317\275?\031\256\275k\2563\276\016\326:\276U\025\024\275\254\013&>$\3316>\333M\226\276\221*\177\276\275\302&\276\244\260U>G\1772\2761\322\210\276\265\304\001=\201\337u\275n\221C>\272\255\277=\255\027\352\275\204\303\025>\355\254G<\236\220\030\276\342\246G\276\035#l\274y\227V\275xK0\276C\002\242\276\020\371A>i\023\020\276g\2708>\016X\235\274\037H\333<\333\224\200=\302(\205\276?\204\326=\215/\377\272%\261|>C\030t\276\370\311%\276\256Y\207>6!\216\276\225\246.=dx\232>5p;\275\030\260\034>\317\202\026>S@<\275w\0133=Y\243U\275\256\035\242\276\253\254\275=$\014`\274/i\367\275y\262\236\276v\326U\276\333lr>W\337p=\305\327\244\274\220\267\356:\355\020r\276\26230\276\330\276\217\276\200\3561\276}\013#\275\371\236\031=\ra!<h\201\021\276\036\262,:\3605\255\275\035\236\241\275\034\240\343\275\253Z\021>a\307\264;\276\021j\276v\226\000\274\274\351\327\275N\374:\276\023\202\211\276\207]\177\275\212\2404\274o\361\'\276m\316q<\343FD\276 \271\271\275\255l\275\274\220=&>\267\333\342=\274V\226\275-\202\n\276\243V\365=\331H\024=\314\360\325\275\235%\323\274\006\2404>{\373u\275\265,\262<u\310-\276m\247\300\273\332\225\030>\207\203\307=\216\244 >\363\203h>}\002s\276!\014&\276\2444\246>+\256|\27519\214>EZ\333<Z\331&\2767\331T=E/\310\275oX\201=\355\374\003\274$\001>\276\211;\226>\351\033v>\347t\210=\220\342\037\276\335\223~\275{Z\344\275\226l\032>\233\372\240=\317\232\327=\226\030\036>\325\376\023\276\301\260$\275\237\346\244\275\366M\270\275\205\200b\275\005\301\"\275\377<\010\276\265\035\246\275imr\276\250\201\370\275\356\357p\276\t\3757>9Jt\276\024\027\003\276\324\322\021\276\354[\200>\031\251v\276\005\267#\276?G\013\276!?\275\275\3179?\276\303\'c>\320\206A\276\215\037\"\276\302{\306\275wT\004\276R\275\243\276\205y\237<\355\'\266\274\212\215\027\276\263H\272=O\376k>\370\020r\276\2220\010>:l\315\275g\317\210\276\365\324\326\275\367\\\242<\347F\220\276\215\303S\274\267\325\034>h7\220\275AkT\276\263h\017>w\\\221\276\225\227\027\276\023b\201\275!d\245\275\223G\363\275\213\277\252;{\'\304<\272\350q=-w\341\275%5\227\276\377@\n\276\033\330\244\275\253%\252=`\0200\276\326\010\247\275\333\301\364<\225\362\205>\365\251\205\274\370\201q\276\2712\201\276}\314\276=eAY\275\3725J\276\3555\277\275\211\216o=Y\355\321\275\031\003-\276k\344\001>\005\376%\276=\251\006\276\251\322.\276:\253\215>N>\273\275\251\374v\275\303\222\233\276\271k^=M\276\013\276\225\330l\275\274\335\370\275\375\227;\275-%\256;m\206\223\273\267A\215=0\255+>HT\022\276F\024.>\223\016\262\275\330\365\007>\311u\026\275}\261\241<\266\353\'\276\277n\223\275\231\340\205=;\304\"\276\023A\342=<\036\246\275\276T\035\276\t\007z=I\021\014=\014\216\263\275m>\350\274\177\346\366=\3351\037\276\237\317==&yZ\276\r\273\210\273&\337\025>\001\032\305=A\361\267;\272\351\210\271\r\376\3729\034\314\016>\251\rP\275\243\267$\276\215\375+=\364\270\224=\265w\'=\316\267\037\276\200r\013>\247\024X\275\231\"\023\275A\245C=%3h=\025h\332<\0026/\276\020\310\370\275\300&\020>\027#\374\275\256\374\020>Zr\206\275,L)>\r\177\000\272\210\323\363\275\277\301S\276y^\225\276\336\316\033>\235\343F\276\307R\003\276J\320P\275\205Bp>\215\232\241\2767/\304\273\217F\305=5\347\030\276\333\356\013>\214hJ<\203\024\352\275\302\026*\276\003\366\r\276\363\353g\275\3155b\275\236\214\t>Tx.>\021w\007\276A\247&\275\303\237\242;\332\330o\276\330\215:>\354\366\2758\223\326\362\275z\214\350\275g\234\252<p\331\205\276\245\367\271<RF5>\352\261;\273s\206=\276 v\003>\216\333p\276=6W\274 p\211=e\030\261\275\356\215\004>\325\372\245;\215u\310\275\025\230p>\223.\261\275\332\025\217\275\227`\211=\225\211\212\276\r4\373:\271O\255\275\243\036\244\275\363\374\213=\275R\221>\315A\215<\'\013\227\276\267`M\275\333\273$\276\016S\267\275oB\351=L\267~\276r\324G>\277\\T\276\001\3225\275k]\326\2748\347\243\275[\3429\276\206\006d\276\306\205,>\242E\233\2760\312\216\276~\353\034\276q-e=\243O\254\275\222\033\230\276z1\330\274\032\204s\276\377\322\317\275\305\026\332<\240k\\>W\235\366\275m\036\365\274\325\210\362<\265\021\370<\305\2719\275Vp\255\275\265\227?\275\265J\356\274o#\355\275\274=\261\275\333\366\031\276\217]\312=[t\224\275w!\200=\237\357\372=\250\2113>\375\304\224=\356\314\037>\n\342\037>MY\265\275\016eF>%\337%>\255\261A=\250\027\037>#\002\341;e\'J\276&\305\244=!}\375\275\0130\356=\317\320\313=\315\330\203\276g\020\223>u\353\205>\360]\001>\274 \004>\021\301\310\275\212N\314\275\036\036\024>\317\372\325=\201M\231\275BQ(\276\230\317\375\275\257>\306=f&\017>\232\243\036>M\3271;q3\206=\000\326)\276\027n\201\275\367\303/\275\205\322\321\274v\222\220\276\234\305\310=\205\205\213\27465\352\275\372f\352\275\254\204S>W\016\234\276\2115\240\276\300L\341\275\215\251\266;?(\350\275\203\331\376=\342\032S\276[Z\311\275\347[\311\275\252t\230\275N9\177\276\250\227+\276\353\251\323\275\357\240\r\2755\215w>\201\022^=9w;;\275\222\273=1\322{\276\016\246\351\274\235+\n\276t\345>\276\007\240\263\275\255\037\223\274yt\250\274\2253U\276\231\035G\276\335\231\t>\345\210\351\275\277Y~\275\236\010\247=\001\274\263<\0329\032>\017\222\236\276\343$\'\276\025\2415>\315\223H\274\373c\377\275\335\023\237\274\207\rq\276-W\212\274#\342\204\275\275\361s<\313\307\335=;[\215>M0\000\276\001\t\034\276\341nA\276B\364\036\276\001\307\014<]o\032\276\024\220\201\276rK5>\246\321\016>=5\031<\003\000X>=\241\351\275\035\235L<\037\005\241<\303\376\214=7i\306\275\263MU\276\271\032\226<}\266r=\202\200Y\276\227\266\022\275B\317\025\276\345o\245\276,,\254\275\274\261&>_\306\216>\2155D=g\367\211\275\270\350\333\275\027\264\027\276]7\260\274\r\202\313;i\020\317\275\215\207`;\312j\306\275\247\377\375=u\203\276\274\023\232\343=\263\225\341=\315\236\214\274S\246\363=Y\356j=\264>\022\276\335\346\245\2740\262W>\360\274`\275\251d\213\274v\324\240>J_\310\275\372pK>N\037o\276\312\374\337\275u\024\215>\311\352\'\276\354-\346\275\356M\024>=J\255\274\252\3775>5G\273<}\337O=&\307\256\275\013\257\316=m\346\357<*.\007\276\227\375\277=\217\272\217=\242!\226\275M;B=\177[}\275\255\270,\276\035@<\275\217\207\350=h\242)>\261\303\t=\016\220\257\275\017\245\035>hq\232\276\341\326\310\275\352\306\t>\201+\204\276z\225\255\275\212H\201\275\335VX\276\221[ <\205VB<\023s\254=M\213\261\274\003F0>/v\240=I\"\204\274\025\333h\27573\270=\n\224\303\275\244\223_\274\215Z\304\274#\216\236=\344\010\'\276\351j:=%\336\205=\324\324\233\275\224\010\343=\275P\206<\344\022\230\276s\346\014\276(\343\223\276G\206\301=\257\027\237=\267\241V>\371\250=\276\231\274k=\032\361\214\276\241\311u\276\323\317\336=w\367P>\321}n\276g\032\353\275\343\240r=\225l\023\275Y\270{>\251\r\211=\036\233u\275\325\255\303<\201\351X\276\031\005N=h@\261\2758\315\020\276\026\351\231>9\005?=j\372,\276\177\353r\276\372*\224\276\371\260<<q\211=\275\225qg=\353%&\276=\310\003=1\356\"\276+\036\353=\005\026\305=\007\371s\276\372\3238\276\246\225\360\275\257ZH>\361\202j\276\225\000|\274E\220\204\276^\0370\276/q\336=\034\020r<\226\305u\276\343E{\276f\005\366\2751`s\2753\250>=\213\001\254\275\200\360\013\276j\313\023>`\236\'>Y\207\001\276\335,c<\261J\377\275\016\373\307\275\2662\033>aO3\275\342\355\215\275\305\2042\276\337l\302=\273\374\351=\037\036\315\275k\220\022\276\010=\023>\203\242\253=\361m\310<\363&P\276a\233\226>\365C~\2748\214\035>)\272*\274e\265,\276q\332\362\275\226\215\365=\205\220\273\274a\377\363\275\r\220\354\274\0167e\274\337\215e=W\317\224>a\233%\275\215\321\033;L\004\262\275}\224\346\274\236\207\007>\021-\355\275\341\276C\275o\020\265=\215\347\027;\215>\017\276\355-\327;*\354\034>\016\305+\276#I\013\276]\236\340\274}j\300\275\271\364\010\276\376\323\256\275\230\025\r\276s\034m>\231@\320<\365\006g\275\344\226x\276\237\201k=gj\005\276&\243\226\276\211\211\026=\215\026\361\275\235\227\'\275X\241\376\275\231\261I\276/\034\330=\215\200\023<c\177\254\275~\2710\276\323\344\256=\347D\231=\020\003:\274,\030t>\331\277\344=\256\022\213\275p\300E>\222\247\2639)(6\276\360)\006\276\237\020\226;Q\362\264\275\016\225\023>\273\030j>\211`,\274\001d\243\2741\200{>\363\303Z\276\tr\027\275\353U6=ol\025\2769]C\275N*\245\276I\223 \276\353\330s>sf\335\275w\370\246\275\333\252\342\275 \370\237\275\255\231[=\226\254*\274\302q\210\276[=\221=\305\377\337<\361\325\271\275O1\223\274\257\276\013\275\346\356\234\275\003\213\224\276M\021\311<Q\234\263\274!\005e>V\377\005>>\354\022\276\300\027[>C\034\325;\213\005\235\276\200\336\206\275\345\253\236<\350)\022\275\311P\250\274\"\352\251\275\205v2=Mi\260\275$rV>\337x\343\275M\223;\275\345\021\001\275M\250\355;\033\200\217;\031|P\275\r\033\250;\375\260\226\274I;\301\275%\021(=\235\037b\274\213Ne\275\201U_=\275u\335\275+\307\231=\2272\317=\363\354\253\275`\336%\276\305[I=\215\021\336\272\007\360\372==k\272<\024\347 >\223\362\241<]\036A\276%\022.>\304\014\230>\325\267\251<t\323E;u\036\177=\022-\215\276\375im>\r]\037\274\207\302\236=\336?\027>\233\'\005\276\177\010\221>\213\212\024>\031\3425=\315N\003\274\327\324\233\275k\262\331\275\376\265\037\276\267!1\276v\230\036>\007\352\207=\313\335\303=\225\026\341\274S\005\305=\245\327\217=\240\216\027>\275\216!\276\r7\177\274\240]#>M\263\030\276o\231\004\273\363\340\247;\242Y\323\275i\343\330<\034\364\323=\311h\245\274\316\024-\273\314[\235\276}\317\220<(\005\035>5\231\372\275\355\n\300\275\021\3074>PA\334\275f\255!>\025\335\267\274\361\221z=\260n4\276UB\364\275\315#\241\274)lj\276\262\237\002>:n\231>\313\322T\276WW\336=\206\315]\276\032\333Y\272a\247.\2769*\307\275!o\016=\031+b=A\252\270<\237ak\275\232r\202\276p,\223\2761W\302\275\rz\3679([\322;\315h\276=\375\224\254<\007\273\231\276,\354)\276W\253A>I\212U\275\301\263,