node {
  name: "x"
  op: "Placeholder"
  attr {
    key: "dtype"
    value {
      type: DT_FLOAT
    }
  }
  attr {
    key: "shape"
    value {
      shape {
        dim {
          size: 4000
        }
        dim {
          size: 24
        }
      }
    }
  }
}
node {
  name: "decoder/conv2d_transpose/Shape"
  op: "Const"
  attr {
    key: "dtype"
    value {
      type: DT_INT32
    }
  }
  attr {
    key: "value"
    value {
      tensor {
        dtype: DT_INT32
        tensor_shape {
          dim {
            size: 4
          }
        }
        tensor_content: "\240\017\000\000\004\000\000\000\004\000\000\000\010\000\000\000"
      }
    }
  }
}
node {
  name: "decoder/conv2d_transpose/strided_slice/stack"
  op: "Const"
  attr {
    key: "dtype"
    value {
      type: DT_INT32
    }
  }
  attr {
    key: "value"
    value {
      tensor {
        dtype: DT_INT32
        tensor_shape {
          dim {
            size: 1
          }
        }
      }
    }
  }
}
node {
  name: "decoder/conv2d_transpose/strided_slice/stack_1"
  op: "Const"
  attr {
    key: "dtype"
    value {
      type: DT_INT32
    }
  }
  attr {
    key: "value"
    value {
      tensor {
        dtype: DT_INT32
        tensor_shape {
          dim {
            size: 1
          }
        }
        int_val: 1
      }
    }
  }
}
node {
  name: "decoder/conv2d_transpose/strided_slice/stack_2"
  op: "Const"
  attr {
    key: "dtype"
    value {
      type: DT_INT32
    }
  }
  attr {
    key: "value"
    value {
      tensor {
        dtype: DT_INT32
        tensor_shape {
          dim {
            size: 1
          }
        }
        int_val: 1
      }
    }
  }
}
node {
  name: "decoder/conv2d_transpose/stack/1"
  op: "Const"
  attr {
    key: "dtype"
    value {
      type: DT_INT32
    }
  }
  attr {
    key: "value"
    value {
      tensor {
        dtype: DT_INT32
        tensor_shape {
        }
        int_val: 9
      }
    }
  }
}
node {
  name: "decoder/conv2d_transpose/stack/2"
  op: "Const"
  attr {
    key: "dtype"
    value {
      type: DT_INT32
    }
  }
  attr {
    key: "value"
    value {
      tensor {
        dtype: DT_INT32
        tensor_shape {
        }
        int_val: 9
      }
    }
  }
}
node {
  name: "decoder/conv2d_transpose/stack/3"
  op: "Const"
  attr {
    key: "dtype"
    value {
      type: DT_INT32
    }
  }
  attr {
    key: "value"
    value {
      tensor {
        dtype: DT_INT32
        tensor_shape {
        }
        int_val: 1
      }
    }
  }
}
node {
  name: "decoder/conv2d_transpose/conv2d_transpose/ReadVariableOp/resource"
  op: "Const"
  attr {
    key: "dtype"
    value {
      type: DT_FLOAT
    }
  }
  attr {
    key: "value"
    value {
      tensor {
        dtype: DT_FLOAT
        tensor_shape {
          dim {
            size: 3
          }
          dim {
            size: 3
          }
          dim {
            size: 1
          }
          dim {
            size: 8
          }
        }
        tensor_content: "\351.\246=m\322\225\276\334\320B>\305;P=f/\200\276c\204\340=\255\265\271\275s\240\313\276\336\3307\276\244 \205\276\340\364\223\275\305\312=\276N\036\031\275\272\204\251\275-\202\253\276\313r:>n\210a\276\217\377a=\n\267\\\276!\307\231=\256\222{>c\0227\276R\204\230\276j\202\250\2764\262\235\276\000\233j\276\2419{\276\215\260s\275\204>\322\276\210\336\264\276\035\207\010=\030dg\276\033\314\302=\310\334s\276\235y%\275\210\254\243\276\tN\257<\210d\027\276\266E\262\2720\270\351\275;\002Q\276\t\272\254\276\"(\263\275-SK=\275\026\305\276\235Y\001=O\026\236\276\311\033\007=\245\255\033<\201\371\033=\267d\324\275u\220\202=cA\215\276\tK\366=\251G\033=q\017\326\274\277e_\276G\235\365=\331\r.\276\223\230\214\276\267\020\306\276\007\250\313=\221c\267=\323\241K=\267\271\206\276\225\000e\275\257\357@\275u~\233\276\364@\225>\332\215\276\276t\272%\275*\004o\276"
      }
    }
  }
}
node {
  name: "decoder/dense/MatMul/ReadVariableOp/resource"
  op: "Const"
  attr {
    key: "dtype"
    value {
      type: DT_FLOAT
    }
  }
  attr {
    key: "value"
    value {
      tensor {
        dtype: DT_FLOAT
        tensor_shape {
          dim {
            size: 24
          }
          dim {
            size: 24
          }
        }
        tensor_content: "\361/\256=\261\020\266=\234s\243>\371\2763\275E\313\224=?\331\322=\300b\255\276\306\325\013\275\327xW\276\241B2<\037f\">\3536/>k\236\222>(\235\255>a\227*\275{SZ>9\315\315\275\205k\207\276\355&\253\276A\233\322=\333^ \276\234\327\262>\202M\326>\315\003)>Qw\311=\231*\016\276}hA\275\334/\240>+\253k>\3475\202>\373w\273\275gLS=e\334\030\276\242\006T>\271\241\344=\234x)\276\214*\313>\303\315\236={\3224\276\3203\221>M\027\372=\033a\222\276#\301a\275\364>\210>!z\232=#K\202\276^\350\347>\241\360\313>s\026\242\275$\332\230\275W\3346>\217\241\314>\000\202\261\276\3217\246>\317\006\352\275\031\346\264\275\327^Q\2756\305\241>I\240\223=\304\010l\275\302`n>S0o\275\271\312\363\275\237\032s>\367\316h=2/\246\276!\302E\276\243=\034>\275am=\001\036\243=\240\000\243>\255\357\'\276y\253->\027\322\366\276\340\215\214>\024\233\332>\207\204!>\003X\022>\263\353\221\275\341\221\301\274t\361D>]\214 \276\006{X>^\274g\276F\373\253<\273\1779=9\226X=4\374\260>;\270\027=\247\005\221\276\352\002\327\271l\304\235>\315\"\031=e)\215=\314U\026>W\032\241\274\010}\225>#M\315\276\315|Y\275N\355\367>\221\333\206\276\ts\247>\027\326\302\275\177,G\276v_\252>\215\004\205>]W#>\245\350\216\274\344s\357>\205\177q\275\021\212\342\274\3752\373=\242\220\262>\225\305\201\276\371\277\213\276\005\347F=\215ng\274\345\177|\276\233\260\245;\024\352K>s{0\275]\225p=}\314\261\274\311\004C\276\315\006\005=\304\265\251>\034\262\352\276d\311\234>!\010\332=S#!\275\3072\227\275\203b\225\276C\353\353\275\350.n>\271w \276-@\204\2758\003\332>\324\231\216>\365\304\257>X\206\257\276WAs>%\365P\275\312Q\350>O\353F\276K\314K=\307\350\224\276\276\232\257>\025_\263>-\314u<>\276\202>\2513Y\276\345V\247<e\355\017\276c\377\243\274\304\036\003>\367\366\200>\0264W>\251\326\023=1\311!\276\024\177\240>\253\033O>1\247\315\275\373t2\275\235\351\260\275<\233\242>#\212\031\276\330\001\316>.\210\340>&\252\225>$_\021>\r8~:.\347\347>\205\216\007>q\264\236=\224\237\363\275\256\344;\276\031\320\010\275+3\300>\345m\220>\335\240\204\276V\370\254=\372\215\376>>\204\207>%cF\276w\0371\276Y\313\306\275b\333\267>\225M}=c\220q>\211\376\254\275\001\034\252>\343\272\272>a\210\246\276Vf\025\276a\270\270\275\247\257\n>\025\236\270\275\026o\317=\"l*\276\206\240\360>\230\203\242>H\320\365>\244\332o\276\343\016\207\2741\2772\275\315\330\216\275\005\032\247>\221\342\264\275\333\373\346\275\241K\326=\332\267P\276#$H>\264\025\253\276{q9>\317\227U>9\300\250\275\017\324\307\275\235\022n\276\020\326\000\276\373\302\230\275\035Z\362=\2360\255>\361\324G\276;\216\243=j\3205>{\335r=\236\257:<\020\260\220\276G2\356\275\215Rf\276\343\003N>\330@\241>\033\352#\276\340\000\255>\260\021\325\276s\267\220\276\004\034\255>H\200e\276\024\2559>7\265\214>\301\032P>\314\036\010\276`\365\210\276\364\206\326>\273\033{>\266\357\210>\315\325\252\276\210\322Q\274g\007\254>\261\217\031\276\244\315\354>C\351\210\276=\3767\276\273W\237\276#\030\'>^\361Z\276\224\316\264>]d~=\356\206P>\232\313\251>C\306;>m`\336<\301\223s\275\343\251N\276\250S\301>\225\365\\\276V4\206>rl\206>}6w=oD\023\276f\376q\273\262\263\'>n\223\216>$vN>^\262\035>\216\222O\276w\021M\276\273\3337\276\372\236\265>\307k\200\276\313z\217>\014\267\236>\010;\226\276\253\350W>g\207}\276\327;<>~\201\323>0$\372>H\n\025\276m\006\233\27690\276\275)\2512>\213\214H>P\275\260>\355\017\222=\210K\331>\364\346\222>\315\230&\2765\311\302\274\014\rA=\313P~=\305S;\276\274\024\265>\377\364\261\276\234\362\317>\215m\035;3\232\355\275\035\357\326=\000\254\215\276\215)\020<\331f&\275\tA\033=up?\276\231;\207=\024\241\237>\304K\272\272!\200\266\275\336\371\037\273f\216r\276\205t\275\275\022\241\023>#\257 \275r\230\356\275\263\310\242\276\014\264\320>\322\307\375>\007f\305=\357\360\246\276\317\027 >\272\324|\276\0275\315\275\364:Z\276\271\312\253\275\216\324\232\276\357n+\276\004\212\207>\017\3367\273\301I(\276w0H\276\'d\206\2759\374\320=\301\222[\275\\\211\204=3\272\247>\334;\310>\'y\302>q\006L\276\303\253@\276\032\372\033>4B\247=E4>=\332n\214>\236\202\345=\rY|\2748\034\304>\rtq\273\246\250\205>\r\321\177;\203\020\211\275\366\323_>\215\324\210<\357\357Z\276\r\376\236\272\214xc>+\343%>\333\257s>\353\302\212\275\352\312\225>\241\305\200\276\361\206\322\274\256r\211>\240\010\006\276\370h[>\277\013\374\275\035\250\341<-\266\201\275\314\224\363=\243@m>\324\334\320>\013\000Q>\217\241\236\276-82<`\350\242>D.\303>\247\330\262\275\277\262P>\371\r\202\2765\336\203\276f\361\233\276\272\252\265\275\r\342@\276\326A\256\276\237xx>9\003\347<\316\002\036>9\324\304\276\363\312\022\275e<\027>\327\345\022\276~\332\211>\303k\260=\215\244\311=\367,\240=\355-\013\274I\r\205=\234n)\276\207[\273=\331H\000\275\330\314\336>F\206B\2761!\364=\314\360\244\2765\203\232\276_\200A\276\310\334\362>\373d\362\275\210r\241\276\312\271\303\276\333\024\272<K\200\213\274\242\314\374\276\220|\343;S\202\323\276\275E\275=\210(\032\276u%\200\2755\312~<\215\252\211<\001\314\355=\035\211\306=\362\030\333\276\215E\003\275\353\330\305\276{k\013\276@\331\030\276\276P\370\276\'\334\233\276;j(>\252C\263=s\216\266\275\275;8\274\355#\300\274\315\201\231=\354\356\337>\364\224\213\276\366\353\\\276\221\035:\276m;*=\007\247\277<\271\377\007\276:,s>8\323)\276\001,\366\275\252H\227>f|\351\276\324\224d\276i\300\014\276L\210\241>@\223\225>\372i0\276LV\217\276\211\347\303\275A\315\212\275%\243\016\276\021\315U\276U:\265\275\375\340\252\274\2640\245>9e\251\275/l)>C\227r\276\235\241\213\276\005\\\246=\255\334m\275\247!\017>\353\276\037>\265`T\276U\004\025=f\036\251\276\367\026T>\203qE\276m<J<\315\217\207\276\203P\371\275(\216\224>)\332\244\275\347\233P>\345\231\227\276v\365\236>G\377\000>t\214\253\276\r\376\0227M2\316\273]\207\203<7\374\347\275\277\263\004>\266\265\213>\213\037F>\026\334\247>Q\300\277\275\354#\261\276\355\304\302<\214B\253>\277\344{>N\363\260>\317\255\312>)37\276\331\305G=)\335\243\276\035!\020<U\224\"=1.F\275\327\005\337\275\003%\363=\027\344\336\2764{k>c\031\323\276\227\201\256=\364\n\353\276!\305\005>\357\013_\275\234\326b\276\253k\342\275y`\217\276\215D\244\276/-\234\276\376i7\276\223o\271\276\237e\004\276\372\004\342>;\207w>\\\362\214\276\005\363_\276FA\324\275\370O\331>6;\246=-;}=\333\320\245\275\026%\365\276\017\241\365\275p\367\342\276UZ9>\343!\341<\347\\\202\276\n\274\355\276s\215w>\314E\213\276\217\321y\276\315\301\236\275\355\243\323<+\0010>\037\257\037>|\244Q>\302\341\266:\243]\262\276;\263\313=\347\313S\276=B\200\276y\372\306\274a\361\367=\323\205q>\323\013\343=\003\'\257\275\277U\267>\356\265\023\274cA\210\275.Ol\276\2013\227\275\363\302\227\275\237\356\213\276\'\323,=-\177\000\276\351\224\200\276m\251\025\276\026\372o\276\317\211\031\276"
      }
    }
  }
}
node {
  name: "decoder/dense/BiasAdd/ReadVariableOp/resource"
  op: "Const"
  attr {
    key: "dtype"
    value {
      type: DT_FLOAT
    }
  }
  attr {
    key: "value"
    value {
      tensor {
        dtype: DT_FLOAT
        tensor_shape {
          dim {
            size: 24
          }
        }
        tensor_content: "z\022\307<\034J\031>\000\000\000\000\034J\031\276\000\000\000\000\034J\031\276\034J\031>\025<\212\275\335\317\232\274c\024\352\275\034J\031\276\034J\031>\034J\031\276\235x\266\275\034J\031\276\000\000\000\000\034J\031\276\000\000\000\000\036{\256<\000\000\000\000\000\000\000\000\000\000\000\000\034J\031\276\034J\031\276"
      }
    }
  }
}
node {
  name: "decoder/dense_1/MatMul/ReadVariableOp/resource"
  op: "Const"
  attr {
    key: "dtype"
    value {
      type: DT_FLOAT
    }
  }
  attr {
    key: "value"
    value {
      tensor {
        dtype: DT_FLOAT
        tensor_shape {
          dim {
            size: 24
          }
          dim {
            size: 64
          }
        }
        tensor_content: "\021\341\303\275s\272\265>8\327Q\276!\014\234\2759y\327=\361\227\200\275x\026]\2762\027 \274[\210]\276t\371\217\276\255/\321\276\245\374\215\276\024`\254>\300\354\351\275\250\007\t\276\377\004/\276\243Iz\276\307d\253<\314\024M\274\303m\247\275\025\370\207\276E?7>\331h\216\276i \263>\357\276\256\276\260\211/>\250\032\232>\301j\222>\371.\375\275Y\317\017\275+\263\307\276\2357\022\276\213\344/\276m\233\331\275\260e\207=\001\316S=mh\032<\0314\274\275\203\376\247>\242\310N\276\241\"\205\276\025\264M=\245\346\265=\275tf\275\237k]\276\271\310\276\276\235\231\017=\341\217\030=\322*q\276e\324\007\274\207\267\335=\273@z\275p\241\310>\303\340\273\276\244\335I>#\021\'>\177u\300\276O\227\332=\262 \351\275\306\331\025\275\216\362\255\276%\001\267\274\231\342\334\275\273\212\\\276\321\206\227>jVd>\353F/\276\243\220^\276eQ3=\335\253\266<\267Ot=\305\207\307=\220n\210\2762\331\252\276\223\037=\276\365\245\246;\345\3176\275\301\340\264=r\010\r\276\347l\267\276\336Z\t\276\230\300\207\276\3518x=8\271V\276\266\3062\276\233\233\006\275\365N\205<w\205T>E\242\331\275i\365\316;\241\203y=\366b\221>\3506\201\2767\004\231\275iJ\337=\264x\010>1\215\206=Kn\362=\216\306j>\313z\253\276-\020n\274\025C+\276b\3178>\234F\204\276)1\010>a{\252\2767\007\304\275\377d8=\037 i>Vp\357\275\010\341\311\276K9\342\274U\\\031>\"w\253>0\205N=\035s\250=|\273%>\035\226\303\276\230V\035>\201u\026>\225\326\275\276\311\307\331\274m\202\004>\360}\312\276)S\262\275\327`\276=\257c\213>\275z\\\275\325\304\242\274K3\213\275\ry\014>E0*\275]x#\2762\177\202\276qy)>sSm\276_\271v>Q\007L\276N\246)\276\201\007;\276\217*\204\276\3155\204<)\316`>M\252\345\274\255\330\\=u5c=E?\354\274\"\\y\276\307%\036\276\r\223\261\275\341\000\017\276\317\252+\276\017\203y>e\354k>q\003S\276E\242\244=\301]E>\215\237\005\273\355\322\366\274\373\271\256\275=\"6>K\017\037>/\304!\276\021\372I\276\237\212Q>\301Ts\2765\256\013=\275\224\343\275}\375A=\317ek>M\241\333=e\276\347=\'\225\202\275\237\241\237\275C\002\020>\025\3315>\025s\005>\205%\372\275\3610f>\337:\031>U3\325=\r05\273\217@$>\233\372\215\275k\003\016>\311\222\025\275\311\271\350=\313v6\276\0278\335\275!\t\365=*\311o\276\255r\261<\212s\010>\372m\231>\245s\362;\230\031~\276\'\231\222\276\2711C>\022\030\2779\265\271O=A\346D\275\205FW\276\345nI\27625\222\276o\346C=I\026v\275\007?\276=\245r\010=\241\240g\275\3501v\276A\314E<\2022\227>N\224\212\275A-\254\276\237y\322<s~1>hM\260\275y\327+\276\377(\211\275\0359^\274\276\302r\276\314p`\276U\236G\276\t\007\200\276\014\356V\2763\367~>/1\205>j\017\244\276Mq\"=TW|\276\002\207D=\341\014\314\276Yn@<\000\037\252\275\371t\220\276\246wS>\270\316\030\276d2\244\276P\220\343\275\001\347\225<\262\351\204\275\261u\205=\226\344\022>\003{\322=^\275\026>\257G<\275\032\3509>\261x\237\275h6d\276\001P\210>\226\274\252\276\233g\231\276\032\274\244\275}\"\210>&Lr\273>_\337\275epr>\r\223\366=Y:\324=\216z\\\2763\353U>\255\025x\275yx\225=}\031\240\274a@v\276)\251\320=\261\332\327=C!!\276\355\032W\275U\007V=E*\r\276\007\310,>\264S0\276\323K\035\276!\332\344=\033D\253\275}\025x=\325!_\276\245\374\325=\321\002\346\275u\246M>Y\251f>\r$:>](I=@h\013\276\245\355Z=\207\207V>\325\303\201\275\230a6\276\323\332\004>\355\026\201<\017\026\226\275\311\034\276=g\323\"\276\274\300\200>+\361d>\363VO\276\221\253$\275M\030y\275\033\003R>Q+:\276\265\3738\275\315\252:<\007\006c>W\301M\276\201j\013\276\267Ab\276\333;\330\275)m\336\275%\336(>=\352\303<q!t>\375\2752=\307\352\347\275\215\222\201\274\3615R>\327Jt\276n\013m\276\210\267z\276?f\372\275h\256\255=\321\2058=Y\375X\275S\020\216\275$9\317\276-\032\034<\251\347\376=\323\2000\275\365\343\255\274W\2477\275/\020C\276\253\356\326\275\241_\007>!\022j\2763a\340<\224r\321\2765\206s=L\006E\276|*\003\276\331\374\313>\332|R\276\257\255;\276\341\301\270\276\233\3738\276O$\257=\363\210\364\275\255\212\301<\371\343\\\275}!\362\275\221\207M>\323n\034>\027\3469>\377Ma\276#\021\210=\224\265\276>\212\327\307\272\315\273\330\275\376\245>\276l\377\352=\022\t\316\27557X<\254\0018\276I\027C\276\017=\327\275\027a\014\276;\030\223=U\231\340\274\242{\222\276Y\226y\276\241\310\025\275\266\006\217=Rm\251\276D~\025\276\241m}\276\276\2751\276M\242\364\273}\020H=Q\024\233>\266\300\272\276\253f\252=F\334\214>s\262\202>\351\254\217\275em:\276\272\'\220>\361Ms>[E\344\275\276F\242\276!(\027=U9_\276\215\320\332\275\211r\263=u\306/=\205\272\035<ddk\274}D\216\275\323\204\376=\200rx\276\256\261P\276\203B\260\276\355\223\323\27457\214=\321\t\274\27670\035>q\336\254\276\234HD\276\340h\r>\356\251^\275\032/F\276JJy>I\226\323\274r\235A>\203\331Q\276\025+*\276\3478\275\276\272\231\275\274_\'}>\331\3538>\3626^=\352\3106>1\235\017\276q\200\215\274\036\037H>\365\'\256\274j/\236=\224\336\223\276>\376\315\276\214\031\240\275\221\"\205\274\346L\220\276a?\261<u\363\222\275\277s\371=r\2649>\014\351\216>\213r\315\276\3517\226=\364*\251\276}\300\">\225 n\276\363\325\327\275\262\224\207>C\315\362\275\rf\250\276\\.\277\276#\002\211=o\027B>\177R_\275(\340\272;\205\240\203\275j0U\276Ai\243\275\253\023\223\276\244\315 \276%\271\337=\2376F\275\221\252\315=\315\2617=\304\300\235\276\277\357\257\276\312Q\270>\250\362\021\276s\337\377<\312\270\252\275\306/m\276k\017\327<\323\220\201=g\213\302;G\007\250\276-\201E\276\315\017\261=\352\005I\276^\273d\274\354\3761\276\320\253\021>\353\351\200\275\t\226\373\274\220\371\017\276\304\363\276:\205\241\264\276\370Z\223\275]\031\357=F1i>\374v\271\276\305\212]\276\352)\210\275\322\3710>g\000\335=F\224\224\276\024\300\023\276\250\301\356\275\022\341g>\300l3>e\234\376\274\325r\231\274\271\377\037=\306\225\000\276\332\220\312>\271\216R>\363\3109\275x\334\003\273GW\371\275\235\315p\276)\275\001\275qX)=\364\026\320=\204z\204\276a\326\t=\231\360S=\366\2321>#\217\007\275\244\335\357\2753\241-\272rX\316>\364\234\177\275I\313\217\276\031\0376\275\t\261>\275m\244\216>wt#\275\024`H\276ON\213=\2710Y\275\231\262D=;\234\314>\022@\007\276\340c\277\273\251\274\355<\371+\265\275F\314x\274\246\260e\276\276\252\301\272\363~\324=\336\235X>\220M\'\276\270&q\276N\271>\274\007\356\264=\206\356\206\275e\016F\276\340\373\033\276M\247\336\273\205l\276\275;\371\005\276\203\333.=\363t\300>\300\266\021>t=#\275\275Y\220<rw\251\276\036\322\300>\211\327\212=2\312\t=Y\226\350\274q=\307=\314\371J>\220\2029>\033C\234<\352^5\276\367\257\215\276W\3149\276\2130\266>\373\341\226>\006\rW\276s\224\264\275\355\300=\275C\327\031\276\324\301\016\276](\215\276a\306\236=\261<\'=\353\3221\276\275\355Y\273f\032\225=\323\025\000\276\224\034\226\276\013`\243>7\305\242\275a\340\263\276\017\202\273=G\227\354\275\021\203\247=\201l\203\275[\266f\276m\321l=q\374\264=\220\373\227\276\376\212 \276\347\264\247\275\337\035o\276\201\250H\276E\032}\275\371\337\026\275\253>k\275U+B<C\216\205=\353\205\306=\016+\203\276\000e\321\276U\206\235=\351:\232\276\357P\226\276\370A\020\276/\347R>\321P\216\276\r-\331\274\365\024\342\275\3079J=\267\201\312\275\001\272\013>U\243\203\275\255R\224\274\"\030\034\276\213\2764\276&$=>\354\346\210\275\223\t\341=\217\215\332=f\277\213\275h\2609>\365\265\024\276\266K\270\2768\226\253\273\217i\300=\233\026\347\275\266n\261>:!;>*\303\374\275\307\'g>Y\375u\275\301\246\357\274\231\022\215\276$K\246\275\362\216t\276~C\304\275%\rQ\276\327\310^\276j\231\216>J\316\006\276\024\016\360\275\003\350\323\275cX\034>\315\267R\275\306\271\210\276@\270v\276\335\343\325<1A\222=\307L\232\276\211\203\242\276\026\344Q\276]\351\355=O+`>\365\374\204<\030H\205\275vs\244\276\247CY\276U\367X>\321a\277\276!aD=\245WM\275Fe\324\275\255\220I\275\"\001\217\276\317\334\203>\220D\311>-\203\264=\263\021D\275\231\026\013>\227\010\">Ae1\276;\373:\276\340\373l\276\267\2707\276\346wj\276\014\301>>y\212]\275\025\366\376=\247\254}>\021\344\025>\203[\260\275\3411\344<\034\210\r\276\2104\240\276\023\'\020=]\310_=\241\025Y\275f\003\037>\305B\276=\347\035N\276\345\347\337\274\314)t>\212!\251\276\342d\241>\341\"\343\274|\020\270>\370#.\276V\363\374\275*\356\266>\326\013\202\275\304\235\300:\234\375\303\275\234\376|>\255j\251\274\311\365Z\276\266\251\242>#B\223>\233\'\034\275\313@\242\276\345\275\025\276\311a\344\275\330\2442>\374\n\205\275\3125\240\276\247\203\263\276\264\310*\276G\t\000\276\344\347\t>N\264\205\276\251\307?\275\'$a\276}4\223<W\355\276<\231>\024\275\372z{>H\033\322\276\235&\256<%34>\331\211\343\275)Vq\275lK\023=\004\333.=Y-\211=\037\352\322\275\313\347\233\275$\'\247\276\364Wx>OH]\276\022\022\252>~Rp>0F%>\315\200\207<\206\0226\2761c\220>k\211\376<\360?\000>r\362\223\276\273&\221\273\252\254\211>\003\3231>3e\002\276\271\361\031\276\352\233\202\276^\035\205\274\242\242<>\"\342*\276\220\255\255\276\326vb>\023\363E\276\322,\000>\2168r\276\031b\022\2769D\235\273\027q\330\274z\375\302\275\365s+\276`\025}<s\n\204\276H\313\207\276\275\345\350\274\256M\271=\231{4\275(\222\313\276X\237/\276}\023y=\r\340\253>\221\260\'\276\312T\245\2761\274\014=\217pe\276\304\000M\276\342\356\205>\320J\230\273]kh=7\307\231\276\263K\n>\304\306\304:\321+\325=\301\225n=1\214e:S\016.>B\233<\276\370#j>\345\035S\276\"\313\361\275.\013\255\275>#+>{Z\310\276\341\336\025>\034d\202\276\326%%><_\201>Y\210\323\275>\323\301>\027\254\026\276\346\200J\276B\265`\276k\254\273>\215\276\021\275\371\031\232\276\345\231|=\377\240\370<\214\310 =\261\307\317\275\361\273.=\202G\322\276\034\006\257\276\341\263\216\276\201f\333=[u\227\275\377i\340\275:b\027>-\t\001\276N5o>\221zj\2755\337\246\276~\334\223\276\227\343\\\276(\035\200\275\207\216\000\272R\240b>\355\337\371\274\311\235\306\275\3138c>\032\0267>\333\341\202\276\036a\257\275p\333\222\276M<\373\273\361xw\276$)\306\276\211\332\002\276m(\206=\037\344\253\274/ah\276H:\017>\216\316\004\276\035]&={\360\210=X\013\021\276\202\236Z\276\330\231\371\273\037\014>\276\021\344\030\275\245\257\256\276a\356_=\273k\231>\202G%\273\017%\266<\277\315\305\275\342\376\204>\352\236z\275\217\177\035\276\355!\271\276\271\254\206\274\n\034\331\275\214\244\247=\232\362\005>%\016[\275u\271\200=\t/,\275-[\327<\211p\307<C[\255\276\024\236\350\275\220--\276\375JM\275\310;o\276q#\344=U\253W<\223\207k\276\331%\275\275\rS$\274\2411\031=\240\010 \276\305\'\221>u\333B\276h\354\204=\352\"\203\276\211a$=\235u\213>C\223\261=\346h\206\2760a\264\276\361t\376\275M\244\337=_\030\001\276\246\365\256>\273\212\256>o\331+>I-\217\276\267\303\224\276~\347n\276\356\354\236>Qs}=\244\362\206\276\2258\034\276c\032\327=%\207w=]\372X>\010\251\207\276F\250\212\275\367\331\343\275\367OW>j\034\265\276q,n=\233\224w=^=&\276\315\227\214<\201\002\r<`}\231=k\355\223=OR\232\275\272\006\t\276\214Uv>\354\342\037\276\017\277%\276\310\376\253\276\031\334]=\277\336\232\275\377f\013\276\232\311\300>P>]\276\241\204\304=\304D\245\276\225\351/\2752\213\255\276\257N\347\273\252\202\240\276\211D\366<k\236\231>\337 \324\275e\223{<\027s\037\276JX\221\27674\233>\233-\244\275\320~\343;#p\217=\010\206\265>E;\254\276\337r\234=\237\355)>\017\306\224\276`\235|>P\254o\276\333\304\260\276\300\032|<eG\252=\207Jj=\233!\260=s\r\333\275\247\336|\276\013\224m\276MG\270=\215\333`<u\003x\275\035\310\035\275\275\267\271=\253z\030>\275\013\023>\275#\036>\3610Q\276Q\315\326=0\216\\\276\213\207\022>\235_H=9UQ\276\301t\344=\227t\r\276\025\341\007=`[8\276\315\017\350=\203\001\322\275\305df\2761\302\311=B\253\205\276\375\001\360=k=^>\377X\314\275\3354\206\275\013\316w\276\261G.\276\337\261z\276K\031\034\276\323\325\374\275+)5>\031J\027>\'D\033\276\374(\006\276\237v\016\276MUy\274\217[\203\276I\367H\276\217\023\210\275\t*h\276\327\257\311\275\275.\311<\271k~\275\353\036{>\277\023l>\273\333\037>5\202m=\215\032\226;\367r}>\225|\242=\221\372\202=\235K\330=\325z=>R]\000\2765\351:=\017e\002>\355:\254\275!\252\036\276\232\235<\276s\317\306\275!V\305>Yw\231=gX\257=qNz=\221W9\276\315\246\373\274\275\262\312\275\2731&\2760H\300\276\255\315\360<\373\233\034\276\217\271\325=\017\207V\276\024\220\270\275\267\033\321\276\251\320\222\275\221\236\311=QB\242\276\177\232\211>\001\271\261<k\324\020\276\034\225\271\276\222L\271=O\373\350;6\302\262\276\251\007B\276\307\215\333\2745\030\236>\205\317\246=C\205\016>UO\215>\215;\355\273\014E\224\276R\317\247>e7\206<\255L\231=5\007\035==\363\301\274)\344\023\276\315H\221=\361\223\"<\274a\n\276\341\216\330<\022\352\227\276\301e\263=\373y\303<|5(\276\227$M>\362p\271>\0143\215=8b\003;.\'\220>e\021}<\350\254\320>MGu<\367\307\227\275\177H7\276\247km\276\204\374\250\276\020\316\360\275\361 \213\275\315P\016\2759r\217=\0213g>\2523\032\276\r\206:\272k0\202\276\335{f\276\215-X\275L\3220\276M\324\322\273\213l\341\275\177\001~>\007\313+\276\005(>\276\215DN\275\227wx>5\0035>\241/\022\276\355.\202=\021\356\330=\376\264\000\276\357b\210\275\375O9=\255\031\r=}\301\337\275M\347$=Y\2316\275_\271\n>\271`\342\275\225\027\377=\315T\260;5\272\333\275\351\345A>-4\365=%v\205\276\271\017\202\276\021i$\276\341X\323=\023y\013>\213U\177>\235\275\213=\275\314?=\025\231\016=m\306H=w\273S\276\273\366\306\275\305\255\337=Kx\007\276\277\242B>\363Kn>-}N>\225\357\010>\357\021\356\275\215\234~\274\245\204.\275\013\034\312\275\007\037\021\2767_e>Wj\023>\2236\031\276m\251/>o\247\334\275\245\nk=\311/\276=\033?Q>8K6\276\273\273M=\233U\266\275\233\313\222=\342\372\217\276%i\"\276\211\203G>\2263\223>\\\\\030\276\220\241\313\276\374\243\204>\323\251\337\275\305\256\025\276f\2102\276\213\3657\276Se\310\276\354\343\327\275\267\363d>\302-B\276\310Z\216=\243\376\241>?\3402\275\375\371p\2767~\222>7\210\266\275\375\222\'>g\037\030\276&\243\026\276?\372w\276\265\370\r=\213\007@>\211\2738\275\275\315\361\275A\246T\275\323\347\363<L\032k\276\353\302\330\275\271\276 \275\247\340E>\324\246\270>\366\217\255\276\301\346\372<_\031\252\276\341K\r<\274\377\022\276\275r\221=\224yO\276G\027\237\275?\304o\276 \024G>\026z\257>\\\260\223\276\354\326\225\276%\250\240=\353\030\245=\207\035\351\275\2011\013\276\272\336\205\275\231)\341=\335`\321=Y\3106\275\272\235\272\276}\203\261<\246\314\n>%\323\353=\215d\215\273\337\244\016>\263k:>I)q\275\225\326\016>h&\200>\307\001S\276\367\002K\276\351\233Y\275)\014\314=\021\217J\275\355\217U>\021\367\250\275\245\\\332=m\035h==A,=q~\216=\266?,\276\211J\274=S\010B\276\370\312~\276\305\365f>!\t\361\275\353\250\024>+\224\003>?e,>~C\202>}\345Y=\221\304\341=\014*o\276\317T\275\275\375\333\302=\215\272\375;\265cZ>S\312\177\276\277\311@\276[\2157\276\025\t\241\274)\'\202\275]\202Q\276\225\222\005\276\245\024O=\315#\246\275!\260\235=\327@[>/\031]\276\035\"\377<\3156\r>\315\213>\274\005k\017=y\274\t>\345t\207=\273^z>W\3116>\315\220\020>\"\340p\276\375Jw=\241E\224\275+\307\347\2757\373F>\t\304g\276\275\305\'>}\3572=3\226`\276\261\314z\275\035\205\240\275[\243;>\r\300\354:\215\203b\274\347\331w>\201\211n>\225=\247\275\376\200\203>\025R\026\276\373\306\265\275\205\304\256=\243\243r>q8\034>\347\014;\276\265\335<\275\325\375\232=\333\245\244\275\205\321\270\274$\2106\2763\240\035>\235\321\353=\265d\254=\311\007\325\275\025\241\316= \227i\276{j\244\275\363\310T>yj[\276\306\237<\276\316.|\276\335\326\215<\307&*>G\340\203\275a\273\024>=\r\206<\035\221\262\275MEw\275\215\366T\276%\256\260\275\361wB>\325C6\275i=\254=\342\nG\276Y\225\345\275\325;6>i_\343=\001\370\315=\317_\036\276\335\0135\275\235\237k\276\ta\252=\005\330\301\275=\335\312=\rr\340\272\251B\240=mM\277<\r\275!>\325\361u\276a%\316=\345\266\305=\365\256{\275\304Ry\276\rU\364\273\353r\371\275_\204*>\311\265M\276\205\272\352=]\322\031>=\004\004=}m\301\274\\\206\203\276\377\263\035\276\317\220\'\276O\314B\276;\364\351\275\227\343/>\273\366\032>\235\343P=\235:\236<\305]\032\276\021\025\227=\003R\010>?\321\206\275\257\203U\276\013\201_>\363j\253\275\325\200\316\275\035\200\353=K\013\027\276\371P\344=1\311\200=\347A@\276\213\244\002>\307\023\262\275\374\010\202>\r\035\252;\3177;\276\355Q\273<1q?\276\355?\r=\r\354Z<\315R7>m?\037>5\236\315\274\'\263C\276\231\216d\275X\350\204>a\250A>%l\001>\021\246&\275\235\355\370\275E\244\034\276\311ui>\271<\001>\021^p\276W\311\300\275E\232\376\275\354\376\014\276uu\237\275\265;\234\275\312\313\037\276\033/}>\351\321\357=\ry\301\272\255\376\\=\r\270\263=-\274J\274E\"\320\274+\023\270<Y\326\323=\3248a\276\301\363u\275\205\260^=_>,\275\302\275L\276\316Q\257\275&\355\266\275\355\307\242<iT\325=g\376/=Z\264r\276:~\247\276\241i\231\276#\326c>\321\306\217=\023\343%\276g\214\241=t\267`\274\025\323\230\274\375\001f=7\362\272>\005\013\232\274VJ\220\276u\266\211\275\337[\260=\303\360\016\276%cW>D\221\240\276\303\267\226\276\007\213\257>w\351\025>{\3408>r\247\252=\324&\201>\275\200\216=M\020E>\350\215\370\275\272ac\276@3c\275\212\205\234\276\366\245\302>\350(\353\275\313\307\274=\374\014\312\276~\231\277\276h\031%>P\t}<\244\373J>\220\367\234\276\235\350\210>q$Y\275^\207\366:Wg@>\373R\211=\302\035\227>it~\276\360\344\004\274R8\233>\236\305\242>A\250Z\276\352\216[\276\366ES\275\366qQ<\351\211\271\276\331r\243\275\001-\235=\331#\244\275\3553;<\267W\263\276\016\256\224\276g\214m\275W8\223=\377\000\253\276\252\352I>\177\037\303=Gf_\275\345s\304\276\rL\265<\341\200\277=\267\214\267\276\025\356\300\275v\377\010\276\252\005o\276\201\361==\221IG=\277T\013\275\251\366\211=&c\275>\034\307s>u\363\310\276Mx\242=2J\236\275q\235b\2751\017,=Q\241\263<\221\254\203=-;\311\276\377\326n\276E\307\245\276\033\021\352\274\022J\203\275\270\300\261\276\230\215\355\275\000C3\276\215\202\210=\210|\222\276\352Qm\276\3032\000\276\n\252\220\275\t\270\214\276\363\271\274\275\365\361\312\275\003\206\334\275\317\371\031>{\356\324=\013\232\021>%O\304=B\247\266\276\333\274\246\274b\225\004\275\317\366\266\276-q\215\276\212\016\247>\324\301\202\276\n\252\200\275"
      }
    }
  }
}
node {
  name: "decoder/dense_1/BiasAdd/ReadVariableOp/resource"
  op: "Const"
  attr {
    key: "dtype"
    value {
      type: DT_FLOAT
    }
  }
  attr {
    key: "value"
    value {
      tensor {
        dtype: DT_FLOAT
        tensor_shape {
          dim {
            size: 64
          }
        }
        tensor_content: "\356\207\022>\034J\031>\227\370\376\275\034J\031\276\034J\031\276\000\000\000\000\346\001<\275,\213\n\276\034J\031\276\034J\031\276\034J\031\276\034J\031\276\034J\031>\034J\031\276\034J\031\276\034J\031\276\000\000\000\000\034J\031\276\034J\031\276\016\026\010>\034J\031\276\333\256z<\201\222T\275\313\246\177\273\034J\031\276\nT\270<\364\237\347=\356\207\022>\034J\031\276\000\000\000\000\034J\031\2765)\272=1\313\335\275\324\305\013>\300\305\013>\r\244\254\275\000\000\000\000\034J\031\276\034J\031>\034J\031\276\363\345\225\274\034J\031\276\034J\031\276\356\207\022>\337\206\226=\034J\031\276\034J\031\276\034J\031\276\260W\250\275\034J\031>7\332\350=\034J\031\276\374\324\026>\034J\031\276\034J\031>\014\031b\275\034J\031\276\'\322\315=\251\334\202\275\034J\031\276e>\006\276\034J\031>,\236D;\034J\031\276"
      }
    }
  }
}
node {
  name: "decoder/dense_2/MatMul/ReadVariableOp/resource"
  op: "Const"
  attr {
    key: "dtype"
    value {
      type: DT_FLOAT
    }
  }
  attr {
    key: "value"
    value {
      tensor {
        dtype: DT_FLOAT
        tensor_shape {
          dim {
            size: 64
          }
          dim {
            size: 128
          }
        }
        tensor_content: "w\276a\276\032;X>#%2=\354jt\274\337\240\"\276fr_\275\363\266&\276%\003\212>\373\341`\2769\234\210>\341g8\275\315\006\224\276f\200\215>\265\300\251\275\303\374\322\274\303\231\250\275\327\365\212=\037\375\n\274\203# \2764\307\335\275q\007^>\315\246\233\276\002\203\233\276\376\254\177\276\216\353\272\2747\261{>y\2323\274sdl\276\315\321\300<k\r3\2750\315B\276\353\247\214\276|\255i\276\255\307\225>^\236\377=\230\225\003>\231\227a=\370$Z\276\356-\023\276\275v\266=@2~\274\345l\002\2756\230\n>&\266\252=\354\316\261\275\234\030\244\276\235sl:\000A\262=\263\271d\2761m\207>\027Pe\275\321B\242\276\033{\325\275\346\202\213\276\021\033\221\275\225z\215\275\177=\235;\333\222F\274A\315\001\276\007\225\'=0\372\276\273\304\253E>\341\004\217\276\2515\366<\345\\\r>\241\026\037\276v\007\313\275`\372\243\275\345\371\331<vu\244\275UH\010\275\307\0276\276\263l\372\274\377\362\027>\317\273o\275-\251\205>\2222O\276I\333&=\031\002\013\276\t\243\231=n\345\322\2753r\342\275\3215\032=K?\307=\345\347\372<g[\256\275\225H\264\274)6{\275\214\216\024>!\240\004\275!\207\200=rj\'>\320X\t\276\177\266\352=)\2158=z\275-\276\332\274\214\276\005\342\202=1\256^=\320\267c\276]9\201\274\001?\232\276\035\304#\276\366d\t>7\375d\276\324w7\2763C\227\276\211{n\276\201\342\251\275.C\206\276\313\317\272\275\260#g\276o\364\250\275%\236\247<\3431\326=\227\347\307\275\3351T<\006f\024>\342\256\010>_\255\237=\373\362\370=\220\350\t>\366,3\276#\230\222=~\230\'>W\326(\276\237\017\370\275\255\004\340;\031\362\236\276\270\374$=\346R\307=\364\023\305\273l\035U\276,\337\224\276\315\266q\275\267\263^>+\034\235\276\005;\210>\345\363\311\2749[\217\275\250\215\245=\256-\232\275\363I\037\276n\304\201=\371\322\013>\235\246=\275\311\261\201\276\020\\=\276\205E;\276\245PA\276$dG\276\330j\032\274\265\215\271\275\320\360\234=!\264~\274\227\244\365<\227?\030\276\220\233\n\276>\036\247\276\300\334\221\275F\321L\276/\316B>\035\251Y=s\026\322=\221\356u\276#A\374\275f\202\345\275<!\270=\233%\226\276M\263u<mQ]=\341\307U\275\224^\210\276\201\362\271;N\246g<U\300\370;\256\307\223\275\375\177\004>\221g,\276jn#\276\355\374\274\275\214\357\200\276\0326b\276sX >\2551q\275\033\375\201=\362E\231\276\321i\332<\270l\200\2757\270X;\210\264e\2763\245\033\276\261\270\013\275\262\360\206\276\274\337\212\276\273\210|\275\257i\351=*(\177\275\274X\034\276\234\276\037\276\335Y\241\276e8\243\275\375N]\275\204Su\275\325\355\204\274\017,>\276\213\363U\275\317\324j>\r\371\306\275\216\337\206\275\r\335\347:\003F\335=\273C\233=-x\345;7\275\342=\275\326\t<\315,\225=\235\376\332\274OR&\276\341\212\037\276M\r\320<]\310\237<\261Z\"\276?\202\331=1BF:S\2569>\301\356\337\275\264g\246\276h\271\334\275}>\302\275\253 .\276\251\361\252\274GI\224\276\200G\242\276\206\203\\\276%V\305\275b-\227\2762\332\341\275!\365\366\275{\0175\275\255\357\303\274I\207M\275\337\354\\\275\335\312\203=7\r\357\275\200g\023> \302\274\275\361k\360\275\315h\253;\267c\320=,O(>\247F\314\275\325\316#=\216\335.>\303\200\357\275\353\345\027\2762\233 >\202\227\035>cn\322=Aa\001\276S\207\257=)\357{\275\r\224\004\274Q[t\276\312\033\344\275}x\354\275\321\207)\275%\262\252\274\214\234\037\276\276\3062>\215\317\n=\026\271\037>I\210^>(\3757\276\261?\225=\255\223\"=\325\370R=\235a\212\274\234\276*>\307y\364=\331\374\375\275\037.\277=\355\337\324<1uL=\215\371\213;\361t\'\276\004U\036>\361\350t=Z\344\177\276\364\237\033>\215\236\274:\225_)\276\311\344\360\275\225\364\322<\323V\241=\213~`>\035~2=\003W\037=\216X\224\275o\206\234\275\321z&\275\2202\034>!,N>\345w\033=I\005\002=\036\336+\275\250\037\'\276iji=!+\r\276\344\005\t>\274\367\030\276\231\256\246=\265o\200\276\337TP=\254\031\001>\177\260\356=c\234\335\275\220\267\206\276m\350\320\275-\000\010\276\035w[>!Q.\276\035\361\023=\007\235\311=\tu\001\275V7\003>m\255o<\305o\026\276e\206\206=J%\310\272\215\305\221:\316J\000>Me\033\274\355Bc\275\267\353\305=\364T\317=\357E\340=\203\307\260=\353\021\212=n\275\255\275\rz\222\2745\232A=h\272(\276\217L\305=-J{=\375\264&\275\023\201\266=\215\266\006;\374K&>;\366\205\275\362/\t>z|\346\275\223w\t\276 \004\216>\226\361 >%\372&\275]$T=M\352c;\276\364\360\275\221\327\003=\365Q\307\274\314\347\033\276\375\002\225<K\361\323=\324\273\377\275\335\334Q\275\241\002\032\275\277\206\023\276q\0033\276\235~\215<\275D\335<5\376r\275\355\031\035\274}\345\020\275NC4>\212\225\242\275\216\252\016>\267\223\340=\267\333\250=U\023A=\267,\273=\275]\005<\343\305\221\275\332\252\217\275Dz\303:W\332w>\"\2604>i\377\222;x\014\230\276m\235&=\263\273\036\275\260\021W<w\245\317\2751hx=r%\321\275\313\315\"\276[\340\206<\345\265\035\276\351NS\276\204\354(>7\333\200=\343M\231>P[\007\276\237\005\204\2750\214\026>\217\030\202\276=\372\004\276\3339\244\2755\223\236\275\374\027\367=\241\210^\276\361g\033\275\325\n\214\274S\255\211;\231\312\021\275\307\222\246\276\032\005\215\276\303\262\327\274\377<\303=\241Ie=F\246\333\275\'\200\313\275GBG\276j2\245=\352\204V\276\314KN>K/v\275d\307\t>E\303\216\274c\312+\276ED~>y\373+> \322\354\275\333\275\003>7\367\313=\227\347\303;\022\235\030>\256\355\254\275\240U\214>\205:\244>DU\306\2753\014\303=N\320\226\276\253\3673\273}\346\234\275@\252\210>d\356\t\276\261\020\260\275\263\002W>\220c\007\276>8)\276^\026M\2766\005\236\276\230\000\035>\337Y\346=}]C<m\351\326\274\275\234\016=\227aT\276\324k&\276\275\373a>\301$\032\275\273\005\331=\312\216\220>\r\021\022\276`L\004><\316!>\215E\377\274Eb\222\275-0\313\274\360V(>]\3348<!\205K\275qH>\275(}\322\275Y\201d=\207j\031\276\377\270\374=7=\372=\227-\362\275\216\237\230\275\314\006Z>\025\373\205<\036\303\240\276\r\346\305\270Oa:\275C\220\245=\230J\211>\213t\017\276\223\357\014>\233\\\203\276\301(P\275\271i\250\274\035s\033\276U\367\r=\375\204Z\273Wb\317=M\206T\273x\003\016>\345\203\301\275\225\277\342\275\207\'\350=\375\212\271\275hg\'\276\034\341\034>\315\315j;j1\205\275\204<\007>=#\243<\235\307[\274\266x3\276\241\360\371\275K\241\245<E}t>N\"u\276!l\362\274&(z\276\215\332\303<\243c\216\276E\245{>3\273I\2760\353\223;]\024?\276myP\2765\021.\274\025\257\024\276\337\301\234\275\251\007f\274\315s\360=UR\234>\026\203\217\276\325<\203<\223c\206\273\224\321\207\276\002\341D\274\273\245\276\275\021\276F<\300\355?>?\031F\276u=\272\274%s\351<\362\264\207\275\013\211_\276\331\225\035\2768\211\231\275\342Z\323<\023\372\027\276\251\336l\276\005\250\325<\220\245\036\276\371gM\2766\016\323=/\321J\276%\301k>\207E0\276\322[m<.\300\212\276\271]\200\276\000\350\213>*\263\244=v\274T\276\215l\326<5\031F\275h\341\331\275\375r\360\275\223\246D\276~\031\375<G\323==i\021f<\026\355D>\031\177\210\276\374\232\213\273\323\\\003\276Z\217\037<\001\312\377\275\035H?\276\3161\021\276\002\334\037\274\203\265w\275\035z\016\276\321\323\200>K\030\341=;\006\006\276\352\356\033\276\360\233S\276\257\243\255\275\3660s\276\n\006I>\272\034\200\276\215\261\210<A\027\232\2729\'i>-\r\370;\377[\342=\3750\n\276\347\362\235=\375m(=\0130\232==D\201\275\315\370.\276ujg=\3544\014\276\215\0271;\031\2125\275=\311\217<\330\026$\276\r~\203\266\353\037\215=L\347\307\275\027\3705=}\000\206=h\367\234\276dR.>\265\3074\276\363\302\272=j\315\345<\310,\245\276]x\256\275\223\365\206;\231ZZ=%5\215\276w\346\024\276[.\275\275U\2246\275\364\2422\276\272\002\025>\251_\r\275\212j!>\363\316\303\275=\371!\274\226\013*\276\0375\343=\033\257\262=Dr\026>W\005\032\276*\332!\276\341\021A=\035hi\274:\034.>\r\2213\275\315O\277\273\224\320\030\276\255{\260\275c\367#\276\374\207\353\275\341\254:=\025\315\'=\222\034\305\275L\004\n>g\263\255=Ig\032\276\340\357\037>\315\357\374<\341\2051\275}hC\275\255\375\317<\341Z>=\353\324\340\27550|=b\344\235\275\017\273\336=?\233\360\275w\237\375\275\307\t\277=\205\024\365\275M\035C\274\307\027\177\275\017\362\310=\264#\000>\0030\224=;]\236=\345-\034\275\347\234\251=|`\027>T\261\237\275\277\303\307=\204\314\">c\206\007\276\247_\032\276-\303\304\274\211\212Q\275\211\000\201=\327w\356=\347\234%\276\321\204\317\275M\0264<Q\016\374\275\227/\327\275\337wc\275\270\310*>\r\375\222<\325c|=\343H\371=\'\025\003\276-\207\265\273\001\355+\276\027\232\t\276\373/\310=\324\320\033>M1\317<=(\321<\301\3063=)!\'\276\225\014*\276\r\237\312\274\264%\026>\216\\\014\276k\353\317=\215\006\321\272\343\307\265=-\375\033\276R\310\014\276\030#\026\276\335\366F<N\027\327\275ol\t\276\004\216*>]Z\204=\005\337\371\275:\"\010>o\213\243=\340\205\026>\376\370\232\275&}\350\275g\320\036\276\373\313\373=\270\002.>\2460\241\275\255H\n\275\024\\\027>\277\235\303=+p\363=\356\257\306\2754d\020>.?\205\275\235\237\032=b\035\017>\200\323\">\257\351\362=C{\321=\263c\325=\205*\356\275\211e\216=\207\243\225=\361Q!\275\271\266\r\2755:\007\276\375\240\256\275\267<\302\275M\032\253\273\227k\260\275\360j\'>s\234\372=\001kp=\234\346\257\275%w5\275\330\307#>\215_6;/k\364=\t\253\221=s\374\016\276\003\214\305=\374\3351>|.\350\275\276\257\226\275\351\204,\276\265\320$\275\343\244\353=\312\364Q\276\252*\243\274!4\177\275s\270c\275\235&x\274\231\034\026<\215\333{;_\353\260\275\375\225;\274\226k\224>\375>\343<\t\251\003\274)\217\236=\2048\024>\323\372\227\276\032\024\242\275i(\204\275\247\204O\276p\341\005\276\013Q\257;\225\337f>\332\177\231>$p,\276\215\205&\273\271p_\276\303a\353=\2061p;g\357\235\275\254! \276\321a>\275:O\375=\007\201\334<\357\252\321\275sP\262<y\201\220\273\223LV=\251\302\032\275\357\035\255\275\014\026\261;\001\376\303\2745T9\2751\255H=\013\376\276=xf\212\275\031\270%\275%=a=\020\306\203\275\032\005\016\276(\313(\276\271\021\255<\330\234\000>\0054\361\273E\332d\275\375@\000\276\033}\210\276)o\240=\226\273\027>\265\275.\276\325\t\330<\353\235\020>\017Oh>\352\367\265=\255 \225\274\373\031\036\275\303\217\177=\357U<=\215\000\251\273\304;\020>\356\246.\276\345\t_\275\237\227\022\276\215\216\236<\355\232\222=\007\304G>\341\036G\275@\323\212\276\205$\243\276k\356\224\275\r\2725\273li(=:`\022>\275\206a<\361T2\276\363\224\344=AQ\274\275\235]\236<\3578`\275\315\372\016\273\363\205|\275\244/\004\276\rJ\202;\007\366\367=\213\207\244=\305~4=1\262\001=\305\007*\275f\316d\274\324\2609\276\255\362\334\2736\345\035\276-\010\200\276\333\004\r\276\t/+\276\036#;>\277\230\r>\336\311\277\275\225:\254\274\274\202\026\276;i\014\276]\207\337\275\231\272\324\275\212%\213\275\261\305)\275u\204\303\274\335\036\216\274\355*\271<S\313\321=@\021\333\2755]\023\275\233\233\326=+\000\254=\r\217J\275U\212\313\274\017\244\365\275\206\017\033>B\351\n\276\255\302\n\276$\254-\2761\tm<\346(`\276) J\276\320P\t\276\021\2205\276\265=g\276\217\3379\276\035*A:\002\271\365\275\030d\302=\326\327\030\276(F\033\276y\303\347=\023R\036\276\223\312\327\275\361\271\r>\246\'J>\233#a>\310|+\276q\243\366\274\330\354\215>\277\030N\275\227\036\206\276\235\322\215\276\335h\313<u\323|>\235`3\276T:\302\2726,\032\276\351\270\212\276\321J7\276\304\316\212\276\265[\325<\220\375O>\364M\014=t#\237\275\013^\343=$|\206\276J$\212\275L\340\275=\241|G\275\335Pa>\177\241\336\275IOL>\230B\025\276A\035n\276\300\024\256=\335!\030>\177i\241\276\263\356\211\273\355i/\276x\350\327\275%\260\274<\320Z\373\275\035z$\276\322\'A>\300q\373\275\241\210k>\027\336\221\276l=\217\276x\030&>\036\213\216\274\252\267\230\275\301\004\231\276\356K\r\276\263%\231\276\017\360\225\276\376R4\276\361D\304=j\300\013>\300o\t\276\017\225%\276\"\224\207\275\2221p>\233i\225\276r\030h\276\231\334a\276\214\237\345\275q\222G\276-H\301<\344_\037\276\303\375\301\275\345D\316\275\355\355\201= r3>E\215#\276\255\375\'<\215\'\331;\347\270\275=\220\235$>\234A1\276\362\342\376\275ou\344=%jO=\325\323\330\275i\3073\275\240]X\276\333h\375\273\035\007\022<\202\316a\276\341_\270;5\212\017\276c\221\341=\251\035&\275\227\334I\276\322\027\215\2751\304\317<\256\274\235:\031\375\337;u\220\232\276\255lC\274F\006w\274-\226U\275\333[\226=;\031\007\276\031z\006\276!\251g\275\340Y\027>\026\365\n>m\2317=\373\335\372==\370E\275\365Z3\2764\275\"\276dC1\276/Q\304=\265\302:=\303\"\267=[\312m\275\314\332q\276D\321\t\276P\372V\274V\010\232\275\177\034\230<Z\022\325\275\224\314\307;&1\236\275s\254!>e\247\236\276\200\362\213\275\361\267\000=\257d\004\275\312w\241\276\214\217\215>zFd\276\245m\217<\355O\212\275\204+->\2212.=\242\354\271\275\260\t\210\276={\002\276\276\267\232\276\241\343y>dJ\357\273+\300\304=\275G3\275\202\370\220\276u\273{<\320\267\237\276\212\037\215\276!\225r>\033q\276=+\377\365==\t.\275D\353\246\276G\2655\276\301\354*=q\373\372\274[q\020>\033wD\276\275\360}<\266a\207\275\231\033@\276\244r\200>\265\254y>=\267Q\276\221\217\002>\350\351\023\276\341nd\276uY\355\275\356\346.\276\023\036-\276T\004\206>\202\033\232\275\007\250:>\016/\3319\342S\205\272\215a\005;uj|\274T\331y\276\324\344\255\275\005-\031=\233G\254\2758\177\007\276\302\033`\276\3177i>\r\326\001\271\255P\237;\373i]\275\225\376g\275}\362D>l\246\206\276\251\236o\276v\337&>\217}\205=\315y2\276\376\235\236=\315\267W\274}I\252<\356\036\025>\375\2474\274\251\310\316\275\204|\021>\263X\321=\272\327\327\275u\363\307<\215\300\302;X\'\033\276\301Dy=\305\276D\275t\2052>R\232\316\275+{\261=\274\263\222\276{.\372\273m6\017=rzG\276\235\366\016<1|`\276\016\214!>\005\177\252=\306\353\357\275\305n\364;\371\006~\276)\376b=K\277/\276-\257\217<.X\037>\037\372\234\274\033\247\242=\255R\027<\215\373c\274\001\017!\276\037a\231=\230f\017\276E\356\223=qo&\2768\207 \276Ml,=\025\313\320\274\324\365\301\275\321\254\022==OT<\347\235\217=,\361\321\275g\370\325\273\225J\237=d\2014\276~\273<\274\262\2206\276\215/\205\276\233/\221\276\343\2429=\205]\305\275y\3608>\037Z\215<\210-g\276\203e\216>\205r\005\275z}\231\276\013P\317\273\211*&=\025\300\216<\237_\300\275g\261\334\274\211\374]=u\275\177\275|\005J\276\r\r\232\276l]\021\2768\017\215> \037\372=H\244!\276}\234\246<3\025G\276\354\3178\276\2638\310\275N]z\276WGH=T0\321\275\325\261\210\274L\315\256\275\234\363\245\276v\316?\276\362\340\221>6\244\313\275\255\336\313\273\021*\033\275\330?\035>\345\032,\275\310\356\005\276{*\364=\210FC>\303)Y\276\225\222i>\305A\231\2755 #\275\240\005%\276\320\001\366\275Z\034\214\276u\264\200\275\332\"8\276\033\026\t\276u\010\246\275\2127\223\276\206\004\230\275t6\277=\370\311j\274\343\006q\276HT\316=s3w\275T\272\203\276\233\240\230\276\203\031\214=\305[\324\274\305(a=9\242i=\217\211^\276\252-\220=\341S\230\276\322ap\276\002\332\235\276S*\303\275\000#\372\275\207\'\032\272\275\337I\275Sm\214\275M\261\224=1\367k=\275\374\000=Y\021f=vX\">\345\214\273\274\322_\320\275\323\264\263=w\351\366=9\371\330\275O\211\272=\025u\355\274E<\205<]\221\260<\023\240q\276\372\006\354<\205\365\034=%%\312\274\3751\"\276\347\273o\275\031\247\227\275>\010\237\276\306\n(\274\004\"5\276=7\221<*\222\001\276\324]\200\2765w\216\276\3419\246\275\3619\250<\234B\027>\235E^<-y\205<\303\014\355=\363\3721\276\201\036\t=\356\353\031>\235\312\313<\315)\037\273-\241r=\327\005\304=\374\224\"\276\365\265\254<%>\337<k\177\356=\215\256\354\274\361\375\273<R\277\003\276\001~\017\2767\036\177\275C\364-\275\177\232\326=E\016\263\274\273\362\327\274\232!\224\276v\345\213>l\004\033\276\311;)\276\2510\244>p\364\367\275\036\373>\276+\005\270=m\371\203=Q*|\276\033)\320=\'\304\343=\257\3330>\271\'o\275\rf\201:XL\031>8\314_\276\031\376\222>Q\356\036\274\003\314\344\275\204\270\304\275\367W\030\276\235h1\275T\014\224\276(\330\200\273\023\306\001>\371y\006\275aq*\276\237\273\254=\255S$\276\r\227\020<\347ko>\200\033\006\274\r\016\374\274\322f\007>e\235\027\2753\272\233\276\263\314\267=\025\306\255\274\031W\241<x\273\217\275b\255]>\243\317\001\276?~&\276\205\256\267\274\024\264\310\273\247m[>A\0219>\315+\204\275\205H\020\276b\323E\274%\3327\276\025gV=;\005\000=\302\267n\274\201*\212\276i\300\002\274s7\312=d\237\310\275\321\240\030\276+\237\367\275O\027\337=\201\024W=\253\366\315=\275\325\243\274}(\334<@\325\010>\rt\024\275\334\220 >]=\'<\037\217\037\276\210\003\204>\315\212\r<\321\330J=\306\223\001>\317\3352\276\332\005\023\276\266m\357\275\335\"[<\215\272\276\273\211H`=\005O\277\274\223\327\333=\215\336\214\275\316\326#>Ae-\276]\356{=O\001\300=ohp\275V\037\230\276\222d\"\276-\320\017<\355\236\010\274`\250\275\275\261\203_=\317V\020\276A`S\276\232\257\227\2757\2432\276\210\233\026>3\265\236=\035\214\007\275\256\231\343\275\344\007\201\275\212\224#>}\350n\274@\311\n\276m\262\226<\315dF\274\373\277\273=\355B\254;\rT\201\271\177\356\372=\347\367\330=\254W\016\276\374\215#>~K\376\275\032\3423>\265q\030\275\025\270\027=l\354B\276\207\024\366=}\2452\275\202\234d\276\004UD\274\353\204\226\275\314\032\276\275\376\0330>9\303\014\275\214\300\214>\024\370\002>\356Fz\276K\226\221>\337W\232\276MZD\276_\361/\2764\250\363\275]\201>\275\312\320\024>r}\315\275\214\233\222>2\264!\276X\220\031>\017#\355\275i\315\235<\"\216\200>3\334c\275\245\025\020\275\361\2605=\267\234\375\273\0033\032\275\240\346\212\276\274\346?\276=Vw> \002\032>\360\007\013>\363e\364\275\3372\367=o\301\230\276^\257\006;\t?\003\275U9!\276\027v\364=\003t\300\275\205SM\2769\257_\275\274\337\'>\035nA:\221\233H\275K\276G>\357\003\033\276I\214\301\275\245\007\303\274$\001\213\276\223\177\237>\303}&=\245o]\276\225\ru=]\362\315\274\210\275\\\276\022\002\255\275%\022\203\274G\313\272=\262R >e\3554=\271\276R<M\352K;\007H\'\276,>\235\276\225\337\026=X\364\337\275\257\006\351=\rUx\2766W\354=\345\225\277\275\365\337#\276\r\003\260\272\367\372\\\275\215B|\275j\216\224>j1\002>Y\t\222=2\230\016>+\362\320\275\210\216\r>\r\273E\273H\351\342\275\353c\313=\315]^;\266\225/\276\033\316\342=n1\336\275u\265\010=\035]\001=M\337\030\275\2533\257=\347n\334<\362\236\224>\212z\004>>\027->mX\020\275`\327}\276qj^\275\2632\335=\003e\353\275\265<Q\275X\222\200\276\264\244 >\010; >\005\344\340\274Mo\024=\264\001\205\276s\373\352=\256s\311\275\007\230\250=\374\005\250\275\347\270\340=\255\207\342\274mm\263;\273\214\244=%\244M=\037\371\260\275=\370\212\275m\364x\274\3555.\274sG\330=u\356\213\274~\243\017\276P}\215\276g\241\227=\357I%\276\2444\203\276\305\252\305\274`X\276\275\26770\276\020\"\022=\036\306{\276\277\343l>\004.z\276\337\360\237\276\310\237<<\341\270\211\276\007KW\276\207\2251>\277q\215>\2230\240>\305z%\276\365tE=\326\222\253=q\272\211\276\243;\220\276\373@\022\2768v\243\276c\215N=\1779z\275\275\216\225\275\215))\275\310&Z\276%\207\017\275N\344\372\275\247\366~\275\342]\246>\251\331e\276\255\342`\276\204O<\276\311\"\010\275n\205\353\275\022b\317=?\n\235;M\265F>9\343R\275\341\251<<\271\243\222\276\365i\203\276\253\223s>\347\306\024>\366\021\220\275T[I=Z\347\"\2760`\r\276\344\233\244\275\036\314 \276\271\326\227\276)\342\340\274\017\321\372\2750kX<\001\021\223\276\033\357\017\275\262\177\021\276\373g\002\276\267\3334\276G\306\205\276\323\337\315\274\202(\305\275\366\251\250\275\211&\334\275-\014\004=\227\270\342;\006\371\214\275\2750\300\275\302F\\\2767U\266==NO\276g\353w\276\024\344\221\275Y\007\372\274E\027T\276@\324\346=\313\206\177\275K_\330=\t0\016=M\302);%e\206<?\014\340=?x\307=\320\373\000>\260-\266\275}f&=\316O\020>\304\004\036>\357\374\204\275\235\020V\274\353\270\027\276\315\374\033\274\232_\004\276q\312,=%\035\004\276~\367C\276\230{\014\276\353\336\\\276\006\311\246\275\330i/=*\353+\276\225\374\335<\366X\242\276\214oB\276\206v\240\276=\252K\276\226\247\315\275\257\360\201\276\2416\356\275\245P\"\275\353.\334=\251\2009\275\222i\276\275o\341\226=\313i\256=\274n\304\275\213\336\231=AS7\275\245m\352<\351\3577=\274\353\201\275K\321\275=u\253\215=(\0102>$\253>\276\265\000\204>\337\"\321\275\026Vl\276l\246V\276\233\337\336=)\363\221\276)\305P>bF\273\270\305\370\021>0@\203\2768\025\002\276-b\306<\323\362\225\275\361\231\234\274\273\201\226>,{\261=\321\343\003=\\\351\217\276\362\020n<\263\207\212>\023,<\275\\f\206\276\326y\204\276\333\201*\276WJu>\031:\257<D\3424>M\200\352\275<\322\021\276#\321\342\275W\311\267\275\356\375\244\276\227\223\240>\256\010\000\276\275\273O<V\374\010>5\"F\276\034\tl\276?5`>\341\301\n<\310\355\377={\333>>\353M\352=\034\010\350\275\254 m\276\221\362B>)6~>\224\222\234\276\307X\247=\311R3=\372\214\215\2751\371\016\276\377\322\244\276\257\305X=\240\2650>q%\026\275uM(>(v4\276\357X\245\276-\255\227\273\032\232m>\032C\234\275\323\305\037\275Mr->{\217M\275?\206\004\276\235\244\221\275\321E!\275\363d\241=\226\243\020\276\205\001\025\276\2029\373\275\3218\274\274\301\207Q\275\366\264\031>\036P(\272\323\014\251=\313\200\024\276F}M>\tUr\275\227\216\223\275\025\306\377<au5=M\006\255\274\325z\251<\244\007\034\276\271>m\275\215\322\221\272\r\t\246\272(+\007>\213\305\336=\020\360.>\356\314\037\276\r\250\027=5cJ=]\375x\276Yg\241<\315\271\r\273\023$\273<[X\273=\t\315\217\276`z\336\275\371\016\306<JI\022\276\350qf\276\334\231\227\276auR\275\177\027\224\276\333\347\366=\255<t<.\304z\276+\313\273=UD\221\275\232&\260\275Q\222d=\021M)\276\332\333\031>M\021!\276\356D\006\276C\233\345=N\254\302\275r\036\001>\375\342\032<a\"|\275>[/\276o8\236=C\213\311=\216$\016\276+\337@=\356\314\376\275\246\324\000\276w>\355\275\262\247\227\276\265\361\217<q\327`=\213D+\276\202{\037;f_\220\2766fz\276\302\241Y>\256\242\226\276\371P8\275\231\340j>\352\010Z<c\375\242>\005\230\301<}\364T=Q$\245>\325\227\016\276_\337\355\275e>\032\276T\003K\273q\025\"\274\033{b\276\340\247\210\276:u\026\276OP\353\275H\305[\275\327\316\334<\336\307\230\275\007C\243>\375:\220<g\3210\276@\357u\275\3776\227\275\256c>\276\235\222m>\225LC<b\211&>\246uC>\347AC\276S4@\276\311\031\217\276c\270\326\2739d\022>&\367\006\276359=%K\356<\242R\307\2757\3110\276!t\266\275\314\227a\276\351\320\030=\n\250\215\276\312<T>g\020S\275\230V\211\275\303b+>@\353U>\306\013\233\275kK8\275\365\372\t>%\367d\276\315\036\206<\2044*\276*\022}>`\200\007\274fT\204\275I\"\346\275\337\312f\275\246`G>\320]B\276\243-5\276(\303A\274\215\277\317\275;\350=\275\215]-=\t\341.\276d\3301\276\313$\216=5]\022\276\"6\021> \220\004\276\377\323\241=]0\032\276\r\224\2629\3359\031<\315\031\245\275h\222\033>\r-\211<\314\345\035\276\377\002\n\276-\246\354\274\331*y<$Fb>MG\026\276A_\242\276<\341a\276\323\317\224\275\304\303\035>\027\267\205\275\335\2679<\330\313\217\276\372\332C\276\001\231l\276c\0143\276@\317\002\276\034\3462>\244A\334\275\207:\230\2755\030.\276\253G\235=Ne\033>m\262\346<\251\226\014\276\257\254\207\275m\177\017=\215N\177\274G7\001\276\247h\321=\246\240\346\275\245!u=\367t\341=\005\374\247\275Gf\204=KD\214\276\370vJ>\232f\212>\337\016\020\27643`\276\310\213~\276\357\347\277<\177r\220>/_=\276\024]\013>\205~Z\276\222w\022\276{\005\210=5\212\306\274vV\207\2769p\236>v\0033\271\277\265p>ZV\334\275\3317\003\275\231\221\336=\327\242\241\275-6\352\274Dv\204\276\257\253\246\275\265\234\250=\372MG\276\215J\311:\224\\\'>\253\243b\276\2469\220\275\312\206Y\276Yt\205\275\207;e>IR\347\275{p\034\276\233\222\355=3\363\005\275eB\232<\377\212\242\274|j\214\273\327x3=o\375\340=\355\303z\274\301\267_\275\023\004&\276:\270\207>Ct\243>e\240\035\276\013\362\030>=V\367\274\342<`\276\022k\014\276\255q_<_\0063\276\177\034\232\273\311\227V\275\n.c=\251\204\346\275\377\251f\275\233\371\251=\211G\241<yr\221\276\374\304#\276kJb=\265\257y\276\005\265X<Y\302\317\274\030)\'>\211\233\024\276\r\260f:\016r\016\276\r\320\214\275\275\310\216<\220\331\333\267\341\272\221\276i\314\222\275\335\004\033=\315\307=\276\230\014\221>ZO\035\276\217\341\'\276\026\342\033\276\235\323`\275\364\206,>,C\347\275o\1774\276W\343z\275\235\2321=\315`\013\273+\317\025\276\357\334\367=$\3003>~w\020>\215bc;\246\312\316\275\351\241_\275\242\257\300=}\216)=oi\245\275\341\222\353\275\234I\344\275\333\277&\276\232\005@\276`v\006\276\307UY\276\233\206\214\276%\231}\275\352\262\304\271\262\344 \275\r\215\002\275<\3069\276\031tE\275\030\030\032>+\021\033\276\013\321\275=\347\221\312\275;\325\312=?@\307\275y\2308=~\2610>X\341\006>u\307\225=\364\311&\276\203\245\341=NC\n>\342\t&>\345\346\037\275`)\014>\20223\276+\327\335=q\233N\275Ir\003=}\303\254\274\2539\017\276\016\277/>\0052\006=a\364\032=\307\232\323=\235\356d<\203\001\331=\rUj:\335\305\345\275m\305]\274KC\367=\023\220\300=\346B\006\276\033\206\n\276\rq\002\272\267\367\036\276\215r\332\275iy0\276\211\\\007\276k#(\276\"\013\004>k\267\334\275\215\237\007=\2059\222\275f\030#>\361\2034\275\002\305\033>U\302\352<>\362)>\316\237\021>\375\327\346\274\307]\322=\327\014\346\275I\'\003\275\327d\355\275@\236\034>\360\200\016>\374D\326\275RZ >AJ\345\275w\030\361=u\031j\275\221\222/=-4\016<\355\3200\276\305\243\032\275|\232\222\275\347\265\216=\245\274\235\274\000\260\004>\377\212\247=\226\277\007>Q7L=\270\227\033\276\324\305\344\275y\304\023\276A\357\027\276\266\334\003>\215Q9=\026\"\004>8L\345\275\3572\243=k\271\377\275W\032\345=\261\270z=M\271\327\275\243\207\341=\2312\001\275)\366\035\276\322\374\021\276?\242\320\275\345P\275\275\235U\'</\207\355=\322\204\337\275I\303L=\026\276\033>\356\333\271\275/\320\335\275\202\271\001\276\207Z\302=\r\242\300\274K\365\265=\336E\322\275;*\271=!\255\002=e\304\337<\021!.=\374\225\000>O\375\317=\315\253\254\274\027i\r\276e\214\243\274c\303\247=:\306#>X6\027>\305b%=\255\321\r\274\205\300;\275\375\367.\275eE\212\274\020\020\031>m\035\007\276L}3>!\342\200=\341K\026\275\201!P\275\367\270\375\275K\202,\276\217\347\221=\244\027\027\276\'\225\250=u&\336<\314\251\t>\227\323\210\275\275\375\372<\322\230\347\275\315=S=\225:\002\275\250\274\272\275Sc\265=\275&7=@\324-\274\243U\022\273\347\222\326;\221^m\276>\350\231\276\215u\333\275%\007\234\276\221T&>.\0247\276Ozf\273\204\315\224\276\033\243\204\2764\302\356=\357\322!\275I\326\014\275\027\335U>\266r\210>G\336\034>\370\276Y\276 \225\221\276\217\210g>]\303I\275v\030\256\275c\320\216\276\315S\340\274o\257p>\237\305\024\276S\321]\276\241h\032=\262,\266\275)\036*\275\341\306\211\2769}\276\275\370H\264=[\2736=C\'\265<VZ\207\276YH\233\274a\300\312\275\013\014i>\367d\224\276\230\3165=]\236L\275\342\214%\276\346\375L\276iv\027<\373\232\235>vW\226>\222{*\276\374R\272=\364X\026>SCJ\276\234\177\305\275m\205y\276\251w\016\2768\327\253\274\007\365\226<%O\356\273\337\334<\276d\273j\276+\261\202\276d\000%>\t\255\236<Y\344R\2755\370h=\300/h\275\034\3468\276l\304\377\273\335J/\275\376#t\276\346\315\326\275\244W\212\275?Y\030\276\000\325m>\346H\'\274\034 \202\275qe8\276\345\203\003\276\226z>\276\201,\017>\003B\334=h\212\033>\332+%\276\331p\'=\rV\371\271!(&=I\"?\275\322W\013>9[3=\233@\376=\216\3603>\251\000U=+Z\375\275\211\352\025\276D\332\214\275ym\253\275o\005B\276U`k>L\335,>\305\333W<\3374\314\275\301=\021\276\307J\202=J\261\033>\375B\026\276\353_\222<\206\337\207\276\307C\t\276\323\355-\276?\2261\275\305$&\275\251\204}\275\013\334\033\276]~#\276\343>\302=\237}\337=}\021\\\275-2\210\273\220\0164>\207\266\241=P\016\312\275\257\316\010\276T\2723>\235\275R<\366\351,\2765\204x=\357\017\367=\006\2212\276\231 \021\273\345\024o>\222\225\355\275\255.\231\275`\357,\276aNo<\2310\224\275zx*>\231\262B\275\305C\357</\352\353;\261\346\257\274\311\241\002=Pb\375\275\031\271\337;\275\265\321=54)>\215\016\256\274x\016j\276}\2077\276`\033\366=\000\353}\274\177\331\210\273\301\263G\275\354\366\314\275\n\t/>\272\262\2379\256X\200\276*\310&\276\237Q\247\275L\235\220\275\212\374\204\275:\221\222\276t7\242>\313\275\321\274F\324\235\275\2551V\275\010\345\014\276\350\t\215\276\315%\026>\360\375\226\273,\236+>\264?}>8\260g\275s\364\'\276%\032\017\276\213\270\335=k\007\226=\365#\277\275A\005d>\211\320L\275#\266\223<\353\320\266=A\244\332<\364\0028\274\345cA=\374\354q\2765k{>Dp\027\276Ia\215\274\340\330==G\224\272<,\377y\276\337\230\037\276\255\345\321\275\317\326\024\276o\262+\276\371\027\212<\320\201\223>\340i^\276\r\3620:uUy\276\207=2\276\032\277\236>\2618\320\275?\377\205\275[Mp\275\027o-\276\305\207\204\276\344y\304=>\227\307\275Gh\232=\r.&8M\345\234;\273q\217\2758\232\026\276\365\241\\=\013 \233=\0060\002>\371\024N\275\n\242#>\313\3360\276\231\261\022=\273\003x\275\215\367z\274\307M\313=\252\313\023\276\311\325\223>[[\253=\333\227\201\276\322\'v\276@\235\217\275\370\020\025\276\016p~=\370\247j\274\020\231\177\276?Bp\275\242\213\367\275\000\005\023\276\203k\000\276\345\321\346<|\203H\276l3\n>\366\267\003>s\235\376=\333.\344=5\201\371\274.\023\001>\'b\206=\252\323,\276\360^\303\275\215\210\236<]\0379<\275q\213\274\205\026^\275-r\334\274\315\311\263;\227<\216=lR\235\276\307\t\215=\345\275\302=]\036s\276\325\341\301<\320\305\266\275`\207\033\276YyS<\261Q[\276uR-=\211Y\243\276y\304l\276)\000q>\275)`\273\231l\231\276\033\013U\276z\236\002>\211b\252\275\366\314\262\275\230\274C\276\0054\205>\325Yj<MP\372\274q\304%>\"\303\024\276\373\035?\276\322s\325=\275\333\306<\304e\330\275\0331.\275]m\024=\316\024,\276\250\2114\276i\025\257\275\367\024\326=\336\271\237=\215$\352;\227^\204\276\255F\024>\344\265W\276.;\242\276wr\370=\030\255J>\211\215j\275\247\344\035\276\274\331p\274\024\202h\275\345\246\260\275\357G\002\276vr0><\366\030>I\304\007>\321\016j=\312\317\202\275\034\210\033\276j; \276ejX=\007}\221=?;\003\276h\365H>\004-!\276@\343\032>q\023j=\236\205\231\275\0147\224=\026\255O\2764O\227\276\n~X\276_/\310=\t\225\002\275\332\206\036>\025\r@=,\225M\276:\226:\276\"M\217\276\374\373A\276\317uj;\343\202\274\2751:a=\217\334\340=c\304\234=\207\227\025\276\243\367\005\276\rU\027\273\325\203\303\274p7\t>\253e\353=u\3144\275)\260==\205l\n\275\000\270\036>\370p\037>_\257\221\275Mb\006;p\227\006>\340\354\360\275\245Q\334\274\253\263k\275\245\243i=\377\366\340=\305EX<\336\"\246\276\365\331?\275\341\t\303=\306:d\276\360\330\031\276\311y\023\276_\333\223\275M\370^<\025\264\362<uY\233\274\306\022\226>\035\203\353\274\021\253\020=P)\037>I\244\001\276>\177\r>\223\236\377=\213\224\267=\205&\010=+\351\216\275\005\231,=\367H\341=\373\323\237=\206\361\013>q^\t=\007\300\241=\334\220\005>>\371+\275\003\276\326\274\255$g>\265\271\'\276\265\274,\276\271\337\214=\334\322v\275\276\202\244>q\016\022\276\006\256\210>BR\224\276\274\330K\274\357\266\237>\262u\221\275\210\332&\274e\276\220\274\366\367q\27693\330=\333=b\276\336S3>9\347\014=\347\222\265\274\270T\377\275{\371m\275\305\313\206\276DE\243>\035%\345\275\354]\020>\325O\'\275s\016_\276=\200$\276\351H\211\276@%M\276\263\360p>}\033R=]^\323\274wx\326=\352\262B\276\232\2000\276\037:\201>\231\242*<E\266v>A\374\201=\331z\027\276i<x\275b)\306\275\200\346X>\022\330\027>\\\260\241\276\234w\223>\037@\363=W\231/\276\021\357\305\275u\223\201\274\031\244\237>8D\244>\3515\221\274\306:\377=\010/C\276\335\025\023<\372\313\017>\021\364b=\2529\313\275\217\237C\276\356\201\337=\261\035#\276\235\017\217\276\364\347<\276]1\267\275\271\360==5\302\264<\244\351\035>\345\261q\276\215?\232<\366\362\035\276d\315\006\276\212\177\262=\346d\030\276\347_S\275\2420\201>\365\335\210=\2550+\274P\325\035>U)\266\274!\023-=\315D\032;\332u\021>\316G\365\275\240/(>e:\004\2755\330\330\274\270\342\367\275S~\371=\365\253\223\2741x\027\275\301\347\036\275\2405\274\275\223\021\202>\036\010\341\275@\226S\274\017\344\327\275\213\361<\276\001\3534\276;}e\2765H}\276|x4\275m\272y\276\005\333\255\275\233\343\214\276\\\204x\276\300\311\201\275\345\322\203\276\025|q=\272\332&>\230\357\027>\020(\000>\214\270\323\275\005\002\343\274\352\223\004>\351\355C=P\305\n>\206\352\252\275\333\352\242\275\001\023#\275\rT5\275\375\261,\276\371\3603\276\006\226\r\276&\366\320\275\207g\t:s\350\036\276\315\202\025=w\t\315=\252\350\310\275\377\337\322\275\215Y\245=\355\033\256\274O\240b\273\332\265\354\275\311\216\261\275\251\372\316=m\004@=\r\346\301\273u\352\022\276O\360\315\275\001v\356\275\235\334\017\276\350\1771>l\201\234>\025\301\355<S\217\351=\261=_\275\252\340\005>\255m\026\276\003\353~>?+\265=\275\333]\275\002\206\020>\346\302\253\275#\231\010\275\202Z\203=Y*\025<\341\276\363=\321=\221;N\356\006\276I\211\014\275E\254 \275\320\355\201\275I\365e\275\302#:\276\t+E=e\205\261\274P\245\300\275\315I\332;\023\244\216\276\352\221#\276\362\255(>\377\226\366<-\357\230\274\210\023\211>Pq\202\275E\305B=\257r\022\276\323\210\027\276\027(\217=\366\210r\275\375\262x<F\222\221\276\311g1\276\025\276W>S\266\343=_\257\210\275\252\352K>_\316\245=\335\007Q\274{Q\220=_\332\365\275\217\345\371\275u\227\205\275\017\264\302=K\346\357=\005\352\203>\315L\222\274\2618\025=\325<\317<\257\324\234=\327B\347\275\363\213m\275\345\004\010\275Y\356\252\275Ii\344\275\207\253\361\275\374J\372\275\335e\\=\271K}\275\013\330\370=o\252\314=]\303\316\274\002M\024>1\206u=\0038\360\275\311Hd=E\r\216<\233\037\320=k\023e\276\304\226\n\276%\035\363<\346\265\234\275!\332\\\275\301@\033\276-\236\336\273\"\337\353<\035\332P\275\027\277\207=\001lq=\005\177\250\274\255\367\007<MB\016;\253\214.\276\336\344\023>{\243\304\275\255\340\232;;\315\330=]\306\345\274\034\211\370\275\017t1\276M\243\n\274\213)Z\275\325\361\033\275e\2704\275\t\235\354\2754K\215\275\271\\(=\000\374\025>:\237\240\275=5G<\332\240\245\276\332t\\>evB\275\302\263\256\2751\370T\276\261\035\"\276\207\347!\276:\250\375\275\035\252?\276G\270b>\361\355\200<I\234L\275Y\303\232>\352\267m\276/\353\230\273YS\222<y\370o\275\277\262\352=\205\263\177<q\330n>\031\314m>\245\316\256<M\353\211\276\245\302\242\274\3223\217\276\317\241\004>Q\211\303\274\023\360\360=\253\256%\276|\315\246\276Q_\246\2742g\377\275\"\367\013\276\222,\235=P\335h>!\r\346=|\177\213\276\001\022w\276\367N\027\276\367\237&>\\\372\037\276\031F\333\273y\204F\276\014~\320\275v\033\220\275\300\000]\276\331i\244=\304\177U>\264(\225\2767\323\207>\217\007\244=+\025c\2765\312\017\276\323E\315\275\2051\224>\231\326\252\275Y\340\377\274cq\234=\301\361\245\276\341\333\237\276_\343\353;\236\321\025=2\200+\276r\324\374\275\257\210\243\275\264\272\233\276!\177\367\275L\265\263\275\362~H<{\233M\275c\241\251\275\372\"\010\276\'W?\275\307\020;>p\372\'\276\215\032\005\276] \322\275\325\352\356\275\317B\222\276B\303c>\215\223Z;\307b\026\276\316J\034\276\0272\244\275]y\034\276\365f*\275\277\016\242\275\365\357V=\235D\203\274\317\316\321\275\305,\231<\271\317\007=M\n/;u\232\300<e,4=\335\341\247\274\030\026_\276\214\331\246>\233\266\023\276x*E;\037QZ\276\207\363W\276;\252l\275Q8\013=m\311u<\311X\220\276\010\"i\276=\316\227<\211f\262<\250\033\317\273\221\201\\\275\242|\211\276\250\363\001\276\2750\344<C\337\333=\025\"\260\274\242\r\031>-B\036\276QA0=\247g\337=i\265\034\276E\001\221=\213\314\220=\310\347\356\275]r\204=\303\242y\275U\243q=s\265\241\275\311|\221\274\252\333\206=\267\302\206\276\000\276\023\276\204l\210=\'\256\225\276f1\023\276\2105\213>$\365\243\275\325(\316=\337>\323<\310\341\205\276M\277\034\2764\361\200\276>\341\202\276\033!,=\273\003J>\231\327v>\033\373\317=K\304\261=\001w\354\275h\215y\276\2748\224\276\017b\211\276\245\235\241\276\335\333M\274\312\222\016\2767\337\014\276\325\362-=~mB\276|\247\201\276#]\263\275\321\3112\276s\201\022>W9\243\275(S\326\275K2\235<9\375\027>_^\262=\216:\202=\227\342\237\276~\007\237\275\333^\212\275\207\342\337=\315\3107<1\n\005\276\221&\332;\251@N=\215v/=\334\354\026\276c\027\365=\330\236]\276\216v\257\275\3012\335\275\335{b\2753\343\202>\246\247T\276\342yf>\213$\256\274\206 \227>~Jn\276\222;(\276#\034\312\275_\363:\275a\300\313\275\346K4\276\r;\227>\277$4\276\224\254E>\270\016\023\276\274\006\223\275\215\360v<\260\027l>\3705\253<4\351\370\275\205\001<>&\304\271\275\031]N\276\004(\260\275\013\3752=\234\374\030>\335\202\331\275L\340\241\275TY0\276\010\353\314\275\243M\224=e\r\362\275v\3422>\366Q >\325\233\371<\375>F\275}!\004\2749ZD\275[ \"\276\377\013\305\275\345\363\321\274\237}\365=\177\017\361\274=\341\363\275\007\277\321=\202\277\317\275;\034\342\274\030\355\350\275\237\276\'\276M\331\300\274\306\235\237\276\365\\\315\275\362\323\024>\273t\240\275\2255)\275\371\256U=\nn\177\276tZ*\276$\027/>Y\275(\276YXo=j\013\210\275\r\272\352\271FV\004>\351\303\t\275\330a\206\275\255\232\357<\177\007f\275e\215\351\274g\271\210=\364M\302\275}\355?<,3\036>a\036\210\274Q\tU=(\255\353=\265XY\276\321\225V\275\240\365A\274\201\026\207\276u\211q>\212-\233\275Y\224\201>\225\251\213\276H\232?\276\244\350\234>\265\010\241\276d\322\n\276N\367/>0W\006<A<\227>\223\345?\276`\302`>\224`^<\357w\351;b\372:\276\231<\026\275o\222\311\275J\014o\273\337\253a=]\261m\275\375\266\376\2747E\216<\331[\302\274V\317w\274\342\230\242\2760Jc>\331\325L\275\240B0>\333\006\260=K\303:\276[S\025\275ir\017>M\300\031\276\036b<<\252<\204=\262\t\201\276\237x\337\274\267|g\276\257\246\376;\370}&>`\361>\276)\251k=\351\364\256\275\255\025B\276=\314p=%H\220\276\233\036i\275E\315\203\275\256\313\214\276\343\007\271\275\021B\271\274\247\203\335<I\325+\275\210^\204>\367\204E\276\027@\266\275}\245r\274\244fs\276\010\007\246\276x\035\313\275\025c\227=\337\336\037\276<\336\377\275Q\224\026\276\274\024\220\276\305\264\224>\212Z\222\276\374\305\227\276\327H~\276E\211\305\274\013#\256;\254\344\031>\215\240>;W\220\263=\254?*>}#\203<]\260Y=M\333\000;\373.\177\275\205\244\324<:\305\376\275\231\242\211=\343\333\242=\341\203U\275\326\350\027\276\215>/;\235b1\275|[\'\276w:I\275^j6>\355\216\310<yK\320<?\212\270=QD\007\275U\374T=\241\277\221\276\217\321\322\275u\312\334\275\333\275\211<\362\337y\276\201\303,\276\002X}\276\373\022\222=\325\215\002\276\246\327\005>F\246\020>\371\3674\276\023f\344=\005\007\335\274\017\025\031\276uf\253<\373X\021\276\265;o\275U(A\275BH#>\207\312\253=6\254\320\275\374\300\355\275\006\261\'>\275\324M<K\ny\276\022=\200=\235g\246\275\377\255\224\275\325\336U<\026\203\211\275\360\252\'\276S\216\372<\273\300\006\276\232\001\360=F\325v\274:\306\217\276\027\262\241\274\315\021(\275\205\354\357\274\217r\233;\375h5\275\343\232\263=E\252P\276\'\230\202\275\346g\224=U\304\312\275d\030\326\275X\253\305\275\306\330\204\276&\305\265<\315$\224\276\355\377\242;O\004\031\276\"u\226\275\205\367\263\2753\211\233<.\376&\275\031\034s>\351\241l=\371QZ\276\202\010r\276j&\010\276\320\241*\275\261\275\373={\246\215\276Y\013\216>\227\246!\275E\260G\275~\362\002\276\331\201\364\275\021\374\210>\203\336\264=\216\2734\276\316O\210><\255\032>\336\321\005\2763G\355=\242\013r\276B\r\206\276\266b\224>9)&\276\n\213\010>\244\035h\2757\033u\276\263\206\316\275\317\030\243<[L\346\275l\211P\276\006\226\027\276\223\336\250\275\001\337\333\275\2517[\276\227\221d>\377\247u\276\352`\010>\'\374\243\275-\263\'\275\257\032\265\275eUS\276A\225\236\275\036\256\220\276\035%\344\275\365\036\222\276F\334\213>\005\212\367\275\375k\230<\256\323\002>PY\006>s\225\273==\236o<=\004n<pT1>\377c\242\275\276-!>\"\036\224\275\335PS<\307\002\r\276\261m\212=1:\003=!\037\223=D\350\240\275\261\235\376=G\334\016\276g\313\032\276!0v\276\241Xn\276\031\326\025\276\315\315>\276\371\215\000\276\276FU\276\300\217/\275\0351\017\275\253\0377\273\260Z\210\2764\317\347\275D\301\r\276gr\324=\331\315B=\032\222\275\275\261\005\355\275E\204\206<\375I\t\276\275\202\301\274\364S\r\276\000##>\350\310\014\276\'\346\210=k\216\367=<\003*\276Mc\257\273}\356C\275\335\231%<\010\327A\27411\305<\217\301z\276\211S\007\275\364BT\276\"\245\311\2749\002?\276\260\345a>#_\020\275\273\240D>\033x\032\275\237\377\235\276V\331\204>\3616/\275\213\225\230\276\037\312K>K\2613\274c\276>>x\231H\2763\034\251\275I\3144=\351\374\227\276W\213/\276s)d\276\360\352\004\276\263\372\177>\205\035G\276\263\206\313\275!$\206\275\200j\036\276K\023P\275\316Z!\276\027\306\302\275\214\016\377=\264\032\300\275\317^o=\350\333\005\276+\372\206\276\230\035\367\275A\326\360=\\k\315\275y\210\024<$\277p=f/\030\276u\244N\276\363\306\014\276\323\341\212\274/`\343=\033c\235\275e\277Z>\363\324\202=\346\024\361\275\244\3031\276{\323\215\276\357Q\343\275\016\001\242>\234K\354\275\255\311\023\274\375\301>\276\222+z\274\300n.\276\323\210\014<\334\315`\276\361\213\216\276\027E\211=\023#\312\273\225\210>\276\337\206\236\276\\\221\200>dO3\276\203.[\275\"\250\372\274\036Il\276m\364\010=)\235\343\274T\3037\274\214\340J\276\342I5\276K\315\230\2767\246a>\352\007\274\275\246\230\026>\215\000\252\274u3,\275\203\301q\275\335\345\266<\252b\260\275d\272\264\275\335\236n\275\241\333 \276M\327\346\274\3550\332<\235\016/\275\302\262\007>gq\367=y \204=,u\315\275[\206j>\037\372\260=\310\322,\276\267\020\312\275\005\256,\275Fm\352\275\232w\034\276\237\022\231\276\263\2667\275\304\314j\270\2175\201=D\216\274:\305)f\276\225\032\334<A\222\374\274\001k\361\275\357\251\231=\352\306*\276k\370\357=\000\234\026>2\324\206\275p\006\013>\005\260\364\274],A<\275\231y=\213\237#\276u\321\314\274\r\353f\273\275@\315<\315U|\273q\006\340\275\214wN\276\221V\252\275\366\204U\275[\021\222<\253$\200\274YIA=a\3252\276\224Rq>\301j\204\276\245\311\024>3\326\257<Yof\275[\'\026\276\016\316\243\276\357\000w\276\262\206\204\276\257?S>\267Z\360<\335\212\335\275]\251|=\345\314\327=\252\346\224\276\r\356z\271\005\036~<@\254\035\276\"\313\013=_1:=t\264&\276]ny<\006\204\365\275h\337\206\276BGM\276\313\222\245<\005\022\271=\315\007\346=\'\006\334\275\226\261;\276\253|E\276J<\206>\307\177\326=\341\"1\2769aa\274\3718E\276\342\270C\275\225\323\332\275\315\344\026=\363\200\037>\333^i>wG\003\276\023>\370<gk\220\275Hd\256\275\030g#\276\256\235U\276\215\014 =p\tc>z\240\214\276yI\302=o\'\325\275{W\335=\341;#=M;\034\275\3247i\276G\314q\275\352\212\250=\255\252\025\276\356Qi=\020\233z\274b\031\210>S\264\314\273%\n\300\275\007\242\001\276X(j>\205\322\013\276\215\271f\276\n7$>\202\033J\276\261E\247\275\000{\004>t5\341\274\347Ed\275\265\016~=\233@\323\275F\3200>Y\224O=\375\373\037\274=\227E<\262\273\">eA\010\275e\310S=\205U\205=m\317\376\273m\235\267;\224!\t>\355\224\363<\335\346\022\276$\240\346\275q\235h\274\334^.\276\025\234\031\276\005\'0<x\314\230\276\215\032=\275e\355!=Dj\n>\360@\310\275n\232\212:\031Kl\276\212\241\021\276y\234\032\275=\3124<\223\016w\275y$4\276\234O\360\275FZ\030>B\032+>\017\201\235=Q[c=g\354\366=\345\321\'=\ry\335\274\003.\225=\322\307,>\222\301\014>\325\364:=\n\223\215\275g\021d\275\375+X=\000\265L\276\351\351\223>\313\n\300=\210?m\276\253~\035\276\315V;\274\264\330\230\276\247v\326;j;\246\276\375\314M\274\035\021#<2\021\007\275\213:\033=\260\204I\276\346\264\200\276\"\341\347=\231ij\275\013\'x>\252\255\024\2765\r\320<h,\213=\201\254\302\275\031\325\r\276i\254\014\275\202\333h\276d8\324\275\322?$\276\035\273X\274\376\003\037>*/\005\276C\370\327;u\'$\276\307X\010\275g\353\305=\366@\021\276\301\364\211=\324\237#>+\374\371\275\247S\227\275\227\251\025>{\036$\275[-\212=\003u\331=\2771\272=\335\350\"\276m}8\276\203~(=\361\010\241<\\u\237\276\005\212\t>\252\216\017\276a>I<\221\010\026\276\035\304z\276#\356\003\275\254\347\236\276hA\204\276v\272&>\325\327\261\274\221\317l<\rn68Vw\347=\255\034@\274\263u\324\275\010\225\212>\007\316\225\276\304<\215\275\004\375\373\275\003Np\276\226e/>\310\213\265\275=\261\316\274\r\257\220<i\364\204>UL\305;\222\004(\276\265V\207>\035\372`=\255\350\336<\341\205\025>\355\353*<\257\326\317=\325R\207=X\347\010>\r\201I<\340\220\025>\013\207\246\275\215\3606\274\204)\333\275]\214+=Y]\235\275\243\321\231=\003\217\264=E\253X=\000\250\223\275\207\315\253=\376\362m\276\247TS>\373F\321=}H\313\274\r\316K:\313\232^\276-p\n\276\211\352l>\\\233\315\275\356\370\014>\3531U\275?T\306=t\330\016\274\261\262)\276\013\345\344=\037GZ\276\303\014!\276/\313\377=\204\210\254\275=\215\034\274\267i\335=\305c\242<\r\0061\273\357\'\257\275\273\343\342=~\260\013>\214\302(>E\013\375\274+\236\306=E`9\275\255\313\326\273\353\204\263=\035\302\261<\243\216\305=z\270&>\201\312\204=\325\265\313\274R\365\347\275M\305u=i\315g\2753\271\336=\221{H=\223\271\271=\007\350\243=\307H\224\275\345\263\000\275.r\304\275\335\333\255\274\355in<\025\363\333<\335\177\376\275`\312\006>\315\365\371<\r\027\005\276!\016\225=\215r\305\275\275\017\357<\233\353\305=\205N\307<\340\360\022>\205\346%\276\032\360\002>\346\006\005>\377E\337=C\311!\276\321v\223=\345\361\022\2757\020\333\275\242\373\030>a\351\235\275\020g\024>%\336*=\2627\241\275y\177\024\275\273\244\232=\001\237\333\275\265\302d=\313\301\335=2@\034\276N\206\357\275\275D\035\274\235\026D\275\005`i\275m{\237;\313\324w\2757\304\343=\215\373\206=\034\344\034>\331\234\031\275=\021r<\3159W\275!s]\275\363\017\245=\240n$\276m\275\256<\302\n\025\276\036q4>\0201\242\275\225\331\332\274\274\204\021>\255w\332;\027z\362\275\315CL\274mj\375;]~3=\005\n\022\275W\332\276=\215\001\203\274\356\223\022>@\301*>[\252\273\275D\272\002\276\375,\022\274\241\263?=\301p\214=U\035T\275iaP\275\335\211,\275\222\247\017>\315P\342<U\334\005\275_\302\273=\357D\306=\203N\001\276\200+\005>L\205\320\2757I\324\275\367l-\276\201\324\002\276\325O\224<\r\"\376\271/(\022\276\331%(\276\250%\017>Ta\022>\304\335\254\275\350G\024\276\316(\t>a?\001=%t#\276\367\341\375=D\355\'>D&*>O\270\371=\272\262\003>{\'\303=I\356\365\275\r9\260\272\231\214\370\275\355\254\310\273\236\004$>\007\245\336=w\254p\275\3638\361=\220\361\202\275\373\324\306=\235\343&=\351\232j=\221\014\354\275\260>\212\275`+/\274\276\210\004>w\267\266=\214\026\237\276$\325\240\276C\354\306=\017\r\374\275\216\327\375\275<9\213\273\376\207\237\276]\007r\274@\375\213\276\243B\203\276\222%\035\276\336\237{\276\211\300\331=\363\014#\276\225\373#=e0.=0\260\036>8n\007\276\311|\225<^T0>\237c\\\275[\301\242\276#\277\352=\002U\201>\272\352\006>\327(\367\275\234\353\'\276g:\307\275n\274\004\273U\352\245\276\024\317\t>\375\233\337\274I\331\035\275,o\014>Y\212\023\276yo>;\231>j=\375\225\267<\237\256\275\274b\357\314\275\221\0041=T\030\215\275\272\224\031>Q\330\303<\235\rK=%m~\275\234\034\214>\236\0364\276\262\230\201\276\353\035\362=R\004\220\275\367F\243>\315\264}>\033\271\337\275R\361H>H3y\276\210\377\213\275\2440\036>s\315\210\275\304,\203\275\025\202\335\274\335s\004\275\276\332\222\276\301\030K=\r\034^\273j\255\344=\344\261,>\257\345\025\276\327\312\271=\373p#\275\022\030f>g\0232\276G\260\373\275\362\206}\276\335L\340\274\205\314\363\274\267\376j=\236\213\341\275\030\3611\276\355\312\032=\363\323\036\276QPx\275\375\236k=sT\234\275mC\004\276p\326\030>N\272\023>iP\275\275\204e\030>\277c\357=AK+\2760*\024>\362\221\022>\033fH>#\027\256=_\301\335=\250\232*>}\275?\275B\273\016\276?\300\222=X\362C\276\330\302\247;M\273);t^t\276T\370)>\343\243K\275\372\264\033>\206?\027>Xs3>\242\230!>\253b\030\276\004\025\036>\004\0230>\035\207X\275\311\316#\275e\254R\275G\016\336=)W\004\275\005\\\333\274]\336\242\274\315\263c\275\273c\242\275\362\004\032>M&\t<[\336\251\275^\014\214\276w\373\201=\216qv>\010\336#\276y\206\275<\214I\200\275\371 ]\275%\007\371\275\366\r\016\274J\203\236>{n\032>m\017\032\274Q\214\032>\332;_\276\345{l\275\023t\372\274\032yr\276\2315\207\275\322\260%>\341$\003\275w#\247=\376\276F\276}c\211=.$(\276/\311t\275\030\3761\274\315\354\266=(]1>\357Z\300\275LI\241\275\263Z\014\273\342c\004\274\031\366\337;t@0=\333\232\302\275`6->lm\036>~\215(>H\250>\276\270x\035\276c\3377\275\205>n\275\375\177\320\275\025\3253\274\251yv>\t2\026=F\210\261=\335\035\267=u|\225=+\376B>\261(\365\275m\231\250\2743,\200=?\231=\276_\025\311\274 \211\203=\250u@<m\301U\276:\346\230\276\276[C\276\037\376\004\276\226\017\217=i5L\275\031\334\013\275\217\226|\276\220f\206>\314|\354\275\rD\026=\263\273U=\276\025m\276y\355\n\275\345\010\263<\210\022\032\276\227J\207=l\232\372\275E\2005=l\207\274=\313\333\263=7\250\262\275\271y\361=\345B\326<x@)>\341\024s=^\304+\276X\247\020\276\305\'\354<=\277c<\347\302\267\275y\017\032\276,\263\023\276\343\373%\276\223\265n\275I\017\033=m\023/\275\242\202\240\275\377\304\001\276\213+|\275{\272\225<\377Q\354\275\304\')\276\365\n\331<\200\007#>h\034\272\275\221<\031>\260\2655\276oN\257=1\316\226\275\246\2575\275i\211v>D0\236\275\247\347\341=\013Lv\275\260\202\t>H\335\035\276\352\302+>\371\251\023\275\r\326\t\271\215dB<%\n\'=\256C\202\275\252\032&>1+K=i\246/\275\\\333\037>1\304N=\361~\007\275\241\342\t=u\203\255\274_M\034\276Z\205w\273\221k\340\273(\351K\276\365\247,\276F\363\277\275\277\022\354=%\346\313\274[\303\r\276\222\2451\276\346\344\242\276\276y\256\275\235\346\273\274\311\250\355\274\\\374N\276\233+\207>\333}\010>Q\035\022\275;\002\251=;\257\207>\2048\210\275\024\220\320\275\213\010\354\275@\233\021\276Y\337\016\276[=y>\333\263\274\274\314\367\247\275\317\302\216\275\230\235\203\276\306\241v\274\212\235-\276\032R%\276\300\372\024>,6e>\020a\032\276\006\014\030>\301\235\"\275\25547\276H\\U=\230\254\245\276#\266A\276\343\244*>M\340\211>\224~\023\276\255\004F<\0278\026\276\337\265`\273C\274\r\276\327\321U>\271\2450=\214P\220\276A\345&\276\021\362.\275\266\r\224>\300\\Z\276E\325\373\275\272\223\'\276\373:\203\276.\214\227\275\305\037#=\322\3364>\362\353\234\276\205\376I\2757\237r>L\247\204>\223\275\345\275\003\270\020\276 \022l\276\333,,\276\205X\347\274\272\202\025>\254?4\276\005\032\207\275\013f\261=\017{e\276r\\m\276\265>0\275v\r\014>\201\005\020\2764\207\030\276\005f\357\275\252i\000>\276<&\276\302\244\t>\205\2049=\275\377^\274\375\312\016\275]\2662\274\016\3540>\222\226\016>\325\006<=\305\036&=\247\277\367\275\241\3670\276\345\276\032=\207\247\001:\355_\337\2754\323\025>\265_\225\274mS\240\273\252+\037\276]%\266\274\213\3045;)\3670\276\221M_\276z\314\"\276\r\276X\273\312\313>>\227\330\326=-\253\315<\177M=\276K\372\271=?\010\352=\2439\204=j\262%\276\3336,\276\201&\220\275!c5\275\365\357\t\2764\006\020>\315\345!;\243s\364=F\237\305\275\217\276d\275\363\001\032\276\235\017y\274\375\330^\274\224\2531\276\201\377x\274b)\021=\357\343\322<\357\234\003\273\320\307\274\275\276\246\177\276\223\365\345\275\010\350\233\275\2720\216>\'\205>\275\324\010\333\2755\346\030=\027_\212\276\3450T\275\3613B\276\351D}\275\325\303\n>\275#\216\276\203J\007\276w\335\204>=\334h\276Q\370\013\276\245\320\255<}9\226\276\373\266D=\257\304\214>o\363\t\276\320O\271\275\002\217\254\275^\332C\276Tf%\276\010[\237\276\361\332u>C\223\256\275\211#\272=\035\261\260\275\265sJ\276\332}%\276\004\212$>\253h\275\275\346K\211\275\000\245\233=\340\372\031>\205\374\245\276s\3410\276u\223\233=Y\324\220\274\004\302\221\276\331\377\332<=;\264<\377\031[\276\343\254\243\275\350\003N\276\200c4\276\317Y\027\275q\'{\275\226z\036\276\3723\014\274J\300Y\274\365\037\367\275;\361\376<G\250\006\276\267\266\010\276\242x\205>\\\261\003\276\246a\205\276\205\264S\276\376]7=\244\345\202\275\212\036\010>\374=q\275\306\343S\276\305\'\007=\305\251\357\274\323\334_\276N\244\234\276\360\2229\276\213\353\257<L\325\357\275-\242F<\227\003#\276\352~\014\276SH\341=\334d >]GR\275H\0254>`\014\016>Y\330\223\275NI\025\276Q\027c=\2557i\274\241\310\005=\363b\253=}\2656<\323\001\323\275\245\263n\276\030&\"\275\347\'\343=\242.C\276\223h\207;\257:\217\276\201\314\t\276i\033j>\212\347\314\275\031\333z\275\300\321&\276\256\311\'\274\342\251\317\275>\315\240\276\005W\220\274\210\\\320\273c\016\211=\007\377\332=*\244\021>\177z\242=\364\245\005>}\350 \274\325[\202\275\035\001\376\275\r\205j;\353\307\362\275&o\336\275\345\204\321\275\032@#>]\023>\275\323o\263=\016\214\001> c\230\276\'\353\347=,f\275<\3775\007\276\375=\177\276R\334A\276\2546\250\275\233i,>\336\316{\276\262/\353\272\"\233\232\276\202\372\037\2741\017\272=}k\353\275ID\205\276\377\237G\276\245\267]=\311\320H>_zW\276An\336\275\350_\035\276\245\\\205\276R\304\220\276\212c\221\275\323\262\215\276MK\206\273a\314\032>\013\217\211\276(}\332\275\236\2111\276\253\335\343=\026\263m\276wZz\275o\273\237=\241)\366<\315m\252=\250\236\212\276\022 \347\274-\272n\272;\306,>\205\315\177\275!\277\243<r\035d>9\325\030=@\3548\276\242X\332\275\363\266\307=x C\276\271\307+\276#\217\177=N\022\376\275\3572t\276s\027\221=\266p\227\275\000MQ\276\032\315\t\276a\177\305<T\031\364=\374\353[\276\306P\360=Q\260\177\276jI\021>V\250\247\275\250\nd\276Y\362P\274\211\227\200\276\327\374\232\275 \240\207\276SG\330=\335S\266<%\370\036\276;\037\220=\330\254#\276\212\"\032\276\370sm\276\033\023u\276\267\336>\276\210\013y\275\316~K\276\314t\275\275 5&>\020\260\224\275\303d\352=\r\333t<\253\013\373=S\342\320=\360\332\n>\215\004\204\272\226g\036>\023\210\177\275\361\201@\275\002t.\276\275\257\235<+\326\352=\216L\277\275\246.\005>\240v{\274\335\2033>\301\373!\276R[!>H\365G\276)5\003\275m\220.\274\035\3576>\306\365|>\345\365\301<9/+<\251\177T\275\323\345\370\275{\373\375\275S\316\226\275\352\350\020>oe\226=\205\243\365\274V\236\035\276\323\005\245=\256+\007>\017\373\302=\004\307\023>\017\2742\276\256)\032\276\027\372\250=\365\245.\276\225,\"=\344\264\034\276W5\233=\205\177\005=\351\210\r\276A!\272;\'H\343=)h{>\036v#\272\364h\222\276\216\333\004\273}\230\204\276k6\272=\341\230\026\275\272M\234>\205\271,\275\264\360\277\275\300?\250=\3603\235\276\250sP\276_\2273>:By\273\275u\237>}\213\006\276}\025\036\275\013\323\223>6\024Q\276\345Yl\275\007\206\321\275\215\211j\276;\261$>V-\214\276\225\325\235=\211L\035=\365\rb\276\032\324\220\276\321W\225\275%L\360;k\200s>\256=\006=\013\317\257\274\367i\373=\311u}\275hy\305\275\265\0043=\314\202I\274\341\243\376=\230o\250\275\341\354\r<\022\322\276\275\241,\033\275\204A\210>\337\354u>Q\2124<5?\376<\025\2301\275\202E\301\275:\375 \276\'!\377\275\021\034\244\275\272}\275=\310\223B\276\347m\243>cR\020\275\2569J\276\373X\005\276\017\331\323\275\t\264\207\276\2470\231\276\236T\301\275]\231\021\276\226\365\231\275\200\013\325\275\257\210\220>E&\256\274\315\341\350\275=\254\246<\262\263Z\276I\"\220=\364\2059\276Dj\004\276\231.\021\273\315\221 \276bn\241\270\207\252h>\025\231\273\274\303\261\267=y\036\n=\037\202\210= \2334>e\304\020=M\013\237<\224\256!>\022;%>\345\3578=\032\351\033\276\373y\341=\'\303\251\275\2030\033\276\032\0323>\324j\330\275r\016\353\275\307\034\031=MO#<\215(~=h\276l\276\014i\031\275\026,\030>\241\264\t=+\250\271<\224B\214\276\000\261\225\276\360\233\264\275\'Z0\276}~\020\275\355\223\263\274\324\2463\276\225\t\033\275M\003d=\363^\212\275\007\362\322\275\354e\225\275\201\255\223\275\350\005\000>\224\202\000>\245z\024=z\313/>\271g8=c&\257\275\217\177\005\276#\226\234=\n%\321\275\302\246 >\325\327\371\274\235A\031<\r\347\345\2740\340/>Z\\(>\300\260(\276\250\006\257\275\rz\350\272\317<\233=\351\030L=\017\265\337\275\t\202\005\276\367\271\346=N\022\031>x\345\030>\317\315\337\275\r\224o:\265\027\361<\317\"\377=Gm\330=\252T\002>\343g\344=y\306\000\276\375\212\272<Ev\213<}\372B\274g\221\237=\005\247\363\274GO\305= \222/>\356\362\244\275\343x\217=\360\252\036>6\360\302\2754\037 >\3554\222<\353b\241\275\2553\317\275a\266\224\275(\271\026>\006\375\262\275\003g\343\275\315\\2\273\317{\233=\274\360\277\275\'_\273=\005\016\243\274$\264\007>\rlb\272\271\017\037\276m\253\231<6\211\'>]\0325\274\305,0\275\245\022\310<\206_\027>\r~*\272\251.\255\275~\227\034\276C]\307=5n\225\275m\317\376;CC\021\276\315\367\177=1\0263\275K\363\356\275\255\220Z\274\311\2579=\207\347y\275YS|\275%\201F\275\261%B\275d_\">\245\371\255<\233\206\355\275\217w\366=\035\033\205<\317\267\233=\255\r\343\275R#\033\276M\373\226;ld!>[2\t\276\001Al=.\314\036>\255\365p\274\206\313&>\r\265\357\273=\372p=O\244\365==\311\n\275\235\263\366\275o\033\303=\'z.\276\024/\272\275\031\001%\275Z\377.\276\332\355\206\2751\005\357\275\201w\243\275\335\241+\274\375\337!=\214\0052>--d\274\006\036\276\275=X)\276F9\010\276+\366\200=U\007#=\320J)\276\321\3317=!\357l\275\334\262\003>\315\330D;m\370\222<\315\3408\274E\005\376\275\004\364,\276\375\005\302<\365\352)\275\226\307\032\276\205@\223\275/\214g\275uo\204\274e\201 \276%\346\037\275ja\037>^\261\265\275xx\315\275\207\005\263=-#\035\276\003\300T\275\254\003\270\275\r\n\372\274\205.\223\274\005\262\325\274\326\032 \276%Eg\275\021&\036\276\315\350u\274C\354\256<\333\275O\275\014W%\274\362\2106>\315\276\314;\377f\311\275 1\352\275\255\005.\276p\241 >\254P#\275\250+\t>I\304\002\275\255\255m\276\315;\032> 3>>\375F%\276s\374\314=Q>\263<\264n\377\275ii\200\276\033N\211\276\261\375o=\r\004}<\0217Z=\361\006\006=\371\356\333\275\322x\335\275\201\317\225>3C\234\276\201s+\276\323\252\252=\351\364T\275\310~\376\275\027\362\357=\riR>\327zP>\001\242\003\275Ts$>\031k\031=!\352\007\275aVA\275\24740\275\331\312\213>;h\245>\013\263q\276$%\322\275i\263\001\276ApB\276\rW\030\275\357s\235\275\025\324\023\275s\033\377=\213*\345=\205n\002=\337\001s\276\300\323\270\275\355?v<(\303\360\275\317;\313=+\002\001\276EI\005\276=F\376=\014n\022>\263\000\202\274\254\347?>\307$,\276\245\035%\276e\202\271=\336\242\'\276\235G\n\275x\341\037>\r\200s\274P\033\260\2759&\234\275\372=-\276\355\211\355\273\260\024\215\275%\022\201\275\331R\310\275<\222\023\276\305\300\253<\213\024\020\276\334t\334\275}\212~=0]\006\276WQz\275\326\264\003>\331W\251\275]\001V\274mU\231<\333{\342\275\357\306\202=\367\275\275<\355=\355\273\360\355n\276\373\304\242=\375\314\276=k\366\265==R\304<\305\340\006=\321\206v=])\250\274W\213\365=v\357\312\275\303[\354=\201;\032\275\315\210\033<\032*\017>7\"\355=\365\025\320<SN`\275\027T\366=m\002\275;\026\'2>\rM\\\272\235\320\244\274\201\346r\276\003\277\000\275\236\244\222\275\354\257\224\276\374\031p\276T\373\005\276\252`\026\276\034\3279<V\372\246\276s\223j>\373$\337\273\256q\334\275m.p>\271|6;e\230\244\276\241v\320\2747\333+<5\312M>\325\352\243;\371%g<\370h\226>\013\212\234\276\357\372z\276 \366V\276\177&A\276\267f\352=\271\237f>p|\020\276{\321\261=\274D\006\276\032\337\006\276\353QO\276\333\362\376\275\363\242\330\274\352P\013\276*\271A\276e\2651<\034R2\276\3441\373\275d\365\225>zd\200\276\'\352\337=\352`\017>\254\317\246<\371i\336\2759\024\215\276)\242\241\275\t\235\317\273c\362q\276\3331\235>\217\331\037\276\241i\260\275\372j\310\275\354\377T\276N*k\276~\344\003\276m\360D\275}\370\251<\215\320\245\276\242\031\226\276\217\254\033\276\220\367\006>\004\330C\2746\340\'\276\261\252\307\274<\322\203\275#\035\210\276\370\322\206\276\201\367g>\366\274~\276t#\035\276\265\341u\276\020\356\241\276\177\033\255=7\236\276\275\342.>\276\275I\234\274\177I\201\276\305\334;\276C\216#>\315\263\361\274\345m\336\274\241\222=\275E\335\334\275\rLK;\364&$>\037\3164\276\251\035\036\275\320\211\'>\261s_=\034>\017>A\277\037=\3373\362=\3658\275<Y|\314\275\267@\013\276s\332c\276,\255\272:\345\275\022\276\253\307\233\276K\236\"\276\177\245\261\275\201\266~=\375\375\233\275\202o\245\276?\003.\276\244_\217\276\251\035\n\275\211#/\275Q\326p<M\177Q\275\013]\206\276go~\275\226\254\000\276\261\375\360\275\313\310[\275DU\032>\247\"\362=\26382\276\0005\330\275\013at\275\034\367$>\255[\330<\327\031\273\2755.\271\274-OI=\317i\336=d\252\035>59l\276\256\213\006>\031\036\021\275\030B\207\276\335\344\034\276\014\0106\276#\236?\276\227$\034=\205[\010<&\216\023>\312\177\237\276\217\217d;\260[\021>/\312{\276\265\021\211\275`\005>>\244\322\307=\032w\t>S[\350\275\223\304\303\275\021/)=\232l\016\276z\003\200\275g\306\237\276\023\023P\276{\337\034=\361:\016=\363\031Q\276X_3\276\020*g\276\250>\373\275\307B\322<\223}F\276\377\247\252\27428\300\275\276\355\362\272\240\224t\276e\334T\276\n\276\306\275\217)\'=\356\2048\276\311N0=\351_P>\000\211\371\275$\324,\276x[Y\276I\234\">\341\224\215>\314l\211\276\307\350\240>\2151q;V=\030\275\t\001\202\275*\244\020\276\301\346\031\276\314\021\355\275U\021k<mi%\2762\222@\276A\261Q\275\272d\026\276\3675\237=\2740\216\276\313C\211\276\215(7>6{.\276\203\350W\276\303\211m\275\343\315\226>!\032\027\276\345\031\223\275\237z\325\274\035\361z\275\217\343\226>\035\303\205\276 $M\275\235\355\302\274ME\033\276\244\256\307\275j\030\205>[$\273\275A\2524=\347m\333=Y+\350\275\230\013\203\275\275\377\027\276\321\303y\275\264\025\253\275\032\201\262\275\357\207\350=\255\306\027\275Q\212\200=\355\212\225\273\215\312\306<\'\336\252=\225\316\264\2749\304J\276\267\276\245>\213\025\264=rGj\276lXr\276B\233\320\275\275\345C\275\2119A>\225\323\273\274U\321\354\275\352U\351\275\250\3209\276\351\006\370<\275\274\005\276A\2363\276\3576\210\276\303\375\347\275\270\330%\276\377\376\306=7\370\332\275\352\275\224\275\032u\246\275=\266\027\275\222I\303\275\273\031\225\275=Z\242\274<[&>=\205\261\275\315+\'\273\225\2425\275\211+r\275]\003\352\275\243\317\334\274\003\033\331=\335\326\203>^\326\367\275\251\023\261\275\342-Z\274*a=\276\265S2>=\242\326\274\263 (>\271@o\275\357\037\001\273\241\271\210>\331\217z<\031\265|\276\341|\020>\304\352j\276O\310\027>~zr\276\0148\341\275\335\037\356=\216\013!;?\030\204\276\367\001\356\274f\371\227\276\351\034&\276\277S\177=\313\235\243=\021\277\n\275\314\223)\276\253\202\301\275\014\363o\276\031\226\203\274Q\265\227<G\225\266=\031Y\266\274\031f\376\275\262dU\2769\026u\276\3205\233\275\361F\212\276\364\326\\=\230\032G>\322kI>\235\256#<T\371B\276\'\332\241<\373z\343<Ue\216\276\224\027\262=\024\266\250\275\337\212\212\276\035\'S<~<\027\276\245\237\270\275\214\316\344\275i\310v\276}\026K<F\374\216\275\372\016\013\276\377:\223\275\010\356\277=\225\353k=\341\344\034\276ch\202<cx&\276\301\226.\275N\213\325\275E\311E\276\357\226\266\275ADk\275\010e\377\275A\211\023\276\306\300\205=\320\251\363\275\206\366\t\276\003Nk>\021\333\351\274(%\244\275.\314\013>\017\023m\275=q\177<\370D\r>9]\t\276\343^\260=\024\344\224\275\023=\216=\367\341\233=\371\216!=\251\236]=\203\323\000\276}d\001\2767K\232=Q\365|=\271\033\001\276\362\276/\276JQ\213\2755^3\276\303\006\024\276\347\236\312=\230\302\004\276\357\006\233\275\006\302\317\275\260g\021>\223\245\326<;X\022\276\023v\306\275U\2571=\321v\210>\363\262p\276\204|\237\275\213\263\315\273\001l?=\365.\034\275\310\263\212\2751`-\276\215;\024=\225\342\214\274\265\224\272\274\231\350\310\275\241\177E=\201,\177=Z\366\r>\356c.>7b\207\275\2355s<\003X{\275\225\202\376\275\315\021O\275\013\301\345\275F\217S>\"\376\t\276\300\355#\276w\232.\276m6\212\274]\010i=\275\223,\275V=\347=\362\0368\275t\0012\275\200\310\244>T\005\201\276c6U\275\034.d>m\372\031>2\020a>\241Ec\276&\021!\276\035\344o>\342\013\204\275\026\"\367\275y\004\020\276\253\274F\275\031\010\247>\036?\244\276\355\266\251;>x2\276%<3\276\2036\207\276>e\363\274I\262\235<(H\237>\357Hp\275C\336\300=\377\201$\276F]\351\275\rgq\275\265kK=5\247\250\274\347\226\244=\205\r\035\274\354_ >\340\341\264\275\2318p\276\335v\300\274|\214s<\r\342\026\276 /M>5\035G\275\"\344^\276;\367\362=7\037\227<F\2660\276\377\265~=\221\352\221\276P\367^>\177\227z\276;\014\020\276\325[\013\276\341\215\212\274D\316\206\275\340xE\276A%y>:\301m\276;\266\257\275\264\233\332\275\021\310?>\351\2600\276,\235\023\276\273\010\003\276i:\321<\344\375\017>\267\032-\276A22<\373?\337\273a\034!\275\375\225~\276W\332\214>^\363,>#\376\332\275\335\373I\274\243\345\311=\033b\254=u\205\363<\201H,=M\221\307;;\317\211\275\241\361\037\275\373\271\376\275\217\221\211\275\217\345+\276\217v\354=\234r+\276\311%5\275}\027\341\274\374\231=>\223_\017\276\247\030:\276o]\245=\207\216\022:#\202\372=:\002\205\276\361\315\032\276i\301P<\200w\n\276~\336\217\275 \272\204\276\324\031\023\276y\376\247\275\234\252\356\275~ \016>\330\004\310\275e\023\007\276\r\037q\273U\237\206\274\025\375\313\274\235\346\244\274\267!\243=Tw\253\275\237\262\304=\303\210\247=_\266\321=|\027\316\275\311\316\006\275Q\353\r=\032\030\337\275\375aL<%eK=\021\017\211<\310G\261\275\021\357_\275\347\333v\275\370\304\227\276\'\014p>g\341\321<[\020)=!\260\213\276Tt)\276\371\233\026>\236\236\211\276\203I#\276\271E\360=j\365F=\353`6=\232aU\276RO\210\276\226\355_>\350K?\276\365\017$\276\347\202\243\275\255\214\217\276K\330\210\274\237*\203\275\0039\206=8\227&\276\217\356\325\275\177@{\276\311Z\246\276i\311\320<\347\347\224\273\327\324\357\275HL\006=\336\204d\276$!\223\275\337n\306\275\263\246$>=g\237\276\243m\214>\262\262D<6]\227\275J\233\214\275\311\334.\27541\021>\022\354A>\240\264%\275\332\035\020>\r\326\322\275\267\366\244\272-\255\030\274\247\215\335<g!?\276\205)\373\275[\356\036\275Q\304S>-\234M<\202\023J\276\212\227)>\365\336\337=n\005\234\276\342\360\013\276m\nt=B\362z\2768\305H\276\3326d\276IM\002\274\035\360\340<\221\362i\275R4\t\275\032P\302\274\276\275I>\354x\375\275!\257\226\276\313\207\024\276\355H8\2765\323\031\276\000g\357=+Z\026\276\335\3515\274\313\357\354=+\373!\276\017H\363\275\207\004\002\276\215\375\343\272Z\017\'>\361\"Y\275}\377\367<\021[s=]\037\237\274_*\341=P\242%>\215\204\345;O\343\360=d\210A\2764\032\241=r^ >\200\227\352\275\332\361\215\275\2540\210\276\310\255\345\275;\216f>\\R\237\276H\234O\276\236H\357\275\270hW\276\366\3340\275-\277\033\276\000\344\'\276\325\357\343\275\231\r\210=\333\322\326=g\206\365=\317\214\315=\213S\034\276\232q#\276\362\001\001>\243a\317\275X^\303\275\323\212\033\276@\n\316\275\037\274\232=\221\210X\275\302U*>\337\020\236=?\007b\275\213\321r\276y\246\347=\177\322W>\260\305?\276\322Z.\275\035\243\224\275 \325O\276Z\034\220=\365\302\236\276\355\'\314\273\273}\374\275\200DC\275\375j\203>\215O\031\275C\273S\276\305#I=\365\3311>1\001\200<%N\300\275:f\204\276\021]\305\274Kz\304<!{\253\275[Q\006\276\243\241\024\276\301\360\014\276\020[\224>\324\227B\275m2\363\273\372\222\214\275\235\252\376\274\202\253g\276\021\311\204\276\005\224\251\275\356g&>r\3275>\311r[\275\371S;\276\010>\245\276SM\352=\204qo\276\352\354\224\275\271\361\202>&\027Y\276\035\245\314\274\377\302\373\275I\374u\276\373\267\265=[\241\337\275\352\004\210=\221\231\026\276*\004&\276\352\\\005>\021\315X\276=.\261\275\331\0168\275\233\304_>.\276c\276\230\307\204\276\352\217D<\220\365)\275!\037\007\275\275.2\275\302q\035\273\351*\004\274\237\216/\276\222FK\276>\315\r\276\316\034W\276\010\213\352\275\243\351\r\276\231\362\357\275\330\362\224\276-\225\311=\274\021\223\276\371\273j\276\266s!\276\313i\264=%W\312\274\355\245M=\325\310\212<e\007\007\276\245\341\245\274!\357\202=\330g\022>S\223\321\275\r\201\276<\307\336\306\275;\021\255=\340`\311\275\222\213\023>s\234\331=\255\266\377\273\227\177\016\276\306\023\347\275\362\251\034>\201^2<M\241\021\275a\315P\275\377\215\270=\271I\030=\332Qw\276)\201\027={\240\334\274?\231\003\2755$\005\276\235\273\362\275WT\035\276\004\004\262\275o\212\001\276M\003\033\2765~\223>\216\202\030\276\003\262\271=\031a\201\275\315uv;-\233v<:\354\262\275]\3304\276]9\004\276\340f\032>lG\226\275\215Z\364\275\023\247\360=}[\374<\222b >\035s\023\276\221\341\020\276\230\003\206\276\205\352<>\021\260\014>\031\236\221\274H\341B\274M\364O=[\245\300\275\247l\367<\2110\023\276Ssv>\301\203\014=zl\330\274\362\237\202>\276ZZ\276\\\374q\275\215\351<\276\276\264\243\275\353\312\370\275A\304\025\275\307\325N>\345I8>\217\326\217\275M\272\225\273\222\361\202\276\t\021x<\275D\271\275\237b\214\274 \300\001>\277Nt\275\020\0208\276\026\256H\276\330t\024\276a8\271\274\207\250\303\275d\026\237\272?bY=M\342\225;|7\332\275uk\023\275\335\216\334\275q\005\211\275\305o\264\274\021\220\326\275\345\362\372\274\220\313\223\273n\n&>\236\t2\276\204)*\276\213_\013\276\212\210\004>\331\215\010=\343\224p\276g\212\334=\315t\351\275\251\033\307\275\340\317\207\276\322\225\177<\014\332O\276S\322\001\276EIT>\027\031\365\274Z\005\026>\rx\220<\001;)=\242\003]>\227R\235\276\305Nf\276z{]\276i\\\317\273%mA<V-\036>\204\327H;\375\367\364\274}\222\037>!\272p<$]e\276\030g\215\276;\030\211<\2151\341;\353^\004\276%\001\357\274S\260\261=\365\"\212\275y7\376\275\320\332\006>\325o\002=\323_\232=y\t\034\276G\270\351=5r\345\275\2056G=\224\314\232\275!\312\r\275\375S\'\275mp\305\274\333\274\005\276\325\225<\276\343\253\302<\301\275\005\276\275\206n<\215n\357\275\017\365\333\275aQV=\363\377f=2\007\215>\324\007\210>9\207\202\276\346\336b\274E\261\n\276Ywp=ry\216\275\020\010\006>e^o=\005\303\243\274mt\370\275\2602\312\275\245b\273\274\031\343\263\275\221\264O=\345\"\213\274\233\375\367=\225(\250<]d\031\276\034H&>\235!\215=]\214]\275\004\224\000\276!\320\265\275\201Y\313\274\307?}>\337z\n>K\210T\275\327Z\275\275\355\221Y\274#MY\276\353M2;\006\324\231\275\367m\215>\231\254C\276=\"\255<\306\035\237=n\213\350\275m\373\337\274\277\361J>%$ \275V\235(<\373\230\236\276\251\227\212>\325\r\242>;\222I\276\353\224b\276\37113\276\325\271\214\275\273Tx>\035\255\210>\256\344\000>T\230!>\033\275\327<\260\001\013\276\205yB<\302_\020\276\342`c>{\233\200=\344\2443>^s\212\275\365\226\201\274\273\023\370;\361\223\354<u\266\232<\377\377\010>r\035\225\276Q\271e\274\311m(\276N\220\245\276\333\241\033>S!\377=\213d\205\276\251\256C=\322%2\276\227N\227<\rz\3309?!B\276\241Fy>\267\210\356=\212\037\200\275\346\033\226\276\261\035\021\276\235\217\017\2750\226\013>~\002#>{Ih\275lB\222\275 i~<\026\365\213\276\274\300\\\276\327\331h\276\230\360\214>\345y\001=T\334\322\275\035:\352\274\351E8\276\275\036m>?\351\231\276\276:j\276*\225\034\276W\331\217=\005\246~\276\306\0235>\251DV=e\260}\275$\376\020>\215F&;\255-\007\275uv\207=OD$\276\307\253\240=w\367\353=-+t\275wQ\332=\215\272`\274\354V\203\275{\347\362=\220B\007>\355b$\274\027^\235\275\216\360\236>]\202\r\275cP\202\275e\263\361\275L}\340\275\266\243\036\276+G\222<\234\013r\276\220t\316={:\374;\200\316\'\276Y\343\234\276O\210\235=P\321$>\257\325/\276\212\014\010\276m\005J\274\275l\004\276\204\366\033>\210\232\013>\320\026,\276\262|\212\275G=\254=M&{=\307\247\357=O\356\371\275\334P3\276\353\337\231\275\240\"\033\276 ? \276U_\225=\026\347d\276\373\220\303\274\242\202\271\275\271\2125\276\2117:\276\005\231\215<{\216_\276^\317R>\267\263x\276\213b\210>\022\377\023\276g\200f\276eb\032=\225\206\220\275p\001W\276D\002!>\251\244l>\373\235j>\333\376(\276\201\320*\2767\354\006>\235\217\231<\0176\225\276.\234D\276\253\2177\276Y\371\034>\374G\260\275U\314\311<\305{\005\275\000.\354\275R\006\336\2758\376j\274NTM\276\205wY>\263\316\353==\320N\274\276\373\004>\310\231\003\276\345\261X\275\2616\310<lX-\276o\305W>\2000\242\275#\310\221=3\346\323\275\335{\007\276\220\336\240>lo\033>\347I\257\275Z\216P>\nM\023\276\350\020Z\276\235\216\035\276\271\217\225<[0i=\027\036\221=\215\234\235\274\020 U>\225\373\003\276\212\327\214\276A\253\016=2\364\246=\027b\004\276]2\234\276\265\256\254=\037\010\272\275G\3012\276\"D!\276B\203d>\337\361\202=\325\\\240<\375\302\006=\002\233\007\2767\211\307\274oZ\337\274&\250\014\276\240|\027\276g\251\274=N~\210\276p\366\244>\035\214\250\275@\014\r>\360\322\017>dq,\2766y\036>\335\234\014<\327\251\016\276\206x\221\275c\336\201\275M\314-\276\002\310\025\276q\005M=\033\240\307\275\377t\344=\262<\003>\373*%\276FU=\276i\272\222\273\311v\014\276\013~\000\276\253\002\256=\266\362\344\275\241\366f\275\220\375\221\275\373\245\370;\337\021\224\276s\300\201;\3423\305\275\313Dm\275\322\203\216\276\237\305\242=xm\017\276\344(\037\276\313)\311=\235\354H\275\323\225\362\275\245\2055=\277\n\232=\224x\023>\277u\262=\r.\342\275\242m\002\276\231\345\231\275w\"\001\2767r\367=\31204>\305\264C=\224\3250\276W\010\357\275\033\025X\276\236Za\276\311n\210\276\230_\337\275}E\010\276I\274\216;\313\347\237>I\357P<\027\324\352=r\335?\276\017/w\276^\335\344=3\341\221\276\320\310\270\275}\024\177>\312mO>\254\266\275=\274\347\261\275\245\217\201\274\335@G>N\343\004\276\rd\245\276\240\237D\276k\3139\273\263\375Z>A]\014<\341\034*\276\345\237;\275\363p\223\276\000\267E\276\325Y|<-\307\207\276\t\\,\274\236\001\034>\237\223\030\276\007\276\257\275\265\240\226\276\013f 