node {
  name: "x"
  op: "Placeholder"
  attr {
    key: "dtype"
    value {
      type: DT_FLOAT
    }
  }
  attr {
    key: "shape"
    value {
      shape {
        dim {
          size: 4000
        }
        dim {
          size: 24
        }
      }
    }
  }
}
node {
  name: "decoder/conv2d_transpose_3/Shape"
  op: "Const"
  attr {
    key: "dtype"
    value {
      type: DT_INT32
    }
  }
  attr {
    key: "value"
    value {
      tensor {
        dtype: DT_INT32
        tensor_shape {
          dim {
            size: 4
          }
        }
        tensor_content: "\240\017\000\000\004\000\000\000\004\000\000\000\010\000\000\000"
      }
    }
  }
}
node {
  name: "decoder/conv2d_transpose_3/strided_slice/stack"
  op: "Const"
  attr {
    key: "dtype"
    value {
      type: DT_INT32
    }
  }
  attr {
    key: "value"
    value {
      tensor {
        dtype: DT_INT32
        tensor_shape {
          dim {
            size: 1
          }
        }
      }
    }
  }
}
node {
  name: "decoder/conv2d_transpose_3/strided_slice/stack_1"
  op: "Const"
  attr {
    key: "dtype"
    value {
      type: DT_INT32
    }
  }
  attr {
    key: "value"
    value {
      tensor {
        dtype: DT_INT32
        tensor_shape {
          dim {
            size: 1
          }
        }
        int_val: 1
      }
    }
  }
}
node {
  name: "decoder/conv2d_transpose_3/strided_slice/stack_2"
  op: "Const"
  attr {
    key: "dtype"
    value {
      type: DT_INT32
    }
  }
  attr {
    key: "value"
    value {
      tensor {
        dtype: DT_INT32
        tensor_shape {
          dim {
            size: 1
          }
        }
        int_val: 1
      }
    }
  }
}
node {
  name: "decoder/conv2d_transpose_3/stack/1"
  op: "Const"
  attr {
    key: "dtype"
    value {
      type: DT_INT32
    }
  }
  attr {
    key: "value"
    value {
      tensor {
        dtype: DT_INT32
        tensor_shape {
        }
        int_val: 9
      }
    }
  }
}
node {
  name: "decoder/conv2d_transpose_3/stack/2"
  op: "Const"
  attr {
    key: "dtype"
    value {
      type: DT_INT32
    }
  }
  attr {
    key: "value"
    value {
      tensor {
        dtype: DT_INT32
        tensor_shape {
        }
        int_val: 9
      }
    }
  }
}
node {
  name: "decoder/conv2d_transpose_3/stack/3"
  op: "Const"
  attr {
    key: "dtype"
    value {
      type: DT_INT32
    }
  }
  attr {
    key: "value"
    value {
      tensor {
        dtype: DT_INT32
        tensor_shape {
        }
        int_val: 1
      }
    }
  }
}
node {
  name: "decoder/conv2d_transpose_3/conv2d_transpose/ReadVariableOp/resource"
  op: "Const"
  attr {
    key: "dtype"
    value {
      type: DT_FLOAT
    }
  }
  attr {
    key: "value"
    value {
      tensor {
        dtype: DT_FLOAT
        tensor_shape {
          dim {
            size: 3
          }
          dim {
            size: 3
          }
          dim {
            size: 1
          }
          dim {
            size: 8
          }
        }
        tensor_content: "mO\351\277XC\343\277\330\023\364\277\341\333\312\277\226\332\304\277\000\222\267\277\034:\275\277\272\364\363\277\233\023\333\275m\361\377\276\021\024\272\275\\!\220\276E\362\361\277[V\351<\325=\247>\024\324U\276\364\027\346\277\316\357\325\277\330\345\350\277hR\276\277\tL\332\277O\360\311\277\277\312O=O\250\355\277\273i\314\276\312]\204\276D,\337\277o\334Y\276\246\303\335\277\357\205W\277\005\305\313\277\375a\210<\000\013\247\276h0\276=\310,\337\277\363\344\231=#H\006=+\031n\275\2176\265\277\241\2455\277\361\201>=\244\322\322\277\356\352\261\277_&\'=;5\321\277,\006\240\276\335`\352\277\031\246N\274j\303\302\2775\272\354\277\'a\265\277\302\264\305\277+i\305\277\177\211\275\277\202\227\304\277\275L\347\277\364>\201:\200+/\276 \224\035>\034)\376=\331\032z:H)\262\275\023\006\000=\334\026I>!\256\356\277&\021\274\277?\316\202<\264\025\344\277\264a\351\2777~\320\277E%\267\277\335\241\307\277"
      }
    }
  }
}
node {
  name: "decoder/dense_9/MatMul/ReadVariableOp/resource"
  op: "Const"
  attr {
    key: "dtype"
    value {
      type: DT_FLOAT
    }
  }
  attr {
    key: "value"
    value {
      tensor {
        dtype: DT_FLOAT
        tensor_shape {
          dim {
            size: 24
          }
          dim {
            size: 24
          }
        }
        tensor_content: "\225\243.\276k`\312?\270V\253?E\017\340\277R\203\246?`\361\277\277\251bV<X\013\227>\217i\247:\\L\272\277\022f\214\277D\n\371;\221\206\177?\300\257@?\030I\272>A\333w?T\374\373\277\375\020\303\275K\266\233\275[\340]\276=\260\327\274\205\363\377\275\230\254\234=\004\340\252\276j\204\002\276\234f\254\277&\016\303?\337\346\000\277L\261\004\277\233\364\216\277\231\264\350\276\333 \264\276\253p\343=%\276\366?\001\\\016\277b\213\202\276\257\n\216?\307\234\301?I\377}?n\024=\276n3\305?7\275M>p\302\211>/\210\002\274\262\215\n?]\314?>G\253\251\276r\263V\276=\362)=\374\245\260?\333]\330\277\330\251V\273p\261\313\275JA\310\277|\336\345\276?\345\347\274\023\366\355=\266i\326\277\271\365\030\276\317\014>?\300\206\"?\353.B\277BC\204?/\324(?(f\271\277\030B\276\276\245xo>\250\341\226>E[\276>M#\211\276 =\261\277\357q\035\275K\242J<ep\355?M\242\267\277\3279M>\021\302\"?}{\361?\254\371/\277#mo\2761ZR>t\205\330?W\362@\277\236\200\200>I\220\370=9\220!\277\035\\\200\277A\256\026\276\010\370\256?\'\374C\277\363\027\374=\237J/=\214+L?d~\231>a\365\236\277A\204\211\276\3553\014\277\250\213\273?d\210\363?\217\263\027\276Fn\031\277\017\267\237\277\317o\355\273\337\264\276<\377V\346<\320\371\266?\325\335\376\276\014y\357>\317c\220?\355G\020\277V\271_\276m\327u\275o\350\336?\232:\372>W\n\213\275Mui>|u\243>\357\263k\276\276\235d?\205\315\363\275\020l\377:Z\242\305?\3701\247?mlc>\030\276\251>\267\t\260\277\020\263G\277\2404\261>\205Q7\276\231~\263?\341p\020\276\234\271\233>\244\207\031?\031\376!\277\340H.\277K\371&>E\202\273?\3115[?\326\234\253\276\312\310\233>\241\006\030>\337\373\276=\203l.?\313\023\347=\322\214\226\276\036\375\310\2776q\343\277?\002\024\277\206\215\004\277\212\n\236?\337Z\310\277\t\3367\276,=\254>\374*\343\277\223\025^\276\221\310y\277;\377\t\277\315\322\263?,\217\245?\353\241\360=\231\352\341\277\355_!\277\311\";>-A\007\2761\201h?\272\030{\276\206\006\316?\033\352\214=G\373#?q\207\315?\323_\330?\2278\202=\002x\005\276=\n\245\277j7N\277\002\227I\276\273Z\322=\275\206\303?\354\3142\276\315;!?\307\222Z=P\320<\277\341\353\303>\177\236\035\276\243X\322?\315x\325\275W_\'=9\366I>\325\024\215\276\263\024\202\2751.\376>E\035X>(\035%\277a\260\347\277\266\211\260\277]\313E\277Q\3603>\322Z\273\277\361\'\200\276r\371_\276\'vk\275{\201\256\277\365\245m?\027^]\277#_m?\000:\211?.\311\037?\237\311\270\2767T\301\277+\037\235=E\324l>\224\265\233>7\264\345\276\334\323\263\2769>\303\275\022\213S\276\'\361l\277A\367\345\277[z\303\277\034\357\375>Al<>\214x\264?\177n\236<:\003\247>O\267\327\275v\016\333\277\325d|\277\333\347\312\275]+\223>S\373\272\276_:\335>/-\313>\317r\350\277\226\010\013\277\017\000\003\274\251\321\232\276\337x\004\277\322t\253>,\330\244?\345U3\276\334X\205=]\016\362?\262o\234\277\"\2647\277\232,\227>\264b\357\277\027\337\317?t\214\244\2763/\206=\256\276\260\277[\020\370>!\247B=\322P\275\276\373\221|=\000\306S?\3414H\276A%\334\277Y~\001>\277`\030\275n\243\'\276\217jZ\274}\237\226\276m0\277\275\362\325\221>\361~\362>\200\001\264?E\203\270?4\225D?\204\376\226\277\366B\224\277\214of\277\026p\230>\264,\005\276\271u\265?\261Y\234?\361\203\032>\246\356\020\277&y\202\277\274\352\241?n)\211\277\325\310\275\277g\335\212?\264\360\233>1\324\\>&w\315?\217\322<=\350z\t?\377\306\235=\277B\273\276\366H\250?u\207\256\277\"t\352\276`\261\315\276\2328\307\277\266\353\337>\214\211\217\276@\274\236>\321\335\326\277SSs?\267\373f=W\362.\276\004ZQ?\322\255\034>\355-\330>\273.\314\277\207)\260\276\317\"#\275\003\332\221=\21392\2779\006}\276\256\276\273\276\231\257c\276\246\337\027\277\331\335\347?p1\353?{V\t\277\2557\306\277%$\314\277\332\354\351>\027\235F=;r\361=2\307\365?vq\\?\252YC?y\267\250\277\013\335m\277\357\214\254?r\214\224\277\364\032\302?\220\247\345\2764\272\257>8\330\241\276\305\346\020\277gS\204\276\331q\031>\003\373\205\276\374f\007?Y\311\304?\261&\330\277d\241\205\277\316\271\205?Sl\341\277\347<\005?\324\367\212\276M\264\251\276S\357\332\277\t\277\206=\275\020\223\275\241\267f\276\225\246\n\276.\201\232>k\321\341\276\363\300\247\277\277\301\324;g\365\007\276w.x=6\000\005\276R\203\235>\tC\247\2777\"}\275\001\371\305\275]\030\252\277\341p\311?B\261n\276R:\031\277\023z\242\2771\005\227>\'N\264\275\2576\247=\2743\356?\246\006\362>)\033\260>\021O~\277\250~\325\276\317,!=/\241T?%\005\342?\232\231\250\277\367\373\224=T\315\205\276\324\316K?\177\347 \275\356\200\227\2774\270\203\276R\242U\274\210o\336?\316\342\216\277\322y\234\274\231\n$\274I\350\272\277o\365\240\274Sf\301\275h\230\252>\215\224\245?\316WW\273y\221\254\274\n\020W\273Q\036\241<\235\r\231\274\033\205\221\274f\033\271?\237p\022\273\2770\301\274\013\257\307\275\267\003h\273\312\264\240>\324g=\277z5\261>\265\272\214=\347g\336\277iC\311\277k\364\244<#\354W\275Pc\311\277=+t=\033\242\t>\n\366\\\276C\321\303\277{\304\243>U\001\013\277\2166\367>\342;\313>~\377\t=\275\r\323<\345\361\312\277Azy<[J\232=\025,z>K=C=\245Ng>I\013\265\277\024\376\254>rn\333<Wf\274\277\302$\353\277V!\227>\223\246\214\275\327J\322\277\374\301\352\272\213\346\356\275\275km>\302+\310\277\221+\005>9\314=\276\370\373H>\006\337\030\2733\321\357\275U\315\212\275v\364\351\277m|\202=wr\211=\217\035_\276e\005\215;9q\016\276\3321\240\277\266\323<\276Qp\330\275\207V\341\277>\316\224\277%\234\312\275\2138\023>\333\366\244\277\2234\266\276(\2653\276;\233\316=\037\177\351\277\342\277\275:\242Y\362\276\240*\237>\364\272\227>\214\202H>$\037)=\361\262\320\277\332d\020>\267o&=\277@\314<\223\337E>\346\367\205\276ix\337\277Zq$\276\\5\000=I\334\324?`F\251\277\361\033\"\275\213\020\315<\206\035\351\277;\002\316\276\362\351\t\276\232\315\253\276\315\313\261\277f\200\202\274\005g\244\277\277\026.\274\322\312f\2755Y\310\274\307\025i>\205\332\265\277y\336\033>\333M\024>\262\310\235>Y\004E=#\266\211\276\216\246}?\314\343\251>\353\375R>n\353\317\277\346X\277\277\366\016\037>\234\t\240>\343\374\305\277\307\362\312<\337\330\255\276=\240q>2\263\336\277\241\316]>5\335P\277/\256A>\371\354&\276E\227Y>\234\275\031?\234\365\324\277\273\204M><\014\253>2\263\020\276\250\266\023>o\3757\276\215\364\327\277?_C\276c\237:=\347I\360\277\0247\261\277\035\351\272=\263D\341=Y\230\353\277b\214\231>\337\363\014\276~\220\247\276\347\000\330\277)\355\303=\361\320\347\275oX\301>\177\353\306=\377\343{>o\216Q=\220\272\304\277OGM\275\022\322\252\276\324\357.\276\227j\346=&\020\262\276\223AG\277\263\371v\276P\026\007;\346~\320\277\235\031\356\277[[\033>n\362\240>U\235\261\277\325!`=\315\245m\276\017V\332\274\255\251\314\277\371@\300=\255\001\206=\003\265\327\274S\013o\275\003\233>>\243\341,>C\250\343\277\273\322\245=KNr\276}\367\207\276C2l=\343\025\231\275\372\331\240\277<\337\262\276"
      }
    }
  }
}
node {
  name: "decoder/dense_9/BiasAdd/ReadVariableOp/resource"
  op: "Const"
  attr {
    key: "dtype"
    value {
      type: DT_FLOAT
    }
  }
  attr {
    key: "value"
    value {
      tensor {
        dtype: DT_FLOAT
        tensor_shape {
          dim {
            size: 24
          }
        }
        tensor_content: "\256\343<>\244\014\321\277\366$\307\277\017\"\305\275~\2646>\024\275\322\277\213\201\314;\000\000\000\000\000\000\000\000\024\275\322\277q\'1>\343\035\250\276_(\026>\376\006^>q\336;=\034\343$>\024\275\322\277k7o>\000\000\000\000\000\000\000\000\024\360\004\276\000\000\000\000\327\324\311\277\000\000\000\000"
      }
    }
  }
}
node {
  name: "decoder/dense_10/MatMul/ReadVariableOp/resource"
  op: "Const"
  attr {
    key: "dtype"
    value {
      type: DT_FLOAT
    }
  }
  attr {
    key: "value"
    value {
      tensor {
        dtype: DT_FLOAT
        tensor_shape {
          dim {
            size: 24
          }
          dim {
            size: 64
          }
        }
        tensor_content: "\225\361\206>\365\262\005\275H\326\345\277\246:\204>\227r\266\277\333\333\315\276\016t\316\277\221y\335\277\254\271\271\277e\001\026=\233\377\215\276Yh\336\277|VA\276\345\370\322\277.\257\270\277\361`\005?\311 \262\277D\210\330\277\365>\321\277\027<\263\277SW\224\275\337C\301\277s\331_>\266B\314>`L\325\277\364\236\276\277Z\031->\233\014\344\277\247\252\331\277P\203\313\277\251\353\305\277\324\021\255\276\262\311\346\277{\035\356\277\227<\357\277\357\262\356\277\215\237\335\276\245\022\330>\335\214:>]\302\350>QL\036\276\274\240\303\277\371\2453>od\244\277\317\276\303>\177m\310\2777\313\263\277\351\336\316\277\211e\341\276\304c\303\277Q|\342\277g\326\262\277\235=\303\277\003\304\363\277\207\206\251\277\203I\223>Y\211z\275\303G\322>\353\020\270\275o\352\276\277\014\367\256>\032\277\265\277\0251\354\2773\271z\276\371\324\322?y\341\352?\027\325P>,\246\327?\2502\310\277\031:T\276\331\203\202\275\'n\273\277gr3>\246\315\361?\272\002\335\277fO\261\277\335\242\262\275\207U\234=`\375\314\277\025\241\350?\307\023\310\277\212z\354\277U\346\347\277v\353\300\277\357\004\265?\203;\302?O\353\350\277\263\316\370=\323A\320\277\362\013\317?\t\021\347\277\332\206\260\277bu\273\277\306A\335\277\300\211\307\277\327\304^>\255\276\333\277\177\240\337\277\347\020\320\277\236x\311\277\266&\305?f\254\301\2770?\331?8\312\303?!;\024>\263\304\320\277\210\340\322?\261\\\343\277\313P\306\277\275%\325\277W\026\272\277:\276\300\277O\027\270\273=B\346\277\365\252\007>\217I\010=\237\351T\276@\312\274\277\2177<<w\234\361\277Fv\305\277\357@\321?\335i\004>[D\r>\321\213\324\277\357\346p>\237?\265\277\267\001\302\277\337\007\341\277\022B\255\277hi\311\277\241\004\276\277_\356\311\277g\246\025=ik\265\277\336\255\263\2778\241\314\277so\277\277:\260\331?F}\336\277S?M\275o`\271?\304O\277?\313\241\303?Z\266\335\277\314\210^\276\217\205@;\373\325\271\277\007!\253?\330\264\353\277\333\t\253?\210)\306?C+\260\277e\300\315\277\330\024\202?)36>]\222\321\277\020\261\335?7\002\323\277u\301\333?\007\202\335?5i\322?\221\322,>\007|B\276|s\305\277\351\321\253\277|\344\266?3~\273\277\223e-\275\351\267\353\277\366K\250\277`y\331\277\2149\306?bz\326?r\202\315\277v\303\337?\315=\256\277o\362\334?\343\250\263\277<\"\333\277[a\316\277\202\035\323?;\177\220\275\363\323\345?\001<\356\277\017\215\301\277\307+\036\2761\217\343\277E\222\265?#\255&\275|O\310?\217\021\273?\224\315Y>\355\027\301>\336(\353\277\001\322\'\275\360\324\324\277\033T\000?\200\317\340\277\350\244\265\277\356]\336\277\333uq\276\021\236\235>$)\265\277mn\220\275\303f\333\277\222\355\277\277;l5>\231\004\344\277\0345\305\277c8\332\277ib\316\277#\202J=\363\325\353\277\255&\231<\227\325\334\275\255\205\310\277C\304\327\277*\340\341>\031_\325\277h\225\331\277\364\231\312\277~\344\311\2779\304\204=:\035\304\277[\025\263\277\212\237\341\277\223\344\265\277Ch\257>\334\251\200\276\311D\371>`\3472<\247\311\362\274\217\200\261\277YL\356=g,\334\277>\324H>K\300\272\277#Y\355\277\226X\270\277ou\313\276\031\272\353\277D\332\341\277&\331\342\277\003a\344\277i\010\324\277\342\216\271\277\220\372\005>A)\227=+*\030=w\202\027=XB\323\2771\200E\276lO\246\277\2570\324\277K\212\027;\311F\356\274q\351\267>\317\374\301\2779 \017=d\216\323\277,\210);W\350\300\275\321\364\353\277*>\342\277\263H\r>\334\311\212>:K\350\277\003c\014\276\312u\347\277\260\257\354\277\000#\340>!S\312\277{\033\327\277\330:\263\277\344\272\360\277\300\026\t=-\'\323\277\245^\">M\353\032=\010\351\360\277\017\233\312\277\2342\200=<\312\263\277\320\236\267\277\254\023\340\277Or\300\277\231\263d\276\313m\353\277|j\261\2771&\321\277\240\256\274\277\021\231\272\276\333\203]=w\036\"=\2128\377=z\206\205\276ai\337\277\314\370\025>\273\260\332\277w\025\001=\313\223\303\277Z]\262\277\017\363\274\277}\020y>\265\346\351\277\217?\337;\360<\340\277qSm\276\026\240\307\277\256\353\207\277\276\316\263\274\212 &>\365\234\301>\357\244\024=e\316\345\277\373\233\217>\331\034\244\277\361%\302\277\337\200\001>\362o\221\277.0\333?p\331\277\277\352\t\307?,f\344\277\213\341%\275\352\350!\276@\023\273\277\022\300\352?GV\301?\201\317\260?\302\214\271\277/\203\020>\227\302\355\277\303\235\276\277\325\335\217\277\034h\323\277\222\267\356\277\010!\313\277\203\023\301\277\251\020\264?\005N\361\277\245\231\274\277\331V\263?+\301\273\277\324\020\273\277\314)\261\277\024\330\335\277\261\236\270\277ya\312\277N\377\343\277\343\373\261?\274\233\266\277\377\345\317\277\013\255\301\277@\361\346\277\257\376\361?\314d\306?\315\350\355?\3269\310?\207\3514>b\355\315\277\323\276\353?\014|\334?W\245\254\277w\203\326\277\026d\334\277E\207\276\277\327\370\226?`p\275\277\267\271E=w\355\321\277`\007\204\276\364P\271\277\017\361$<\203\035\334?F\022\320\277O\354\360?\257\221[\276\003\273\"\275CD\277?\0174\024\275\000\357\325\277\335M\304\2775\324\304\274\212\2320>\t\000\300\277\221\3266\276\213\332\276\277\207u->\315\325\340\277\004\003\360\277\007]\271\277}\007\037\277!C\353\274c\327\337\277j\363;\276\235W\343\277\037m\317\277\036\216\213\275\022\020\271\277\'=\335\277\010\354\341\277\003\340\305\277\344\347\215>\234\013\323\277v@\333>\362U\233>\311\260\326\277\037Y\275\277\265\356\235\275\026d\353\277\336:\317\277\326\227\326\2778?\312\277#\177\206=\237/\326\277;\276\313\277\227 \354\277f\333\332\277\243;\030\275/\363Z<\213\274\036>\t\352\274\275\017\255\334\273\220-\307\277\027\022\330=\362\271\347\277\374\021\226\275M\342\265\277N\311\316\277<\206\340\277m\013\230>p\377\306\277\013\260\321\277\236\266\360\277\251:\306\277\323<\320\277\204\350\276\277\301\361f>W\212\314=\337\202\274>\031\306(\276\010\265\323\277G\356\270>\362\205\246\277\350\257\275\277d\010*>\027?>\275\377k\272\275\237I\300=S\2372>\357\036\\\275\361m\031>\267H\007\276\327\032\210\274%|u\276/0k\274\177\023\007\276\372@\200>\241\334+\276\227\245\333\274\014\035!\276\035\235\\>G\037S\276\3552C>\037\341X>\037\272\311<#\252\330\275e\rD\276Y\346\321\275s.k\275\317I$\275\017X\023>[\321\250\275\277S\210<O\032g>\327\246\035=\033\370U>\246d\200>yk\204\276\307\032@=\031\260}>G\017\000=\367\251\250=o\034\020\276\257\3533\275G+\327\275\357\336\322<\313\231\025>/\277\242\274/\236o=Gxo\276\327\211+>Yml\276!{\t>w\320\302\275aa#\276AW$>\343\267R\275++ >\217\302\266\274ch5\275\t\331P>J\000]\276\373\022/\275\271\370\001>O\330\343<\307(\237=\303m\337\275\237\204^\275\261#\n\276\373\221\260=W\314\031>\373\374\323\275k\375\207=\3155Q>\300kK\276\331\306\346\275\003=\361=\366\371h\276\017[-\274`\360\203>\244\206\201>x\0337\276In#\276\025\326\202\276\010G\203>\273t\270\275\243\366_\276Y1\006>\321\003{>\t\341\320\275a\237B>_\016u=\207*\312\275i\355\252\275\227\204\367=\177\313u=\255\205g>\217z\234:\021\202)>O\304\356<\213\374\207=T\322#\276\366\004w\276\317%F\276\031\002\031>%\320\020\276\317\255\003<\363`\027>C\364d\275\347\304\257\275\305\335s>\271\255#>\260rS\276\303\033e\275\337\320\\=5\0008>\207\220\305=\320\3613\276\'\231\213=\001\203\177>3\315;\275\273\"\026>\232\311\201>\307b\355=[\236\243=$_\204>\273\353-\275\367\310\032>T\204\202\276}\341\037>\207\335\212\274\237\252\341\275\264Qp\276\307\033\276?`8\351?\225y\315\277\000\362\361?\204t\323\277um\203\276\215e\353\277\227z\272\277?^\316\277\264\321\334?[\223\300?\007\354\265?y|T>\326k\302\277a\030\335\277\214\303\347?\210\303\316\277\247)\321\277\273\212\360\277O\030\275\2774\331\335?MM\350\277\241\274\303?\274\272\271?\372t\313\277il\274\277\024\201\302?\177V\340\277p\327\316\277\311b\345\2779\177\304\277:\347\347\277T\215\273\277\002d\341\277*\370\261\277\226D\320\277R\020\316?\363\262\307?\205;\350?\030\272\347?\317/\326<\346\203\322\277\376\014\305?U\364\310?\275\350\301?\227,\362\277-t\347\277*\t\265\277\261Pn\276W\007\327\277\014\371\266\277J\206\267\277\351f\277\277`\300\316\277\037\"\034=\357H\345?T\360\342?\033\312\302?m?\356\275\026\231\300\277U\320\274?\313\231\367=\306\222\301\277\230{\263\277\201v\215=\222\260\330=\232\377\276\277\214\024\316<\031\032\343\277\337_D\275\013@\303\277\004]\301\277\243O\316\277\3076\024\276\177^\320\275\262r\266\277\237|\251\275\013\036\300\277>K\305\277\217\247\234\276\230\377\343\277&\231\355\277\210\036\347\277BT\307\277\333\223\335\275q\003\275\277\022/\265>\022\306\027?\3603\265\277\000\021\267\277\027\307g\275\357\014\353\277\207\363\346\277&B\343\277\242\003\311\277\'\322\347=\230B\313\277\224\276\312\277\317I\351\277N+\330\277\312\307!=\273Ps>\372\340\243=M\237\024\275gtS\276\233?\333\277\367\261\006>\0324\334\277\026i\227\276a\210\337\277\210\231\341\277\312x\263\277\\o\347\274\245F\362\277\035\206\311\277#\030\264\277\374\377\351\277i\245\350\277U\250\305\277\025$\211>N\254$>\260s\225=\2173\027\273\231\343\331\277\323\274\r>\241\233\262\277\002\310\303\277\205\276\222>\224Y&\276$\367\306>~\222\321\277\313\275\265</\301\262\277\265-\034\276v\354\350\277\336\330\316\277\245\265\321\277;0\017>\346s\207\276\366Q\255\2775\206c>\247t\313\277\335i\272\277Aq\350<\237}\301\277\317\321\264\277\301\266\333\277\305\001\356\277\3139\337>\307~\304\277|0\325\275\005(x>\350\201\265\277\2346\350\277\251\352\271\275\264\377\323\277\272\216\300\277\036\"\273\277F\213\352\277&\230\250<}\301\271\277\327\227\346\277/\261\270\277}#\356\277[d\030>\005\200h>!\034\230=]\254\246\274C\341\365\275-\000\320\277\233\203P>\273c\323?^\362\256\2760[\322\277\363\366\324\277\372\372\304\277[A\324=\236\211\266\277\371\210\363\277\344\217\351\277;\231\350\275g\224\343\277\351E\316\275\371\314\310=k\017\225>\370\351\247\276q\314\020\276K\201\347\277\342\241\320\275_\235\366<6G\274\277\205\377\241\276\266,\254\276\374\362T=\021|\277\277\r\336\312>_\260\316\277\250e\214=tH\320\277\234\242\331\277\312#\265\277\326\035\215>\236.\320=\323V\266\277N\210V\276Rg\326\277\270\243\351?\315\323\345=7K\305\277\203\243\355\277\311V\312?<\311\340\277\'H/>\r>\256\277N\307\266\276\'\272\211>\275R\344\277C\356\316\277\013\2201<\211I\344\277o\271\322\277b\025\350?fI\356\277\006\320\310\275\177t\266\277\263P\345?\023/\307\277/\343K=N\372\205\2767\025\205\276}\026I>\225A&>\217\202\320<\236[\264\277\255\351\021>\225\254\257\277\341\314\314=\r\375\300?\361\332\331\277\322\263\330\277\242z\304=3\007\335\277\241 \275\277\007\003\325\277+i\337\2778H\345?\023F\207\277y\203\300\275\354\031\231<1\306\n\276\017\256\037<\260\251\315\277^Op\276j8\210\277\337\t\325?Q\247\344\275\023\250\022>\265\373m\275\227\351\337\277D#\t\276\306x\317\277Q\0001>\207P\311\2777\007\352\2775x\352\277\235\026\211\275\257\177\323>r\026\260\277V\243\001\276\036(\264\277_\267\306?\334\326\315>\276\337\354\277\244\177\313\277N\037\263\277\350d\271\277c\033\242>\215V\277\277\216\n\'>\347\\\211\2763\367\246\277cK\255\277\005\004\204>Qk\357\277\376\254\322\277T\035\337?@\226\306\277i\023L\274\333\316\270\277Cp\305\277\3506\306\277no\037\276Oe\240>.^\216>\360\247\026\276\244C\313<\337T:>\377\323\275\277\344w\331>\277Z\323\277\212\315\205\275\007\324\314?\375\325\346\277~\037\342\277U%y\276\362;\316\277\314\244\316\277\224&\300\277\331\027\311\277\242\252\355?\351\301\227\277\"\222\241<ND\310\276\263\262\243>\t\032\307\275\250\221\332\277\304IT>\246\232\230\277\252\001\325\277X\362\311>\333\372M>e\325-=\333\017\302\277\231\267\242>\tm\305\277\\\006\264\276J,\334\277=c\314\277\273\246\361\277\267\3015>\n\360\222>\225\001\307\277\335)\026>f\322\306\277_\270\323\27735o=\222\315\262\277l\013\351\277u\242\340\277\376~\322\277\265\036n>\036\304\337\277\017\360i\275\237\021\357=\251\t\256\277\343]\360\277\356\202\000\276.[\360\277\263q\345\277\340,\336\277\020\356\321\277\266\344\213>N\306\317\277\302\211\334\277\2266\270\277\270\000\320\277\351]\246=\003\254o>\235\204\245<\010\336\213>\227%L\275\035\274\337\277iU!>\250\335\311\277\251Y\234\275-b\314\277\306\231\353\277\034\212\356\277\347!\014\276Sf\320\277\233\216\343\277qZ\273\277\004\302\265\277\026\367\330\277\347\225\246\277\244?3>\267\347!>\211\220\246=\032\031w\276zR\330\277\032\013\305>m\306\263\277&\277\304\277Q\304b\276Z\237\324\275\367\004{=\237\227\253?/\221\204=\263\364\326\277\332\'O\276\301\372\317?Ec\311\277\256\333\323\277\211\345\224=]v\007>O\207\303\277o\262\034=\000+\356\277\313W\313\277R\360\031\276\377\021\303\277\322\216\317\277\340-\271\277W\232\324\277\236\007l\276\300\314\275\277L\207\006\277\356\221\214\275\246l\265\277\031\267\316\2775\301\341\274YM\343\277cj\325\277\n\t\324\277\303\221\346?\210\204\263=\235\352\352\277\330\317\302\2772\010\303\277\233]\303\277\017v\004?\352\351\222>\037\262\005>b\030\311=f\007\200\276\266\010\270\277\323\244<?\342\247\345\277\'\r\347=\360b\346\277\333\t\333\277\024\357\343\277j\222\007=D\244\341\277\377x\275?\331\254\320\277\277),=\036[\323\277\333\221\262\277>6\244>M\361~\276\'\344\307>\027\220;=Z\0301\276j\346\t?\322\273\252\277|\331\320\277\204{O>4\214\266\277\267=\262?\200\236\320\277\\\205\331?\030}\254\277)o\205\276\025}\360\277r\210\262\277\023P\337\277M\315#\276\203\236\326\277\330\215\314\277\223\317\024>\343\005\355\277\301R\334?\352 \322\277\220\245\342\277\320\337\306\277\215\224\244\275\343\262\267\277\267\031\333\277\264\370\323?\217:\330\277\340\225\334\277\305\214\276?\021\370\316?\224%\325\277<\037L\2760>\264\277\276M\354?\322\035\305\277\301\005\337\277\014\237\353?X\262\316?p\3659\2767\300\362=\337\232^=8|\252\277H\010\315?\345+\276?g\007\023>\013B\307\277\376\001\323?\036w\344\2779s\311\277\257\217\256?\226\242\302?\240\022\271?\227&\016=}Q\273?D\334\346\277\301\036\335\277z\374\325\277\275T\303?\217j\0218\212s\305?k\006\261\277\217\344\304?\337\250\307\274\321\257\302\277\215\222\351\277<\034q\276\'e\272?7s\322?\373-\327\276._\034\276U\024\346\277|\216\235=\233\205\347\277Nl\230>\335\237\351?Q\023\264\277\022S\340\277AG2\276P`\272>\305v\273\277\343\372\211=\206\016\351\277\271<\314\277\243)\214\276g\335\335\277\014\217\357\277\315?\271\277\362\202\316\277\375C\371>FU\306\277\013-\201=\214w\260=\033\300\344?)\246\350\277\005\307\344\275\237:\352\277\373\305\307\277\353\301\317\277g\341\350\277\350;\212\275r\267\320\277\250X\261\277\225P\307\277\367\n\317\277\330\327%\277\343Y=>?\177\272>\275\346\n>\236\214\203\276\013\375\347\277\367gt\277j&\346\277\000\230\027\276\275b\336\277\243\251\310\277`\213\304\277\203\330\247<\367\001\327\277B\246\270\277\000\334\317\277\211\207c>[\246\340\277O\355\257\277\023\347\200>\216\376,=\273\032\311\275C5-\2753\334\265?i\035\257;\366\343\247\277\032-\334\277\224\256\260\275t\325\200\276\323\205#>\357p\300\274s\257\035\276\3677=\276\215\356\020\276\340@\026\276\277\330X=c\335\225\275O6,\274W\002G=\221\307|>3@\306=\217\250\236:\273\010F\276w}\035\276}\227\207\275[\327\231=c.O\276\327r\355\274\313Z\t>\331\337\">/*A<\217\266^;Um\236\275\275\356S>\037\245\216\274\037\210k>\343\003\245\275\017mt>\207\317\024\276\377m\200\276;\002\230=\345G\032\276\347O\265\274\335\305\234\275\251\215\224\275-\236\322\275_\337\252=\273\241>\275\277\336i>\257\340\004<\267\204\316=?@\237=M\032M>a\312o>Wm\204=\255\033)\276\367\337\347=\245\017_>\257\332\225=\'X\334=W\3651>\350\023_\276\243\177\371=\333\235\203\275\317\256\"=3\300\237=]g0>sF\243\2755\260X>\213]\323=\227:Q\275\357E\257=\226\000D\276\317\305\234=\025\272b\276\357\005\t>\202\260\t\276[\213\020\276\337\177<\274{\262R\275\027?A=?O\211=#\255o\276q\311\\>GX5\276I\250\'>\313\262\241=]\343m>?\013\n\276\232\342\204>\237\204\352\275b\255\201>\372\311\203>\301\221N>\013\014)\275\325lk>$\333\204>\333]\376=W\344\031>\001\340e>9\026:\276+v\016\275g\357c\275\375PO\276\263B\267\275f\251\201\276I\313\372\2757^L>\213\246\243\275\263w\237=\343G\375=\017>\363;U\306<\276\237\336\324=\277%k\274S}\267=\217l\251\275\247?Z>\357\211,<?sa>?\323\360<\237\016u\276\3476^\276)FR\276\317MO\275c\224e\275+\253\\>\340D\204>\237\374\005>\005\300\336\275y\305C>\303\325\321=N\237G\276\331O8>\250:{\276GA\035=Uz\003>\026\301\211>W\225\273\2776+\366>\304\326\343\2773\260\253=\353\016\306\2773\333\315\277\270+\357\277.W\205>>\\\365>K[\264\277\247\240O=\277\243\317\277\243l\305\2774\010\221\276\220}\346\277\014\262\342\277z\220\334\277P7\334\277\212\257\257:\356\021\261\277/l^\276\0044\002?\366\363\262\277x\202\305\277\301\033\006\276\226\367\276\277?\203\276\277\250\372\316\277\344\t\302\277\315\375\214\276t\303\302\277\361\305\321\277,\332\303\277\312\234\325\277\\\005\246>_\315\244>\313S\315>9\340\327>=_\033\276\361\372\334\277b\234\215>;7\274\277Yt$>\276\236\276\277\322\312\307\277y\023\305\277l\360\273\276\317\235\266\277p\213\322\277\237?\331\277]\242\352\277{F\320\277T\265\255\277%\021u>1\200\273>\021y\250>\256`3\276(\207\346\277\326\035)?\330\244\254\277\326\266\275\277\372\345\227\276\237h\352=W\376e=\007\253D>\217h\016;\375\203\276\275\251\3462>u!R\276\337\267<\275s~\311\275\227\357\241\274[\234\206=\363z8>\3339\016\275\017\376\321;\374\ti\276\265\230^>\247\037\201\275s_\227=\307HC\276\327L\205\276\345-\275\275M\026}>\223\325\226=Q\365k>\313.b\276\'Tv\276g\2772=\003\334I\276\217l\271\272/_7<7w\021=\213CD\275n\302\200>Ol\024<O\032\271;\357s\332<\211\242t\276\033\306X>g\217\n>C\305\025\275w\253\352=\245\311\357\275\023\350\373=\323L\263=G\225{\276\337V\342<\263\313W>g\213u\276\002\220\014\276o\343 \274\275\270\002\276\232\376\200>\357\376>=\217\000\037:\207/\356\275_7@\275\321\2669\276c\213\362=\037\337\306=\327\312\264=\203}\346=\037\374o>\037\352\246\274O\304p=Gd2?a$\221\277\336]\305\277\317@p\2774\214\300\277\2326|\276;ak\275Ht\261\277\027B\327\277\000\371\223\277\265\024\255\277?U\346\277\346\360{\276/\223\265\277^\244\301\277k\247\231\277\013;\321\277i\001\265\277Bv\301\277\324s\262\277\313\222\256\276p\211\320\27754\315\277,)\275?\222\313\346\277\262\334\263\277g\r\222\277\323\346\273\277\025\317\333\277\347^\305\277TW\337\277\334\250\270>\320\242\301\277c+\351\277\030\\\322\277\317\253\330\277a2\335?\361\237\266\276\rI\332?\311\346\n?\343\017 \276m\342\264\277\335Vp?\217\253\322?\271\004\266?}\322\327\277*]\323\277\325V\357\277\345\021\007\277\2110\320\277K\301\030\276\014V\342\277\037\341\341\274\321?\270\277\377\002\007\276\356@\250?o\013\236\277z\350H?W\'T=\321\276\024\276G\316\332?\037\313\241=|F\311\277\235\\\303>\341\243\021>s\365\014>wR\251\274N\230\005\276;&\304=q`\313\275\227\300+\275o\310\231\275?\364\363<\367\262=\276\315\351\034\2765,\300\275\277\005R>\203cx\275oE\\=o\213\251=\275\002<\276\034.\003\276\353\335P>\263n\344\275E2f>\177\326;\276\201\010\006\276\317W\243=\367\363\236\274\213z\314=E\375\371\275\'o\307\274\223a\362=[~\335\275Y\'|>W\261 >Cm->+\355 \275\317\256\305<3n\270=m$J>O\311w=\367\236\301=\355\263`>$\337\201>o\342\027\275I\223\035>\272\002\205\276[\262>\276\357&\254\274\247B\010>\217\307\017\273\217\244\020=\2139#\276\313\215\\>\315nU>\271\331)>!Y\323\2753\254\017\276m\367s>\017\346Z;\337-\321=/B\377<O F<\217\250\267\273O&\267\274]\313j>\273\305\312\275"
      }
    }
  }
}
node {
  name: "decoder/dense_10/BiasAdd/ReadVariableOp/resource"
  op: "Const"
  attr {
    key: "dtype"
    value {
      type: DT_FLOAT
    }
  }
  attr {
    key: "value"
    value {
      tensor {
        dtype: DT_FLOAT
        tensor_shape {
          dim {
            size: 64
          }
        }
        tensor_content: "\036\367\004>+H\313=\024\323\315\277\377\021m=$G\322\277M\225\241\275\024\275\322\277\024\275\322\277L \321\277\272P\301\276\306\231\301\275\027t\306\277\000\000\000\000\024\275\322\277\024\275\322\277\232\216\201=\024\275\322\277\024\275\322\277\024\275\322\277\024\275\322\277ne\302\274\024\275\322\277\203\177f:\347\213\227>\024\275\322\277\024\275\322\277\354\356\212>\024\275\322\277\024\275\322\277\024\275\322\277z\276\317\277\322\202T=\024\275\322\277\024\275\322\277\024\275\322\277\230\237\322\277\377\211\247>w9L>I[\251>\337\364\336=\000\000\000\000\024\275\322\277\363\264\231>\275q\313\277\221\200%>\024\275\322\277\024\275\322\277\024\275\322\277MR\210=\024\275\322\277+\014\322\277\204\370\321\277\024\275\322\277\024\275\322\277X\310\245\277_8\205=\201cp\274\324\353?>\000\000\000\000l\251\322\277\261\2100>\370\241\243\277\024\275\322\277\227\342f\274"
      }
    }
  }
}
node {
  name: "decoder/dense_11/MatMul/ReadVariableOp/resource"
  op: "Const"
  attr {
    key: "dtype"
    value {
      type: DT_FLOAT
    }
  }
  attr {
    key: "value"
    value {
      tensor {
        dtype: DT_FLOAT
        tensor_shape {
          dim {
            size: 64
          }
          dim {
            size: 128
          }
        }
        tensor_content: "D\232\300\277X\212\312\277\205\247\333\277\024\014\325\277=G\325\277\347m\364\275)_\326\277@l0?\337\224\334>I\340\274\277Gm\302<!\004\211=\2453\337<Fu\344\277\324{\345\277\226\311\312\277\351\216\306\277y\t\275>_#\020\276\013[\321\277\032\351\322\277]\323\335\277w\341\320\277\331Kq=\236\341\323\277\351\014\243=wJ3=U\364,\276\367\224\334?\321\023\315\277n`\343\277\'\221\312?\247\032\327\277\017\004\373\275Zb\332\277\375\375\324\277Zq\t>\200\356\307\277\262\255\022?\016\\\260\276\333\336\003\275Y\035\236\275\266T\300\277&\220\335\277\226e\340\277V_\242=\016\177\271\277\006t\026>;\220\020\277\337\371\t\274\004C\230><6\304\277g\376\304\277A\344\253?\335\214t\276j\232\311>\\\274\333?\366|\326?\035t\300?GB\275\277\326%\312?|\213\006>\246_\325\277\364\367\326?Td\337?\313\374\302\277\267\255\330\277\246b\313\277Q\257\304\277\220\016\314\277{\265\276\277l\304\337\277\324\0344>\343{\306\277T+\342>\206[\301\277\267\210\310\277\337\320\342\277p\203\221\276\310g\346\277\2176(;E~\027\2761C\002\276\220,\003>\373R\030=yC\313\275L\334\020>O\373p<-\232\356\275/h\035\276/\2659<\233\254%=)\353\331\275\367;\036\276?\204\006\274\224[)>\312\273)><o\331\277\030\304&\276,\010(\276\335W\300\277O\267\264\275|\350\315\277\356t\264>\347\013\206<\036\241\t?p\r\346\277W\357\216=\257\371\215<\206^\003?Z\037\332\277\317T\014>\177\356\005=\315\036w\275\333\271I\275\327|-\275\224R\032>\217\233\317:\344.\247\275\205&i\275\362+\"\276\001\021\203=\270\252\260\275\317\344V\275\361{\357=e\247\370=\207\310h=J\022\343\275\001?\306\2772\242\322?\224\016\300\277\310r\316\277[\274\273\277\337E\342\275 \353\307\277\327_\003>\310\332\221>[%\274\277\032t3\276\350%i>\026\307\220>B\003\303\277\261~\305\277\255t\322\277\246\224\337\277\275\203/\275\256\036\034\276>\312\306\277T\377\340\277\244g\335\277]\032\314\277\300\242:>\032\375\337\277*.\r\276\241\242Z\275\341)\246\275\205\233\316?=s\306\277\026\342\341\277\026\330\342?k\"\332\277\340E\322=\254\237\331\277\310\355\334\277\327<\013\275!\211\320\277\327\336\215<\340T\317=\232\263\n>\363Q\334<\236\346\320?\002z\335\277\'t\336\277$\303O=\357\006\304\277\032%\321=\'w\263=\344\302\312\275\372\3640>\372N\332\277\276P\277\277\'\263\313\277(\235\336\275\317J\017>\034%\306?\320\222\343?\346\354\340?\236S\306\277\342\260\343?\3572\251\274\307\005\346\277\340\256\335?:\357\344?\014\355\325\277\213x\325\277N\227\330\277-e\305\277\212\353\311\277\004\231\304\277l>\305\277 \016Q>i\372\307\277Q4B>\200\337\331\277\251\242\321\277\024)\336\277\224\344\362\275zn\276\277d\034\202\275\317\354x\275\017\270\245\274\'\367\225\274e\214\303=\2718\342\275}\340\211=5\374\355=m\264\211=u\255_\275-\374\331=\362\317\224\275\005\030\253\275\311\013\372=\235\222%\276U\345\265=\030\013\250>\366\273\331\277\337\226\344\274L\337\224\276~9\274\277n\354\022>A\264\307\277W,j>e\316V=\260\247\217>\017^\316\277\204\321\231=Y\225\233=\235\365R>O\251\300\277\276\271\214>\202\364 \276]\337\235=\373\256\202=\032\\\021>\257\311&<\270\027\272\275[\003\301\275\315\216\214=\253\202\266\275\034,\023>OY&\273?o~<:\037\036>\\\232\t>\267g_\275\371\005\331=\203%\342\277\202Z\302\277\255k\332?\027e\333<T\255\303?O\371\321;\">\033>\205\312\326?\313\230\301\277o\271\336\277\025^\206=\363\026\300? i\337?aT\332\277\364k\313?Y,\313\277\344%\314?\023\221\332?Wm\324\277\336\217\347\275\337\027\320\277\321\225\276?\334\310\306\277\245T\301\277\214F\016>\327\005\315\274\257\016\014\276\013F\000\276\261\203\327\277\336\250\322\277\372\237\316?\277\316\331\277\231E\307\2775\347\306\277\370b\311\277\312o\325\277\251;j\275\321\303\336?~\336\345?d\256\315\277\354X\001>\376?\010>BS\342\277n\316\323\277\223\223\310\277\305\260\273?+\232D=\031G\301\277Z\230\342\277_\240\265\274z\320\323?ck\020=Q%\325\277r62\276\361\217\332\277\001\322\270?\273B\336\277\325\211\343\277\341\234\254=\362)\316?B!\342?w\346 \276\307#\342?\365\026\350\2776\215\343\277\247\210\332\277\217\256\345\273^!\334?i\315\317?Pv\t>\353\323\t\275w\344I\275\222\344\267?\256\017\332?\326\010\311?\253i\014\276\303z\276?\nQ\020>\310\332\312\277o\204\245\274\031\365\342=f40\276\003\330E\275\'\350w=\257k\030\275*\231\026>\373\323\017\276\277K\003\2747\273\306\274\337\2053=\315(\204=\312\363\000>\021\355\232=\244\213\313\275\325\203\201=\004\277\016\276+\236\267\277\347\375\337<\005\303\001\276\265\333\272\277\007[~\275*(\331?\274\332\346\277\344G\326?\357]\303?\030\236\277\277\256\220\343\277\\\206\334?\305\356\343=d2\307\275\337\210\031\275w\253\244\275\217X\231<*\244\023>\331\013\201=\231>\275=\365\332,\276ua\331=\266W\017>O@n<\321-\317=\345\332\345=\357\215b\274h\324\344\275\017\203\331\273\363\321\205=t\330&>\305)\274=\325\236\323\277Ci\311\277\366.\330\277\265\270\304\277\221\353\253\277\024\320\036>\036\330\324\277\2362\005=\322\254\351:JU\277\277\274\373\032>\021\rm>\345\275^>\375\313\333\277\027-\344\277b\301\315\2770t\325\277;\025\266\275q\243\330\274O\255\324\277n\025\301\2774\232\335\277\266\030\316\277\374\360\230>J\363\300\277\230\3402>\260b\215\275gU\'=X\n\324?#\014\344\277\017\262\300\277\257\030\343?\t3\332\277\300\350\006<\\\340\317\277\235\325\334\277\227\217\244\274\374\372\326\277\327\260\337\274~G\017=\305\022\361\275\256\235\217=\260\324\304\277\000\370\313\277\2153\314\277W\360\345=\221&\316\277i\014j;\017\370\314=\223_\r=ur\312\275&\326\267\277\364:\335\277\227O\307?\373\345\302\275M\2428>\014\017\351?\271\252\347?\252\207\316?\367X\333\277:\326\343?\3019\337=\206\220\323\277*\235\320?\236\310\263?d\247\346\277\361F\321\277^?\310\277l\303\277?\304\366\335\277px\343\277#N\316\277\323\003.>\3172\307\277\335\025\357\275m\003\326\2778\014\270\277\235\337\323?\275H:=KF\321\277\377\373\325\275\031\027\200\275r_\n\276a\261\225\275oL\336\274\317b\367\274\217\245B:\217t\024;\376,1>\247M`=\001\254\320=<5\t>L\276\002>\204\3144\276\3576\177\275w\247\360\275\334\036\263=\215A\251\275\2732\212=I\245p\274n*\307?\361F2>\343\226\310\277{H\311=\017\003\021>%X\013>\372>\320\277\324H\036\276O~g=\022x\204>\201\306\272\277\321]P=\357\240Q<\017\245;\273O\200[</\265O=\365\300\307=\217\002\016\275\032\3201>\315\202\272=\275\312\343=\311\306b\275\317\334V\273\251g\303=\177\313\314\275\337\226]<\254^\313\275?6n\274c\225\305\2775\272\302\277\254\363\346\277\366\227\330\277\335\326\324\277\373\255\371\275\026\'\307\277o\311\314?\3129\330?n\345\335\277\217#\250\274\215\'\310?\375\276\335?\275\301\303\277\246<\351\277\351\251\330\277\267\263\313\2773\311\307?#\306\325?a\327\346\277U\360\333\277\301\357\315\277)j\345\277\352\207\304?\204\224\300\2773s\020=#\367@=K\325h\275\227\310\307?8|\310\277=)\327\277\313;\301?\236\361\315\277\351G\335?0\236\275\277\313\357\300\277s\231\024=O\274\275\277\316\250\334\277\230}\333?\217\034\323\274@E\336\275\335\375\314?I\361\343\277\243t\323\277\353\271\322?\257u-\275\210\243\340?m\353\311\277\345**\276V\317\276?+D\022\275\254\023\277\277\031~\276=\016I\300?4n\300?\255\264\276?\023z\315?\235\215\336?K\325\311\277\255p\315?\307\311\316\274\242\003\333\277u\215\313?\035R\277?E\262\327\277B\027\336\277\013\005\335\277\307{\313\277.h\317\277\377<\317\277\354\373\312\277\2329\327?\360[\300?3\264\327?\t\366\341\277\tk\326?h\364\307\2778\274\277\277kn\347\277}\017\342=\321e\317=\217\020\033<4\0051>W\311\306\275\017\2374<\205\020\234\275yz\n\276]\037.\276\271\323\265=\317\234\263;M%\304=\005g\270=\337Gc=\377\035J=\317H\371;\325\222\314?\277\313\277\277\275\260\023\276\225\304\347\277r[\326\277\242\301\312?\361\262\310\277\255\375\310?Y#\325?\333\343\341?\314\330\324\277\327@\306\277\277\207S\274\251j\344?\257\350\337\277\210\357\305?\024#\214\275\373\320\241\275\305\212\260=\243)\231\275C\331\222=H\177\020>\246-\020>\325$\265=F\2152>\267\360\277\274\277\r\000\274\232\"!>C8\267\275m\251\350=N\266 \276\217\2313:\303f\334\275w\315.=;b\006\276\347u==/C\340<&L+>{Kr=\373P\321>[u\266\276\377\033R\274\251\245\232=0\313\333>=\"p>\365\217\240=\241\003\204=1\324 \2767\301\021\275\340\322\r?\315\245%\277\264\233\035>sm-\276Ys\235=\r\250\362=\325b\313\276g\217q=\t^q\2752\357\025\276wk\244<\324\2653>[\005\n\276.\222\252\275\263\330\017\276o\355Q=\223\r\362\275\207\330\321\275\r\306\370\275\014\262\272\275/r\305\273\026\216\270>\265\274\373\276\230\270\006>g\241\250=\322\356\013>\313\000\363\275\210\374\231\275vp\205\276\r\267\270=\316\003\243>B\235\363>/\037\264\274\203\310\243>Tj,>\027b\312<\264V\025\276,n\352\276\302\341\271>\022\025\230\2757\245Q\275\265\237\220\275\037\'=<\276\007&>\202\210\312\275c@+=\337)\032<\217\374\210=\371\217\361\275\300\033\336\275\013\362\034\276\267a\317<U\276\266\275\357*c=\207\016\245\275J\202\233\276\373\020\024\275&M\365>\227\377\250\275\3610\374=\354\346\027>Chl>\263\267f=\207\357\255<\'\344I\275\027\253\217=\215\0341\276}O\344=l%1\276Ge\252<\250\3364>;\376\204=\357\261\351\275\"\363\005>\330\314\345\275\343\220\332\275\343gT=\236\370\034>W\366\332\274\342_\354>\322\273\002\276\177\003*\276\340\370\253>\232\337\'>\374\326\311\275\305\266\310\275\255\243~\276\313\340\323<jw\033\277\003?#=\320\316\350\276\177c\350\274q\236\253\275\222\021\314\275E\223\366\275\357\023\234;\216\274\331\275\245\310\313=\023t\024\276\213\353\003\276Y\034\240=\322 \t>\305c\201\275\377^\215<\223\373,=\201\273\230\275\347m\305<{\323\361\275n\n\243\275\330\2444>-i\354=X\233\310\277e\252\304\277\225g\346?g\373\310\275\331V\316?\021\267\361=(G\345\275\r\277\320\277U\211\331\277|C\312?e\214\322=_\240\317\277*`\305\277\321V\347?\251\265\306?\374G\307?\255b\337?S\364\335\277\t-\306?\023\252x=\210\242\317\277\026\341\306?w\337\237\275h\254\311?7\237\230\274WG\026\276\277\276\202\274h:\314\275}q\276??]\306\277\005\366\306?yz\337\277\016\313\307?\020\271\275\277Y\335\367\275\277>\277?\227\222\334<ak\316?[<\307?m5\274\277\235\025\211=\305\177\314\275\253;\310?\021\004\347?\200\t\323\277-\352\305=/i\330\273\036T\316\277\341\326\306\277\367R\214=\304\016\336\277\263\275F\275T*\334\277\333<(=Zb\341?5l\347\277\304\303\304\277B\177\332\277\200\341-\276\343\266\327?\252\036\277?K\337\215\275\232E\333?\317\307\302\277\351\247\300\277\n%\316\277i\022\237=\237P\320?\215\014\335?\245\236\022\2763\360\017\276\263K\342\277\330\300\345\277\322n\017>\216d\343\277\331\345\251=h\311\315\277\034D\313?\022!\307?\035\327\373\275\337\234\205=_:\257\274\301\016\271\275\215\020\347=\371\022\275=_\332K\274\364\211\346\275\203\345\007\275h\333&>\363\032\213=\347\312\324\275%\202\262=\330\230\212\275\317\334=\273\na\241\275\205\234\200\275\231\354\332\277\265P\360=!\334\301=\321\220\312\277\215\235\315\275\222!\333?C\265\314?.\335\305\277&\211\271\277\365\354\331\277\261\300\325?\360\236\343\277\356?3\276\321\275\215\275\343\224\321?\346K\300\277\377C\375<\333\344\037\276?\313\337\274\010\365#>\221\306\374=\007&\234\274\347\006p=\223\002P=x\300\027>w\016x=\332\1774\276\307\320\021=\224\025/>E\374\240=\361\343\273=_|c\274\252\265\310\277\264\263\316\277\244@\310\277Di\306\277\342\261\310\277\026\241\332\275\243\224\306\277G<\322?J\250\324?\315\223\305\277-hm\275\222\247\312?\205\302\342?\226\222\325\277\342\256\323\277\2703\314\277lm\300\277\313r\317?\212/\311?\370\024\326\277\350\017\326\277\272x\310\277\232\301\266\275t\"\322?m\317\337\277\037Ht<\321`\371\275R}\204\275h<\336?1c\323\277\347\264\331\277\200\230\301?L\317\316\2776\244\326?5\006\315\277\234\210\277\277\004\260\'\276\345\033\306\277\377O\341\277\0352\333?\024\021\233\275\266\307\216\275\374\222\275?;\372\312\277\031&\307?i\324\330\277\365[\255=\324\353\311?\t\356\302\277\017\354\217=\nC\351?\255\000\276\275=\274\274\277\307\355\217\274\236u\336?{\n\322?\305\033\340?\362\340\275?\3536\321?\255\002\275\277B\245\322?\347\337<=\'\342\335\277\233\232\325?\235h\314?ve\315\277\373,\307\277R\326\321\277\327\006\304\277X\007\323\277jY\327\277\214V\340\277\354\312\335?\251)\334?qN\317?\320[\311\277\177\342\346?(\023\350\277!\177\345\277\327\345\307\277\206=2>}\t\n\276z\336\034>\002\204\013>\201w\362=cwD=\244\245/>\317\340x\273\310\313\024>\321\355\341=\223s\002\276\357\204\260\275.S(>\327\334\313<g\244+\276m\303\201\275\014\266\314?\206\317\315\277\237%\r<D1\301\277\200\373\344\277\014\024\337?Lp\325\277\217]\347?\017\006\350?\016p\335?\232\023\343\277\322\365\310\277\317q\221<E\211\323?\240\257\317\277\207\263\350?Z\177*\276B#\032\276\033\333\302\275\177\355#\274s\360q\27588$>\360M\232\275\023\361R=\247\354\362\274\373\030}\275xZ\246\275\">\031\276\377\\K=,\343+>5M\376=+\013\001\276j\223\302\277\234\r\345\277\236\306\315?*\301\275?\314=\274?Gf\311<\3344/\276\367\\\314\277(D\306\277\026q\310\277\034D\376\275\023\361\274?\275\241\330?Sq\310\277\2060\346\277\363[\317\277\246z\344?\006)\312\277\016\321\340?!\220\336\277\3657\302\277u$\326\277\276j\003\276\337K\303?\375\240\331?\240>\020>?h\354\275\177\036\355\274\232q\340?\226V\276??\332\301\277\213\240\336?\266o\347?\316\245\306\277V\222*>\334\'\331?w\260Z=\365\203\321?j\210\337?XR\343\2777\t\225<\221\276\363=\332\014\316?\376\335\274?+\305\333\277\325?\323=K\240\221=\255\030\347?\371\362\315\277,G\006\276\234p\305\277\234E\003>\337O\317?\3076\005\275x\340\332?\202\230\315\277\221\326\303\277\206\016\345?Z\224\345?\314\313\277\277\021\021\317?\033b*\276\230\325\345?\3408\326?\2257\274\277\231u\344\277\354\030\237\275\377R\275?\373\326\303?\210\266\303\277t\213\327\277\337R\275\277T\364\326\277\347F\335<4E\341\277\362\000\023>\373J\276\277\241\333\276\277Cz\334?\317\004X<\3274\366\275)\236\016\276d\236\031>\217\377\206\273\323\327\022\275I\302\371=\234\214,>\035\306\270=\247\372\356\274_\002\301\274S\027J\275\345\375\300\275[OO=\017H|\273\343]!\276\351\330\267\275g\353\336?\027@1=\375\330\364=\321n\341?\327 X=\216\260\335?9\212\327\277Z!\350?\007*\274\277#k\313\277Y\374\311\277\377\334\337?O*Q<M\345\330?\003\264\336\277\341\007\277\277\347\237\200=\212\2660\276\325\311\305=\343\375E=m\235\021\276Wp\231<[0\262\275T /\276bb\n>oDZ\274\317>\016\276L\333\330\275\035\022\223\275CO\016\276\376\234\265\275\357R\234\274\325 \316\277@\301\030\276\350j\341\277T\215\333\277\362\031\325\277\324\374\023>gE\310\2775F\350<\202+\006?\225\230\275\277\357\256\246<\022\273\014\277O\227\215\276\3401\331\277\361\345\323\277\331 \311\277m\370\304\277\357\027\332\275\324\371\365\275E\016\336\277\033\006\340\277w\r\331\277\r\207\266=\333\002\341=\016\233 >\007y\245<\346\366\204\275\317\2436\273\035\257\320?\375(\322\277\301\371\304\277(\010\344?\3308\325\277uT\037>\333\251\341\277[\303\305\277b\324)>\210m\324\277K\004i\273\027\013~>\257\376R\275\377\243\255\275\257\345\321?\226C\321\277gM\306?\225\035\263\275\310\031\244\275`3\245>nh;>\024\274\035>\032xs>z+\310\277`?\331\277\326\277\315?\312\210\030<\020\2217>\357\216\303?\341\033\331?\'_\330?{\t\337\277\247Y\005=5K-\276x%\305\277\376\313\324?\300\036\347?!\025\303=\303\226\313\277c\211\313\277\354e\347\2776\261\316\277c\332\343\277\320=\323\277g\026\205=\331\013\305?\240&\247\275%c\315\277\177\213\276\277~z!>\007T\246\274\372\351\001>i\216\326\275%\367\362=\255\237\335\275\274{\023>@\221\017>\023}P\275\252e\037>\256#\234\275\346\033\203\275\371\333\367=;\337F\275\213\025\264\275`\376+>\357Q\237\275\332\310%>\037\226t=\037t\207>\257?\342\277/X\235\274S>\024\277\320\216\314\277CTG>ln\350\2774\224\002?3\353\216>\376<\234=\205K\341\277\342\263<>\223\035N=\264\260\211\275Y\234\313\277\2430\221>u\262\304=\231-\273=>\0024>\301\026\255=i\024\370=\247\316\251\274\200\221\333\275-&\240\275&\333\t>\037;\000=\307\223\\=\201\335e\275m.)\276\256\257\031\2769\2533\276A}\244=\037D\347\277\010\215\320\277/\230\305\277\337\350\337\277\254\310\251\277\317\035\'\276\206\305\317\277h\0378\276\2479\215\275\365k\314\277\345\231\277=\333Z\010>\226@\026\275.\224\325\277/\303\347\277k\353\310\277=\035\317?\372\242=\275.\246\216>\t\344\326?\206\274\316\277\014S\307\277\300\221\310\277\211& \275\350\261\030\276z4\025>=u\265\275\375\277\334=\330V\337?\206d\332\277C\006\313?\343a\301\277\007\270\307\277\225\247%\276\206k\300\277!9\337\277#\0272\275\312(\304?\031\326\307\275\005n\265\274)M\212\275\ty\365=\t/\317\277!\336\330\277\232\016\321\277|\301+>\261\375\332\277s \213=\347\256\376<W\311\230\275F\230\023\276mV\312\277o\030\300\277\2511\261\277\303r,>\353\200R\275Q\331\333\2773\214\344\277\3304\276\277\016\373\323?\216M\330?\243\336\006\276.\303\317?\373,\351\277\335\020\267?-\001\275\277=\n\343?\344\004\333?.9\327?\002e\333?o\252\305\2777s\333\277\373A\024>`\270\274\277[\365\025\276\346\302\312?\242\273\344\277\307X\331\274\013\223\263=\212\227\315\277]g\340=\347|u=\270\337%>\366h\226\275e\315\231=Q\260\310\275\026\2523\276\206\177\036>\321r\356\275\317\225\304\274c8\206\275\017\220 =\337m\231\274k@^=U@\337=\377+N=\341\227\245>\201\207*\276-\217\250=\000\300x>\214]\311\277\216\002\004>l\010\325\277\345\207\344\275\275\352\270\275C\245\250\276\201k\311\277\0131*<\257zo=~\034\031\275\213\311\271\277o\316]\275/\025\'=-6\326=\007G\204\275G\200\013\276L0\021>\343\356\343\275\007n\231\275Zq\007>W\365\031\276k=\361\275\205\271\307=\231W*\276\023\206/\276\337\351u\274\217\2541\276[]u=\377\267\311\277J\354\275\277\216\317\275\277\257k\333\277\363\326\321\277\007f\265<\030+\302\277K0\311?5\263\332?\276@\332\277\303s\271\275\0322\333?\245\315\321?JK\301\277\270\217\315\277\207\334\305\277d\234\304\2779\270\312?<s\341?{V\351\277oh\341\277?P\343\277\317z\301\277e%\307?ci\334\277\202\363%>\305E\252=N#\312\275N\026\331?\344r\300\277k1\323\2779\246\324?\246\031\340\277\273o\260\277\212\222\303\277\026\205\300\277\302\304\372\275\305\337\306\277r\256\275?\376\340\274?\'\025\346\274_\tM\275\251\237\317\277!\243\306\277\273\267\322\277&\010\303?\245\003\326\277\005\225\277?\336l\301\277\212[/\276\250\027\316?\217\262\326\277$\212\334\277\274\207\316\275[\361\302?\275\226\306?Z3\340?6\037\315?\212\304\276?\022W\322\277\017B\350?I\304\374\275\310]\301\277M+\346?\276J\311\277\261\363\310\277u\276\324\277#b\342\277*g\345\277]\244\322\277\236\355\343\277\237\260\310\277\361\341\276?\037\240\322\277\224\336\302\277\205\026\343\277{G\342\277\000]\302\277X\017\260?\022t\314\277\365\\\275=\206\312\246\275\331/\240=\337\366\026\276\367\'\315<\360#,>\247\3218=S\025/\276*\334#>\376\'\237\275\333sx=\366\337\r>\006\014 >\307\264\245\274\207U\330\274\225[\224\275\202b\343?3\035\326\277\021~\310=\236a\305?\010\353\305\277\264\313\321?Et\314\277\0323\275?\351\235\324?\004&\301\277(\000\276\277\357\r\260?\326\n\010>\333~\274\277\031\020\312\277\261\355\304?$\327\310\275\241$\251=\2222\030>\2336\372\275l\214\000\276\r\377\231\275\217&\016\276]n\220\275O\200\007\273\346:\034>\013\362\026\276\277\017\220=o\213\247;u\350\027\276i\236\254=B\215\021>\202\236\007>^Y(\276\3056\317=?\372\214<&r,>W\250\371\274rl\010>\366\313\027\276\320\336!\276_\324!\276xd\343\275\321\345`\275\037=\026=\255\247\232\275\332\376#>\001\243\332=\006P\034>\353\013:=\025\341\246=c\326\362\275\014k#>\261\033\266=\221\272\256=\341\006\010\276\355\334\024\276\035\271\255=\025\322\013\276M1\277=\r\007\331\275LA\201\275\246\332\237\275oIx<\254\242\223\275_\353\007\276\312\272\341\275#:\206=cID=H\025/>\333]2\276\275\023\323=\330J\304\275\317\200\303;\007\0252=/\"\226\2756#4\276\247q4\276\006((>_\311X<\233\n\315\275\206\031\014>\237\257\335\274\227!\t\276\021f\304\275\335\276\260=C\326\256\275\311\027`\275\2234{=\306\035\266\275\0146*>YO\356=yD\377=uN\345=}J\263=\025\004\344=e[\211=\231\324\211\275\027T\213\274\361\031\351=\r\202\230=\367=\326<\221\226\271=?\203x\274f\240\227\275#\3004=G\327\365\274\323\271\371\275W\373`\2755\001\013\276w\003\263<\'s\013\276\247a\003\275\350\243->+z\002\276e\256\226=\024o$>\017\270\242\274\261\206\244=\235\254\251\275\205\326\356\275!\270\230=\235\232\277=^1\205\275\310<\023>\355\314\260\275_\371\242\275\037z\306\275\224o\027>\210\303\254\275\240!\000>\275\300\371=x\230\274\2755H\312\275\177\014!\274\317\366\257\274jF!>\377t\345<\023\031,\275S\310\217=\265m\353\275<\033\001>\337\274 \275\201`\225\275\022\\\'>\225p\357\275\2330=\275GJ\003=6Q\021\276\351\270z\275e\336\276=\227+\251\274!t\035\276R\0072>\211E\323=?+\230<\177I\014\275/\301a<\034D\320\275\360G\230\275Z\360\273\277\326\223\333\277\220\346\331\277+\"\304\277\207\021\303\277\367Y\340\275<>\276\277\212#\317\277C!\345?-\361\275\277g\254\253<\226\305\306?\345\032\340??0\344\277_\007\327\277\344p\306\277|\340\342\277\356\232\310?\206n\322\277\302\000\301\277\260?\347\277s\337\346\277\306\303\244\275\0254\317?\333\202H=W\371\206\275\337\036n\275&\244\022>\365\307\344?\251\366\313\277t&\303\277\244%\315?b\025\345\277Oc\344\277\357?i\274\232g\336\277\311c\374\275?\342\334\277q&\313\277?\204\302?O\316\025;}f\330=\224\203\326?=\226\274\277\032\260\342?\210^\013>\346g\031>\304@\313?NM\337\277\260\344\273\275\235\336\312?\270\224\303\275:\326\322\277\365\337\242=5\357\320?\353Y\313?\232z\327?\212<\322??-\321?y#\312\277U\353\301?\'\035v=\223\025\300\277\305\352\337?\330`\303?A\242\331?\'\351\232<\254\203\326\277\232\322\276\277\236Z\315\277\331\022\301\277\374\344\320\277q\225\324?\300\010+>\202\014\340?x\363\320\277\257s\333\277N\n\332?\236.\350\277\336\017\003\276\013d\344\275`\271\002>\007\035\240\275q\355\204\275p\272\t>\3636^=\320\177\341\275k\340\212=Pj\310\275\307\004\177=9\000\267=V\360\026>\373\242 \275#9\347\275\221i\356=\326\306\031>n\023\346?/}2\275\214\366\344\275\334_\312\277]$\350\277\025F\034\276U\002\273\277v\354\335?\255\340\324?\262\344\277?\205\360\322\277C!\334\277\352\0264\276:\224\313?\251\256\242=\025\345\327?\025@\316=;$\013\275&A.\276\357B\n=\313K.\275;\027\000\276\226\036\341\275\217\243_\275a\302\365=\342\306!>\251\t\340=\017R\361:E\375\000\276\271L\267=\217\220\000\274G\213\222\275\n:\342\277\301\207\320\277\034\326\276\277\350\313\306\277\276\024\327\277\357\353\020\275\375\357\332\277p\007\334?\206\262\327?\2519\331\277\377\317N\275\304\231\343?\354:\322?Y\230\330\277E\222\322\277\320\007\315\277&\242\301\277\3646\332?5\333\311?\266\004\306\277\r/\336\2774\032\323\277\340E\345\277\003\325\304?\020+\310\277\326.\230\275\315\325\230\275\3058\366\275\321\261\300?\364\301\327\277\nz\277\277\013\365\304?\001\'\305\277E\371\322?1\334\335\277\364;\277\277\035W\247=C\236\310\277i;\326\2777k\335?\373o\033=#\203k=f\233\306?\000 \323\277M1\343\277Y\245\267?\313\210\267?\221E\340?\271\320\334\277\035L\364=w\251\331?B\254\310\277|2\312\277\213\374^\275\200\001\266?K\006\341?iQ\313?\344L\310?\311\327\300?\315\377\344\277\302\335\307?>;\014>\272j\323\277\207\364\325?n\303\332?BU\346\277\006u\301\277\330T\336\277\221\r\317\277:\347\276\277d\300\341\277`I\320\277\241\240\342?\027\340\335\277\254\247\336?j\276\334\277\203\237\346?z\270\320\277Mm\335\277\240\214\320\277[L?\275\247\344\030=3\035n=\0132c\275\\\344)>\337,\321\274\213\3176=\212\356 >O\210\237<\213f\350\275g\273\210<\363\210\003\275\206J\007>\357\316\367\273\245!\306\275O$\010;\345)\325?\213\213\325\277oF\203<\031\017\317\277\204e\335\277,F\302?zf\307\277\201\272\333?>\324\311?\016\360\332?\035~\326\277_\264\344\277E\326\336=g]\336?y\\\333\277\r\205\316?o\277W=\227\032D\275\213\365\253\2757\361\335<\320E\016>\216\022\013>\244\277\036\276\36491\276\211:\342=!g\330=\375\307\362=\003\"D\275w\352\353\274\316\303\001>\204\345\370\275\337\1771\275h\205\322\277\266\316\330\277 \307\334\277\315\221\322\277\240\226\251?!\224\244=\271\036\301\277\377\347u=\271\347\326>\001\266\342\277\356@%>7sF=\371!L>\352\355\324\277\0356\314\277\323\304\335\277\213\316\274\277yer\275/A\241>\236\323\277\277\262\004\310\277v\206\340\277\':_\275\351\001h>\201\205\340\277\320\323\017>c\340 \276\221\375\373=h\371\317?\216\363\311\277\022\206\316\277E\013\337?\371\257\311\277\227\327\277>\334\021\344\277|V\327\277\037\021\321\274\n\030\316\277b\223\210\275wl\253>m\332\301=U\325c\276\257\341\333?\207\017\331\277\"B\311\277\177\374\204>\300\355\306\277\214P\235>\277l\253\275\360\213*>!<\344=\2151\270\277\230n\310\277v\225\252?\202k\217>\rB\204\275\370\233\346?\240\366\346?\014\373\275?B\r\312\277o\016\345?D\376\007>\336\337\346\277\327\376\326?W\255\345?\272\367\324\277\010O\304\277\207\337\320\277\236\345\314\277\236\305\314\277YQ\333\277\247\020\310\277\263f7>\347-\332?\2020\t\273\265_\314\277;f\317\277\211\030\337\277\324A\356=\274\313\330\277\337\262,=O\276_;/\373\016\274\362\313\022>\254\002\005>0\031&>-\230\276=\317\\?\2735\016\367=\016\206\003>\357-\276\274\t\377\360\275\017\204d\273\337\364\213<B\242\037\276G\242\335\274s\361T>\274\277\334\277\371\003Z\275\337\322\241\2761_\305\277\257\360\312\275\027\216\274\277\340q\247>\200\315\013=\236o%>\236z\315\277\367\214\333=\373\004D=\247\305\313\275\230\270\322\277\333\271.\274\344\366\367\275\343\263\031\276uQ\225=\343W\\=\317\003\037\273\t\344\312=\375\025\263=\345\251\273=\342\366\"\276\317K\212<\001\356V\275?`\035\274i!\362=+\003~\275Y\034\342=\223\026:\275,\357\323\277\241W\340\277\366\031\324\277\243\032\322\277T\231\331\277g\370q\275\330\021\335\277b\240\276?\322C\303?F>\305\277\356$/>TO\326?\032\007\314?J\235\330\277\215!\274\277-\000\302\277\r0\332\277-I\305?\260\362\347?\364\204\322\277\362\206\304\277y\344\311\277$\014\000>W\007\324?Bb\350\277\2176\265\274<8\014>yn\361\275\355a\274?\213\264\341\277\337\231\325\277O\351\310?\201\034\310\277p\266\346?\243_\305\277>\354\302\277\257\\\006\276\220Y\343\277\315\330\345\277\250$\325?\212\034\022\276\332\016\341\275\253\327\324?\267\036\317\277\331\013\330\277XI\314\2779\326\371\275r\253\317??\304\310\277\264\004\243\275\033\203\344?\307\254\244\274\200-\275\277[\375\234\275\253l\327?\224\213\316?\346\334\316?t\213\336?=G\300?\256\355\337\277\365\367\346?}\237\367=>?\306\277\247\300\274?,Z\277?\360\352\275\277\006\346\277\277O\027\332\277.\304\325\277I\361\276\277f\354\302\277Q\220\312\277F@\346?\003\363J\275\022\360\333?\2421\311\277\217F\323?\371?\277\277\346\333\314\277\3300\311\277\253\271F\275\247`\207\274\002\335\002>\325\201\353=[\262\024\276\217\214\342\275\312\373\017>\025\365\000\276\226\377\317\275N\304\007>5\234\211\275\360\304->\002E->WH\334\274 Y\313\275\241\\\263=n\306\321?i\221\317\277\017\325\236\272\330\030\344\277d\245\345\277j\006\326?\033\215\275\277B\221\300?+{\345?\027\027\326?Vy\324\277D\234\341\277\034\245\205\275>$\315?`\227\324\277`\202\330?\000\305\366\275\013_\036\276\337~\217=\025\210\014\276\311\\\325\275H\235\021\276\257\301c\274\223%\014=\0244%>G\271\263<c\3304\275\374M0>@\217\">\246N\t>o\207\202\274\237}N\275\031\006\324?\351\236\303=\300\r\327\277=\256\346\277\034\323\306\277\347a\037\275\'\210\315\277\333\033\310?\006f\347?\344R\321\277o\014\356<\251\331\314?\347\326\274?\372C\276\277\346\031\275\277\346\376\340\277\246\025\340\277d\363\347??\030_<\300Y\314\277\344\340\325\2773d\314\277\014\342(\276\377\317\330?1\332\332\277\234?\017>A\214\272=;r\r=M\205\307?v\337\347\277\0307\306\277\314\241\301?fM\343\277\276\360\315?\014\246\014\2765E\343\277\317\251q<\361|\274\277t0\274\277z!\343?wZ\205\275\\,\030\276J{\336\277\002\014\324\277;g\276?\2769 \276\037\031\266<\311\354\276?\017}\335?\245&\370\275\3465\306?\203\035\217=\225 \302\277\265\272\266=\241\375\310\277\n\032\314?\377\177\321?\"\245\322?\021\311\302?V#\277\277\334V.\276\017\253\231:\200\306\342\277\263\265\341?a\271\346? \206\035\276\275\346\320\277\377u\344\277j\307\303\277\306\034\321\27728\350\277L\301\335?]\212\312?\"\332\224\275?\356\333?\264\007\327\277\250\333\314?\267\037$\276L(\323\277\357\244\360\274\217\224\2059\273bM\275\232h\034>\357\344\351\275R\360,>\303K\017\275\340\223\310\275W%=\275\317)\246\274\1771\335\2746T\'\2766\n\020>\r\376\003\276\375\233\320\275\257\264\023\276\243\020s\275G\373\335?\243O\350\277\223w\\=\373H\326\277MN\344\277Mi\220\275\276\022\335\277\013\004\341?R\262\312?\177\225\315?\206(\313\277t.\317\277\341\276\231=\3253\346?\'{\345\277\371\271\314?\253\261\235\275\\R\r\2763\352\360\275\244\260\016>?\333\264\275<\3054\276\307\305\316\274\250\177\003>QW\354\275\204\333\341\275\362\341/\276\254.\205\275\010+#\276\217\206T=O\246\025\274\353s\202\275\341T\275?\327\314\377<\244\240\323\277\017\372\341\277\326\342\300\277?\352@<\270\017\333\277d|\302?AJ\316?H9\334\277y\352\370=\262O\304?\343\r\303?\274l\301\277\024\354\333\277O\3769\273\322\251\326\277\2357\315?A7\316?\230\213\301\277\337$\324\277\364|\275\277\351&\257=\357>\301?E\030\253=\017\376\332:\262q!>\217\346\337\274,8\340?\034\201\334\277a\313\311\277r\026\301?\033k\332\277\256\324\350?n\237 >\214J\331\277\357k\301\273\311\263\324\277dz\310\277N\271\347?\021\222\027\276\177\324\231<\323\231\327\277\2459\342\277\037\250z\275\326\253\331\277\205\372\376\275\006I\304?\350%\347?\244\004\315\275\242B\342?G\233\022=o\320\320\277\031e\300=,\341\307\277M\262\326?\332\336\330?az\331?\203\023\322?\316C\314\277O\332F<3\357\n\276\033y\344\277\332\305\302?c>\300?\257\202\362\274w\321\274\277\321\274\331\277\240\032\334\277I\035\343\277\000b\334\277\036\243\312\2775\375\333?&\356\006\276\312@\307?\020l\323\277l\220\343?+3|\275\212g\334\277\301\260\377=\341S\212\275\216\332\034>\365-2\276\374V\276\275\331\216\327\275$\360\037>`\210(>\351\312&\276\205\034\244\275\343\360\221=\007\260\322<G\261\007=\333\371\021\276A\026\263\275 \004\021\276\302W\014>A\304\306?\357\251\244\273\347\201^=\021\212\326\277\262\263\277\277\240u\">/\307\321\277\3019\341?\207\301\316?\275\271\310?w\253\223=A\323\340\277\233^i\275\207\345\315?\377t\310\277\332\212\321?\333UW=\312\323\'>\247?3\276g\375\006=W\352A=\363\200\023\275\243\000p=\251\234\213\275U\257\353=\0362\030\276\215\255\003\276A\014\013\276\343uA=!\313\365\275=^\360=\265\246\371=\213\240\307\277\226\266\302\277\017\335\335\277x\346\311\277\016m\344\277=\317\026\276\222\307\301\277\241\361\347?M1\337?O\034\313\277\271\214\331=\317\213\345?\224\377\320?W\263\323\277\0011\315\277\177\237\305\277\232\212\315\277\207]\313?&T\332\277\324I\350\277)\321\327\277\335\242\276\277\365Z\343\277\301S\312?\375\340\331\277\256|\003>\006\032\017>\357\274\351\273[z\335?\322\321\310\277\237\006\324\277\014\303\276?5\020\276\277\343\245\332?\313\321\305\277\276\304\332\277\314;\356\275UM\275\277\3327\336\277\327*\301?\272\376\007\276\237\352Y\274\237X\265\277\220\255\325\277+n\332\277\257*\332?\201O\022\276\307x\332?\367\023\347\277\321\n\360\275\342\340\333?rP1\276\013\245\277\277\t\350\000\276\206\010\331\277\264Q\274?\251\211\325?\242\322\303?2\235\335?\352\207\314\277\245\306\322?\372&\326\275)\317\325\277\374B\300?r\264\304?\021F\314\277\233C\326\277A\363\302\277q\262\330\277\034\320\327\277H\342\335\277\301\346\323\277\276;\316?\342\214\270\277\236\017\350?\250\222\324\277I#\317?A-\306\277\321\230\302\2774\260\331\277\025/\305=t\324\n>\367\033\005\276i#\267=\037so\275\021g(\276\374f\016>\261K!\276\343#==\nT\036\276\351\263,\276\017\007\223:\003Iz\275\205\235\360\275\005\267-\276\350\\\371\275\177\243\310?i(\322\277}r\362=\t\217\344\2778\375\306\277qo\306\277<\005\317\277oD\341?\247\372\316?\252e\302?\245G\277\277y\353\322\277\275\317(\276\367\016\343?\375\004\303?Gj\334?ex!\276e\t3\276\277\331)\276\014w\262\275\267\2170\275%\226\r\276\250g\'\276\037v(=\341\315\270=\337\210R<\217\016\342\272\355\327\025\276\372P\034>O\340\211\275\251g\341\275\265\356\213=\0250\345\277\373\346\316\277\372+\302\277\026\374\337?\337\007\221\277\201\264&\276Q\330\325\277QE\272=S\322j\2757\236\301\277\246\"\020>\257:-\275\352\317\241>\264\202\325\277\032Y\323\277\366\321\326\277o\267\312?\343<m\274\320\321P>\276L\300\277\017\246\316\277\221.\317\277j#\303\2771\227l>\302\346\346\277\025<\t\276JL\022>&K\000>\255\013\306?R\217\331\277\373\210\330\277\024\214\340?\255\211\326\277\267\214x=\3226\327\277\353F\314\277\t\241\231=\373+\310?\367\003(>L\3634\276\t\311\374=*\330-\2765\364\304\277\275\013\272\277-\313\315\277}\220\017>\017\332\314\277\372Z\220\274\021%\327\275\264\025\005>\224\370\362\275\215\251\266\277U\030\312\277\203G\306?\244\343\321=k\004\000\275\275}\326\277\225`\334?\2778\277?\350\220\312\277\245\264\333?\214\323\'\276\354I\310\277\354\336\327?\214@\244?l\370\304\277\352f%>-\330\322\277v\r\334?\346\002\315\277\2279\342\277C\004\310\277\251\246\305\275\324.\333\277\224\205\014\274/0\322\277Pi\317\277p\204\305\277\205\206G\275\277\354\305\277\037\304 =\253vr=P\214\336\275g\260V=\371#\322=\'Y\032\276\217*Z\273\221<\247=\035c\234=^F\276\275\037\207a=\325\336\270=\257\005 \276M\303\245=i\227\346=g3\270<\211\'\225>O{v\274v\226+\276^\261\250=\020g\341\277\027x\026>yL\300\277\304\234 \276\034C\250\273\n\261Z\2769w\330\2770r\213=\316\253\'>3*\207\276.\302\312\277\211\345\314\275c\327B=\212R\016>A^\261=\217\265\354:\237\321T<\367\265\005=\231\355\273=\2627)\276\317\356\365\273\203\304 \276\312Q0>\247\327\035\276\267\014%\276\367\263\202\274,\'\037>\036\035\217\275\367\251\332\277\020\300\332\277.8\344\277\251\247\310\277<\274\334?d\365\002>T\276\341\277\345w\340\277\014\013\345?\213(\336\277\032\0023\276\257v\336?\257\270\350?\300\n\276\277bB\333\277.\372\274\277\253F\337\277\202\032\342?\375\216\331\277\361\216\304\277\036z\307\277\347\013\346\277\331 \310\277\332\230\277?\243\222\276\277\2776\245<\355\330{\275\017\325\310<d\237\310?d\277\326\277P\224\302\277\252\020\344?\025\341\343\277\tY\320\277\n\300\343\277\204\310\350\277\3170z<>r\337\277\337\310\276?\254\222\267\277\274\364\214\2756\361\022\276\020\355\275\277\262\001\314\277i\221\300\277\033G\307?3\347\'\275\235\364\316?\024\266\324\277\215/\202=\263\364\274\277\234;\020>\021\236\325\277\254\230\024>\257\204\330\277\371\253\313?\362\236\323?\\\324\320?\272\313\274?\364p\310\277e\212\305?\005\337\312\275I\032\275\277\327\211\311?\265\013\312\277\213\223\320\277$\370\325\277\301\330\302\277#R\325\277\354)\314\277\022H\326\277\334\302\335\277\332\310\320?|\260\272?+D\321?G\360\277\277\3460\343\277\265<\341\277\231F\301\277\225m\340\277o\352\363\274\257N\202=/\234o=\323\306J=\345x\003\276\017\320W\273\347?\272<\316\344%\276\351w\220\275\372\326\004>\357;t<\024t\242\275\277\026\000=\2406\201\275c\376.\275_c{=p(\333?n\315\347\277\007\202\320\274d]\303\277Z\315\320\277|\373\276?\020>\300\277\013\321\331?c\r\335\277t9\316\277\t\234\334\277\317\236\331?\r+\344=\221\367\347?\205\031\274?\\s\277\277[\314\200=\332\260\014>\375\327\271=]\255\266=\337\031\341\274\347\014\376\274\365\007\242\275U`\344=\311$\233=\267\321\337\275\243P\341\275\350\343\004>~\246\375\275n\364\004>S\034\021\276\325\265\230=F\314\314\277\251\253\313\277\026\376\305\277\312\300\304\277\212\311\257\277\370o\331\275[\334\342\277\334\371\020\276\253\231V?o\024\311\277\357\035,\275A\276~\276.\330\002\277y\262\275\277@\232\275\277\240\311\342\277\370R\306\277-5.\277\275+??\014\255\341\277\322\356\330\277g\262\350\277\227\233\336\277\022 y?\341W\320\2778\250,>\022\267\275\275\303\3541\276\300\337\337?\023\036\276\277]/\327\277\216\212\302?\334H\336\277\036J>>\241\272\342\277\004H\325\2777`\236\274\302\263\312\277\320\221\030\273\3637\035>\221\037\360=\223r\022=G\267\277\277\361%\274\277\001o\306\277E\276\222>\254\034\311\277\232r\276=\207\210\221\277\0027\266\275\211\212\033\277\004a\272\277\275+\350\277\255g\276\277\322V>?^\375\347\276*\007\277?\217P\350?Ed\323?\261m\343\277A\203\324?\346t\014>J\212\305\277\245\242\324?\203\315\312\277,_\320\277\315\220\332\277\212\237\311\277\361\037\335\277\0266\303\277nx\330\277\305V\314\277\017\311\000>R\253\264\277\226\304\230>%d\322\277\t\273\276\277\237z\302\277\177/1\276I\023\313\277$\233\033>\231u\247=\3046\026>o\177\324<\216V\037>\327}A=\241u\257=\027I\215\274\013\257\'\276\217ZV\270\031\265\003\276\315\250\020\276\367\277a\275\306\242\017>\275\215\235=\215\273\224\275\207Q\265\275\2361\321\277\347\346\023=\272\302\376\276\341\177\325\277\364\270\375>\034\302\324\277JR\007?\t\375\231>5\002v>\252Y\334\277l\344D>\317\023@<\316\203\025>\226\021\323\2774\262\260>\253\250v\275\370\305\016>\305,\250=\217*r;\221F\374=\317\237*\273cqB=)\246\003\276Q\304\010\276\365\214\336\275&I\200\275\037\014\'\276\217*\223\272\370]+>\035\226\312=\314\350\263\275L\313\331\277\315\210\313\277\255\001\345?f\307\300?\313W\242\277\233\373\031\275\214\321\320\277\010r\"\276\221}\t\276\206\r\341\277\267\334\340\275\367mc>\203\333m>`s\350\277\274\202\304\277\201Z\332\277b\203\275?\'\t@>ap\017=Q\014\311\2775\321\325\277j\033\325\277\213L\307\277\355\325\312<\277<\314\277\266\333%\276\337w\233\275\344\027\215\275\336\330\301?\242\203\340\277e\355\350\277\211\305\307?\363\252\322\277\tH$\275\336\300\303\277t\355\334\277\301\026\000\276l\313\335?\233Jc>\r\r\374\274\315ab\275cxX=J\264\274\277\350\225\323\277\364\324\320\277!\235z=w\230\266\277\251t\214<m\257\t=\205\305\325=\350\276\251=\275\220\324\277\217\325\326\277\267\222\305\277,\237\214\276:\307P>\303\247\305\277\227T\346?\202\204\313?a\035\350\277.\357\350?\177d)<4\354\342\277\262b\325?o\222\264?\r\027\307\277\323\330!\275E1\307\277\333T\274?,\326\330\277\245\257\330\277\035\223\346\277\252\315\342<\266\263\313\277\331\361\270<\367\346\312\277\346m\315?{S\313\277[_\352=\363\276\275\277\365\267\315=\217\333\262:3\370$\276qp\244=\231\345\225=O\312g=\333\304\337\275a\251\264=\221g\264=x\364\307\275YNt\275z_\023>5\247f\275\377\333U\275f1\014>\243EY=fx\201>\357\377*\276\244M\350\275\365Q\201>#\222\300?\333;%\275\0003\333\277N%\267\275\360\345\024=g\376\274\275 e\316\277\275k4>oc\367\273+\314\'\276&\256\304\277Q\032\340\275c\337J=\333\365\031\275\326\023\"\276{\205\005\276\037]&=\257\250(\276\017\010\242\274;\035s\275\317N<\273\373\024\\\275\3426$\276g\313\306\274\320\275/>g\2001\275\rR\"\276;\n*\275\266r\320\277\035o\341\277=\346\310\277`\026\323\277\241\211\326\277\366\022\021>\304\223\277\277F5\316?zB\351?\320\231\300\277&\334\036>\220\212\303?\001E\346?x\251\276\277\035\307\307\277\336m\304\277\243\026\312\277^*\301\277\371\017\273?\232\241\337\277U\345\317\277o\033\275\277\334}\302\277Z\325\317?\276v\333\277\217\272\"\276\327\026\362<K?\033\276\275\002\343?\324\302\311\277\201\330\277\277\004\336\341?Z\233\274\277\204\004\302?\237\371\323\277\017\274\327\277\233<6\275Z\313\343\277\030l\263?V\361\314?\227\241\025\276\307\270\177\275*!\323\277\314\266\335\277,=\317\277\223\344\276\277\255\322\340\277K,\277?\370\236\310\277G\037\223\274w\304\313?\322\204\275\277\257:\337\277\243+\276?\021K\330?\202i\330?3^\337?\230\341\332?a3\312?\313\224\302\277\022\243\326?\371\337|\275\375\032\307\277\305\306\344?z\367\301?\273\361\321\277y\234\334\277[b\311\277\250o\320\277\365}\322\277\223c\315\277\024\231\333\277h\322\300?\210\350\316\277R\316\322?\347;\301\277\036|\316?s\r\316\277\345\302\315\277v[\341\277\263\\\226\275\317e|\273\225L\217=\331\330\214=\'c\022\275\372\0101>7\326H\275xG*\276\026\241\030>H\253\235\275Z\376\r\276\005\362\312=b\206\350\275\236\206\t\276\377-*\275!\374/\276\263\204\347?N\264\304\277\277U\034\275\024b\276\277)-\320\2772\334\305\277\276\254\320\277\264\346\310?\236\375\255\277 &\350?\237\032\346\277%a\307\277\367\021\325\275}\345\301?\301\256\257?\311@\310?\320V\004> 8\037>\'\252\223\274\332\251\t\276\257]\332\274\227\254z=mL\303=_gA\274\357\244\001=\315\366\240=@\301)>\304\370\037\276\327\\7\275\017f&\276\022\257\006>H\2220>\237\304\310\277W#\334\277\370p\343\277\246\013\331\277\224,\302\277\217\242]<1\021\336\277\320\305\303?\272\370\313?\2429\306\277\317\275$\273?\332\314?\226\320\335?SS\317\277\342\244\275\2773\216\275\277\267\026\301\277\324 \304?\261\201\333\277\340\245\307\2777\237\302\277\377g\333\277\r\363\300\277\213s\312?}\334\313\277\375\217\315=\247]\256\274e\3772\276\010\352\333?\327\025\324\277\002\277\330\277\013\224\342?.<\314\277c\023\325?\264\340\303\277\322\247\326\277\225\220\372=\330\326\335\277\314\200\336\277\263\344\317?4\326,>\237\254\335<|I\267\277\354>\320\277\273?\304\277\217\312\324\277\325w\266?\211l\334?#}\310\277K.\215=@a\323?B\356\037\276\'\343\277\277w\330@\275\345\306\315\277\024\014\321?\376\357\315?y\277\331?Z\300\320?\330\035\345\277\270\331\343?\241\272\254=\002i\313\277<\366\317?\347\265\321?\311\274\336\277\3371\351\277M\003\277\277\242C\315\277\203\030\300\277\254(\323\277\246\332\316\277J\346\345?$\240\265\277\010\357\311?0\300\327\277U1\336?\230\t\322\277y\220\312\277$j\335\277\337\264\343<e\3231\276Q\367\362\275<\373+\276\210\212\027\276\n.\036>\241k\243=\357\334+=r_\266\275B8\247\275O`\355\275\001.\222\275(o\010>\220\212\030>\217\364-;\313\227B=\376u\327?$#\314\277\001N\356\275\311\211\301\277\364\333\325\277Z\010\261\277\206\273\317\277E\334\300?\016\326\320?A\272\346?\306\347\346\277\002{\311\277\207\253\355\275\254Z\310?\216\243\272?2\327\340?8\t\013>0\260\376\275>\226\030>p\321\030\276\303\024d\275e b\275\351\221\013\276wZ\253\275}\"\347\275\217v\366;\021\231\315=o\n@\275\351X\203\275jo\022\276\323\224Q\275\217\202\270\273\032\226\324\277\235j\343\277{\303\346\277\222\302\335\277q\254\326?H32>\363\364\277\277\002\324t\2766\207\203\276e/\313\277\222[/\276H\2651\276Q\250\226>\364\364\277\277\344\277\350\277S\267\301\277-\r\303?\037zl\275\3435\271=\023\025\333\277\365\313\306\277\203k\320\277Y\263\235\2751\354D>\245\313\312\277^w)\276nw\233\275\227C\333<\"\274\323?\217\267\341\277\302\375\276?\261\354\276\2777r\337?\375\310{>\277\206\272\277\354|\342\277g(\275<\3738\317\277\327\301\254\276\232\203\326>\2571\320\274\023\376\"\276\333\245\276?\225\013\330?\003c\325\277\325Wd=\007X(=1\202I=Bl\016>A\t\233=\tJn\276s\234\272\277pY\313\277b\025\310?\256N\224\2743\001L\275\242 \317?\323\271\331?*\017\347?\270W\335\277\034{\331?\227?-\275\232\222\342\277&\227\274?\311\331\264?o\202\252<\336\n\341\277[\304\331\277z\004\323?oY\326\277\030\275\344\277.\205\324\277\212\236\016>Sz\267?\215L\003\276\017\273\311\277\235!\275\277\313\247\303?\252\350e\276\2335B\275Z\303\030\276\343\237J\275\227\262\236\275\321v\270\275\375\310\370\275\355\323\353=\r\331\374=Yu\036\276\327O\215\275\217d\272:\277j\330<\026\317\t>\251\330!\276\2615\212\275\237<\227\274\337_,=3\020\201>\217\217k\272\365\361\207=\353\223\037=\317\375\270<_\306-\276\352\310\326\277\016\302W\276i\221q\276\331\372[:\210\001\344\277\0232/\276\301\251\000\276z(\331\275\341A\304?s\252\376\275\201PY\275i|\034\276\357\214\305<gH\240\275\375\331\331\275\300\257/>o,\210;\341\304\323=O2\201\273\025\t\367=G\212\310\274\376\025\225\275\354\021\024\276`k\034>\264\227\031>\371R\227=\272\376\330?\274N\002>\300\036\277\277`\223\306\277\261e\330\277=\211\333=8\316\316\277\273`\307?\302\024\335?\252\241\312\277\314\3673>\376.\304?\377q\333?\265 \305\277\236\224\307\277\257\276v\274\265^\344\277\002\032\312?}\327\363\275\"\177\312\277\252\251\342\277>\242\314\277\023\241*=\317\271\276?6\333\006\276\017d\313:\007\274\277<e\246(\276\240\320\312?\326M\325\277\202-\314\277,\251\340?\355\231\326\277\375\261\314?\0206\032\276\274\225\311\277A\001\363=\227\024\351\277\276D\334\277\225J\324?\311\300\372=\300\341\372\275\252\272\251\275v\253\334\277\231\211\320=\237\211<\274\254M\005\276`\371\317?\363\302\312?/n\325\274\031\223\311?\030\244\t>{6\277\277o\243i\274n\203\324\277\315J\326?p\342\317?\305B\330?T7\333?\310l\312\277\200\212\037>\240\277\201\275\342E\351\277\324\321\345?)\276\303?\377\242\220\275\220\304\274\277\276\262\303\277\362\214\337\277L\350\276\277q\237\303\277u*\310? \344\345?\267\r\367<\020\027\340?n\233\343\277uX\311?\241\355\354=\000\t\342\277\t\334t\275\303\"4\275\333\321\212=\210\351.>\205t\253=\371%`\275\300_\031>Ul\251=\343\332\026\275\017\352\271<\020\224\230\275\217\330\225=W\025\351\274G\203\317\274[o\245\275\337\2426\275\323-(\275\235\203\342?\357\354\205\273q\307\354=E\233\275\277\367\323\326\277\0079\032=\246\320\331\277\324\225\305?\201\230\301?\033\371\335?M\250\246=\326R\300\277\307\253#=t\302\340?Iq\320\277\324E\303?Z\247\001\276\337\201u\274\333\344D=\'\357\032\275\301\216\261=+/\024\276\307\225\021\276\177\211-<_\004\357\275\377x\321\2747\314\216\274M\036\341=?j\263\274\031>\352=\257{\343\273\360\372\036\276\227,\345?/f\332\277}\t\334\277K:\310\277\234\331\333\277p\226\007>\010\305\300\277\273\327\302?\311\363\325?0\324\334\277\336\247\250\275\225\374\340?t\034\301?y\020\305\277\362 \351\277x]\346\277j#\325\277\020\035\300?\264;\300?x\352\305\277\002\004\323\277\030\017\302\277\020\334\037\276A\357\302?\324\304\324\277iY\246=\324D\237\275L\271\016>\302\016\343?\\$\305\277\300\345\303\2775%\275?w\275\334\277\0037\334?\314\216(>\261Q\304\2773\333\030=5\000\331\277\232\217\346\277\241<\327?hd\n>5R\266=\310\207\267?l\345\277\277\305\226\330?\366\271\271\277EY\343=z\342\332?d:\307\277&\345\005\276\376Y\325?\253\227g\275\366l\312\277\003\3626\275\271\004\326\277\223\351\325?\211g\323?\355\361\350?\231_\313?\n[\320\277\311\322\345\277$\002\363\275Z\355\311\277\210\t\300?\312\224\347?I>\324?\365\037\316\277v\302\342\277\325v\335\277\255\245\276\277\353\036\335\277b\205\343\277\032\274\313?U\230\270?\363\262\314?\351s\314\2773\235\275?\372\340\341\277\347@\342\277\263\311\357\275\\\n.\276<\0074>\227\256\346<\313L?=\205\240\366\275u%\356=g\3175=\277\272\020=\254\007\242\275\246\344\'>\267\353\366\275\355i\254=O,*\275\347h\n\276C\262\002\276\3776\002\276\236S\336?\226z\310\277\325\247\241=]\014\310\277\243f\317\277O\303\330?-\315\345\277 \350\307?\213\252\314?\276\241\311?\021\322\341\277\373\344\324\277\337S\000=\352\324\336?\020\305\306\277C1\312?\'\370=\275oe\257;\337V\004<\331+\267=\006\177\031>\177q\275\274}\242\224=\223)\224\275\322\322\032>\334\246\215\275\222\243\324\275\357\240\304\275Q\211\324=\217hE\275\341\325\007\2769\253\350=\207\232\313\277\264\340\275\277\r3\304\277d\351\350\277\226P\307\277\317O\206=\020\177\310\277\023\357\312?\363a\314?\326u\315\277\217.\363\273\260i\274?o\231\275?\241_\307\277\245\246\323\277\030\254\346\277\240\270\316\277\0149\344?U.\277?5\234\327\277\023\"\323\277;\372\332\277)a\317\277\013\337\312?\032\210\322\277\315\366\335=\231:\035\276c\331*\276\350\250\311?<B\302\277ai\302\277\007P\277?-\263\312\277\360\021\344?\225\002\271\277\177a\302\277\017>\031\273\235\274\331\277\252J\317\277\\k\305?\351\202\235=\217T\235\272F\371\335?\264S\313\277\017t\320\277Z\001\300?\337\1779\275\336\277\330?\266\334\342\277\352<\002>t\342\322?\235=u\275\315\312\315\277|\331\204\275M]\317\277\305\330\350?\267\312\346?&O\344?\343\340\300?\037\366\275\277\353A\317?\345Q\331=g\364\303\277\022C\324?\274a\340?H\237\273\277\000\245\340\277\226\262\322\277G\235\317\277F8\315\277\354\303\333\277g>\333\277Mg\323?\273\000\325?\324\270\306?{\350\314\277\347\341\312?-\037\326\277\r\372\303\277\024\033\337\277a\326\017\276Ga\354<1\226\250=\257j\017\274X`\010>OB\343<\031\343\345=9\3232\276\346\356\014>L\334)>\353\261\240\275\371\324\332=\347\356!\276ZG\032>~\375\301\275\201c\034\276\363\214\321?E\207\337\277\'G#\275\371\226\331\277\205\253\325\277~\010\322?\212\323\341\277\313\275\332?0\223\330?u\211\322?\201\276\301\277\273\360\276\277\341\362\016\276\252\355\335?E\\\277\277\272\325\321?\231\313\347\275\367\2351=\231H\345=\032\273\031\276\265\202\241=\2173\324;\001\236\306=\205\366\313=:3\002\276\223\363\025=\256\006&\276\243Sx=\301\017\370=(\354.>\267\243\033\276\0018\334=zy\341\277\276q\277\277*;\327\277\362\004\322\277\332\266\275\277K\2326\275\322\222\336\277\023\032\266\277\213C\311?\240\346\302\277\247\'\024\276@\337\337?\016\277\275?\032\276\325\277\014{\341\277\301\220\312\277\033Z\342\277{\004\335?eV\323?\361\314\317\277\016\035\275\277\334\261\320\277\331\360\326\277tT\304?\232(\342\277(\363->\207\237 =\277S\016\276\213;\312?\346f\306\277`\246\334\277\333\227\322?\316b\335\277y3\312\277\321\001\322\277>!\335\277\032y0>i\362\337\277\314\237\274\277$5\320?\372:\001>\274[#>\277\363\302\277\332\341\310\277\275<\334\277\317 \327\277\226a\324\277F\331\323?\314\034\322\277\2177*\274\231g\327\277\357\201\332<\244\341\305\277\323\233%=_\201\316?\271\t\322?},\316?%\217\314?5\305\335?\266\331\314\277\037\214\323?\321\250\017\276~|\345\277\257\032\322?%t\313\2777\021\275\277P\264\320\277\343\350\315\2779\t\316\277f\325\322\277\230`\302\277\311]\304\277\247\301\334?r\254\336\277b\224\316?2\177\315\277\232]\326\277\377{\305\277\231\375\273\277\277\247\345\277\022\213\234\275\035?\372=\203\2762=A\303\242\275\013q(\276oE\264<\343\357E=[\371\377\274>w&\276\324C\327\275\375\216\305=\335\342\342=y\r\367=+\323m\275\326\2303\276;\n\211=\034\213\311?\244Y\334\277\257\304\n=\r\347\306?\241\'\312\2777e\305\277 o\334\277(\306\310?X\013\314\277\211\202\346\277\250~\347\277\354\275\333\277o\331\000\274\237\354\322?\003\347\312?\\\016\324\277\263)4=\330\022\023>\3677\363\274zq#\276\237\")=\006\321\021>u\273\314=\251\016\273=\007\360[=|\321\000>\013\314\357\275!\301\322=\267\330\013\275\274\0131>\r\226\344=\320\371\320\275v\300\276\2774{\347\277\303\237\305?.\377\340\277\225S\300?\001\205\226\275\230m\337\275\270\255R\277\371v\254>H.\313\277*\271+\276\202*\304\276_\032h\276\354\310\332\277\023|\305\277\327E\302\277\274\343\274?\234f\237>\364}\235\276m\375\332\277_\270\324\277\244[\277\277\273\365\302\277\377\224\341\276a\010\276\277d~\037>/\362\204;\271\016\221=\323G\325?\346e\304\277\351{\337?1\371\310\277\217\"\335\2775\032\204?\242\334\321\277\211\240\321\277\203\364\177=NG\305?TR=\277tL,?!\\\367=\023\004\024\275\024_\306\277\377\361\267\277\351O\302\277\327]n\277\017\377@\274\002\341\205?P\304\025\277\217\202\024\276\274\245\022?T\271\005\276\352\274\314\277\005[\302?L.\276\276d\370\253>\221\216\305\277\305\250\321\2773E\304\277\257\320\327?\355\360\321?w\262\220\275U\366\307?TG\307\277\337$\310\277\272\264\331\277\235\244\207\275\346\033\332?\375\264\321?\232\276\341\277\317\351\266<H\210\344\277I\206\367\276_h\264\277p\"\247>w\234\334<\363\357\306?\020\251\306\277`(\246>\372\226\274\277y\301\311=\254\276\311\275\241,\275=\275z\271=&\204\324\275\201\210\355\275\3115\271=\005\263\265=\205S_\275\273G\t\275\272\351\021\276\n\212\033>((\021>\t\263\304=\300\3463>\317N\n\276\354\261\316?\217\337\215\272\004\254\323\275v\315\277?\317Nq\273\0169\244\277\263\324\317\277\227\332\276\277\233\te\277\301\237\003\277y\233\347\277\004+^\277u(\326\275\337^\013\277[\337\323?\300\010\310\276\377+\304\274\222_\036>\277\322\013<o,\276\27392^\275}I\346=/U\350<\253d(=\351\023{\275.\275\345\275\035l\363=L\254\000>\247_!\275]l\314=\301\270\377=w5_\275\236\277\315\277)B\344\277\2007\303\277\332>\335\277{\343\333\277\237\352\262\274\375\310\302\277J\345\302?M\251\277?\273M\302\277\265\244\033\276\357\201\343?Z\031\335?J\'\342\277\233r\277\277\324\302\337\277\356c\313\277\357X\316?k\016\342?\031s\307\277\024s\310\277\222N\310\277\226L\343\277\016I\345?\354\357\326\277l\032\017>\267\305\307<j\264\203\275\221\326\325?\354\243\275\277\203\345\277\277T\020\324?\321\260\311\277\230}\315?\330o\342\277\3528\304\277\262j\035>\362\253\321\277\220\231\333\277BM\306?o\\4\275_\321X<p\"\304?F\236\317\277\327C\300\277\207\374\340?\324i\200\275\226|\304?\217\257\313\277\215!\016\276Fq\340?\215l\355=\206\356\340\277\277RN\275\013\204\310\277\2244\332?\212\026\322?3\375\310?L\200\332?\312c\333\2777f\317?\351\345 \2761$\306\277\375\213\332?\241B\351?T\316\275\277\355h\345\277\237\017\302\277\030\333\274\277\316d\342\277\375P\302\277\017\300\313\277\314\235\306?O\372\311?\362\223\306?\326\230\276\277\205\351\302?\002\037\301\277\242\360\315\277\367\376\325\277\330e\014>^+\007>/\305l\275\'\240\232<\203\350\345\2755L\364\275\263p\r\276\007\212\270<\257mR=\024\207\001>/p}=6\3164>?D\360\274\305\366\327=\270b\005\276b\231\235\2754\312\303?1T\332\277\326\317+>4q\301\277\220\034\323\277}\004\312?^0\320\277\035\307\343?\254\306\313?9\254\341?\274-\340\277\305\200\302\277]\236*\276\227\010\302?\013\236\325?es\337?pl*\276W\004c=v\210\005>\235&\340=w\215\230\274\357)\036\274\017\305\264\273\273$e\275S\r,=\213\345\033=GA\322<\351\223\376=\370o+>\244V0>\323\216\010=1\325\274=\030\201\335\277\254\335\277\277\347\237\315\277C\242\347\277uk\324?\247\371\253\274\032\270\313\277\342\301\305\277Q\304\331\277bR\317\277\211\317b\275\230\277\325?\271\024\302?\336a\343\277\315\212\332\277\345\260\341\277-\274\340\277\212\314\260\277\246&\313?\357\245\322\277UN\324\277\375\207\335\277\347h\342\277\205\030\276?\276\010\350\277K\001u=\201\002\025\276\261\370\340=g\231\340?S\363\315\277\312k\334\277\367\265\303?\000\345\337\277\307l\317\277\351$\317\277\372s\274\277/\024\271\273\355\217\324\277\206\023\310?N\231\325\277\271\273\033\276\370\005\257\275Q\226\313\277)\203\330\277\035\221\346\277\225\337\276\277qG\277=\230\010\306?|\221\347\277\375\261V\275\002~\311\277\317R\035\275\361r\320\277\306\234\324?\252\274\325?\037\220\307?\2331\303?@\363\334?FA\333?4\016\343\277\375\030\321?\027\373k=\373\352\333\277b>\305?\024\354\316\277\031\215\341\277D\243\343\277[\204\320\277{D\277\277O\240\336\277\t\033\330\277\263\315\316\277\337%\315?\311\357\330?\"\013\305?\306\310\337\277\340\375\276\277.\265\343\277\321V\267\277\250\307\303\277D\244(\276ON\330\273\\/\"\276\224\200\036>h\232\240\275\261>\347=E6\370=_!\201<\037b\251\275\017\362o\273@~\033>\003\022\242\275\255\353\365\275\211\256\260=\323\027\356\275\210~\007>|\017\314?\201\324\343\277\333\224F\275o\255\271?fK\347\277\t\016\315\277\244:\325\277g\231\332?a\232\333\277]\027\322\277\0172\303\277\323\300\314\277\034\316\007>\247\315\344?p\371\342?>\022\315\277\037\001$\276\314\260\002>\007b&\275L\357\017>\223<-\275\022W\'>C{\215\275\"\210\271\275\274\'\"\276\305\203\355=-2\360=EU\301=<i\n\276G^x=\243Bg\275\037\341g=\343\177\340?\3731\t=\276X\321\277\\+\321\277\315\r\277\277c\200\205=\017\"\337\277\324\341\347?\241\347\340?\326\254\340\277T\306\330\275m\014\276?~Y\322?\2471\303\277\t\305\346\277c\316\346\2775\320\306\277l\033\303?\331f\345=\010g\340\277\203@\317\277#U\311\277\203\2171\276}\242\305?7\026\342<\235\226\016\276\245\036\004\276\032\365%\276\212O\300?\355\303\325\277kC\313\277\227\366\322?\371\340\274\277\366\201\333?a\336,\276\351\010\330\277_\353]\274\325\t\275\277\021-\317\277l\007\276?\317\307\353\274T\264.>\317\311l;\333(\301\277\356\207\350\275\235\344\031\276\367\036\221=\255\036\334?\335\356\330?\265\246\242=\316/\307?a\026\025\276\030C\341\277\232\232\016\276\000\020\300\277\000\266\274?F\255\350?\021F\332?(\360\343?\r=\351\277\207\344\321\275KD\217=\037\305\304\277SI\277?\303\212\322?\217\236!9x\310\326\277\031S\301\277v!\323\277\002\347\340\277K\n\311\277Tr\330?\021Y\334?oR\367\273\313\035\332?\006\301\326\277h\221\303?^\315\216\275T\351\332\277\355=[\275o\004\201\273\315`\311=T\375\027\276\363\241\037\275\254\n0>\360z-\276\'5\025\275tN.\276\264\025*>a\247x\275c\036&\276\233kB=\223\027\202\275:\034\037\276\217\314\330\272\310b\002>\222\311\321?\'/\003\275iL\264=Wc\304\277X\233\335?\035\343\352=\267N\345\277\211\357\331?\227\327\325?=\334\342?\225A\273=r\241\337\277\tj\315=\007=\304?8\234\300\277\033\261\335?O\301\360;\303\034\244\275Wp|\275aQ\374\275?\3407\274(\033\014\276\207\243e\275\220\2673\276\270\2704>O\004(;\010y3>\302\336\014>\316P\010\276\031\2751\276\013\247R={\333\365\275\234)\330?\017U\356:8T\344\277\"\326\342\277\226\235\340\277g\031\234\275Bf\310\277\325y\311?I?\341?d\006\347?6\236\260\275\235\361\334?{\003\321\277\372\261\335?W\177\310\277\315\345\266=c\216\330?J\007\300\277\337\215\026\275\337\027\320?Y\301\322\277\240\311\'\276\256\357\"\276O\372\323\277\313\306)=\245{\307=\n\267\014>\r+\241=_\366\320?\331\220\332=\r>\313?\377`\323\277N\376\310\277\231R\310?4f*\276\243g\301\277\317\362\025\274\362\003\314\277b\352\305\277\316w\313?\370\'4>\347M\325\274v\350\t>5\257\313?\234\032\320\275\221\241\373=\022y\201\275V\"\275\277\331\007\317\277\232\313\007>\002\214\302\277g\301C\275\030s\305?+\023O=V\210\333?\370\205\325\277\027\210\361\274\233\231/=\251\363\301\275\226R4>\241\033\263=\211\216\361=\022x\034>/\325\275<\266\014\350?\225\375\222=\013W\317\277\021\212\366\275W\310\322\277)\024\300\277\220\276\317\277{4\334?G8\300?M\347\313=\244%\320?s\3173\275vq\332?/\231<<X\366\306\277}\247\313=\223\341\266\275?\230\210\274\235\331\257\275v\006\214\275\257\233\030=Z\r\204\275&N\276\275\347\353\244\275O\332\324\274\221\344\270=\217\203\211\272\021\031\314=\322*\006\276\274\314\273\275\027\315J\275\350\351\027>\016\331\347\277\317\025\365\274\301\266\343=z\341\320\277\223o\345\275`\0013>\252[\305?\250\266\277?\260\005\342?\233\350+\276\314]\025>bu\342\277\331\316\033\276\321r\275?\353\220\336\277\257\333\337?`\221\315\275\364\304\020>\215\233\331=\030\353\034>}t\275=\375\031\277=/\215\017\276G8\016\276O\332\264;g(0\276>\201\002\276\2372\252<5O\332=P\014*>O\273A=\365\237\267=\225$\307\277Os`\275\343K\320\277%<\334\277[\222\326\277\037\001\341<\317\253\301\277#xJ>Er\023\275:\216\327\277+KZ=%\'H\276\347\n\332\274\177/\327\277\246(\306\277\320\037\343\277\021\003\350\2778\350\240\276-@\376>\327\230\300\277\037v\276\277W\026\320\277\377N\356\274\206\006-?}c`\275\017\365\240\273\363\303 \275G\302\325\275|\376\330?\214\333\335\277\334\325\323\277\233\365\347?\n\312\323\277\033\013\276=g\024\336?\252\243\344\277O\215\031;(6\310\277\354\363\013>\304]@\276\273\326)\276!\202f\275\265_\333?\340\027\327\277\034W\345?\260%\355>\321\002\236=\331\226R=\245b\330\274K\307?=\360\003+\276\372D\330\277\024{\301\277\272\252\262?.|\341>2\374y\276\030L\343?\276\305\302?<\307\327?Z\333\326\277[\203\241\275Y,\236=\"\303\333\277\000\003\327?<H\322?9\327\202=kr\320\277\246;\315\277j%\277\277\3405\330\277\022\233\327\277\275\024\322\277UJ\020?\205\326\340?\266\376\352>\t\315\312\277\2743\321?\022\272\017>.\253?\277O}\250\275\322\t+>k\242\004\276\212\2061>\340\330\026>\247\0341\275\3536&\276\273\222\021\276Y!\236=\31261>\2478\004\276[\243\013\2767X\206<\355\273\302\275>;\222\275\260\033\n>\307+G=\334C\024?\251\002\343=\327w\255<M\276\205>\363\237\342\277\037\013T\276\371\220\315\277b.\010\276\262S\303=Is\351>\210\0163>\213\344*\275\2450\340\275bK\234=\014\326\337\277\0218\036=\365\251\256=t\210\002>g\343\312\274\312\3243>\370\370\030>\240\2773>?\325\003\274O\274\013\275\337\014.\274S\363\020=\274%(\276&\244\327\275\325i\250=f\030\263\275\275\231\020\276\247\000\270<[4\326\277\247E\302\277_\000\336\277\357\260\344\277\337F\250\277\351\354\304=*\214\337\277\330\325\001\276\033\222\035=\250\205\343\277\211\024\277\275\005\351\267\274\n\265\200<>\340\321\277\\\324\340\277Fd\276\277.\213\324\277\301A\372<\357\317\027>&\217\315\277b+\330\277+\207\323\277~_\301\2774\210\267\275\310\030\340\277\017^\367\274\250*\330\275\366\366)>\373\351\312?\3454\343\277q\024\341\277\264\234\343?_\237\303\277[\262\007\276\200|\316\277\224\236\274\277\340O\202\275w\263\344\277.\002\315=\017U4\276\370\214\323\275\327Qd\276?\346\302\277\276\334\317\277.\364\337\277C\021\323=\017\'\303\277\366\200\367:\274s\013>\217W!\276\nQ\027>\267\251\321\277\247\211\343\277\000\\\277\277\347m\222\275Z\351\234=\332[\307?\331i\277?t2\336?\215%\312\277\236o\304?\275\334\203\275\035\246\307\277Q\006\333?qB\267?\231\251\310\277J\274\013>\\v\335\277\225\255\272?\022C\335\277\354\236\342\277\306U\344\277\307\206\277=^\271\306\277\225\"\314=aq\323\277 \230\330\277u\306\320\277\0053H>k\211\342\277W;y=\275\326\342\275\005;\233=j\231\n>*\335\031\276\004\261\301\275\347\244\375\275Ls*\276\211I\212\275\027\017\037\275\326\003\255\275\353\337\033\276\216\230\022>G\2211=\000\305\246\2757#0=\227\363\320=\325I\343\277\215\337\356=\2675\230>\340\025\334\277;2\'>\262\000\341\277\320\022\201\275\rr\344=\227a\205\276U\330\307\277C}\t>+\333&\275\220f4\276\024\215\300\277\314\000\021\276\267\256\264\274/\027\274\274\336\"0>`\361\377=\370\030\311\275\361\357\334=i\303\226=\211\002\325=\325\033\237=\372\031%>\205\217\024\276l \225\275\232b\003>?(!\274q\355\341=w\213\361\274G\361\300\277\017-\350\277\315\262\312\277c\263\312\277\340\267\270\277\024\257\r\276\277\332\344\277]=\231>\265\027t\272\004j\277\277\336\310\273\275\352\233\262>\312\3678>i\371\332\277?\267\332\277EZ\346\277\033\253\304\277h\216\316=\201YF\275\020\247\326\277`\302\302\277Ek\344\277\013r\343\277\016e\226>\034C\316\2779P\355\275R]\314\275\261\225\021\276>\224\346?\237u\326\277\017\306\275\277\366\237\336?\201G\307\277\340~\216=\332\373\314\277\217A\311\277\350\317,\276\330r\341\277&z:\274x\342\252>?lm=\341\'B\276\317`\324\277\241\374\343\277\225M\315\277%\353\330\275\217\346\331\277\020zd>U\301\260=+\343\017\2755\225O\275f>\326\277!\007\315\277\364S\303\277\260[\t>VpP>\t\357\275?\036\335\345?\262p\341?+:\304\277\337\031\312?OGN\275b\343\311\277j\266\347?\254\362\330?\035W\325\277\333\266\313\277\376\024\330\277E\220\274\277\312;\327\277\357\316\317\277?`\330\2776V\217>\3635\322\277\255\375`>V\340\350\277]\004\306\277;\350\340\277\256\203<\276\367L\341\277\177%\320<\337\032\005<\312\375\r\276\277\353\367<\32610\276\373 `=U\177`\275\357\253\032\275o\331\260\274Y\'\371=\247\277\030\275\373U4=\311\246\230=\352$\003>\304Z\003>\026\2101\276\031\016G>f\251\327\277\343\000\023\276\325:\n\276\335\253\301\277\216;\200\275\304\030\331\277\313\316\033>\227Ug=\375\322L=\231[\312\277\261\375O<\221\021\336\275\212[\351=C\207\306\277\315\357n<Z\303\034>Z\324!>\254\374\017>o\037\305\274yI\355=g\367@\275\345\200\263\275\004y\034>\345w\261=\376z\n>rk4>\\\202\220\275\313y8=\307&\327\274\372\336\017>\364\3043\276n\322\326\277i\037\333?\225\030\277\277C\224\303\277~\241\266\277\360\002#\276\001_\320\2777\033m\275\234-\325=\262\357\315\277<\302\331\275,k\251;\r\367Z>\230\271\310\277\006q\315\2774\314\313\277\317\221\274\277\223-W>\207v\n>N\013\350\277_\321\317\277)V\343\277)l\337\2772w2>\016\227\332\2778\026->\201\300\306=\017D\020;Y\032\342?;\271\311\277\027U\310\277X\032\336?\250h\317\277\361K\021>*Q\316\277\311\225\337\277I\310\302=\006c\324\277\006\375\023\276]M\211=\216\215\342\275\305~\024\276#\022\336\277.k\341\277\276\021\325\277z\256\204>\224\005\307\277\247\225=>!j\000\276\003\3105\275\t\363\276=6\337\304\277\231\303\304\277\234\302\261\277#\217\311\275\277\336}>\326\022\321?\334m\331?\343\342\313?\3671\304\277\367E\350?]\"\325=\344.\347\277\235u\324?\024\336\323?\203\007\346\277i_\346\277\344H\301\277\347d\257?\353\366\350\2770[\303\277G\322\310\277\323\263\267\274\231\304\306\277[y\336=\352\371\320\277\030q\330\277g\031\300\277\243\026@\274od\355;O_z<5[\030\276\211\374\026\276b\025\036\276\357\004~=/\\\312\273\255\301\n\276\217\331\307\272\353\200\201=\344\017\036\276(\262\n\276\t}\236=\224O\">\237\326K=7\220c=\333C\017\276\030^\224>\022\234\321\277+\202\275\275&\227\262<.\365\276\277\'\240\267\274e\304\336\277eX\241\274\313OU>\301Ra>\211\362\323\277j\314%>Y\262\356=`\227\204>\033.\314\277\321\260\323\274G\215\224\275\307:\275<>\314\026>\263g\037\276\261\201\342=~Z\r\276\316X\033>\017T\224\273?\024\035\274\237\274\372\274\336V\211\275[\2402\276\371B\342=\207\213\014\276h\337\324\275\251\361\210=j\221\013\276\221G\346=\3073\221=\336\211\"\276\'J\344\274[\233\014=\037\201i\275\312\242%>;\370\033=\036`\202\275\217\027\310\275Q\373\215=\324f\022\276\264\2421>\311I\036\276\'G\026\276-\302\304=\372\333\'\276\353\035\033\275:\240/\276v\263\020>\324|\034\276OBt\274\336\t\034\276\003\346\t\276\n$!\276\323\205\362\275C\306\334\275\267\375\374<\007k\003=\370*-\276\216\214!>o\217\341<\035m\305=$\024\t>Z\"\030\276=\360\020\276\003M~=\365Y\201=\334\'\004\276wA\365<\217\342\201=\340\226\002\276\223X$=\371\366\241=\335\260\345=\234\213\024\276\246\217(\276)\n&\276R\315\032>\2172,\272g\203\013\276\327\000\230\274\223\311}=\001]\240=\345\020\323\275\306\033+>\377\377@<z/\261\275\370^\006\276\255\305\357=)\252\255=a\244\226\275G\222%=1\335\374=m\347\242=\020\373\237\275/\320\200=\332[*\276\274u\017>\373\263I\275?\027\007\276\017\347Z\274\377t\213=\321\334\020\276\007\237\212=\207\342\263<l\223\037>b\225(>4b\001>\241\203\363\275\36369\275Q\374-\276\t]\323=\377M8\275\3460\016\276\277\324\332<\303Y6\275\243%\025=\214\226\035>\354\225\002>\265U\013\276\305?\363\275\250\001\030>\243\340#\275\007\035\354\275Q\215\375= \377\034>\237Z-\276o\023:\274\024\236\374\275\216\2162>!\r\226=\347\224\253<^\3711\276\025F+\276\257\242\330\274D\037\315\275\2215\023\276\374z\036\2769\030\264=H\331\325\275\374\270)\276\377\374e<\323L\014\275/\322R\275>\2354\276SW\202\275&x\010>\005\016\354\275\337.\257<\363\355m=\301\"\004\276\205 \250=1\365+\276ap\334=<\014\250\275\223IO\275\317\215\311\277a\310\311\277\300v\307\277%x\316\277\263\223\334\277\310\276#>3\226\324\277\322i\303?\321\334\341?\355\233\276\277-$f\275)\213\326?fX\314?\367\277\306\277m\244\314\277z\374\340\277v\353\302\277\022\302\303?\214\315\322?\244>\322\277\243\370\333\277\'C\307\277?\t\337\277\221^\313?;\"\321\277\311\257/\276\277\327\261\275&P\335\275\301\307\335?3Q\320\277n6\277\277\025\215\313?k\265\333\277F\263\324?]\202\340\277D\343\323\277j\034\033\276\nN\305\277\201\227\324\277\214\226\301?\025\r\001\276\217|\276\272\323\021\342?%\014\275\277\r\371\320\277\333V\315?\2051\315\275\366\370\324?:\010\310\277\337\301\255\275/\364\344?\021@\343\2776R\314\277\377\320\t\275\251\373\273?1\005\300?\320e\342?~\206\306?U\306\305?G\314\302\277\354%\311?\226\230\372\275X\000\311\277\245g\315?\261\262\320?\235\320\344\277\217\274\274\277_S\346\277\244\346\315\277\210\252\347\277\313\244\341\277\273j\327\277\032B\310?\020Z\273?hp\341?]d\334\277\376\244\334??\373\321\277\206\261\332\277\312\364\344\277%,\353\275\375E\263=\361\357\265=\231\220\354=3\030L\275\027\017\005=\005\r\200\275\037\324\207\275\333B:=\211\327\324=Y\213$\276_\023\002=\327\330\002=\023\276%=\222\356\030>\265\006\302\275\235\324\337?\274z\315\277\331\341\223\275\026D\301\2779\266\344\277\307\037\335?&\332\301\277\334\206\347?\002V\310?X$\316?y\230\302\277\346\010\342\277&\320 >\003\210\343?\206\345\300? \300\334?E\016\333=\007\302\251\274/\271\340<\361>\345=\017n\373\272\267\321\370\274\033\344\363\275\227\367\351<;\310\214\275\257\345\036<\347)\024=\020\n%\2761\321\201\275\257\233.\274\223\266\004\275OP\"\273\315q\345\277\010E\325\277\323A\327\277\3546\314\277\205f\270\277\'\226\200<\300;\321\277\211\007\222>\232\257\211>\326\216\317\277\263\320\005\276\301\242\007>1\255\333=d\244\304\277\177\370\301\277-3\313\277R\235\305\277ivA><l\253=a|\347\277zM\306\277\356\016\347\277\357\035\333\277\236\215\227>\2162\343\277\017Z6<08\025\276\373~\024\276\317\366\306?\352\205\340\277\021\331\344\277\\3\342?\331\037\326\277.Zl<C\320\270\277\023\357\277\277\311\355\263=\343T\274\277\001\314;>\301\343\220>\353\306\003\276\263N-\276\237\016\340\277\362\"\332\277\364\257\345\277T\255\324\275\333\276\325\277\030\370U>\276\322@>\303?\375\275\373\360[>8A\322\277~\027\327\277>\306\315?\310\261\031\276T{f>z;\331?\246\360\344?\346\002\302?\210\317\340\277\226?\317?\325\027#\276r\355\315\277\027h\316?\256\311\300?\253a\304\277\360\220\324\277\217\351\302\2773n\302\277\252\211\311\277rg\310\277\2102\313\277\317\366\273\274\335\243\332\277[\203g>%\241\335\277S&\324\277\272\337\350\277\254e\032\276\313\341\300\277!\024\216\275\322\224\264\275\321\347c\275\257\370\332;\342\220\021>ikc\275\324\375\027>\334\300\000>\363)z=\026l\022\276=\210\324=\353\261\333\275\031\014\355=\'.\234\274\365\352\353\275!\'\344=\336\300\241;\200\341\347\277\034\r\023>\233\231H\276\036\350\344\277\353y\335\274\261\343\310\277\251G\221>g\035\006\276\177j\325=\237\317\337\277\354\345\261\272\004T$\276rn>>\203\260\336\277N\3252\275\374;\007>o\336\205\273\304\306\013>\277\2708<\207T\200\275\263w#\276\177\000\233\274\265x\233=\373\302O\275[\032k=\217>-9\327[\327\274\300o\034>\342h0>\223\211\006\276\264&\317\275\000M\320\277N\200\313\277\005\203\346\277\202\213\304\2777l\347?\031%\234=\323E\347\277\257\035\331\277\351\002\275\277\265\346\303\277\357\036f\274\2527\302?\t\335\302?I\275\300\277\010h\324\277H_\302\277\355n\303\277\260\333\334?\230\326\320?\231\325\320\277\266K\341\277Q\020\302\277\217\374n\272\010\336\321?\271\214\277\277\337R\337<}P\334=\373\234K\275\273\216\322?v\372\315\277#o\345\277g\200\341?;\243\277?\301\306\273?\207\367\323\277\271\203\304\277\237\r\352<V\203\274?\"U\315\277\254\254\273?\357se=\231<\265=\306i\273?:\342\306?\327\224\332\277\245\376\321?\007\376Z\275\333t\277\277\243\200\302\277\217\230J\273\307^\302\277\205\340\360=\366t\330\277\223\256\023\2761l\323?\227\013\341\277\313\207\317?x\177\340?\355\267\347?\374\017\311\277G\267\350?\337\316_<\353\212\324\277\370\037\343?S\265\320\277N\306\307\277\377\253\312\277\207x\310\277\335\025\274?\215\005\333\277\365\372\320\277?\264\300\277\233\036\304\277\375\313\271?;\210\301\277\322\245\326\277\304\343\303\2770\\\275\277c\177\276?I1\262=G\301I\275\270q,