node {
  name: "x"
  op: "Placeholder"
  attr {
    key: "dtype"
    value {
      type: DT_FLOAT
    }
  }
  attr {
    key: "shape"
    value {
      shape {
        dim {
          size: 4000
        }
        dim {
          size: 24
        }
      }
    }
  }
}
node {
  name: "decoder/conv2d_transpose_2/Shape"
  op: "Const"
  attr {
    key: "dtype"
    value {
      type: DT_INT32
    }
  }
  attr {
    key: "value"
    value {
      tensor {
        dtype: DT_INT32
        tensor_shape {
          dim {
            size: 4
          }
        }
        tensor_content: "\240\017\000\000\004\000\000\000\004\000\000\000\010\000\000\000"
      }
    }
  }
}
node {
  name: "decoder/conv2d_transpose_2/strided_slice/stack"
  op: "Const"
  attr {
    key: "dtype"
    value {
      type: DT_INT32
    }
  }
  attr {
    key: "value"
    value {
      tensor {
        dtype: DT_INT32
        tensor_shape {
          dim {
            size: 1
          }
        }
      }
    }
  }
}
node {
  name: "decoder/conv2d_transpose_2/strided_slice/stack_1"
  op: "Const"
  attr {
    key: "dtype"
    value {
      type: DT_INT32
    }
  }
  attr {
    key: "value"
    value {
      tensor {
        dtype: DT_INT32
        tensor_shape {
          dim {
            size: 1
          }
        }
        int_val: 1
      }
    }
  }
}
node {
  name: "decoder/conv2d_transpose_2/strided_slice/stack_2"
  op: "Const"
  attr {
    key: "dtype"
    value {
      type: DT_INT32
    }
  }
  attr {
    key: "value"
    value {
      tensor {
        dtype: DT_INT32
        tensor_shape {
          dim {
            size: 1
          }
        }
        int_val: 1
      }
    }
  }
}
node {
  name: "decoder/conv2d_transpose_2/stack/1"
  op: "Const"
  attr {
    key: "dtype"
    value {
      type: DT_INT32
    }
  }
  attr {
    key: "value"
    value {
      tensor {
        dtype: DT_INT32
        tensor_shape {
        }
        int_val: 9
      }
    }
  }
}
node {
  name: "decoder/conv2d_transpose_2/stack/2"
  op: "Const"
  attr {
    key: "dtype"
    value {
      type: DT_INT32
    }
  }
  attr {
    key: "value"
    value {
      tensor {
        dtype: DT_INT32
        tensor_shape {
        }
        int_val: 9
      }
    }
  }
}
node {
  name: "decoder/conv2d_transpose_2/stack/3"
  op: "Const"
  attr {
    key: "dtype"
    value {
      type: DT_INT32
    }
  }
  attr {
    key: "value"
    value {
      tensor {
        dtype: DT_INT32
        tensor_shape {
        }
        int_val: 1
      }
    }
  }
}
node {
  name: "decoder/conv2d_transpose_2/conv2d_transpose/ReadVariableOp/resource"
  op: "Const"
  attr {
    key: "dtype"
    value {
      type: DT_FLOAT
    }
  }
  attr {
    key: "value"
    value {
      tensor {
        dtype: DT_FLOAT
        tensor_shape {
          dim {
            size: 3
          }
          dim {
            size: 3
          }
          dim {
            size: 1
          }
          dim {
            size: 8
          }
        }
        tensor_content: "\370\025\213\276\302Y\226\275\271\277\032\276\346\333\277\275X#`:\261\271\225:\350#b\275_\265\202\276l\033\006\275_K\023\275U\265|>\321c]>\263\353\206>l\330\334\275\345\2537>\221M\207\276\246F,=1\243,>\232\250\303=`l\211\276Cg\201\276\247\227\006>\205\035*\2769\237\001>\313p(>\006\225!\276\265\203@\276d\332m\276I\244\225\276\200\365/\276\224\303\034\276\036\237k<;\217\214\276\370L\372\275T\237t<\373\376f>lPK=\204SA\276\\}1\275\r\0051\276\312\353T\274\024\r\232\276Nm\315\274\327\037\204\276\2453\230>\'R\000>\027m|>Di\035=)w/\276Vc6\276)\341\033\276qN\253\276\234\372\035\276\351x\">\237\006\016>\236V\305=\016#\315=\361l\t>Z\305\235=5\277\330\272\302k\371=\005\213,>\006\271\316=\206\035\246=\252O\374\275S\230\372\274Dp\000\276_\326\234\274z\375a>\007\220\000\276KP\025\276\274\002V<"
      }
    }
  }
}
node {
  name: "decoder/dense_6/MatMul/ReadVariableOp/resource"
  op: "Const"
  attr {
    key: "dtype"
    value {
      type: DT_FLOAT
    }
  }
  attr {
    key: "value"
    value {
      tensor {
        dtype: DT_FLOAT
        tensor_shape {
          dim {
            size: 24
          }
          dim {
            size: 24
          }
        }
        tensor_content: "\323\006{>\\\300b=\353\321\271\276\201\202\220\274\321e\224\276)\260Z>2\036\327\276~\373\t\276+O\235\276>;\236=\013\254\271=AG\215\276\000,\343;\030\031o\276\004\320\204\276+=\010>\314\251\221>\226\332\331>\t\236\226\276\274\177\241\275\366\032\215\276^\311\377\275\307\234\322\276\304\250\240\276\0017\034\276\236[\216\276\030k\243>\314i\311\275\313_1\276\376\345\200=\303\313\220\276\204u\367\273\240,A<\377\373\273\276\212P:\274khJ>\315\257\255\276\010\232|\276\336G\277\276\t1\315\276}\013B>\267\230\005\275\025\365;>\334\370\332=>\261\215>\"=l\276\210\241\254\276A\300\275\276C\363\000\276\022e\224>\002\005\205\276f\007\334\275#b\302\276_r\203\276\360W\202\276\261S6>\334\020\266\275-H\t\276\335\226%\276o\223\006\275\224\032\355\275\0059j\276\211j\025>T\004\323>\333\037\221\276&\276\312>y[a>R\213}>d\367\317\276V\333\346=8\225\322\276\005zF\276\360e4\275\2643\334\274\014\375\325\275?\n\\>\rKV>\226\267h\275\372\212\314>\275\362n>\300\272M\276\306J\247\275\'.\244\276\203\326\203>\032\336^>8\364\256\276~P~\276\3532?>|\352\252>N\314\236\276\320\177\307>\220\331\366=\310\212\212>\377\303\304\276Q\2303>\177R\023\276t\332\201\275\270&\301\276\266\265\366<M\307\225>\374@\037\275\016\203\344>}D|\276\201\223\017>\016VE>5 \030>#\366S\276\275\221\220\275\303\370\252>0b\'\276\206/\265\276\361>\252<\316-\347=A\231\006>\325\332\221\276\000\342\277\274<Y\026\275\323\262q\276\317\003\014\275\215/\250\276\n\250\242\276-\337\215\274\352\366\322=\323F\255\276\002\002\264=\255\212\216\276\327\313)>[\350\031>\210\320u\275\353\"\361\274\337FR>\262\351\260=]\300\234\276T+\t\275\255\263\243\276,\352\226>\033\017G\276\301\365\177>\3149T\275\202\354|>\036O\267>\300d\212>y-\021>\305B\002\276\253\303\246=\305e\207>\345\206i\276/\307\217\276\225\363\006\276\001\205\267\2764{\230>\344\\!\275\376\275\017>gY\300\276\014\317\254>\245\331\251>T*\341\275Z\177\'\276\262&\002\276\377\317R>\241\376\224\276U\n\n\276X\2203={t\216\276\300\230I\276\233\017\224\276c\236\036>\225N\265\2769\2574>b$k\274\377\233B\276\225\241#>Nb\240>\370\271.\274\327\315\r>\022\034\332=`N\234\276\223\216\213>TD\027\275\006\371\266\276\032qz>\203\206Z\275%eO>\200\340\305>\271\233\200\276\276J\363=L\203\271>\3057\226>\341\335[>|\333\330\275A=r\276\3526u=\310p\305\276\273\2326\276\203\256->A\034n>\367\037\005\275\203\377\322\276\221oh\276T99=\230\035\331\275\030\320\223>5a\225>\344\246\255>\274\356\305=\3121R\276\017\325[=\204\214z<\277j%>z\300\351\2757e\270\276.\\\252\276\202\226>\276\232\236\314>\032\367Q\2752\022\243=L\350\267>\n\355\244=\251#?\276\025n\025>\204\240\346\273N\032\214\275:\353\336=\2007\266>\202,\016>\326\027\347\275\n\'\251=[:+;\277\263<\276\021va>4D\004\276\201\275\"\2731a_>\365a\204\274\364\3115\275\260\311p\275\027\377\203\276\024\305r>l7D\276\013\373\177>\314\3144\273\030\316\303\275\367\364 =2\375\217\276\234(\361;\177|P>he\032\275x\035\245\276\354\247\356=w\304\214\276\237\206k>\301:\311\276\210\007\202=\274\334V\275\000:\363\275LwD\275\023z\272=\304\363\'=\260\234\334\276\322C\220\276\306kg\276\207dM\276>d\226>\372.\341=\246\234\255\276\372?\331=8\244\310>\251\332\036>\210\251\177>& \034\276\242t\266=\2641\301\276\360\tq\2755*\003>\017\327w\275\307OU>\240\316\304<n\001\245>]\337|><eD=\027\351z=\035\035\004>\217\310\223\276\252\001\">\302 \353=\262\231\313=o\247W>\326\237\253\276zn\243=\274f!\275\345>\201\276\317b\204\276f\331\275>%})>\267\235X>\245\301V>\210\000\325=\225\022Y>z\263\310\276,\356\324\275,\"\313=\347n\214\275\3410\371<\215\213$>\367\021[>: \256=&\"\350\275s\376\254\276\004,R>D\356\237\276\333\373f>Y\033\215\276}\2648\276Q\016\224\276>:\343\275\221\331}\276\374\3754=\024\364 \275\372\213\260>\002\273\237>\361\307\226\276X\240\215\273\030)\240\273S\023\253\276\300:3<K\254\034>\020\300a\276\236\323/\276{Z\t>\310\177\225\275J\310\200>\204\035\255\2757\343m\275+\362o\276\255/D\276\007\214?>45B\274\"\334\370=AY\005>>\004\261\275C\257\360\274Wr,\276\023&]\276\\\033`>\002\320U\276\233\036.>\213Wr>x\026a\276\001_\201>\257\220U=\242\244U\276>\341\250>~\347\205=\265c|\2761\036\272\276\220^\326\274\200\331\222>>\r\247\275N_\234>k\265\">\007)\246>\374\351[=\207\350*\276J\333\242\274\307\243\243\276\277^\237>C#\263\276\022#\345=\322T?>7\3464>\371\342\323\276K\311\010\276\316\034b>\22367\276\337]\272\276\253\356E\276\347\214K\276\267\034\037\276:\013\236\274o\031\215>\336\337\373\275\222x\222>\234y\264>\274b\302>B\016\326\274\237\204&>\023Rm\276.\330\221\276\372]\215\2751\202\032>\305\000\216>l\327\032\275\210\343N\275j\036\237=\204t\220\276c\3265>\351\246L\2765\0363>\246\026\215=4\352\224=\252\311\320>\022g@\276\362\367\220=\367\007\244>p\205h\276\023\242r\2764\301!\275\341\013|>\023\3033>\322\202\261\276S\035$\276m\363\036\276>X\222=\326\211\236\276l\033.\275\016\321\036\276\2129?>\327dr\276\270N\205\276)\232\240\276\204\275\372\275\367\253\230\274\231\345}\276\257\242+>\244iL\276F;\255\275x\333\320\274\021\376\203>67\254>.\017\311\275\373\255\002>:\177\211\275v\n\216>BM\356=\331\007V>^\266\202>KV\311\2764\026 =\304\365v\275O#_>R\037n\276\027\230\033\276\244\213\326\275xO\243\276_\370\252>\374\2679\276\351\360]>P\216\307\273(|\261\276\265\201\216\276\252\375\201>j\002w>\372\343\244\275\217Q\013\276\345P4>\n\001\255\276f\"\314\275\353\014a\276\316\235\032\276\242}\227\275\302\340\325=\323\020\023\276\356:\257\276!\362\346\274\217\333\227\276\034$\210>\000\360H\275\244\005\203>\343\375\215>\234L>=\017C]>\362\264\363\275\346\032\252=\316\003l<K\001\200\274`\244\002\2750\312W\276\030\315\022\275\010\242\372\275\303\221@\276&\3113<\343a\001>\310\231\257\276\217&x\276\225Th=\245\353%\276\216\215\203>\025\342+>\\\t\213\276\257\371\273\276\350\215\003\276\322\200\032\276\226}\257\276\261\003\004>\022\3201\276\232\317\250\276u \205\276\037)T>\\\310*\275b\234x\276g \200\276\313 \'>\240G\314;\237I\235\276\000\025B\276\353\200M>\254#\210>N,\272= \223\334\275b\304\222\275lv]\276 R\351\275\353\204V\276\017:\275\275\326\331\237>\262\233\214>\3439*\276\353\323l>W\362\004>\314\376\332\274bS\370=\300A\270>\036\321\207\275\310\224a\275~B\215>Y\353t\276\352]\332>\222\314\253>\212\262\371={O\r\276~F\277\275\276\177^<\216X1<\313\341\025>49\255\275>\221\247=\274D\227\276\313\247c>Y\256I\276J\004\372=R\245L\276\263\003k>\324\226h\275\227\217\t>\342\245\324\275\226ce<\327\216o>\307\353\250\276,\264\205>\254u:>\242\215\277\275\3773i\276\312\314\354\275\346\217\254>\224\213\004=\206#\233>\022\252v\276J\256\252=\275\355x>u\253\035>\247\013\251>\014s6=\375\223y\276r\036\231>\350\265\001=.\323\343=4R\256>\326\240\300=\340\255\217\275b\273\277>\014[&\2760\352\275<\002\213\242=\353\317\017=\260\333<\276\244\317\317\275"
      }
    }
  }
}
node {
  name: "decoder/dense_6/BiasAdd/ReadVariableOp/resource"
  op: "Const"
  attr {
    key: "dtype"
    value {
      type: DT_FLOAT
    }
  }
  attr {
    key: "value"
    value {
      tensor {
        dtype: DT_FLOAT
        tensor_shape {
          dim {
            size: 24
          }
        }
        tensor_content: "\340A\317\274\376^\030<\362\307\030\275PY\206;\306\254z<\270t\223\273\262\2149=\241\231\252\275\000\000\000\000e\316\231\275K`e;\010?F<\000\000\000\000\252\007N=\262\303S=\376\222\251<\232X(=\365\230\314=\014\333\371\274\000\000\000\000\255\374\230\275\014\037t<Y\242\305=\3625M="
      }
    }
  }
}
node {
  name: "decoder/dense_7/MatMul/ReadVariableOp/resource"
  op: "Const"
  attr {
    key: "dtype"
    value {
      type: DT_FLOAT
    }
  }
  attr {
    key: "value"
    value {
      tensor {
        dtype: DT_FLOAT
        tensor_shape {
          dim {
            size: 24
          }
          dim {
            size: 64
          }
        }
        tensor_content: "\336\356j\276\347\362\'>\312iK\276\352SE\276\037N\330<\333\325D>\343Ou>\022\337\234\275\376K\020\276I\3214>BP\366=\245\314?>\261\333N\276\314\207\307\275\344\300\317=\277\301*=d\274\026=\003\3225>\312\252\236=\202W\327\274\205J%\276\275\240D\276\016\333a<V~\035\275\256\340\316=\224\335G\276\356\220]>\n\213\261=\372\310->\233\362\006>k\252]>d\242\006=\032\214\200>MK\226\275\200O}\274\274\377\023=\232X\243\275\313\260I>#,G>@\305\216=\201{\026>v\003\347=\300P\235=\240jm\274\202\376\233=\330\205\352\275M<q\276\016Z\311\275\036\304\367=\277\001\257\275\204\240\r\276OB\207\276&\204\236=\207B\200\2751\246\365=\323)\221\276\360\266\n=v\350\261=\314 \271\275I\000\t\276T=\034=H\365\013\276\321\2433>\010\301\007\275r\351\365=\017\361\250<Q\322Q>\2437D\276T\002\364=\224l\026=\022\243\240=\352(\201\276\365\240L\276\243\317Z>\020\315\'\276\323\031\261\274\364\350\206\276\3061\251\276\212\252\332=\361\222s\276#\245\261>pe6\276\376(H\276K\020\035\276\024$\205>\023\031\233>l\357Z=\330\004\262\274\345\304\031>\n\000\341=D\005W>\"\343.\276P\000`=\036P%\276\320\256\235\275\303\321\007\276\336\342^>\217\323+\276\344\356R\275\343\363>\2764\322\361\275\032\307A\276\013\224\266\275\332\234\332\275\326 \342=\262\211\320=\253\236v\276\2246<=\367\215\322\275&|\034>\320JM>\300\241\211\274\346\251\201\275<\240\204\2766\363\321=\315T\034\276e!h\276\034\200\254\276\265DI\276\336\307\260=\324\350\232<\220u\276=\006\004\327\275\332\203\253=\276`\267=\271\332\206\276\364\336J\276~Q\312=\2445\251\275\233\375{>\262\n\325=\306/\007\276\300\217\274\275\360\2103\275\334\324~=\277\330#>\206\206\353=\236I\315=\211oN\276\313\333\017>\231(\014\275\243\217j\276A\336\r\276\307\022\205>\252\375,<2\031\257\276\364\266$=H\270\330\274o\273F\276\250F+\276\033\306t>\254\236C\275\034\214\014\275f\201%\276\2263}\276g0\347<\260Y\013>O\233<\2765\340\206>\307\360s\275\354w\200\276@\321\276\274\320\032\300=hH\212\275\346\264\226=y\010\003\276\340\323\206>\231\023\024>\354\242\372\273\242\356\026\276\277\227\303\275\364\301\226>\271\345\274=\226>\237\275YL\034\276\364h\267=Ti\342\275lU\033\275\224\323\355\275W\360k\276$~\356\275\225I.>J\347i>\026&\200=\020\253\234\275\3318.>\216\351\243\275p\305\376=\241.o>\205\231\003>\010gW<b\037\210=\354!Z=R\177\317=\346\"\370=\374\3110=\224*X\276s\2531>\320\3455\276\340\274\271\275\320\243x>\235\003[\276\247a9>.\020\303=\311\264\025\276\262H#\274\256@\344<\266\2401<>\261\234\275_F\003>|~\036=\365R\301\274\252\257\262=wS\030\276\246c\300=\377G\371<}}j\276\n\010\351=\257\324l\276j~\372\275\242\300\023>\263\022\210>d7\200>y\250\215\275\336?\361=\360\230*\276ZQR\276c\275\205>\377\t2>p\007\343\275\275\253\221>\004uU>\333\271\222\275J\350\370=\237`\000>\332J\374=[\213R>\244\346Y\275@\3577\276\304\032\261\275,Q-=\331yQ\276TB\251\273\005]i\276tU\246\276-[u\276\211D\004>\352\030_\276f\261n\276\277\262)\276\367\227\030\276\220\365#\275\032s\215=c\207\020>\343\216d>\304\2552\275\207\355\222>\346:\212>N\372\351\275;\324y>\371n\265=\343X\005>\207tL>\202|\331\275C\0179\275&.\237>\3472R\2768\347\025\276vK2\276\277\312/>l-\023=tD\253;\350\333\211\276]\256\024\276C!>=\346\357\362\275\372\022\201>\302s\232\276N\233Q\276\230\332n\275\274W\231>\002\367[>\024\001\223=\006X\270\274\204\336g>\360rw\276\376\372\222>\320\016\224\276\322\267\031\275->?\276\324ZH>_\305\214\276\310\320=\276.\212\223>\323\217\"\276/8&>\007\353\230\275\177\362\010>\372\031>\276\234\3054\276\304\220-=\"L\351\2754N`>x{,>\210\377\204>\231]!>\333\"*>\330\357Q>Ac\030>\324_I=J\217\323\275\341d\323\274\331\177^>3*\335<\354a\'=4\276/>\266\014\203\276QKv\2759\277\303\275\'W\321\275z,\302=~\233\224>\032\261B\276\267\000\035\276\233\375\035\276\013c\212>\377L\200\276\035\241>>j\300\355=\210G\000\276\370^\215\276\347\244;>\330hd=FB\246\275\027\004+>\304L\"\275{\235\242\276z\002\205=\314/\377\275J\327\234\275\334\013\346\275v\006\261=\305tz>\233\323\207\276\013\356\234\275\")\311=\246r;\276\"4.\276\\\026\241=w\014t>\343\374M>\260\244\226\275\372\300{\276\351XY>\250\234G>\352\333\203<\242\0335\276\226S\346\275U\243F\276\344\276u=W\227\322\275\236\354\207\276g\200L\275\217\336\n>5\256p>\223\264\210\276\237\250\005\276`D\n\274\035\205v>U\204\r\276\364\356\024=k[k\276\327t@:\331\326\203\276i\305\032>s;\006\2766\223\366\275\3729\311=\364\t`=$\303\337;\226I\263= \322:>\256\275\205>[aW>2\035\354\275{\203\245>\351m\323<w\314p>\361K\221>W\211f>\222\027\225\276\372\272\216\276[\274:>\357t_=\2534\002>\332\273\014>\200@\250\275\311\222\013>\264a\257=\274\3632=\245\222j>\316\n\t<\337n\006=X\367\311<\354\225Z>>\334F\276DLq\276\024\244\213=\211\217\333=\000\200\372\272\324\230\017>lb\r\275\\\3156\276\351p3\276\312\333\000\276>\226\364\275\314\277v=V^\272\275t%\323=gA@\276\344\301\r\275V\267+\275\344\2604\276\026:\220\275$Q\220><Pk\275\030Ye=4\362%=*{\324\275\005`\007>\322t,\276\250\265Z>\250^.=\024\267\315<\006\215\203\276\360\276\326\275ItR>V\332m>4S\010=\023\253{\276\331\235\205>t\2551\275\031\2216>t\274\231=\251:>\276l\373\336\2758\316v\275\261\013p\276\276H\377\275\250 \214\275\326o\201=\034%|=-\200Q>0J\376\275\224\315\313\275i\224:\276\032\026\244\275\220\326l\2753\0133>Sg(>Q\326\023\276\205\341l>\273`\236>_\315\246>\014^!=\201>^>\027\016\000=P\020\034\276#\324q>\3560r\276\364\014O=\342`~\275\r@\204\271\344\233~=\347\274^\276\213\215\022\276\r\213S\276\216\247\205\275Tv\214\276ab\024\276!\242F\276M\357\204\276\312w\250\275-\212$>F\236\\>AL6\276[\366\007>\267\021N>\251G\236\275d|\\\275Z\266_\276\371-S>\233\337->\361\374\005>.\230D\276\200\225\372\273\366\260\003\276A\320\237:\374UT=\364GQ=\241\231\375\274\343C\n>\036\277\277=\246\376\210\275\263\013j\276\342xA\276Xi-\276\261&y\276%>\344\275/\310\247\276s\026\237\276\362S\365=\372,\\\276~1\335\275\2768\016\276\230\\\252\274\000O\017=\022\002R>\254\323\203=\215\263}\276\302s\226\275\326HG>huG>z\n\032\276E\370\000\276<\376\270=$\302\251=>\345~>`@\006>@\013Q<\242\360\216\275\374\246\265\275`\207L<\316\240Q>\212\031H>\300M\245=\006\246p>\200\251\245;\036\2217\276\340aS\276p\322\275\274\004\2458>\340\014/>\362\025\247\275Z\252\013>,\266s>#\267m\276\240~)\276\020\271B\276\260\260\304\275\342\222\023><\001\357\275\226}\r\276T\3370\276Q>\202>\273\266L\276\002\207\027>\000;\001>\230P]\276\026\357\020>\214\005H>\034\020\036>\2007K<P<\200\275^C\020>\256R*>(\334\025=\270\213\350\2750\266|\274L\267c\276>4\350\275\232\363\000>P69\275\215\\=\276\300\303&=\354\2314>d\206\360\275\340\301z\276\267c7>17/>\316\245\375\275\221\343<>\272!\257=H\226\"=`\371P\276p\371\030;\364\304\351\275\010\251\220>x\017e\275rj\312=s\2131\276s\362\014>\272\277\363=\014\371\217\276\332\225\207\276\224K\327\273\326\202\225=\nP7\276\2150N>n\217\366=S\t\240\275S\177\316\275\256\215S\276:\341\223=\306XJ>\315D\212\276\2229\256=\377V/\275g\343\021>\226\263\213=\304m9\276(\345\344\275\250\247Z\274\251l\201\276\236\325\362\275\257\026 >tS:\276\rz%\276\234\337<\276*\003\326\275\334\034 \276\027\221R\276\334~\242\275\234Bz\276\034\340\200\276\374\314z=\021.m>\222\337\204\276k\037\331\275\371\\\016>\246g\236=+(2>\n\333r<\367x\211\276\326\265\000\276\263}I\276%\001\246\276\002\310{\275\331\235W\276\303wq>\250\210[\275\360W\212>\'\025I>\363\177\021=4\013\033\276\230\022\246;\n.\232\275\032%(;\323\336\240\276\201\204\225>\235\371:>\205\252\032>([\213>L\343\216\276q\371\215>\332GX\275\337\253Q>\305\222\200>]-\215>\332\236\200=Z\021\253=+%M>\216\004\330\275\345\010\241>\003n\n>\000\364\356:\350T%\276\273<&>\000SX>3\236\n\276\337\224E>8\235\312\2751y\231>0ld\275\272\303\262\275\365`\217\276\312\036Z>\322&\240=@\210g<\327\r=\276x\240\227\275b4\007\276\200Rj>\210\372\344\275\367OC\276$\255/\275\332+\202\275<I*\276\237\234_>\363g+=9\330\177\276\344\331Q>\302h\014>Jc#<\310\022\210>\346C\334\275hc\267=G2\037=:\000\203>\370[>\275D~X=9\036w>\274\024d\2756\252\237\275\010\340\003\276K\277\343<\232\262\234<d\356\201\276\323\016\036\276\254 \213\276\342 \207>\032\327\312=\016*\232>\232\032\361\275\321\016\023>J.^<k\223\257=\261jL\276\024\317t=\354z\r\275\223\302\211\275D\310\307\275)\t\242>\372\344\307=\206\265x=\366kI\276\237\315+\276X\371\306\275\344\351<\276\233\320\200\276\016>*\276\003\304\246\276\321\0223\2768\222\277\275&$_\276Mt\240\276\217\002\034>P\236\021<T\031\200\275\354\200#=\232\035\256\275\r\177`>\352:\275\275\021\341\035=\247\0242\276\371\030\215>\266Z\217=*?\252\276\347\373`\276\235\313x\272\261\272\317\275\260\237P\276-\240\210>\220$\n\275\264e\003=(Z\203\276\207-\220\276T\253^\276\244\024\224>F\261U\276Y\":=\200<m>\"\177\320=\360\216\233\275\023\302->D9]\276\324\241\266\273\337.\211\276d\210*\276^5\275\275\216\214\r>*7~>\370\346\204\274\222\0177>\000\275\263:pU\343=\224\327g\276\234\034^>\300\221==\021\235(\276x\271\274\275h\254d\276*we>\340\361)\276\000\207b>(?\002>X8\270\275T\006\306=\300Ml>\224\3015\275\212\340e\276\272\242X>\000%\200<`\217\201\276P\343s>\374\327\263=BG\023\276\342\326\032\276P\250\237<\036\353\014\276\207\0238\276\311\233q\276p\004)\275_\252[\276\017W]\276\314(5>\340c\024\275\260\3044=6\001n>^\366\264\275\211\'6\276\000\344\026<\202\315\254\275\010\341\207\274U\231S\276\305\214\204\276P\025\234=\\\177\321=\320q\204<,\347\200\276t2D\276\344\332F\276\206dz>t^\347\275plf=\374\326\003>\210\026\301\274b\337\n\276L\326\020>\346\210[\276\232Q`\2767,\201\276H\030]\275\032 \235=N\336\210>\265{A>\021r\245=\360\033\203>\270\025\323\275\"t\216>\207\260\'\275w\r8\276\0210\020>J)\032\276!\362N\276\326\034\237=@\214}\275J0|\276\241r-\276\230\031u\275\232\374\367=&\227\272=r\276\357\275C\3340>\3624\272\275\374\272<=@\265h\276\242\255S\276\320e\274\275\272\345c\276\243\2627\276\"\235\230=\321\2350>\364\204\204\276z\222\201\275\325b(>\372UQ\276\212a\212=\027\276{>\240\270\204>yw\210\276\371\305B\276\353\270%\276\375\020\n>\210>\337\275\005\021-\275\252\022V\276\256<\352\275M*)\276\212\330U\276\313Z\205\276<\303\207\275\3701\t\275\214\242\241\276\356\313\353=v\204\203\276\242\322\003=\263L\035>\277x\004\276\300Dz\274\001\2749>\207S5>\273\025n\276\204\340\373\275=\242]>2\030\332=(\233j\275\217\0301>M\324y>\\\010\210\276\004\215\221\274\007\356\014\276\371\316\226\276d\342;\275\"\325\260\276qK\231>\362\037q\276W\305\205\275\001WH\276RV\360\275\034\353^>%\002\200<\331\307\204\276\262n\324=E\'\021>m\0005>\035\032\023>\231\343 >+Z#>\305Z\223\274\214{\272\275\010\024\277<\350\350\003\276\'\272\235\276\332@T\276\353!v>\352\321\257<\305\272\262\276cf!\276d6e=\024!\320\275\001\213E>\217\353}>\361#6>8r4\275W_E>]\245F\276\206\245\226=\000\231\250<c\371@>\321\307!\275p\0324\276\244\372m=\206\344D\276r\373\216\276\323\n+\276\223c\215>\030\203I=7\317\210\276?\261R\275\2722\371=Mj;>n\315\005=\371\276\273=\203\250\246=\\82=*g\343=\001\236N>\206\252\252=\244\360J=\334?~>g)O>\000\026\211<\331\332#\276\372M\377\275\3510Y\276f}\264\275\315\2521\276\370\t\355\274\361y\202>0\300}\276\303X\n\276\344]\014\276%\262\222>\013M\003\276>\313\221>\347A\211\276|\247\037=\255!J>\\\223\000=ii\261>\233z\227>\247\220/>y\004\020>\274!\014\2768\230\236\276\362\305n>(\334\262;\223]%\276#\334W>\374\323\270\275\224s\022\276g\351\034\276\215\031\341\275\002N\312\275&3E\276\247U/>\251&t>s \031>c\2776>\211\216o\276\322W\200\276%L\253\276\014\025\014\275\n\t\316=\206(\242=&\\\234\276\022\217+\276\321\366\336\274\232N\220>\254\004\331\273\317\260S\275=\263\262\2744M\340\275O\250\232\276\325E\201<G\235\023>\324\203r>y\305\312<\304\227|\276N\225\203\274\323D\206\2745\023{\276\335$k>t\035\226\275\251\270\021=\277\270D\276\200\265\036\276\332\010,>\336/\r\276A\3202>WQ\007=^\301t\276\200en\276R\226\325<\035\235\203\276\026\034\234\275]\016\345\275Q\nF>\352_\256>\2043\004\276\203\rg>cS\257\274\347\016y><\324i=\340\371d\276r>\241>\301\335P>w\301\227\276\260\230R>\364\353\352\275O\301\230=\210\335\264=\036\n\027\276\026\352\214\275\020\234\353<\364\345\016=,>n<2s<\276B\277\345=\306G\246\274\300\202O\276|\242L\276[\257#>\tm\225\276\275q\021>\3225\326\275\207\017E>\t\356F>\\l\032>Lo\276=\2022Z>\367\355)>N@Y\275\361\235\242>0v\240\275\001\005\013>t\341D\276sTH>\\\242\356\2750\331K>\220\271z\276Wi7>\241\372\036>\272\267=<\026Z\207\275\271\320\261<\022\265\235\275\227!^\275f\370i\276s\026\"\276\346\226k>\206\353\002\276\307Q\237\274\034\300Z\276\352<\252\275.j\201=\220t\031\275\t\205(\276\225:5>4\261\211>;\204_>\200Q`\274\311Dk>\026\332\353\275\002\347\217\275\204\3416=\305xQ\276\267|>>\207\0311>!\321O>\241\240\274<\333\277\3209\325%=\276\300\005U\276\336Q\373\275\273\271\000\276CR\027\276\376-\204\276t\021\255\276\006\002\350=\243\216H>\200\240!>\265V\234>\200\236\037=\317:k\276\234q\244\275\227\233G\276\307H\013\276r\265\210\275\337\027\223\275\362N\250\275\200L\222\276\372J9\276`\266\316<\014\240\211=\261-;>\331\224Y>\237:d>\367$\246\276w\203\004=\2468\361=\214\370.=\035\020\t>\235\340S\276J\"\265>J\332\342=\010\210}\275\305sH>]Z@>)\357\024\276x\215\320<\344\240c=\303\362\263\276\302\025y\276q\370\214\275R\"\312\275\3548\014=5\323;>\2037v\276\3342\352=\354\226\320\275\021\221\001\2760\301\351\273?$Q\276\334dN\275\225UZ>\354\030H\275-H\351\275\013?\023>T\220p\275o\211\014\275L\245\177\275\206>\273<\343R\325\274w!!>\006s\325=f\034\004\276\036\014\r\276\237a\t\275\267\234i\2768P\214\274\177\314\n\276\316\013\241=\306\034\214<\364n(>\344\303\364\275\004\3146=cKN\276\315\303\004\276\205\364D=UD\036\2766\177&<\253fC>\nA\322=\311#\000\276\224\352P=c\237\022>\214\223V\276P\310\317\274\377\246\030>\266\211\272=\'\025\023\276GS\002\275\217\264D\275\226*\216\276\261zP\2761\232e>\355\003U\276\314\3434=\277.\032>\342\314\352\275\2618W>\345\340!>\022\265\230\276\246\362r\276\\\010)\275\230\346\r=8\267\217=f\242\375\275\222\001&>t\223\344\275\342\341\320\275\355\345\201\2764\020\n\276P=\215<>\272X>\332\254Q>\030\220E>\014a\365=\000\300\034\272\216\340<>\310\3239=`W\306<T\360l>\030P\034\275\314!\033\275 &,\275\030%`>|\245\362\275hQ\027=x\327J\276\2428\032>j\313\362\275\252\211\337\275\370K#=\324\343\024>\260,j\276n\303\022>\232\007\353\275U?o\276\330\030\202=\226\257\\>\270\207\024\275\001\251m\276\330\204q=(\337\325=\314\354\004\276\322D+\276\300\345-\274@\220+\276\364P\362\275X%4\275\256\020R>\342\240C>\254\224r\275\020\030\201\274\372\007\035\276\000\253\342<v\270\022>\327\232-\276\372\246\252\275Z}3\276\320\253\326=l/\241=\360\307\">`\323S=\240\245N<x\020\005=\270\307\243\274~\305\247=\251%:>\256!\n\276\"#\244\275\341{V>tq\221\275\224\3702=MdD\276\222P\356\275u\241\020>\034\365\032=\336\233D\276\372.h\276\024*\344\275\333\005K\276\260\253\003\275\244\206\034\276\367\267C>{Z\007>\257\203+>L\347\177\276\252\250\273=\243\017\206\276\003b\013\276\203\352\330\2757\267:\276\362\'H\276\3452\032>4\323U\276\213=\202\276\361\322\026>;\273\205\275\367\000\032\276\262\226\023\276\362V4\276\021\231R>>\274\211\275\224\240F=\371\306\225\274\016P\332=\003m:\276sB\031>\026\010\270\276n\362\256=\225\373N>w\330\r>\n\222\203=\0138X\276\364\316\245>\302\016\337=\312\002\234\275\257\230\222\275\322\003\\\276\233\360\266\275\354^\017\275\374\216.=\326\207\253\271 <]>?I<\276\320\231\314\275\330b\240\275w\352V>\255\365n>PO\\\275d\000|= \274z>/F!=V\310\332\274\206\217{> 5B\2766\356\304=\371\004#>\237\343N=;\373L\276k:\t>T\222\230\2751\254\210>\002\350\214>\322I\314=\004\215\324\275XN\237\273\324\023z=-Y\"\276f/:>\203\276g>A\357%>,\013_=\302o`\275\237\037\245\276\200\021\376\275Z\tP>\205H\221\276x\254\260=\302D\244=x\231\271\275j\310\230\275\3071J>(\352\341\273\260\333\211\275\316\007\312\275\357|\013=\371\376\005>\265\346V>\324\251\317\275l\251R\274_. \276\017\363\211\276DY_=\243\243\026>{\014*\2754Hn\276\224\244\310\275\246z\267=\236\375\246\276<\242\201=.\001H<\256\374\260\2763\260\231\275\326\370\252=F\351\261=\325\217\206>\004Yp=\2241:=\240ko\276\034\207\023\275\207\264\277<5\2150>\213\335\027\276\223\236\220>Q\221\r\276\265q4>\353X/>\247\240\"=?7s>\343vi\276j{\013\276xp\034>\367\264\005=\026\006\277=\353\000?>-Z\247\275\020\311\375;9Q\212<\311/Q\276c\3002>>`G\2748Z4\275\313\021\211=\3551\222>:\363\233=)99>\023\032:>\324\222U\275\310\255\247=\010\243E\275\234\235A\276\230\257L>\210\2700\276\334\305\241>#\334\030>\335\024)>\273g\262\274\000|\004\273\211\240\251\276RGw>v! =\021\247R>6\233\222\2754We\276\214;\221\275t\003\002\276\014e6\275\256\340%\274\323!R>\241\006\036>\352M\034>\311\250\240>\233hg>\316I\234\275\354\267N\276\226K\374\275c]x>t\\v\276\025\232a\276>n\231=\224\332\216;S\0339\276\020\322\256=\037\307\010>1\037\211\276\372b\033\2764{9\276d\300u=*\230,\276x\305$\275\327l\023\276\374J\022\276\214\337\225;S\266<>\260w\375\275w$\226\276\247\222Z>-\242I>p\272n\275\331`&>^4\345\275!\275R;O\274e\276\345:!>\327\365)>\366\002\355<\222\326C<\333\224\242\274}\352\256=\276W\332=(\232\300\275\rW\200\276\261$6\276\314\367\265=\236\273\215\276N\037I\276\'6%>\303\315\235\276\000\231j\276\347\301\026>\311>w>J\312\242\275\343C\225\274]a=>\340L\375\275\300\257(\274\332\266\214>\374\335W=\222\214j=\036\021\216\275\360\225\363\274\372>\301=\276\250\341\274(\365\023=\300s\217=\026\276\303\275\312\013\300\275\010}\n\274v\3644\276\263\3616>\355\335\244\276\272\224R\2751\254\224\272\311\256p>\214\243;\275\235\211\221\276h\035\004>\3029\245=\306B!\276\007\370\366=`jY\275"
      }
    }
  }
}
node {
  name: "decoder/dense_7/BiasAdd/ReadVariableOp/resource"
  op: "Const"
  attr {
    key: "dtype"
    value {
      type: DT_FLOAT
    }
  }
  attr {
    key: "value"
    value {
      tensor {
        dtype: DT_FLOAT
        tensor_shape {
          dim {
            size: 64
          }
        }
        tensor_content: "\304\254z\274*~\014\275\351\307\251=\305\371\217\275I*\272=\373\032\236\274\322\016\034\275Z\213}=:\233f=)\003\211=\332\331\254\274T\241V<\347X\250=\037\227\177\273\225\377\241=Qx\213=\365\230\314\275t\3620;q1\210=\035\327\264\275b\020i=\315#\312=\'\264\310<\226W\312\274\365\230\314\275\365\230\314\275\000\000\000\000\365\230\314\275\000\000\000\000$\304\261\274\014\307\272\273\365\230\314\275y[\302=J\023r=\000\000\000\000\232\023P<\252\231\031=\325:\201\275:\366\027=\252\231\031=\365\230\314\275J\365\271<\365\230\314\275\322|P=B\262\035=\325q\233=\205\276\260\275\000\000\000\000\020\307\272;r\254\013\2759\351\310=\365\230\314\275\365\230\314\275\365\230\314\275\2367\370<\216\357\247<\231G\341<Y4\221=D`e;\354\375\324\273\214\377\220\274j\' =\306\254z<p&\302<"
      }
    }
  }
}
node {
  name: "decoder/dense_8/MatMul/ReadVariableOp/resource"
  op: "Const"
  attr {
    key: "dtype"
    value {
      type: DT_FLOAT
    }
  }
  attr {
    key: "value"
    value {
      tensor {
        dtype: DT_FLOAT
        tensor_shape {
          dim {
            size: 64
          }
          dim {
            size: 128
          }
        }
        tensor_content: "\307\215\204\275d#\201=\2565S\275\272f^\276\004\345\201\276\3709~=\023\001\356\275\217E\310\275\210\256^=\204\377\242<\270k\366=\367\327=\275.\372o\275\226\2304\274\004\211+\276\212{\200\276\010.0=\010\241L=dQ\000>\002\363h\275J\356W\273wz\372<\0242J\275\226\362^>\274P\"<\235^:\2758\004\231=v\341I\276\357k9\275\226\301\205\276\236x\315=\200\201\267\275 \273\211\276Z+\200=\357\326V\276\000\013\325:\333\231c\275\252[\244\275`\244E<\032\277\346\275kO8\275\350K/>:\302\002>\322t\320\275\370|\305<\210{P\275\273\336C\276\302\t\340\275\274\262\340=\234\320|\275|G\335\2751\023\304\275x\201^=\364,\263<03\201\276\262\316.>\354\227;>\031\360/\275\"\374s\276\302\006\241\275\354\264\230=\360}\006\275\020\006B\276!C\013\276U\317\326\275\254\267\206=r\234P\275\323\tR\276|\'\274=\320\351\374\275q\362\215\275\334\005\006\276LZ\353=\214u\205\276\032\023\000>\013\263K\275\263Jp\275\220\033\t\276L\217\222=H\331\010>>\344\241=\370l\366\2748\376e\275\352\014\205\275\327\231\023\276`\316\271\274\230\210\272<f\"\366=\240\351\021\275r\324\364=\270ov=\016\245\252=\"\317\010\276\350e\270\274\316 \200=\251\326\377\275\320qI=eF}\276\322\\\311\275\300\217f=`\305\273<o\243\021\275\204m\227=\034\366\250=\240\236+<\342\347\025>\214\027r\275\310\0343=K\246\212\276\013\275\202>nW\003\274\363\266\373\275\345\302\265\275\213e1>u&\026\276\233S\006>\266l\214\275~\367\020\276<\303\342\275)\224\000>X\353M=8\360>\275\304:Q\275\000\242\3219\365O\'>\t~(>\220(\025\276 \306\023\275\236E\313\275D*\243=\304\240\250\275} P\276\304\202`\276\255Nl\276\024{\310=\344\0336\276\366\241\244\275l\376\230=\245\036<\276\210\362\005=\201|n\276\266\343#=9`e\276\260\347\240\275\371\344\265\275\316\211[\276\030Ao>_f\030\276\035K\033>\216\033\252=4\277\332<\360\335G=\207\200\267<\377.\225\274\366\236\363\274\200\364H=o\244-\275\271\032o\276\036\332\367\275p\255Q>\237\344z\276\033\372\035\2766\374\'\276\214\255\020\276B\365\350\275Y\367\350\274~e_\276\203\272\225\275D\350\206=\334\265\256=&n\371\275\335tL\276\327\017^\275N\314\205>\211\201J\276LN\372=\036_\034\276V\363)>\232\023A>\226\377\273\275&>\037>\274)7\275gE4\275\337\370*\276\221\310\021\276\202\344#\276\216j\025>e\370\262\274\204\223!>\037\017\271\274\004m\255=\340.7\276\025\302\034\276\346\324\212\274\'Y\230\274\255\347\036\276\032\344\001>\360m\342=yR\302\275\226/\363=\272R\335\275\271\355\204\276\311\320&\276\264\327\245=\205\375D\276\366\244\216\275\330z1=\220]=>\026\247\236\275p.]<\253a\">\253\260\260\275\336\204\213\275?\304\036>0(>\275\322A\262\275\025\236$>\324{\371\275\353\024\031\276\216\014\212=\277\265\014>\260\001b=(\'\023\275@\243\371\273;\267r\275x\316s=/@x\276\030d->\224\030\014\276\337\240w\275@Q\360;\354\371\240=\246\356o<4Fy>\322\333^=?\306\030\276m\367^\276\361\3058=\372?\005\276*\027\026\276\235|\257\275\023c\023\276v\241\220=P\351B<\344l\r=>\340\311=\n8\327=\310\306\003=\261f%>@\227\325<\230\307\376\275\304\340*\275\356p\256\275&-\341=x\2632=\240\263\232;\016-\267=\0276U=\310\360?>\332\210\374\275;\262\005\276\210\'\226\274\200\2637>\014a\257; \030R\273\333\205&>\240\024\205>\304K\n\276\354\021<\275`\035\277\274\377\264\256=\336\013\305\275{\365\032\275\352\265C>\3223\332\275\275\367\316\275\306\327Y>\210\210\030>\223Z\215=\344U\303=\030\216\245=P\331\302=\235\000\234\275\035\247\231<O[0\2762Ry>\375\335\234=u\242\025\276\216\257^\276\334\007\000>\274\321m=2%#\276G\t\323<3\225\333\275\324\323\366=\020\335}={\340h\276\0058\364\274\332\206\034>\333\244\273=\252\361U>\2551\226\275^\377*>\035\330\263<\212\265\316\275\030\243\307=\212v\201\275j?\300<\273\241\001=PWb=\023\004->,f\010<\020\0319<m\265\r>\242\320\036>\030\255N>fK*\2752\222_>\024\021/<\367\236\357\275N\320\251\275\243~\202\276\345\225\307\275\357Y|\275\020B9=\322\274D\275\342\177\205=\202]\236=\363:\225<\304\017\252=\210p\244=\203\332\250\274>\203\241\275l4\270=\316bt\275\366\341\356\275\240\366K=%J\335\275\022v\273=\3508\360\274g\313\023>\220\340>\275\271\020\224\275\250\337\247<\300\263q<\036q\347\275\000>:\273`\332\341;\262\372\201=\316\311`\275pC?<\360\356K<\340\301\210=\262\007A\275E\r/\276\321mT\276\222\327\021\276\\\2229\276\304\323(<\226\260)>/)\210=\034\032\221\273\270\227s<P\362$\276P\217\330\275\014g\"\275\366\003\331=~u\243\275\277\356\226\275\300\256\315\275\2162\255=0\360\020\274\306!\r\276\271\036!>\204\215J\275:\246\350=\245[\034\276\207\241\251\275\032\307\373=\205\342\025\276\357\370 >\240\217\014\2760\272\335<2C\265\275\027\320i=\303\003F=\024\323C>j`\027>\244\315\203\276\260\t+\275\016\243\260=U\013a\276,\367\245=\312\013\t\274\230\023M\275\257TH\275\374\360\037>`%\027>\354\027.>\262cg\276\304e\212\275 \342t=.\020\307\275\013\372M\275\2007\016>\304\356\">LN\352\275\326\242$\275\361\242\030>l*u\276q\356*\276p\354q=\320\010\220=\300\023\304\274p\006Q\276\002?2\275\237\214\325\275\234\340\203=\267\373\222\275\030\321j\275XOR\276\213Y\036\275\0242\361=\214\252\023\276f\217L\276dx\027\275\364\227@>\277\207\231=\274\351\222=L\362\350=A\351\256\2759\3550\276\200\302\245\275\340\314|\2756$\314\275\000\016@\275\330[k\276\312m/>\313\231\021\275\322yN\275\236\023\022>\353\276/>\324\253p>!F0\276\254y\350;\244K\275\272(\245\211=\236\356*\276\343\r\256\275s-\010\276\204\314\266=\030\376\360\275<\331\346=4\323\220=\200h\273<\031>4\276\320$\331=(\324I\274\240\252\364=<]\220\275V\303Q\276\354x\340=\270\036V=\345w\231=p.\035=~U[\275\324\344\003=\321D\014>\353\037->P}1\276\314\363>\275\321\362.\276\034\257\177=\335\310\005>I\212\007>J!\276=u\376\007>c\301\001>*\246~\275\037\364!>\335\351l\276P\222\005\275m\222\372\274m\341\241\275v\212\250=8\000 =\300i:=:fY\275\'k\005=\273n\350<\000\347\\=K{]\276P\305K\276\030F\206\275\240\362d=\260;\022=B\221\352=\2634\t>@Y\016\274\331S \276P\320\331\274J\232\356=\252}\251=\3602\037\275\351\020\367\275 \203+=\221G\266\275\200\3630;\252\204\210\275\300\031w\2749\314\033>\304\264P\275\322Rh>\204c\355=R\320\361\275Ts\253=\002N\374=\310\351\020=\226b&\275J\211\302\275\251\200\036; 3\373<u\367e> \035P<\235W\232=R4f\275\217\331.=\310\332\256\275\\\3175;\260T\211=\303\362\035\276\201\021\033\276\000{\326;\362O\224\275\036q\036>)\352f=R\2551\276jT\006\276\364\035\220\275\3740:\276nF\275=\203\177Y\276\221) >\340R\306=\027\200\202\276\305\263\006>\252ln\274@\356\t<\020\271h=L\312\261<\302v:=?7\326\275\217E\237\275~\221\374=M\206:>f0V>(?\212>\323J\200\275a]\211>\364\223:\276\230\271\313=Tk\274\275\300\264\325=X\031u=\267A*\2763\312\240<\025\355H\276\003d\241\275j\352\266\274v\022\r\273\271\0059\276\230\315\362<\344;\275\273\371\027\031> \325\200=X\227V\275\234\210\203\275?\337\007\276mE\302\275\342g\362=\237m\212\274\304\2548\275L\374D\275Bs\237=f\314\317=\373\207\255\275g\242\211<\302\206\254=\"\356\222\275R\3740\272\356\342\026>\324Z\276\272\357S->x\022\020=0\267\347\275\244x\200\275\245\201\017>H\034:\275\035c\007\276\253@\372\275\222~\203=}\312(>\rM\302\275\245=\000>,L<=`\320\255\274\250\031\267<\220A\323<\220\247\024>bb\350=x\010,>\200y\300<\006\201\324=\245\216\245\274\362\032\\>\266\017\221\275\370g-\2760HD>\234.\325=\244<Q=\202z\244=(\363V\276,=0\275\204[\225\275P\374\375<\231\350*>\335\320.>\200 ,=T\003P=\222P\315=\234\263Z=\202\271\227\275`\313\332\273J\356\024\276\332m\250=n\333\261=PX@=\267\236\351\275PHX\275\330/\215\274$\355\374<0\365\277\273\030\217\247=\366\237\271<\373:t\276R\356\317\275\204K\320\275z\365=\276fFd>\322KX\276\304OD\276 \202\177=\346\000R<\334\017\375=\262\226Z\275O\345\370\274\\\320y\275\034\177\302<\262\335\200>-\031\321\275\030\n:>V\342u>\014\314\314=\307\322\021\273\244 b>>\340\212=\337e\254\274\002\336\250=\207\242\035\276\004\202\256\275\236\352L\276\352\t\035=>fS\276tC7>\214[\324\275\266\233\364=\\\360\202\273\250\300e=\"9\031\2740,\206=\207-b\276\256\257\026>L\373U<\353\2401\276\3418\343\275\237\205\026>\037\323u\276\270\n\276=\235\307\331\274\302?A\274\222\213\275=\354Fh>\370S@=/\235X\276\037{!\276\240:\243\274\250J\375=I\357\227=\356\363\210\275I\207\354\275qE\350\274\313e\335<p\222\244\275,\350\216\275\372\347T>\250%$\276\305a\002\276\334\355\231=w\345\372<\334vq\276\365( \276\356\'\250\275\330\251\332=\227\007@\276\272\032\272=5\355\323\275$\r\262\273\231\345\226\274R\320\010\276\364/\203=\225f\342\275P\246&\275\214\247M\275J0\205=\364\363+\275\214\2771\276\35441\276\210\t\245\274~\243X\275\210\210\224=\255\304*>\n\017\236=\000\353\023\274\317V\335\275\201|/\276P\372 =Z\217\217<\312\nW>\004\n\016\276\026\367\306<\360S\016=\327\262\200\275T`O<^\ti\274\344\377Z>\304\217\310=\264\262\364\273l\277+\274\254\267\310\275\264f\">\ta\003>\231\216r\276\006}\303=\326Rm\275\312\310\n\276\272I\320=\200\366&;G\031%>*\225\262=8z{=Z1\341=!M\036\276\374\235\000\275\'\203\024\276\275y\020>(\030L=\030\312*\275\226h3\276\2458\005>\326\266\271\275O\331\213=~\236n\276o=\031\275x_\004=\324\313\033\275k|d;0\010\001>\326\205%\275\344h0>\272\365\037\274\270\\}\274\341%\241=\377X\304<\240\211\214\276U\373\013\276\246\334\005\276oC\347<\324\270j=\370p\362\2754\267\364\275\333\022\220\275\212\257L\276STU\276c\315\251\275\360q\213\2764\203P<\216\345\034\276\373\331\327\275\340\364<\276H\306\302\275\207\352T\275\032\357\252\275\347\320#\276\250\305\221<\247\370$\275\267\264\315<\372A\233=\364\221\021\276\017\201c\275\024~\274;\"\202\222\275\252\023r\274\220\311.>t3\324=9}\023\276\255\205N\276P\336\206=\200\t\260=U]\231\275\244\213\373\275P\202O;L\305\217;>\336\035\274\3329\177\274\212\304U=\274\263\004\276H\')\276\320\364a=\270\253\351\275\034\010H=\202T4\274\220q\204=\014i\373\275-.\255\275\223m\241\275_;x\275\316\353N>a1#\273vz\347\275\237\211+>M\272\244=4\177$\276\236\324D> E\237;&\320\254<\320e\251\275T\177m\274\304\274a\275\236\217\321=15\227\275\202\371-\276\017+\200\275\260X1\274\244\326n=\000\006Z\273\200\340\220=LF\247\275\026\"\344=\032y\242\275\326\024\207\275P]m=\247\037\032>\013\212\035\276\320\033\204\275#@\r\276\273\274\033\275\230\220\377\275\330\013?\274\342\211\323\275G2\341\275ny\304\275\2002\037=\004\251\361\275\260\221R>\026j\236<\324y\303=\272x\304\275\306\023(>\350\216l\276A\364B\276\302\342\323=\207\240$>\362\304}\275x\207\347<P\312F<N\275\327=\355\017,>\202Kc\275\321\355!>*\271\025\276V\310\216\275\340\000\255\273\226\2550\2767\222\005>\000\325i<\365\020\356\275\3362C=\356\324\332\275\203\353,\276\354\214\356\275\035\"0>@$\337<\314_\367\275\021\305y\276\377d>=M\255\021\276\200Y\261\275CH0>\003\014\215>=U\306\275H\222\254=(n\352\275\265+\301\274\001\036\202\275\375\340\371=Bi\320=X\323@>.Ru>\220\022N>\006\226\275=)`\363\270\246\035\227=<\212U\275\343*f\275\222d\260=\227\022\020=\262wD\2744E\227\275\232sa\276\310?\361=\322\275\204\275\002\326\260=\372=[\276\013\245j\276\013\342)\276}R\351\275\335ti\2763\024@\275\326\217C\275\374}p=/!\306<\016`\373\275BH\266\274\306\017\356\274\364\324\231=\226\215E\276\254_\337;\324G\270\274\362J#>n\027+\274\216\3424>\206\356J\274w\213\036=\317\0059\276\303y7=<\231=>\356(C>\\ \254=[J\211=\333xV\276\324\344(=\\I\362\275\320P+\275\264\253\221\275$I\270=vO\332\275\217r\373\275\332\250\201\275\354\263m=;\222\002\276\311\273`\275\312\036H\276\036\005\365<|\027\313=\"*E\276\330a\306=t\001q\275 p\315\274b\\\276=j\360\231=x0\224<\000J\212:\031\245 >\316n\362\275\030\217\030\275\002u\206=W\344+>k\224\000>\320C\336\274\200Q\264\275\037y\020>@g\215;3\275\344\275\210\361\032>\374\226\234=$!\315=\342A \276\000\214\027;\020\325\243=\355\030\315<\366\237N\274ld\214\275\320\255\337\274!#H\276Z\202n\274\306\206\t<\222\220\211\275X\305\214=@\240\';\300\263\363<\276F\311=\t\301\001\276\355\r\260\275\361\375\016>LJ\001\275\226\211\314=S\3621\276ve\372\275\362\010\326=\326\355\234=\247\274\013>\360\272O\275\262w\355\275~\035\253=&\313\276\275\002\217\321=\323\341\000\276\'\232Z>\022\335\336=`j\320\274\350V\250\275\030C\371:\252\363\n>w\2752\276\230,\203\275P\312l=\021\003\027\276\354\025\354\275\216a0\275p\375\322=1\275Q\276\310\275\354\274\240\\\331<\3008\033\276\372\376x\275\210W3\275\207P#\276pV\257\275>\226\003\275\222\315\373=\0317\302\275\264\023n=\320\005b<t z\275\307\314)>\344\276\237=L,\212>\177\265(>\254c$>\340\255\303;x#Y==\317\273=\224w\005<\370v)\276\"\013\207=\\\207}=EN\270\275vC\n>\360\362\210=,\032\306={\215\204\274\321\350\304\274\246\250*>&\206g>\020\241\340;QO\276<\370:v=\373\305\262\274\371\202&\276\334\177)>T[\344=\3656 >_vv\275\345\242\317\275\237\235\037\275\326\213\367\275\302\316\206\276J\261)\274\rmc=\025(\016>\211<\336=\222O\211>\226\272->p8\231=y/!>\003\3730>\254\210\341=\340\021V\276\230\274\324=\020\266\311=f\246\326\2724\330:>\2234\336=\315{\212\276\324\273\036\2750d8\275\310z\253\274\323\017\002\276\346i\241=\225\207\035\276\213\347\026>]-\">(\3549\275\313p\310\275\300\311{\274\017\241\256\275\301K/>\271\323\021>\270\027\247<R7\263=\310{&=\275\3452\276\360\007\212=\'\004w=\340(\240\273s\001\005\276&N\005>t\304\006>\330gx\275v\001D>\304\247\207>\002\037\211>z\311\235=\217H\215\276H]\235<\321\227\216<i\335)\276\004\237\353\275\224Y|=\266_a\275\355\226 >n\240\310=\360u\224\2746z\272=\000\025X\273\274x\317\275\336\017\257=\'\204 \276>\327\307=\326\215\341=8\022\236\274\3563\247=\333\325\222\275\0106\007=w\302k\276[\226(\275\300\327f;*\233\313\275\344o\231\274:\264\022>\233N\311\274\220Y\301\275V\271#\276\325\037\n>\264\334\337=lg)\276T6\206=\376e\004>\010\001->\225(\243\275CQ+\276\322q+\2761=\020\276\325\027\310<\336m\017\276\341+\005=\330J{=<S\342=\350{2\275\2726\323=\016E\253=\321\302>= #C\274T\205\320\273\027\265\007\276N\203\251\275\340.G\276DE\014=\326\032\373<\313\000\033\275\034\350\347=\221a\'>\377\234{\276\260\307E>\310\367\267=lj)\276d\324\322=KQC=\201\211\n\276G\350R=\3465Z>\312%J=\210\300\366=\326\260\322\275\210Rq=\264.\261=\307\007+>\212\000W>\224O\300\275\246\002\331=T\326\034>\270\246\027\275b!)=\216jb\276\255\263\302\275\203\217*\276\273\032\230\274\305{\336\275#\357:>\031\326\353<\000\'R>t\324\r\276Q\233\211\276\033\234\030>\254\335z\275\037o\026>\r\212\2109\013P\351\275\351\375\204\275f\342\345\275\334\333u>`\243P\276\307\2430>\000\005\':$/\027=\324\325\014\275\002\030\324=w\357\034\276\300\277\210\275o\212\001>\322\025~\275\230-T=\327\250\007>\321\204,\276\020\227\232\275p\346\r\276\0064\364=\240H@\275{R\033\275\\\330\253\275K\024\000>@:\371=\370D\'=\237\277l=>%U> \005z<-\3341\2762\342\304\275\236\244\035>\250RK>\240\201U=\327xF\276\305\030\261\275\231\363\337\275\305W$>\210\240\002\275\202\253\317=\344\376\202\2752\322\t\2766Y\001\276\007~\026\276\275\000/\276\300\021 \274\010\260\266\274\254\313N\275\\\313\206=V\324\345=\254\323\305\275\257\212\002>+\250 \276\026-V>:e>\274\016\254&>u7\310<\023\346l\276P\"K=*\351Y>\024>\233\2754%\001\275\214\375A>\273V\t\276\014\221t\276\226\274\222<\277Q\270=\362\017\016>\210\301\301\275\270\274\014\276\360mY=\003\270(\276\272\016T\276zD\353<\230\347\017>0\252j\274\321\256\022>\324\212B=\013\225s\276x\330\210=\361\r\243\275\242[\364\275W\244\003\276\330\246\031=\262\372];\343:L\275\321&&\276\345L^\276Q\034\t\276\273\230\026\275H\224\033\275\022\341+=v\335\240\2758\333\375\275\250n\033>\010\252\334\273t\265t>x\\ >\306i\000\275\\lb\276b\360^<\002\233\347=:\261\354\275\364\332P<\330\026\231=6\212h\276\026j\213\275\374\302\351<\270s\264=X\\>>\025\236\326\2754\306\270=\370\270K=\324\006\032\276G[\t\276\300\204\217\274\2170\013\275*\370\004>\350`\327\274\342\256V>\017\343W\275~_\035<Q8I\276\353E\367<\220\337\325\275\277\260$>\020\306\r=\353\261\206<\010@\307=\310rM=\240\215b\275\274\253\260=\210`\310=\240\214X\274,\363\017=}\001)\276\213\021$>\325\202\n>~\323\340=\256\036\325=\010\325&=\214\2307\275\277M\003>\356\231\226=\250\332\017\275p\036\373<0\230p\274 Z\010\2761\005\021>P\024%=\274g/<\n\'\037\276f\036\300\274\232\245w\275\226\023s\274\337\323\031\275D\376_\276U7\262\274wg\212=\344\200N>\342\333f=\215\264\325\275\312\353-\2755\263\262\274cCZ\276-\254\034>b\r\025\276\377\342\004\276:^\260=\264\327D\275\003\006\036>\356\304\312\275B\355\004\276\0004q\273 =\002<\010[\"=v\221\224\275\320\211\324\275\340)\017<\n\374\206=#/\035\276\266\341\316\275\2702\017=\310:\217=\247\2633\276\231C\206\275\036?\350=\370\250\031>\351\357L\276r\213\333=\341\031\036\276\034\376\322=\221#\362<\264i\341\275\374\265\326=g\317U\276\204b\203=F\275\255\275?\226\304<T-\210=p\375\341\274\306\312\034>\271\005\230\275]+\273<\330<\016>s*\225=bG-\275\034\271\003\275+\367f=\320AJ\275\243q\321<6\016N>B%\306=\254\371F>\360\017#=<\274\264=\361\373\025\276\242\236#\273J\276M\274k\272Y\276`\332\261<\000}\205\2762f\036\2764\211\243=p\013\001\276\264\255*=\311A\224=0\351 \275rQ\356=\"\013O\2744\035\207=\375\270\226\275\205X\325\274|\233+\275 m5=\2135\001>\324r\205=\203\304X\276\312Y\224\275\206\235\203=r\233\037\276Z\017E>\210\023\273\275\276\247\352=`\251C=x\223->\\\265\310\274\326#\233\275@\303\366;\314\226\370=\030\177(\275G4%\276\335\\\246\275\341\331\000\276p\242(=\250\346\030\276n\264\204>h\344\355;\206\320\337=\364\354 >\214\253\227\275:m\023\276_K\312\275\002\027\300=\240m\017=\206\355(\276\360_\017<\013P0>\370[\376\274\027>\230\275\226q\324=\013n\'>\204o\320\275\220\365\203=\2639\347\275;\236\334\275\305\315\206\275\366\271b\274\254\030\'>-\304\212\275\347\025\245<\246\305\362=]Mt\276\224\201\326=\2428\261=}\331\007>x\365[>\371\200\031\275\334\001\214=\001\2558\276\244\246(>\344\246@=\251\021\252\274Jc\341=\251\267\004>\016\016\300=\334\226\254\275\0000\247\27207S<\211^$>%\335 >P&0\275ts\375\275\322\003\375=\027|\204\275h\221\024\276\303G$>\223\253\002\276\300\370S\275\020\376U=\\#\276;s\245\001\276\\8\226\275\216\230)\276\224\204\003\275\263\363\246\274\234\3108=\232k\324\275\316p\205\276}\033\351\275\360\322f\274_)\016\276\230\215\271=_S\200\275THB=\260.\341\274\206\026+\275Vp\260\275\244\210y=\234\224S\274\374g\022\274\366\td\27691\261<\376\027\023\276}\321\037\276S\355x\276\200I\004\276Q7\007>\332q\314=\221\203\000>`\300\337\275\030\333\023\276\3745\346\274\320\366\265=a\247\n\276fD\303=\346\352M<\030\200\255=!\273\304\2753\220\003>\377\035\207>2!\226\275\244\251\261\273P\032#=u9\177>R\350\207=2_^\274\010\225\270<\\\267\347=j\037\253=E(\366<\274%\256<^R\307=ne\374=5\376,>\370\222q\276\007\341?>\234\341G\276\004!M\275\266\027\253\274t\037@\275Vy\233=\000\235\207=\303\303\002\276b\310\356=\324\207\017>v.\350=$d\311=G_7>\020\237i\274 \247\253;\230\246\243=\345s\315=\220\337\310\274-\027*>\337\367\026>\377H]\276\275\254\177>\334Q =\036U\303=8\260\352<\345\272\001\276\020\026\364\274\035\335/\276P\030\362<P\213/\274_X\212\275\340V\006\2746}\377=<\361A\275\024\267\000\276\2162\365=V\256\304=\n\256\325=d\306 \275\376\303^\274&\271\347<8V\300<|\316b\275 \307\330;0\254\342\275\245\001Q>\rRl\276\3034\205\275\201\2219>\240\2548\275\016\007\206=\3631\032>\254g\r=\334A.\275\001\211\021\276-r+>\254\366\037\275\3038\000>MX\031>i\307\004>\263\347\225\2752\034(\276E\350\022>\014\365/=\024o\224\275-:\020>\200\2471\274\350\261\007\275\3629\001\276\336\374\267=:\263\322=\375.\201=\273\370\n>\274\207\004>\216\350`\276\272KZ:d$,=\340Z\236\2748\277\022\276\020\240\211=\207\272F=\340\336s\275@e\010=\246N><\210ua=,)A>\035\222\001\276\3430P\275\030U4=\204\031\216\275F\000N<x\334\261\274\260\206\371\274=\353:\274\257d\315\275\210\270\254\275\277\020=\276D\367\251=0\345\004\276\030AM<\177\3700\276~\374a\276\216OG<\314\250\024\276*J\305\275M\353\002\276\000G\005\275pL;\276\230c\227<\354\205\303=\350\264\022\276.\025F\276z[\357\275\262EF>\177\254G;\374\221\022\276w\301\207\275\373\027\215\274\324\225\246\275\366b\346<\214X\036>\316\357\370\275\3422A>\214gM\276\220\227\313<\275=D\276<A\026>\263w\217=\200Y)=\017f\220\275\357\202\227\275V\247\t>\006\376D<O\312\210\275\272\354k\276\204L\240=\\\277U\276\324&\324=\332p\207\276\2763\\<D\311\356\275\013\366(\276\3576*\276Z\004\317<\2207n\276j,:\2751\240\215\276\300\025s\2760\356\006\276|\327\203=z\343u<J\271\237=\254\332\306\2750!\213=\000yL\273\233\336->\316\357\247=\277Q \2768\252\351\274\353\3272>x\311\032\276\370rh=\334\237r\275n\260\377\2754V\033\276\321\260#\276\020i\013\274q\340R\276O\257\002\276\206\276\021>DK\260;`p\302\273\000\036w=\232(\204\276C-\361<V\254\352\275J\275_\275\022g\310<1I\"\276\310\243\032\276\200\313\345=\334\350\037\276<\373\\\276Z\365\001\276+\236%><q]\275H&\325\275\322\361\027\276($P\275\370\315\276<[\336\200\275\270\000\023\276\320\022,<p\017;=\366G\256\275\300\214B\275\252\321\335=\344\367(=\242\333\363=\351\217\251\275s|=\276\204_c=\225\235\236=A\312 \276\276\352\264=\370\210.=U\200\023\276\344J\036<\210\211\212=Q\214b\275K.\215\276@L\264\275\360\010\276=\344\246\r\276\256\323\017\274 [!>x\2234>\274\324c<\374\270O=-\276\240\275\010b|\275\353\366\010\2766\353\275=\000\343\005>`(\032\276]\347%\276\344E\214>\340\321\307\273\231\205U\2733\200W\2758\270\251=\315\235`\276\242w\233=T\260\345\275\031\235/>\225\377\016\276tr2=\024\306H>N\032\325\275\341\007g\276Y)\243\275\035\241l\276\0304\357\273ht\t=4\336\341=\247%h\276l\2329>\331\322\013>\260\201\267\275X\277\371=\024zJ=\200*\231=\244\310\325\275\332\325\370\275.`H=\010`?\276,\347\244\275X\300\277=\367ej\276\370\016D=\246\307\325\275\373\021G\276\373\3426\2750\356D\275\177oO\276\"\'\005>\344\327C\276\311H\013\276\010\325\354\274\\\2240\275S\212\r>t\035\022>[Ev\276bH\">\'\010\030\276\020\021\257=nK*\276\356\"\256=\302\374\003>\273\331\022>\326\232\216=\220\001=\274\233\367%\276\352lh\275\342_\025\276\303\016\025\276\007\004\315\275\336b\360=~y\326=\202\247\376\275\270\350\245\274`3\177\274\312\013\323=\370\303\356\275\032\335\244=\372\230/\276j<\257\275\333\004\215\275\302\373s>\301\252\310\275\340r,\276\372\370\000\276\000\247E<\220\t\340=\3253\331\275\235T\210=\024\263\315\275\230\373~=\274H\353;\274\027o\275_\324_\276l\032i\275@\001o<\304\003-\276\304\347@=x2\217\275\307\264\322\275x\375u=\035R\006>\352n\t\276:\t\372\275\206o\266=/\266\n\276\021\'\005>P\222\222\275*o`\275s\223\334\275(\n\\=\332\002\177>\017\000\002>$\005\244;\024\321\020=\206\010.\276`\262\n>\314/\235;\227\033\035\276\361\314R;\027r\032=\214\n\037\275\037\211\265=\312\3230\274\260L\310\275\020\241n=khn\275\\\221\317<\t~\002>\206O\305=\226z\337=\360\276~\274\326\211s>\2127\027>O!\005>`\r\367\275.\025\355<\325b\277\274\370\275\315\275\"\2358\276^E.\276]&\360=\037f\017>`T\345\275\266G\252\275\037\316->\340 \200=\240\266\243=?\207\205\275\004\260\003=\000\020\303\275\2601\276=\"g+>^\"\253=\331V\261\275\n\372\013\275\216\241\216=H\335\301\275$U6>0\317\365=\"\350F>\310\314\275\275&\314\242\275\330\244\267=\255b\273=\346\363\001>K\016\255\2757\231J\276`\262\362=t\200\202\275\362\327\333=\330\251\242=\nS\014\275\272}X>\223\301\326<\370/S=uy\335<K\007\346=\024;\330\273\274\370\272=\307\326\001\275\020\211\031==\010\013\276x\262\025\275X\030\214=\344\377O>\252R\214=Lyn\275dhE=\"LD>\313K\017\276\335<\253\275\275Y\">J\226\363\275\356\240\326=\310\213?=\255@\213\2754\264\034\275-\212\020>\362\277j\275M\221\031\276\340\367\304\274\032\212\252=[M\307\275Fc\230=\310\355\236\274WQ,\275`+|\275\334\246\270\273\330\227\206\275r*`\275<\206G\276\034m\262\273\346\024\221\275\027\235\236\2742\200V>5\353D\275\276\210\260\275\366x\315=*\302\302=\022\003\242=\021\225\306<\000z\202=m\036\354\275\027F\323\2756\366\010\276=q&>\274\"\016=@\031T;\315\372*>\2361\341=p\312v=\361\344\262\275\322\331\325\275\362J\\\27518+\2762\262\312=\200\312\256<\376\370@>)?\003>JFC>\222\215\016>\324\362\363\275\3107\256<\264\r\233\275\023?\310\274{\371\203>K\017\213>\224\326,\275\230\010\247=\350\272O>\264AE>e\235\022>\372\2550\276 \326\343\275\004#\004\276\221:\275\275T\351\004\276\230\035\206>\321@\371\2740\0309=\200\273\251:\014\202\032\275DB\024\276\000%\224=\365\\\255<\000AP\276\260aI=^\317\034\276.\0005>@*\354\275\000\203Z>\333\332\227\275nw\236=\375\351c\276m\3561\276\260\317\230\275\013;#\275\224\342#\276\010\305\224=\002H\013>\375\351\254= Ez=\337p\320\275\0300\005=P\232y=<B\024\2769X\201>\363\0052\275\005\345K\276\240g\037\276\214\213\233\275Af3\276\3132\017>\222\312f>\230t\317<Qx\377<\247\360R\276\270B\306\275{&\305=\336\212\221\275O\301\364=\210\320\033=\0343\237\275\342\366^<p\351&=\213+\265\275\227\337d\276n\340\021\276 \343\335<\255\020\001>\336*{\276Z\022\200=\247K_\275H\214\361:o\\\027>\307\214\210\276W,>=m\366\017>\202U\331=\276hg\275\311n&>`\324M<\330\026+\276\305\245\306\275\000*\002\272%\352\243\275\222\375\211=\376\177\315\275\236^\306=\367\310\330\275R=\357=z\007+\276\026\037[\275\334\271g\273g\212\275=\230g\017=i\t\026>\251\234\277\275\353\316N\276etY\276\300\323I\275\271\232\301\275\236\n\261=\360\2249>`/\234=%\212\334\270\352Nb>\355u\033\276\327\336\277\275\027\3420>:\256\372=F\302\235=h\3331=`JV<\212k\360=\245\202\270\275fP\300=\227f\004\276\000\327\013=\32402=\300M.\275A$!\276\220\321d\2757\267\030\276\320\311.\275\250r\252\275\312\025\204\2753\325\224\275@\277\017<Z\022f<\026\"\326\275\365\206g\276#6T\275Lo\365\275,VF\274\233B\206\274U\021\325<\2207\312=X\"\366\273\017\321\253<6l\315\275cJ#\276\304\234\224=\r\031a\275\300\rk\274\\V\'\275B\224\250\275(\023\372\275\357\335%\276\342\346\333\275\344\375\363=\357\246F\276Vn3<\264\t.\276\024^\215=\207\377\211\274\\^\347\275\363\323\033\275=;\002\276`\335\212=\227w\347\275\217r\t\275\255\340\254<\276\316Q>\025\263S\276cL\264\274\257\335\263\274\363\335\246\274\260\250\265\275.\037\333<\305\251\207\275\n\233><0v\373\274\0141\321\275N \333=\314f\222\275\330\322\217\275\364/7\276\325\253\335\272Y+\005\276\304,\270=\274\315\247=\256f\372=rq\245\275\017#x\276\314\343\317\275\273T\236\275\010C\004\276(\3549\276Q\277D\275\334p\220=\t,\240\275s\\\207\275\222\354\006>\360\335m=\\\256e\276%\373\r>\354^V>wzL\276\000\362\216\275k\253\026\275\304\302\355\275\032\032->\000\013\373=\030nQ>\310S \276]K\r>\203\314\353\275r\312\373=\340\377\334<\344M,\275\262@\364=\336s\237=\340\300{<_\336\032>l\202\237\275\336\257\022\276\354\340\037\276X\330\035\276nW\255=\371\010 >\333\222l\276dMu\275\272x\000\276\005\030\276=\360G\245\274\240g9\276\362\317\331\275V\267N<\344\037\303\275\346\235\203\275\227x^=\330\024S=\030\227\255\275P|s\274\242\306\211\276\007\036\212\276P\r\343\274E\342\035>\374t\031\276\260\310\'<\276/\304=\207J\037\276\223\366#>\226\010\327=\312\252\360\275\273L)>\220\254N=T\263/\276!\336\013>\004\333\023\276\332*\270=\315\2343>\022dT=\226\023\225\275\022<$>\350\352:\275<\246\036\276\024\007G\276\354\034\337=_LP\276\360\240\223\273*\255\005=\274\201\256=QO\214\276.\343\231\275\302\206@>\224\315\273=_\300Z\276CL!\276\236Yx<\270\0342<V\\\272\275\224)p\275e.\352:\310\241\r\2766\032\004\276\244\025#>\374\222\035=\330\344\335=\212S\n\276\003\230)\276\225\016\257<n\341\014>Xd\226\275\0144e\270\226\3370>\250.\230=\206(\374=\010\346\"\276\220r\204=\214\202\024>K\0073\275q(Z\276$\207`>`\272\321=R\313\023>\030\340Y<\2205\337=zc \276\020k\031>\214JA>zd*>\274\332\303\274\200q*\276\016\313b>\003\267\211<\340\273@>\300W\345=\274Y\207=\376\274\237=;\324`\276\303\213\214\276&\2063\276\372\346\021\276\201`\374\274\320\363\027=\3425\311\275\376\247\023<\224;K\275\360A\310\275\240\002E>Zj\320\275\306\272\237<\375N\204\275\000\223\021\275\317\355\007\276\356\263J>\266XX>\214R\266\275\252\337S>|\313s>\344m\347=\232\256\372=\374\032\201=\330\367\366\274\254 \205=c%\003>\302\310\263=\360~X\275\034\242\212\275P\022>\2755\364\204\275\020\2069\274oE\033>\017\\2>\203\324\010\276\243\3761>\313\003\214\275M\335Y\276\304\301\023\276\260/\214\275\014\333\213>\344a\013\275\304\034\263\274\306\277\007>\002\325\022>\334\345&>\272\026\005>\304\"j>\270\017\035=\231F\350\275\312\302\201\275t&d=No$>\350I\325<x\241\216=\025\342\014>\261y,\276I\247\032>`%\025\275\2132\226\275\303\203+\276t\2139=\325#.>@\001\"\274=\205\324\275\346\210\014\276U\272\017>\346_\275=\340\240\216=,\253\002>\030\376\356=`t\200\275\317\247\027\276\265\257H:<y\347\275\240;1>\246\260T\276\312\305U\275\021*$\273s\225\017\276\337\005K\276\367@\355<>\234\345\275\242|\305\275H\325\033=\000nG=\300\365\247=\304\205\306:\000\252W\276C\211\027\276\306&*\274I\320\322<\270\275?\274\266\002->\250\0134\276\264\352\226=\022\0224\276qr\214\276Qo\217\275\220\327\202\276 \251-=\006>\337\274\020O\233=\224 \034\276\300\033\"\275\3513\353\275a\266\253\274W\344\265\275\335\025D\276\377\331\\\275V\007Y<\377\222\014=`ZO\273j\333\240\275\230\305\276</\363\346<\364\300\266\275\223\272<\276\334\377<<=-\347\274\314\235\246=\272\242\n>p\020!>T\316\345\275`\252\005\2763b\033=\347\254\n\276\207\354<\276T\210\210=\340\202z=\324\342\242;\354\322\335\273X\257\016=\326\020\243\274\317\337W\276\022W\334\275\270~\267\275\206=\341<\357\241\034\276\374V3\276\240\027j\274&\354\335\275\300\377y=\0073\r>\213\200|\276\200\325\026=\360;\032=8\324\271=FQ\203=\275\025\365\275\307\3242\276\330\020|\275\246\007\274=r\330\223=\376\022\034\276@f\'\2753\271\n\276\310\2144\275\215p\032\276C\253\017>\213\341\026\276\r?\257\275\006\205\251=\004\314@=\037\366\002>\245\334\272<j\3501\276\205\351\346\274\340p\232=\320\220\361\274\365j!\276#\370\032\275\225P#\275x;\207\275U\347\206>\024\347\205\275\307\204\323\275&Q\325\275p\206+>h\010~\276\2063\\\276\252\252\236=\023\344\">\030\341\223\274\336\376\317=8\242\273<u\222+\276`\301\020<\202,\016\276\325\210\222\275. \270=\300\245D\273\354\256\013\275\216\334\261=\210a\376\274f\224\375=\243r\245\2757\327\001>\354\235\010>\201\302\353=\204\371&\275b\220\203\276\334\200*\275.\204Z>\234%T\276&\007x;\037\307\032=\216\303I>\3222+\276|@\347=(\223\034>\202.|>MK\372\275\270\232R=*\3729>\260\224y\276\327\232\340:\nA6\276\206\377\271\275H\252/\275,K#>\321\033\020\276\350q\312=\303F\262\274\222\314\014\274+\234\003\275\220\264m=?Z\002>\374U\207=\220\340\235=\240\003;\275\315\274\377\275+w\323\275\354\021\245\275\201&\216\275\254BN>R\222A\276,V\202\276\'i\004\276\324JY<\350&\342=J\355\037<\020\0035=\262\256\014>\2124\361\275\217;\371<\203C\'\276\270m+=\333\313\016\276\364;i\276\002\242D>\000\263\366\274~\275^>o\373}=\005#\020>\004\277\013\276\346~\254\275z&\343\275\300\005\205>\330(\246=\0346\201=x\354\360=\203Z\343<\032\335\202=s!\271\274<%\036>\276\340\r\276j\323\002\276\327\021\034>,7=<i\346\377\274\334:\247\275s\323\307<\214\014@\275\'q\342\274\"\255\213\275\234]#=\220;\034<\340\334B=\236\002\373\275f\353\371\275\312\322\024\276\030\036\263<p:\252\275\260=\322</:\002\276u\357\351\275\266%\221\275\226\316k\275\3600\266\275\212#\237=<\342\020\276v\310\371\275N\377O\276]k\255<\376\227\234\275\260.a=\307\215\">x\331\230=2\334\277=\033\377\027\276\263\262\370\274\202M\027\276xn\324\273\026\263\027\276Rk\252\275\354\035\006\276>0/\276\024?#\276\225\375\230\275\377\334\014>\337\264\020\276\334\033\365\275\302L0\276 \374`\274@\336\023\273\346\227\322=:\023\004\276\000\"\002\276\260:!\274\212O\256=\260n\"=\353\263\n>t\177d\275N\275\374=\010\332\r\276(\261\035>\2567\272=(\265g\274]A\316<P\022\300\275\256\255\225=\360\270\255;\031\0177\276\366P!\274\250\330\\>\205`\202\276\241\240\021\276\027\262\253\275\334\322\031\275\32488\276\202\226\231\275\337\203\357\274\230\344\347\273\263f\021\275\t\367\327\274\004\266\215<\300W\355=R\331|\275vv\030>=\3461\276\216\177\200\276\220\374V=\017\'\377\275/\352\247\275\264\271f\276P\027\217\275\2470y\275\367t\021\276\264\336\363=Fi\025\276\326|\223\275p\345z\276T\032\373=\312\306\035\276E\356\314\274\2046\036=\326\355\367<l\220\263=A\271\030\276\344\273\367\275\3477O\276\363l\326\274\310wa=\020\215=\275\256\316\017\275\236\200\242\275\373\337#\276\274BI\275\200\207t\276\236@\356=\204\367n\275\235\367\t>\354\201\327\274\341o\251\275hn\207=\364d\267=\250\020\265=\006\350\006\276\267\024\007\275\030\234\3669\3626\327=l\361\224\275\354\334\231=1I=\276\241v\226<C\332\007\276\220\355\376=\346\244H\276,\330\261;GVf\276*t\034\276\244\000\326<\217\023\320\2744\007W>`T\217<\350\240\203<Lr\372\275\2357\262\275!\017\307\275\352?\226=\261\3073\276\200\357\203:\300\221\201\274\006\217\363=\3002`=d.D=~\254\360=\030o\210\274 \255_\274\312\271\366=\374q\334<K\000\013\276\304\001\313\273\220e;\276\244Wo\275\027\003\206\276H\362[=s\341\226\275\336\240\022>\004\330\206\274_/\223\275t\342D\276jG\014\276\256v\022>\207:/\276\003\327\312<\310\274<\2758[\212=`\372\362\273&\372-\276z\301\304=U\316\t>\324l\261\2759F%>(\247\276\274\2100\330<\362i\221\275\214k$\276\000\004\0329Q\3472>\n\2644\276\360\264\216\274\020\033M\275\236Rs\275$\025\035=\210\3170\276\2327\251<[\025\256\275h\010H=\223B$\275]\372a\276r\372)<\3400\361\266@\240&=#uU\276B{^\273\r\201\355\275\333\304$\275\2305\314=\253\026Q\276X\204@>\331\342p\276\332,)>\262N\361\275j\2247>_!d=@+&>\244B\345=\2404\334\275\372\304?\276\267\213n\275 \034P=\350`\214=\332\2708>\330c}=\323=.;L\204_\276I\302\222\275\323\312\323\275n\234T\276:\022\202\2758\366C=\374\227\211=7\271;\276\"\301\014\275,\332\345=\320+\225=\371\3420\276s\023\346\275\316\334\001>Z\226\277\275jr%>\234p\322=\336\272+>\256(\317\275\225\031R\275\333\t\342\274\033%\256\275t\256\344=\274\267\221\275\216\274B9\245\232\205\276&\355H>\330\364\002>\334\252\\\275\253\214\004\276\324}\330=SS\n\276\244\007\306=wN\206\275\212_k\276\364\030Y\276\003\312P\275\230QE=L\311\026>l\2306\276\260\336\265\275\000V\004=\037\2133\275\000\263,<v1\210\276f\327\230\275O\377\302\275\200\273\030\273\024\205\001\276\300\225\000\274 \022\313\273Eq\312\275\363\3542>\246R\312=?\033\213\275U\237\032>h\340%\2756\003%\276}&\016\276j\036)\276:\300\247=\360\354S\274\224bE\276B\374v=z\233n\274\331\260\\\276\301\214->p\035?\276\014\235\215=TTi>J5=>:\001T>\224\"a\276\264b\371;\024\350\377\275L\242\372;p\010\203\276\013\010\316\275\374]\264\275\r\237\276\275\312S\341=\376\205\266\275\302\003\271\275F\372\300=UX/\276Z\035\001\276\226\373\353=\200&a; \035\276; @\016\275@\262\030;\334\201\266\27503s<`\217\333\274\221\322\200=\371\323\360\275\214\344\227\274\224_\315\275\345+B\276@\204A\275Cg\340\274I\026<\275\021\221\\\275+\274\250<\030\323\027=\324\211\343\275[\216\224\275\357\374\017=\030\371\177=}Y\207\275ld\230=\326x\276\274\350\006\324\275bd\030\276\250\246K\275\370#\241\275\300\266\244=\312\217\355==\273\365\275@\367\274=\250\310\322<\024w5<\340\016i=\'\222\001\275F\224;\276_\371\'\276\347\322K\275\322y=\274\252tV\276\027\241!>>\036\254\275\217!0\276\324\365\252\275\371[\326\274=\313Y\276\2347P\274J\335\215\275\2748\266=}Y\251\275<L\022>\330\010h=t\362\217=\272\"6>\270Qb=\250!\336\2745\267\322\275@\333\020=\002_W>\371\232\346\275E\226\237=\351\372\326=\036\373)\275Sz\023\275\004\331\377\273\037^1\276=\255\246=\020!==::e<\350\361\262\275\340\331~=vX\263<\235\367\201\276TV.>\274E_\276\327\036E\276:\360\335\275\226\334\021>[Gy\275<Z\244\2750\3567=w\321y\275z\003\007\276\234m\227=\366o\314\275\010\177\365\275\200Z\307:`gR\275\\\223\266\275-;\t>\332\231\377=8\204\326<K\237\272\275 \206\023=\020w$\274\200\002\016<\340Y\376\273H\222B\275\222Z\335=\306k\363=\336\245\363\275\227\254\203\275>\266\016\276\330ZL<\301\370\230=\037\014\310\275\3247j\276W\250\021\275\230\301:\276\211)i\276Pw\333\275\213\347c=\210\020\211\275\241\311\256\275\332\311\301=\253BX\275c`\213\275\025\341\010>\204\3706=\207-4>n\363\003\276\344n_=\372\204\262=\023u\357\275 \021P<j\311\007\2768\234\336<\200-\341\273yN\033>J\025\003\276@4\224\274~\005\351=1\273\201\275*?`\276,\205,\274\220\275W>\ty\204>`~\222=\224\254\343\275<>\215\275vMc\276\200\214W>\212tT>\024\316\222\275\327\311#\275\2242V>\314\231\275\273\255\314\n=\"B4\274\233\\\255=\016\357\020>\275C\200=\226U\357\275t\326\336\273\325\032\026>V\334W<\0038\030\276\302\232[>\024\266\032\276\325\274N\276\377\222\213>\200\3300;\023\306\333\274\237\030Y\275\261K\217=\275\374\033\276\230\t>>\310\232M=\232\206\257\275p\214G=\207\246\201\275\036\274\213<#&B\275\247R\377\274\263\017H=\232\274R\275J\266m\276px\203=\030n\031=\\)\272\274+1\017\276\362VX\276\"LU>\200`W\275s\020\243=x4\332=Us\242<+)H\276\301\177&\276\366\223^\275\354\013@=\265\267S=Rhp>\352\326\303<v\376\377\275\306\026*>`\300`\276\n\365\201>\213\333\276\275[\313P=4\223\373\274.\270\'\275\003\337\013\275\260\256J=\200\312\313\274GT\204>\021\366\330\275\307\203\223=\305\276g\276\360\022\347\275z2\005>\"9\034\276 +\374=\260\261x=\354x\t\275\020@Z<`\225\007\274\224\000\030=\206\206\273=f\300\234=\250d\017=\360\3371\274j\201\247=d\320\355\275\240\322\377<\005\n\331\275\260\350L\274\016zi\275X\215\345<\274\205\206=x\216T=hpI\274\025z\007=\326\306\246=Dv\211\2766\225\016\273\314\214\t\275|r\240=dc->\367\364B=\222Z\215\274j\356h\276\013c+=V\215\241=\370\270\315<\276p\234=\302\024\376=\"T\324=WX\n>\210\241\215\274Yl\010>\300W>=\255\302\021>X\303j\275\330\367#=\246\341\313=K$\341\275\n`\020\276\254\337w\275 \343P\274\266\355\307=\350\275\003\275:\350\034\276\305\364\322\272\210\021E=b?\211=\240U\004\275\370\234,=\217\035\235\275Q\214\2009R\332\274=\026l\020\276]O7\276r`(\276\004De\275P\033\347\275\225l(=\300\276\003\273\216\363\211>/\334\016>\256m~\275\"\277\033>\306\275o\275z3Y\273\3561,\276+\227T=\214\001o\275G\215\013=\373\367|\272L\233l=\334;\022>)\345\325=\353\263\036>\310f*=\224\307\253\275\270\206\210\2748Q\311\274w:J\273\322\214\'\274KT0\276\267rw\276\230\275L\276-a,\276\024-d=\376K\204\276r\004u<\022g\223\275\362O\'<\217\023\243=\300\225e=c\236\343<\3070\347\274\340\212\212>f\211\340=V]\233=G\343\350<\246o\346\274\302\027y<\204 \"\275<\267E>\326\261\017\276`\027\346\273T\035D=^0Q<uA\034>t\377\231=>#w\276\n|\253=\340\363&=O\240\366\275\216\311\233=(P\360<\355\206\n>\3452\010\276\300-\211\274{\224d\275\377\006\234\272\333Rq\275\200\243\217=K\345\007\275\212\312\227\275\002\254!\276\300\241\273\274TG\030\276\245\275+\276pG\252\274\036s\355\275\372n\250=\"S\364=\340\305\014<\000\'\227\274 \031\265;v\223\274\275\204Dm=\214t-\2760\213\323\274\363N\005>n\201\202>\014\341B\276\365\\G\276|B\205\276\013o0>\360\240s<m<\213\275(\221\312<\303@\372=\315<\205\276.p\211\275\256\036\271\275\231\335)\276\352\3223<\371.\024>\301\217\345\275@m\334;\"]\210\275v\023\365=\317<\005>\026\016i\275@C\200;_\245\001\276\200p\301\2738\177\227\274r:c\275\026\202\343=.\372\207\275R\364\331=\350m\020\275x\364Y\275\360\351\226<qj\021>\301\316\277\275\240\n\356<\276\336\264\275\000\304p9E\023(\276P\221\302<\331#\201\275\315\014\274\275\\\371m=\351v\004>\200\006\320\274 \327\354\274\315R\374\275\001\375\031\276Z\025\377\275\302\256\n\276\363\267\n>0HS=\004\257;\275@\274\272;L\354/=>\340\350=\212J\374=\213+$>\372\327W\275-\016\007>\342u\360=\302yg\275o\2243>XC\222\274P\210.\274\320\202\025\274\250H\006=\250\315\217<\220\325\356\274\205h\031>@\322#\2763\346\320\275\315\373#>\272\235\241=\356\365\366=\307\020\033>E\305\325\275`H\267;\216\264\370=\202\375U\275\240e\352<\225\262\031\276\324Y\212=A\353\211\275\225\0143\276$\340\032\275P\316\000<n\263\321=\320\3628\274\240\254\247\273\370\376\223<\\F\217=\376\020\307=$Q_\275K\023\033\276\356\305\345=\211\002\002>\300\320\330\273n\236#\276\241\016\322\275#\277\030\276LW\025\276\210z\227\275\340.\272\273\022\257\'\276\264\025\030=\370\027H\275^t\027\276\000\226\037:\232\371\354=\363<,>\273*\037\276\022X\352=X\304\025\276\254C\t\276g0\024>\372\223\232=\317\227\037>\027\364\026>\222\260\327=\364\326#\276K\203 >\230@\002=\007D\031\276S\022\n\276.}\316=\377\315\030>\322h\372\275$\266\317\275\364\342\210=\244\352\004=\344I*=\340@)\276\000Qd=\305L$>\226\003\357=\233\353\003>&\241\246=\300(\360;\336\r\355\275\017\315\007\276<\330\256\275\030B\311\274r4\372=\323\250,\276\312\361,\276\276\356\232=E\300\347\2758|\025\276\313g\006>::&\276\260\023\022\274`in\274\212;\001\276\320\316\010<\010\375\346\274\002I\270=l@s=\337\001\'>\256S\357=\244\021E\275\212A\277=\244\350\271=\323}|\276N\035\267\275\314\347\216=\3106$\276BN*<8\374\031\275\225\365d\276!\337^\276 *\316\275\010\032(=\220}\032=T*m<@-\t=c\277\343<\252\206\215>\224z\034\276@\n\211\272|\302\302\275\371L\303<\312%\346=[/\t>\300\305\r=\310*`\274w!\004\275\320\315_=\357\231\007\275\323 B\276*h5\276\323\272\005\276\020\366\200\275 \235\274\275\3221K\2749\\\203<0-\207<\324`S\276\017\237k\276\360\215q=\223\327R\275\033\312\303\275\013/t=8\221\r\276\006\252 \275{#Z\276\360V\n>K\303|\275\360\364\037=\360/\315\275\301\320\032=|\1775>\222\2051\274~G\337<\351 \204>\000\024t=w\336%\276\r\375\r\276sh\247\274\020\026d>\301\3533\276V\'\346\275\"\336\336\275B\324\347=\301uy\276\030xh=\245\014\000\276\364\226O\274_\302)\275\200*\243<\275\273\034>>\324\364<\200K ;\210\321\350\273\t\207\206\276|\233\363\273SK:\276\317\036\347<\350=\277\274\255MK\276\025\356\031=\000\026.\276\251i\031>B\032\357\275\341\002\033>\010P\240\274&\020\317=l\002\031\276|`\377\275\307y\004>\2278\r\276\020\371\217<\373^\003>\212\252\262\275\234\3406=c\320(\276\301\355\341\275\320\273\366\273\240$5<\363\322\021\275O\313V=\260\004l<\272!\224\274\034\363S\276\354\332\304=\311r:\276\320\316\345=\034\323=>\004\337@>\272_T\276A\022\225<\300\033\314\275\327\250\260\275\266\022\340\275\306\247\327=\277\031\254\275\220/6=#\360\003\276b(\330=(,\323\274\320]\312<6\255\365\275B;\324=#\365 >\215\206\036>(\251<\275v\304\372=n\235\305=L\276\020\276\204\245&\275\030CR\275/\351.>\242\357\356\275\004]\r\276cm\026\276\225.\033>P\201\262\274`\036\026\275\037\360\002\276J}\270=\010\257\325\2740\226\365\2744k\215=8\214\256\275\350\306\035=[\000\t>\310P\334\27494\022>L\016K\275\364z\357\275\010\352\223\275z\306\247=\r\353\301\275\034\244\317\275@\355\365;\303w\220\275\276R\307=\000w\363\272\2367\330=\241\232\235\275f\232\226=h7\035=\t\0273>1\276\374\275\304DW\275\263\340\006>\366\347\341=9\340\033\276 J@\275l\022v\275\007\355\027\2760\001J\274g`\017>\032\021\333\2750\t\331\274\257(\010\276~\213\330\2758\3631\275J\363\206=n\273\254=x?_=pxY\274I\207\022\276G\244\003>\300\235\300\274\016\206\273=\363\261$\276\260\010-\274\277\276\202\275H\221\375\2740\210\231\274\332\023\357=#\2651>`v^\274\002\306\213=\300\374g=]\235\205\275\2426z\275q\266\377\275\200(h<\300-\211\274\300\357\255\274k\2273\276m\365!>3\027\030>\313\205!\276\310\235\276\274U\231 \276#i >\004\346\206=KF\036>\r\303\360\275\346\277\237=\310\254\372\274\270\263\250\275\3005I\274\352\203~\275O\212*>\260gy\274\330T<=\371\r4>N\222&\276Q\355\245\275\241u\222\275\277L\000>\266P\272=\374\247U=\322\307\260=\250\021p=\3744*=\220\277y<Kr\222\2752\321\326=?\320%>\3407\263;\212m\314=P\255\363\275[\033\023>\340\311B\275\241\233\034\276!\252\035\276\000\377\021:[\232\274\275@\202d\274\n\376]\275\333z\033>\003\2202>i\266\t\276\364*O=\312\004\262=\264\250)=\310\025\301<\014.\360\275\225\252\002\276(\220\"=`\207j=\240\265g<\374\000s=Pv\215=$\233\321\275\230\243\247=\004\337\017\276\016\223\310=P\013&=\204\032\375<,ax>\340\020\302\275\0256$\276\277m;\276\272*\243\274\200\031\270=f\245\">\272\227U\2764\031\t>\370\356\260\275\274k0>2\224\270=\316\255\000>*\247\316\275t\314)>\365\0367>\247\334\212\275 ,\232=&@\\<|\"->\024D\n=\362\332n>JPu>jk\007>\360zo=\260\223\302\275\257\344\016\275h\232\277\2754\326\032<\034\276\216=\237@\202\276\017\033\203\274c46\275\356n\'\276\364\326.\276\"\004G>\235%\215<$\333]\275M~\256\275\360\227\030:\030xg\276r\234\023>\036w\021>8G\347\275X\234\210<\317\352\271\275\222\242\r\276\230\013\356\273ez\314\274\016\274E>\0014\242\275\357\272c\276\211\315\217\2744-,\276\035\360)\276HJ3\274,o]>\340,r=\224\277G\276+k\024\276\223T\\\275\273dQ\276\301\001\034\276\212\254\372=\352Y\004\276\240hS=x\322M\273\353\336\001\275\351\177\214\275\024r\212\275h\272o\276\212\246\254\274\036-\207=\350\211X=O\317#>1~0>p\315\307<\200qG\274\200 \332<\310\305\177\275\273\270\271\275@\231w<?t\351\275\013\020\036>\0108*\275\220\\h=>\341\205\275nK(\276\236^\332<\006\025\330=4\273\255\275H\t\213=\332\207\254=\014\3144\273\002\312\205\276\346\t[>N\377\271\2742\374X>\252Q\366\2746M.\276\356\322T<2\360\007>p\244q\275@\254\331= \340*\274\246\361\241=`\305\347\273\245\321\r\276,3~\275)\202/\276\320\010\323\274V7\273=6g\234=`\251,=\006\325\222\275\276,\323\275p\262\022\275\020\302\023\275\032r\320=H3\256\274\032\356\r\276$,%\274LNx\276\200\376\213=\260q\003=f\2440\276mwu\276\320$\205\2757\321&\276\367K\302\275\326\265#\276\033J\213\275\253\255O\275VP\032>\010q\034=\325\226d\276\243\362S\276\204\313\014=\3168\374=4\006w\276\326\036\031>\364\252\t\275\362\277\027>\023\240\037>\244\371F>\224\016\005=\036i\023\276\344w\231\275\"\345\304=\305V\\\2769\272\212\276\242\344\030>,\032\230=\\_n>Z\210\030\276F.\316\275\031\210n\276\003l9\275\002\221\014\274\233w0\276\267\360:\275#\n\276\275\352\270\250\275\322\261P\276\207P4\276\275>\343=\274\003\224=\271|\226\274\006g?\276^\016\234=N~&>\3461\371=\215=\320<\363\2410\276BOQ\276O|\005\2758\374\2377)l\211\275Z\035\254\275\233\371]\275l\245o\275\007\375\027\276\240m\n>\347N\323\275`\256\216=_\035\003\275\361\337\"\276\277T<\275d\272\363=}\330\202\275%!/\276\300\310\353<8}\375\274\212j\177\276\224\321h;Z?\207\276\310\237\201=\372\241\316\275\220n\236=\254\320\264=\000\214\372\272h\241-\276\300n\263\273g\365!>z\340\231\275\014\273\002=X\325\271<\300\3746<\212f\314=\350\371\t\276pg\014\275\002$\342=\307\n2\276,\355\035\276\351\227\241\275\352\\\220=\277\315\032\2761\241\244=\0001D=\224\3276=\271p#\276\\\350d\276\2448\211=la\342=\212C\304\275\222Ng>2%\021>W\265\007\275\361j\367\274fD9>`(\345\273,z\217\275\270<\214=\216\323\246=au\017\276\354\212\251\275\304\005 \276\327\322\252\275\n\362\266=\204h\245\275\3013\013>@\343\236\274\300k\216=f\325\363=eZ\'>\270\222\224\275\326\204\352\275\010-\224=\204\301\205>+\203]=\255\010\310<\236\341\006\274\250.#=\256\355\263=\220\302}\276\350\024\227=\202\375\022>\032\030\327\274\342|\271=|\234\035\276\\Ff>\352gp\2763\213\257:\320d\2019a\253*>\347!.\275\207\245[\275\314\314\023\2768\200@>W;i>hT\267\275;\215\026>\336\016\227\275To5<gxf\275iX\r\276\210\016\301\274\031\357\307\275,-\213\276\373=N=i:q\276\020\242\013\276R\306\013\276Nx\007\276\372\322\262\275\266\027\310\275QqE\276\254L\035\276$\177\231=B\243\200<\334\304m><\316e>L2\217=\267K\341=i\263Z\276?M\372\275pY\333\273.w\205\274n9D\276\270\001A>\352\246\360=\252\020-<ir\365\275\'\327\024\276\020\247\311=\365\220\013\276D@\375<\006\230\037\276\346#\374\275\224\352\242\275\303F\014\276\246\274.>\367\372`\275\227\n\001\276\206\325F>\206I\324<\001\337\374\275\326\005\205=3\354&\276\354\324\020\276\377\375>=\270[)=\230#\006\275\260\031C\274\t\256Y\276(X3\274\'\331Z\276\316\354\036>\252v\265=n\200\253=\275\214\023\276\254\257\023\276\210\217\311<\246\370\310=\3401\352\273\365\272\020>\200z\337:n\352\251=\374g\020\275\032\307\347=\211\006/>\254\335\005\275\342\002\362\275\000\031s\275\245\327\206\276L\t\004\275PP\267\275\223q\211>\347\201\033\276#\014/\275\256\\!<,\252*>OD\377\274\231\032==\330N#\2756\026\344\275\013w\336\275\\\320}\274r^\231=L\016\r\275r\346\317=P\023\304<Z.\252\275\334\270*=\322`.\276\320]~<P\265\244<\236\232\002\2760\260\020\276s/\030>3I\004\276\343@\211\275(J\221<J\203v\2752\306\360=^I\335=\327\275\275\275PAW>\344\374\013\2756\201\343\275\246@\215=#u\206\274<\254v>\363$o\276\270\254\335=\n\302\327\274x?#>\010V\005=\214\270\232=\331\205i:&\271\251=\177\216;\276\206\272\271<as\220<\330>\262=\210)O\275IE\220\274t;\255=\253\213\274\275\246\317\211\275rE\323=\242\343\315\275\326[\373\275\354\350x\276\245\\g\276\024\365\203>\"i\371=X;\255\275\n\2425\276\251\247\342\275gjR\276F\033\264\2751\034`\276%\203\255\275\306\314\030>~\250\002\274\203\306N\2760\374)=\211!\241=V\325\243\275\356\016_>4t\330\273H+\026=\263+\021>3\010\037\276\256\330\001>t\002\231\274\200\274=>\210%\375\2758\272&\275\313\236E\275\336r\250\275b\266=\274\214\364y<\203\244\327\275\2638\026\276\275\212/\276\370\375\324;y\"\231\275\245\367^\276@u\252=\222\005\347\275B\001\030>!l%\276\254\222 >e\240n;n\351\245\275\024gH\275x\026\333=d\376\315\274\202$2>BY\373\275n\315\t<\310\203\250\2758\037\317=L;\323=.\211\340=\377\016\004>\320\352\032<\n\246\240=\347\341\243\275\002\322\262=d\340\024\275hC\t=\245\240\032>\312\206\233=zp\332\275\334F\n\276@\304\307\274\014a\251\275\246\311v\275@\215U<\273\244\376\2750\360\024>\324\227\272=\"\246\251=\262\006\005\276AAN\276\266\326y\276\220YP\275\374\236\023>J\201o\274\263\031\035:\320/\223\2758\251\205=,\237Y=\000y\014\272\372W\301=/T\035\276&.\007\276\356\031\245=\026\234\204\275\023\\->\275z\341\275i\253\000>8\014\356\274z\346\232=\352/\362=\366\344\242=X\307\247\275i\014\031>\200w\300;\030X2\276\252.\324=\231s,\276\3744\202\275\266\370\227\275z\214\264\275\302\r\323\275\202D=\276^\027h\274\204\371\367\275\306\316\306\274\020Ss=\274}\362;\374Y\215=8\316\234\274\227\001\366\274\266D\007>F\351\270\2754\205\\\275\242\032\327\274H\002A=\037p\332\275\222!\032>\215\005\226\275\270\251\337=\360\341U<\r{\262\275\310`\303=e\204\313:;\016\201\276\007y\006>\276\221\326\275Izt\276&\335\020>\230\010G=\354\r\313\2750\304\016>\033\331\233\275P\001\032=\200\177\026=xb#=\020sP\276+Y~\276\3152\325\275\200&\256\274vQ\031\276S\362\214\274\014\027\366\275\177\361s\275<\326]\276[=\275\275\372\350C\276\350<1=\322\261\204=+\357\020\276[:8\276\310\0243\276\210\007\354=^\214\373\275\246\330\252=>&\371\275\027@\334\275\275\311\244<)\322\372\27589\220=\000>\236=\302\261\307\275\237\210\201\276/\243\005\275\003\210\231\275\327\361:\2760\205\231=\364\030/=\346\227\227=kU\303<\006\263\262\275\215.\240\275\321\306l\276\210*^=\341\367\033\276\337g\025\276\022\312\201\275\3246\034=\2001)<6.\240=6M\322\275U\235\005>L&\n\275V\345\334=\014\233P=\250\200\033=\332?\366\275\306\367\375=\237`\025\276C\316\020>B\215\373=\263\005\327\275\200Z\371\274ic\200\276\364y\303=\302\010+<<\t\311\275o\036\016\276\310\276~\274\277\237\230<\267=L\276^y\373\274\204Z=>a\351\321\275\000\212\001=\354\177<<\326\2300>cR+\276s&:\275\236\363\261\275\\\036R\275\341\233.>l\3208\2756\214#\2768\276\210\274\240\010]\274\264\263\"\276R-\344=(\313\"=\353H\032\276\001.\005\276\310\213\264\274\320\274\004\276^\006\023\276\315G\024>@\\P=\300A\'\275+\376)>V\277\034\276\272\352\372\275p\0205\274`\237\340;,\351@=4\317\034\275\2753\205\275\223\r-\276\256^\263=\335\274\002>\366\222\n\276\246\315\315=\014\340%\276\323\354\304\275\023\177#>\021h\003>\226\225\304=\372\373\325=uT\322\275h\035\016\276X\030\010\276\320\024J<\324\010\341\275\035\265\005>\276\331\272=b\033\370=\234\361\023\276\244s\247\275O\325*>\347\036\246\275\302v\343=\226\270\247=\206\303\357=\240\016\260\273p\031\037=Z\342\263\275\360\\\347\274\207\204\r>\257\036\225\275\231\257$>\366\346\216=l\305P\275\335*\031>GZ\221\275\276p\316=\262\203\275=.=\334=\r\004\035>\244\230 =u_3\276x4\312\274\th\326\275\215\225\261\275l\352$=$B9=kY*\276\350\205\364\275`W4\274\330L\204=\340\213\026\275\366\035\024\276\223\225\021>j\300\272=T\356\'=\370\344_=\352\304\273=%\2362>\302\342\230\275z\217\017\276\010\263\312<\222l\231=\340\215\230\273\242\316\342=\256i\341\275\003\256&>YM$>\031\r\307\275\250`\220<\024\320\014\275\304<\026\276\001[\373\275\320\216\205\274\311\374\004>`\223\255\274\000\206\230\274<\266[\275\362J\033\2762\311\251=\234\370}=qT-\276.[\243\275\250M\243\275\370\003\337\274\271\233\004>n\366\236=\"\025\320=\266\"\026\276\344\021\r=\200\213\324\274\010\266\211<\031\320\007>i\221.>S\231\020>\0363\312=\325\252\223\2758\'\027\275@\177\002\273K\357\322\275,o\223\275\357F\021\276\000\353\367\274\237\331\377\275i\t\306\275\230\277\217\274\000^\322;\310d\377<\356h\376\275\332\242\233=\023~(>\002\376\264=\370\233\217\274\344aU=,]@\275\340\020\356;\360\014\224<\276\022f<\233LX\276\246\245.<\3664\341=\3637H\275)\201\220<\003=\203\274\004\203\203=\276\324d\276\360\"\r=\014\232\341=V\330M\276F\341\307\275F\315P\276\330\242@\275\210\001~=\240\315?\275\257\246\027=Q.\350\274A\377\245\275\000\262g=\020\353y=\022\254\324\275/\037\013\276\255\346\003\276\\A\235=\327\260\246\275s\226\273\275\226\025\234\275\310\261c\274\022Y\002<\203#\376\274\216\212\016\276\260\214\273\275\272\020\035>Qj\342\275\267\314@\276\nQA>\"\340\203<Fi0\274L)\211\276\364\257\345\275-\336h\275\371V9\276<\266\275=\202IQ\274x\0043<p\203k\276\324M \275\026h\212=\215\036\004\275\360~\235=\276\022\235\275\352\0218>1\301\243<\364\204\374\275\210\264g\276D3\237\275lp\273=\032\344\033\276\360\242\'=\266\220}\276\"F\226\275\261V\245\275*\373\367\274\221N\322\275P1@\274\3501\215=\347.)\276D\314\275\2750!\\=\010\355\320<\300\342^=\215eV\276\322\2747=\244T\356\275\334\237\242;d\316l=a\247\260<\374\177d>\302B\322\2758\301\345<s\221+\276R\236\024\276\324\261\"\276\005\360\013>\000\374\351\274;\261\372\275\2128\307\2752\354\227=\022\266a\275Ze\375=\267\332\034>[\343\025>O*.>^T\353\275\311\010n\276:\035\275<\220\341\036<\277w\013\276\004\240<\275\267\356\202\275\377We\275z\311\024\275\233^u=\025\003\203>\372\245\246\275Z7\210=\362\002\276\275(\364|>#\346R\276\234\273\315\275\364\005\n\275b\037\031\276\334\275\223= aG\275$\260\"\275\000X\313\272\340Xt\275\332j\366=@\216e<\000\325\374;\374\314+=\221,\">\230x\027\275\017\302\031\276|^\323\275\200)\273;\322\253\321=\352dU>\240\262o>\256\226\026\276\300h\215\275\366\247v\275\3112\212>B\211\271\275X\231}>\207\233`=\223\305{=s\032\355\275\306gN>\310Qh>\204\372/>oH\363\275\377\272\026;\226\200\322=t\357\016>\303P7\276\177\035\201\274\231v\242\275M\027\315\275\222\035\307=t\215\226\275\014\010\'>\234>\267=@L\035=8S$\276^m\010\276Lf\373\274\210T\337=\207\207\315\275\345u\333<\020\257{\275\200\303\360:b\032\306\275\220(\312=.\300\312<=\241:\276\335w\350\274)\324\222\2751\361\216<\261\003\345=\276\3011>\360\027T<X&\255=B.&>\222\324\220\275D\r\317\274\376p\007>`\323c=\200UU>f=\343=\314u\310\274\260;]\275\254\004\316=H@\245\275\306\252\036>\312\260\000\276\224\213\273=t}:\275\024p\376=\242\2459\276`\000(>\241`&=L\323\332=\036\353\271\275\254\264\t>\313\270J\276\2747\307\274\000^\r\276\204V\322\275\370\371v=\300\220\354<L\220\030\275\343\037\202>\220\203f<\034J\335=\212C\201=\211\353\004>\274&\024\275O\244)\276\005\352(\276>\3660\276\317\005\036\276@\234\340<p#\355\275\361+\036>\350a\204=\365\254\006>\342\344\207=\210\256\375<\354\253_=w\246/>\271;\210\275\0103}\276b\376\006\276\024\243\003>2\320\007\276\256Zd\275]\320\016\276m\236\021\276q\345\007\275\336\377\345<\311\264\321<\214\200\262\275\361\033\372\275\345\2422\276\030\311\264=\224tc=\2707W>\027j0>\005\240.\276\320\214\200=\307\024\027>$\000\020\276\323*\343\275\265\363\000>\330\022;=A\007\030>\265?\002\276\303\001,>\310\301:=[\203\004>b\273\360\275\t\027\'>[/\254\2754z%>\221.S=bQ]>\217y\\\276hku=X\235\255\275]\257\335\275\027\354\006\275f\346\203=\367\006|=\364\270\333=4\267\206=\310h\013\276\357\302\007>\031\375\001\276\273\372\'\275Z_b\274\204f\210=x\261s<N\r\237=P\365\232\275,\355\306<\262\304\362\275\026\371h\275\303\t\001\275p\231\305=\022\347\034<\347R:=B\334\263=\370\340\"\274z>z>V\331\311\275i\305g\276Di\311=\3178>\276\302\330\227=\3106M;\3120\217<\274Wd=\365\230j\276w\227H\273\272\2731>|\177\005<\323y\000\276Z\004\007>\342\000\204=\242<\236\275\240w\323\275\310\377\335=\307Q\022\276\000\301\362=X\262\027\276\006\021\026>\326\237l<\202\262\323=\3271\371\275b\263\203\275\373P\026\276\370~\026\276IT\211\276[\2512\276\002)\t\275:\373\023\274\324/\031\276\214$\323=\236tN\276\340\241V\2756t\250\275\347W\014>(9R=R\375!\276\260\001\226\275XK\036>\017Z\202\276\223\260a=0N\333=\006\214\267\275\321_\252<\307\375\004>\270\3017\276\357\260\326\275\330h\227<4~V=\3308\357<\020\005\032=\246u\305\275\372\371\210=\210:\276<6\357\355=\356\232\336=\005\177\016>\365\013\033>e/\276\275\277\330\241\275\240[\022<WX%\276|\303T\276\220\321!=n\320\n>6\215\024\275\2667\343=GV\212\276\302\0047\276n\350+\276x\030\323\275\030d\273\273,\204\322\275c\371\003\276\261or\2764\013\001>_o!\276w\377j=\305\307\246\2756\357\351={\224\034\276\000\030b\275\025$\'>`o\320;>\257\200=\326\356\372\275\200y$\276\262(\335=\000\207\354;\203\305\003>\017\371\r>G~2\276\237\204\033> 5\010\276\304\205\021\275&\212\356\274\033@\237\275\017$K\276.\\\266\275\323C\257\275\244\224\303;\310\241\245=\311}7\276H\234\376=\335\202\341\274\021\313\014>\247\324\'\276\267\270\364\272\020J\222<*H\267=\317\005\253\275\271\374C\2764\354W=*T\001\276\026\250X>\311\356\034=e\274\246<\032o\026\276`y\341\273,\367\352<`9\n=\350\010n\276\271\361_\276\300I4>e\357\006=\006?x>RJu\276\231F\276\274\241\221C\276o\312\006\276\260\347]\274\304eb>>\027\327\275\211\025p\276\003(p\275\014\225\343=5\354\217\275$\226\253<\032\274]\274\244XK\275\253\311F\276^F\246\275,\021\340=\370\370c>xls\275\364x\332\275,\035\t>\256\255\247=\035\'P\276\254,H=T\240}\275\334Tr=J\0105>C51\275S\214\240<G{\r\276\336l#>\325\016\312\2720\016\304\275\2717.\276\214\322\230\275:XU>n\010\264\275\332?\232\275{a\222\275p\013\316\274\242.\247=\357\024S\276\t\346\356=\346\356\215\275x\220\243=\334\273\016>,Y^>\226\221\277\275bb\253=\"\234\'\276\210\222/=\266!\323=\010\';\275\2304\033=<\321%\276\022F\361=\n\357\n\276\010\322\202=VQ-\276\002F,\276[!\002>\314\267\334\275\300\354\005\274v8\344=\267\"n\275\374\360\362=\017\227\334=\224\214R\275\340\305\030\276\233\004p\275\271%\304\275\224\257\205=\360\371\325\275\212*\354=\026\t;>ph`>\002\367\311\275\325\354\033\276n\002\204=\022_\253=6q\347=\016\355\213=\002A\003\276\221\201\310\275o\037&>1\261.>k\255\013>8\361+\275e\007\334\275\364\031\004\275\231\032\004\276n6\377= b1=R\222\316=\367G,>b\t\313=\\J\321\275HW}\275\022\322\035<u\363M\276\254 <<\314\247\345;\210\002\357\275\255F\332\274\226\270L\275\010bk\275\0008\240=<\361[\276\301 (\276y\246\304<\344\257\034\276Nv\362\2757\273D\276\212\367\251<\324\242\273=\316\353\265=t\032\363\275\204\342\226\275\253K\355<]\246\016=\302+->%\347\263\274\314M\204\275\217\243\366\275\343H\224\275;b\001\275\237\255#=\311\243\336\274j(-\276\003G\217\275\000/[=\200\356\206\273{u)\275\350`\031>\360\225\274=\027_\006\276\211\362\213\276\022\351)>\000\277\324=p\300\335=\200]\017\276\346\3018>D\260O\276\021Kf=\016n\340=LU<>\220\252\001>\353\237g\276|\014\010\276x\367T\275`\366\223\273N}\001>!^\313<Z\'\017\276h\362\270=\r\263u\276\214\014\376=J`;>\346Z\312\275\020\330\032=\350\027R=\230\306\025=\224\002\003=\210\301\205\276\244O\373\275\363Y\304:_\202\201\275 \265\214;8\202\355=\000\3210\276\316\246\301=\343\001\361<\322\327\300\275\362\240\275<4\307F>\374@\301=\220\014\236\275 \372D\275X\007\210\274vb\203\275 \003k=\355\341\247\275\230L\372<\240\t\245\274\277\261\n>\262KT\275\240\353\237<\240F9<\274\204%\276`C\223=p\332^<$\3316=\202\335^<\333\340\207\275\014y\331\275\336c\025=\331\226\006\276%2\206<6\317b\276n6\324<\343\324\317\274\364\243\344\275\350;9>\310y]=\341\304\205\276\234\342\323=\014\201\203\275\213E\030\275\272j\326=\371q4>(\354\010\276\342+\306=X\325\206\274\317S\210\275\200N\330<\224\365a\275\nE\342=\345_\210\275\026+\303=\034\235%=\016[\300=m\232\310\275\031\236\262\275\200?V\273JEs>\371\334j\276\036\001\366\275\2453\005>\037\335\031>@3\n=\027\201\006>\247;\t\276\252\375\203>\377\021\332\274\341\212\007>\317\261\235\274\233\032\356=\353\375\013>N\263\210\274)>\346\275 \005\240\273\357\2272\276J\334\340=\332\2273\276\034\320\033\275\260\252\323=\257\n8=\003\024\025>\354\243\317\274\324\304O\275\236\316\003\276\'-d=h\217\336<\344\341\200\276\322\030%\276@\261\205<\361_\203\276tC\210\276\263\017[\275\001;\222\275\000Dd=\253\010\326\275\206\003\333=l\312\025\276\004-\223=\177\327#\276\330NJ\276\344Ss<\304\246}\276\024\362\306<xU(=;\224\244\275@\204\210\274<Uy\275L\274\364<\232\313\'>4|~\275\273\2608=\214A\213\276\010\326?\276z-\243\274\270Q\260\275\000\016\223=\000\313\214=\2422Q\276\252\215\316=\'\0166\275C\316\n>\034\006\221\275\330da=\244\270\347=\212\304q\276\364\255,\276@\372\240=\364)\t\275\217S\032\276\010ku>\323\237\374\274\200\207\232\273\354K\213=\360\345\260\275\375C\035\276\302\330\024\276\273X\327==\210\242\2756U\357\275z\ry\275P\013\375\275\343\2570>2\276\311\275\362\362\373\275F\320\336=\024\225\200=\202\'\313=g\322%\276\231\005\373\2750\0160=\014|!\276F\212\036\276\273\272\t>\263r\265\275\017!&\275\0309E\276\263/\203=x\212\304\275\223\275\032\2751H\356\275\020\313k>0\252Z>$xk\275\340\2102\275\2504/\274\r\362\355\274\ndy>\216\373\027\276\300\217\031<\314dB\275\223\377\217\275\275\253\316\275\000P\216\270\276@\351=\006\004\305=R?\375=+e\243\275\300\303\002;\322\210\327=\200$\177\2745\026\036\276\300\203\375\274%\276\306\275\340\234\217\274@/\272\274\216\356\004>\250\025\021\276B\274\025>\326o\022>0\3232\276\303\353\213\275\367\314\247\275\034\352\003\274\016\222\002>8\322\377\275\260\013\321=\374\035\025<\032\347*\275\010\036->\374Mh\275\224\010\001\276\251\220B\276*\210G>ua\000\276_\373\203\276\250\247&\275x\026\314\274\220\350S<\272\366\205=G\3778\276\313\177\343<\227\324Z\276HNP>M\241\002\276g\267\266\275_\213\037\276\364\321\312\275\303W\375\275}!\245<\004;\005\275\301\302\"\276\242f\207\276$\030\'>\320\244m>\005\334F\2767\332\205\275\352\232G>\321\337\037\275\340l\006><\264\346=\230+K\275\315e\316<\201vu\275\004jp>q\353\031\276\200\027\225\273\236\210\240\275f\336\n>\362\357I>\350\017\211\274\302t\335=&\267\227\2748lw\2750 :=6\232W\274\247\014\203\276bF-<\372^C\275\311\244q\275\266\341\013>w/\330\274\022b\302=\017tM\275\014}\271\273\276\037.\276\247(4\276\364:\020\275z\001\371=g\3204\275\035n\034=\030\347A= +\211\272\374OO>:\214D\2768\341\361=\211\312\020>\022\210\340\275k\231\030>\301\010\037>h\215*\275\376\237\345=\300\237\021\274\330H\253\274P^\026=Xr\004=\006\374\364=\314\357=\275\252\305\264=t\3066\275\n\251\365\275\030M\276<\206\353\313\274\324c\267=+{\352<#`\235=\1772!\276\306\362\262\275\223\316k\275\354\023$\276\3277\213\274\220H3>\004\317P>\356\204\254=\341\035\361\274X\2114>k=\236\275\243dX\276\300\030H<\333\362\005\276\362\276\315\275\007/\037\276\032\t\306=`\332,\274\207\346\006>\005l\310\275\256\300\204\275\264\355\270\275@\210 \275\264m\177=\216\203\221=\365\242\210\275\364p\351\275\312\243\314=\017\322>\275:t\272\275\3156p\273\300\202b=\360\374Q\274\0101\203\275\335\010\207\276\244\025V>X\'L\276`\003\323\2750p>=1$\007>\335\365\362\275,\340\373\275?\004\233\275\354\353&\275Ns\357\275\272,\006\274$_\271\275x\262\276\274U\2511>`>N\276=~\373\275t\271\262\275\003\327\310\275\247\370\017\275\260*i=p\036D=k\321\033>>\377\213=\333P\305\275H\325F\276u}\213=2\230\304=f\250#>\364\372\007\275A,\355\275\214^1\275\\qm\275\246\365\252=N\005\300=\020\016\225\275]\224Z>xd\370=#+\350=\005\245\376=\002&\350=~o\261=\264\247\376<=\242\246=d@\203\276\311\344%\276oN \276\357md\275\022q{\276p\342\215\275Q97\276\210\205N=O\215\007\275\224\215(\276@\315\001=\300\203\232\275\226\210\373<\264 Z\275\317\316V\276\213\231F=W\353K>\317\317\234=\303\310B=\351f\\>(\322\231<\202\217 \276p\305\034\275\224bz>)\023\313=A\243\211>?\260\377<p\335\005\275\377\006\034=\307\312\014\275X\226\317\274\330\374\306\274<\002S=\027\014\347\275M\2643\276\207J\033>\036M\254=^\037\256=\200EU<W\014\007\276\355\2714>\346\347\242=\000\271\331;b`\354\275\367}&\276R\027\211=!X\305\275\020\335a=u-\250\275<QX\275\260\323\325\274U.I\276\310\'h>\027\307\345\274\354\353X\275p#\374=_\336\014>\3708\036\275\216X\303=\017N3\276\374\007\232\275\345\277*>\277\016\n>8]\340\274\275\276\035>\356\037\350=(;\232</\333\212\275\034n\034\276bl\307=5\365\030\276>\367\271=\300\233u<\341\036\024>\301z\033\276\315h\016>\374\342o=P\307\334<\002>\251=\200\374\335\275\357\366\262<\355\316b\276\340\260\274\266~\361T<\340\n\262<0\t@=~\317\036<\010n\303\275`n\226\275\325\3366\276\210\361/=c\355\207=4\t\237=\033D\243\275\323\210\214\276\306\027U>0Gs=\313\230\375<w.\361\2743ot=\314\357\177>/\275\000\276\267\017\207>2\2170>\024U5<`\3048\276v2\n\274\322\363R>\031\274\227\275\371t\212>\035\245\215\276T\240\216=qF\313\275M.\036>\243\2327\276\032}D\276\244\236\251\275EO\\\276[\216[\275|\276p\275jX\217\275\240\261X=\341Uu\276\230T\030>\344\253M\276\254\"[\275H\253\022>i\215\311\275\322`\033>P\371\023\276\017\230\023=n\031\211\274\034\212\025\276\327v5\275\324\036\022\276\204QB=\344\340\320\272R\022\'\274\260\327w>\202\n\377<J\345\354=0!G\276\320\253\334\275\002\233\242\275<-\240\275\210\026i\276\230\366P=\2606\325=mN.\276*-\001\276v\362\236\275\230\236\345\275<\021u\275$\243L\274c4\002\276\260\nm\275\347\007X\276\260RP\275\343\203\225\275 7\004=\220\024\234<\346\335\032\276J\365\346=\255\024\023>\350\253\222<\036A\351=P&\022\2766\275\337=,\220&\276@_#\273v!\274\275\032\351\365=\331\227\003\276\2001\252\273\202\001\302\274$\256}\275\030iI\274\321\325\246\275\216\367\322\275Y\301\314\275\270\236\020\276\030Y\020>>8\332=,\300$\2756_\353\275\246\312\022>\"N\242\275$\374\326=\365=\307:g`\340<\372W\342\275\336\007\237=\2503\247<\372j\311\2758\325\027\275is\034\276\020\"\244\274\251\264->l\2350=\216q\347=\270\311C=e(&>IE\t>  \340\275\222\374\344=\200]%\276j\203\323\275\232\2138\276w\371b\275\260\\j=\001h?\276\374\223,=\313\377\262\275\234\320\304\275\310\265!=\301qX\276:\270T\274\271\305\376\275\247\rD\275\036A\271\275\022Y\351\274\261\253\211\276\220\377(\274\211\231s\276z\263,\276\235E\200\275\374\000\220\275\317\234\027\276l\315\360=:Rf\275\307\313\014>\313\337W\2762Y\215\274\365/\204\276\314 4\276\200\276\271;.dD\274\356\\J><\302\301<&\3727=\335\t\351<\354M\036\275\003|\344\275\236\271\023>tK\260=K#\"\275r\305\216\275\2415\244<\221\264b\276\030-\r=l\031\243\275djk=-u\366\275\334\207\300=\316\032\004\276LP_>\030\267\000>\301\326\243<\313h\007\275\207\333\330=lV \276\222s\362\2754a\307=@\300\007=Y\366\032\275\035zz\276,^X\275\311\322\304<\320j\231=4>\270\275\000v\007=E\376\024\276\361E\315\275>?\t\276w<A\276\246\246X\276\242\272\235\275z\022|\275\322+\202\275h\037/=\232\235\035> \340\007=k_\307\275\325\352B\276\327?m\276\027\247.=,Y\232\275\300\227\263;k\243/\276tB\222\275L\223l=8D\002=\202g\346=\302\263\301=\252\016\302=\314\024x=7P\260\275\230\337\024\275\'\230\027>z\205\253=\202\252\263=\233\036\n>\223[R\276\351\376\001\276\300\271\202=\261a\350<\356F\324=\005\017\206<\217\322D\275R\240\200\274,Fn\275\017a[=\334\326)=\310\014[=y\004\205\276\203\020\000>\261ha\276\020\224%=D\010Z=\324\347n\275g\254\002\276\360\347b\275\343\016\262\275\332k\273=\233\037\016>\326\r\350=\231\215$\276\227\342\216\275\n\201\266=E^\021>\302b\020\276\256u\031\276*!\230\275\320\360l=\220~\334;\306U\026>I\005\r\276 \204{\275J\351\366\275\"\237\017\276\254\363\312;\316\223\222\275\231\246$\275\030\242\333=u$\325\275\034\202J=\3728\036>\354\324\377\275N\2302\276\320\004~>6E\027>\312\2244>\251\332\303\275\354\312\202=\"`\330=\002\202\360=\312\005\010>\2448f<\274\007\225\275\334jL=\204\375\000>l/p<.\377\335=\367\r\200>\321\267N\276\236\022\001\276\214q\277=5\255\003\273Co\333\274\325\013 \276\214\222\206=\320e\220\275\202\004\204\275\350T6\275\306\004r>\264\200\273\274:\255X\272$\372\254=f\345!>\266\254\007>\031\027\323=X8\002\275\026U\324<\273\274^=\276\307\314=du\002=f\005\261\275vib\275X\332u=\205\315\000\276\325\342S=\024B\026=J/$<\240\312T\274\340\304\355=\002\352\242\272P\331\211=\226\225\212\274\355;i\276\331\021\027>\272\333\033>\t;\206>Q\276\267=H\326\021\275\373\213\373\275\202\251\353\275\336\004\257\275\374I\027\276K\356\256=T\256]>^H\300\27408\334\275!a\017>\027\234\231\275\340\356\016=\250\257\344\274\211\014\001>\025\262\244\275\006\301\264=\305\022+\276,\277\267\275 \243\216=N\025\264\275\200\255\'\276w\3032\276\024M\212=\300\302\333\274\021g#\276\260\242\315\274\216\007\374=\341\332\214\276`\014\014=\270\001\223\275\322\333l>\320f\021=\000*\317\273|\307\217\275{\"A\2768\353\371<\004\303q>\300$)>!\235\215=\302\372\253=\322gZ\276\014\214\036=\003\335X>LHW=5A\024>\235L(\276$\271\024=\377R\244\275\013\271\254\275\206\002\311\275L\215(\275&V\312=x\277\345\274H\215\307\275\230d\211=\311\2153\276B\336\367=\207=\325\275n\236\277=\000^\316\271\305\231\230\274\\\256\036\276\021\323/>\231\220\024>\200:\346<e?d\276\363g\035>\016%\370=\274E\216\275\244kw<\367\327\036>\200n\037=Q\323\033\276wqm\276\270\223\213\275\274\017\202=S\352=\275\210\243F=\310\356\226<s\264)>#\312\252\275\251@,\276\214S\265\275ZX\304\275I\237o\276\260\240\227=\370\220\362\274\260\325\307\274\324\345C\275\301\025->\212S\266=N\177\260\275\304\364G\275\324\037\216=N\217\227=.Q\220\275\330\342\353\274\034\307|>\016\n*\276\000i\321;\034iR>\"\242\231\275+\306%=\376\313\232=\324\236\305:|\341|=\014\373h>\030\316\220=\374\223\364\274\005]\357<.I\016\276\211\037j\276F\216`>8\310\212<\347\003\211=\215\010}=\341\271\016>\233~\267\275\200\315,< i\016=$gv\275\343M\214\275\330I\323\275\251wL\276\344\223\266\275\330\r\306<\242\257#\276\013\220\265\274&K`\275\365\313$\276\260\026\004=l\357n>@\"g=\306&\341\274\001\220\207\275\276\373\330=\260\220w>\203\372\215=3\n\013\276.K\345=J\265.\276\232e\213=\262h\261=\023\370\204\275\250\"C\275y\312\030>vO\036\276\360\231\375\274\022\222\227=\270\016J\275C\241\'\276\2564Z\275@\023\210<\352\347\264\275\3317\005\276\304\177\023\276\031\032\301\275`M\353<$\243\004\275\360-\365\275\210\322T\275\200\220\326<p\341\r\274\206r\240=\212\353=>\016\2630<\"V\316=C#\323\275\251:=\276T6\031\275\260\210\031\274+\262\027>2U\270=\236\017\276=\372.\230=8\210\354\274G\313,>\340\344n=\361\375\007>#\334\037\276I]\037>>\316\307=F\270\326=f\300\327=ua\020>8\020\303\274}U\016\276\320$\021\276p\227D\275Z\323\224=\252E\346=\374$\030\275\340;\035=C\213\346\275\322\263\230=\000\313\270\272\304\314m\275@\206,\274\336\277\354\275\255\270\017>@\177j<\234\347\027=\227\264\031>\032$\276=T\363\035\276@\227Q<\320\251^\274\215D\005>P(r\275\212\364\300=\305\213\035\276)\360\377\275\220,\032\274`ei=\003)+>\337.\031>-,\035\276\234!\n=\340\343\201<\3271\001>%\"2>\266R\352=@\001H<\000\363<;\001\211\202\275*\024\376=\367M\014>\000Ef<j\202\005\276\200\000\362:W\036\021\276\260bG\274\340\3207\274\324\234Q=h\270Q\275\272 *\276XY\315\275\300\001J<\370\201\373<J\342e\275\356K\315\275`\273/\2755\343\016\2764\374\001\276\024z0\276\345]\270\275Js\351=\022\315\005\276\201\346\211\2757\255)\276\216\227\200=\177O\252\275\033\327\007>\376K\315=\000\t\362\273f\020\370\275\204zj\275d\303r=V\032\254=\366\302\230\275\236#\207=~\021\252\275\240\250\334\274|\263\t\276jz\244=\312\346r\275\222\315\323=\256\256\360=F\255\307=\362M\362=D9\003=c\366\023>>\311{\275PR\030<\006\020\260\275\354\251y\275=\204\032>\242\013\211\275P\363G<k\023\235\275Kz\257\275\362(\223\275\032\316\n\276\270\034\331<\3508\363<\3306\263<F\351\210=h\217\245\275\236\t\336\275_\020\032\276qt\345\275\242D\266=\344\333\005\2758B\330\275f\355\266= \256\337\275\327j\213\275\230\217X=_0\"\276\321\216\016>#\"\007>\010\242\031\275\020\335\250\274\312\"3\276>^\317=\206v\337=]W\025>\t\220\226\275V\016\203=Xk\000\275J8\026\276\030\2348\275\374\305\r=\312S\245\275\031\270\037>\n\274:>2\211F\276\377\360\210\275n\261\253=\367\311P\275\010\367\003\276\002\356C<\376u\300<H\312w\275\374\226\313=\266h\347\275@\310\006=A\233\330<\370\236K\275\245\'6\276\330\334\221=\030z\364=8\205\224\275tK\330=\260\226\203\276x\030\213\275o\355\007\276;\036\327\275\333o\257\275x!\277=v\0043<\2129\001\276\240%K\276\t\272\213\275\004\377\213\276\232\327k\2765\235\036\276?\206B\275>\257\377\2754L\351=3K,