node {
  name: "x"
  op: "Placeholder"
  attr {
    key: "dtype"
    value {
      type: DT_FLOAT
    }
  }
  attr {
    key: "shape"
    value {
      shape {
        dim {
          size: 4000
        }
        dim {
          size: 24
        }
      }
    }
  }
}
node {
  name: "decoder/conv2d_transpose_5/Shape"
  op: "Const"
  attr {
    key: "dtype"
    value {
      type: DT_INT32
    }
  }
  attr {
    key: "value"
    value {
      tensor {
        dtype: DT_INT32
        tensor_shape {
          dim {
            size: 4
          }
        }
        tensor_content: "\240\017\000\000\004\000\000\000\004\000\000\000\010\000\000\000"
      }
    }
  }
}
node {
  name: "decoder/conv2d_transpose_5/strided_slice/stack"
  op: "Const"
  attr {
    key: "dtype"
    value {
      type: DT_INT32
    }
  }
  attr {
    key: "value"
    value {
      tensor {
        dtype: DT_INT32
        tensor_shape {
          dim {
            size: 1
          }
        }
      }
    }
  }
}
node {
  name: "decoder/conv2d_transpose_5/strided_slice/stack_1"
  op: "Const"
  attr {
    key: "dtype"
    value {
      type: DT_INT32
    }
  }
  attr {
    key: "value"
    value {
      tensor {
        dtype: DT_INT32
        tensor_shape {
          dim {
            size: 1
          }
        }
        int_val: 1
      }
    }
  }
}
node {
  name: "decoder/conv2d_transpose_5/strided_slice/stack_2"
  op: "Const"
  attr {
    key: "dtype"
    value {
      type: DT_INT32
    }
  }
  attr {
    key: "value"
    value {
      tensor {
        dtype: DT_INT32
        tensor_shape {
          dim {
            size: 1
          }
        }
        int_val: 1
      }
    }
  }
}
node {
  name: "decoder/conv2d_transpose_5/stack/1"
  op: "Const"
  attr {
    key: "dtype"
    value {
      type: DT_INT32
    }
  }
  attr {
    key: "value"
    value {
      tensor {
        dtype: DT_INT32
        tensor_shape {
        }
        int_val: 9
      }
    }
  }
}
node {
  name: "decoder/conv2d_transpose_5/stack/2"
  op: "Const"
  attr {
    key: "dtype"
    value {
      type: DT_INT32
    }
  }
  attr {
    key: "value"
    value {
      tensor {
        dtype: DT_INT32
        tensor_shape {
        }
        int_val: 9
      }
    }
  }
}
node {
  name: "decoder/conv2d_transpose_5/stack/3"
  op: "Const"
  attr {
    key: "dtype"
    value {
      type: DT_INT32
    }
  }
  attr {
    key: "value"
    value {
      tensor {
        dtype: DT_INT32
        tensor_shape {
        }
        int_val: 1
      }
    }
  }
}
node {
  name: "decoder/conv2d_transpose_5/conv2d_transpose/ReadVariableOp/resource"
  op: "Const"
  attr {
    key: "dtype"
    value {
      type: DT_FLOAT
    }
  }
  attr {
    key: "value"
    value {
      tensor {
        dtype: DT_FLOAT
        tensor_shape {
          dim {
            size: 3
          }
          dim {
            size: 3
          }
          dim {
            size: 1
          }
          dim {
            size: 8
          }
        }
        tensor_content: "\"L\331\275.\247\210\276][S\276=\322\265=\r\2209\276]\205+>\373~\343=\261\352\243\276\240X\031>\021\247Q=\261\325\356\275\305O\326\276\261\325\231\276=\350\206\274\321\367\247\276S+\376\273\224\250\321\276h\215F=\022f\243\276\333{\020\276 \240|<\302F\253\276E\004\264\276\301g\307\276\022\3100\275\231\333\240<\334B\241\275\r@\237\275C7X>\344p\314\276\020\224\024\276\tw\305=\334\275\'\276\"!\226\276\203\220\273\275\247\014&\276\201\221\252\275#\344\247\275q\323\016\276\253\326c\276B\270\034\276\341Pr\276\212\351O\274\037Y8>\337l-\275\351\326\262\276\024\250\010\276\245{\030\276DtF\276\240\017\204\275\322\252\023>\210\201\227\276\324(\221\276\000]\201\276\221s\331\274\243W\276>\253Q\006\276\333l\260=\024\177q>\315\271\032\276\033\312\217\276\245\307x\275o\202\027>\224)l>\367\231\010=\255\235\221=\212\204\330=\332\371\251=\031\251t\276\357\341\223<d\3309\274\031\342\277\275"
      }
    }
  }
}
node {
  name: "decoder/dense_15/MatMul/ReadVariableOp/resource"
  op: "Const"
  attr {
    key: "dtype"
    value {
      type: DT_FLOAT
    }
  }
  attr {
    key: "value"
    value {
      tensor {
        dtype: DT_FLOAT
        tensor_shape {
          dim {
            size: 24
          }
          dim {
            size: 24
          }
        }
        tensor_content: "\'\365\366\275\004\260\222=\271\357<=\344\244>\276)\037\377=\311\361R<\205\017\001\276\244y\237>\227\262j\276t\232J\276\314\262\322>\225\235Y=o\262\233=\332G\201>\264\034\215>\266\244\201>;\026\035>\314\210\307=\247\344\n\275w.\306=\263\224\352\274\311\010\234>-\023\213\274\013\223\352\275%^\274>\227*\201>\004S%<Ep\013\275\027\020L>K\211>\276\034\016o\276\203\007s>\265aG\276\r\204Y\272q\001\205\276\251\340\356=\034dO>\351\027\253\275n_\353\276\355\344)<\227\0064\276\231\234$=\326\267\254\276\360~\000\277\266\216\363>A\014J\274\365Q\027\275\010m\032>\270JG>\364\300\">\2227\204>\035\354\230\276\t*\215\275\017\341\n=\351\027\230>J%\220\276\311\275\373\275\223Or>\336\354\340>\315\212\317\275\373*r>m+\344\274L\243\272>\221\345\243\276Dx\374>\36402>;~\351<\030\252\316>\305\341\366=\372\300\200\276qW\321=\247\001\361\276\333\220\224>\001\250C>A-\037\276\004\035\224\276\363\263\356\276x\274\024\276\247_%>,\214\254\276Z\260\227\276\336\360\260\276/\362\220>\336c\245>r\t\235>\265[\325=\336y\311\276\321}\223=l\016Y\276+\366Q>\021\032/\275`\332\005\275\2059m\275Y?\303==q\030\276\021\334\016\276\246\341\223=\367\333\322<\253\t\210\276VV\274>\226\220\276\276\3447t\2769\342\022>E\262\245\276\227N\344=\342\230h\276\301T\'\275,\3036\27688\244\276\013*$>\371\336\300\275\005\351\272=\nO\376=\307c\001>\007xJ>\366\216\302>A\244q>\323\311\000\276H2?\276\007\223\344\275w\2136\276\206\r\316>\336N\227>\301\330o\275\221\233\025=\033\262\256\275\234\225Z\276\354\207\243>j\253\325>}\365\253\274\337Q\232\273\223F\034>-[\253>\215\366W;ZA\317\275\'\222t>\206\301\375\276\300\220\357\276\305\325\315\275\r<\213=\236\264\335=a\224\312\275\377\241\257\276\333\307\372=\257\025\346;\302\006O\276\215\032\216=\351\331\341=A\3202\276*Bo>\2333\232\275\310\275\254>$\330\234>\013`M>.)\246\276=%\346=\275\375N>u\266\373\275\330\021\274>\324O\220>\000\177\237\276c\230\354\275a\343\347\276yz\202\276\203\274\240\2768\337\321>c$\226\276\342\025\003>w\031I>\245?\316\276\"\002\301\276\322!5>q\241U=\244\203\007>\362\311\217\2754Y\244>BJ\216>U\004\016\276\0219m>d\245\220>^?\235\276mF\037<k\206\226\275\341\302\232=&\327K>\335\'\260\276\272\315\306:\375\211V\276[\014\260\276\355\264\224=\233*X>k(N=\275%\030\276{\263\276<\031\336\211\274\001\341d\275\347\352\245\275D3U\276\377\032}>C\206D>\206\255#>\014\265\263>zY\016>zF&\276\321@\230>\037\200\247\276\n\354O\276\377\017\364\275?\023\035>F\250\317>\274\210.>AL\355\276\003\2713>\353\035f\273\277\300p\276\300\026\021\276=;\255=\023s3>\021<\262=S9s>[\222\217>\261`\253\275\362\034\323=\035\277\232<\211\205;\275\244\320s\276\365\213\240\276\nf\250>\340}(>\237qk\276\236\342\240\2767\0050>G\3145\276e\357[\275\007^0=\247\266!\276\367w\271>N\215\003\276=\312b\275\201\337\322=\013\331!\275\252zp\273\342\037\300>}k{\276\370u\204>0\256\337>\313\035\020>\334&\003\276i\325\307=\r\177P=\253\320g\276\375\354\006\276\034\220\235=\355\303@=\254\014\305\276\031\340\010\276\036\256\240>\271\n$\2769\304\260\2753jA>\355\222\201=\022co\276\235\n[\275\030\026\352\276\213xV\276\216\321\210=\201\350%\276^H\003>_\363:>\363\rN\276G\364\024\276h\352\212>\032\357\233>_<R>n\371\337\276!E\234\275C\376\206\273\2150\247\275\275\034\320\276\256c\212\276\016\261\240\276\017E\300=\233\274\273\275\242+\245\276a\3754=?W\300==\375!\275V\340\335>V\344\346\276\260}a\276\302\334\220>\315&x\275\025\203|\274\311tO\276\255$\005\276\225\177P=\353hv>sS@>\312V3\274\212\026\245\276\265\023\313\275\215\332\214=\223d\363\274\343q\202\276e\027\235>S\333n>\275\2546=\344:\002\276\007T8>\r\027\214\275\210s\202\276ay\226\272]y\225\276\007\347\357=\247\223\241=F\310\267\276[\253F>=\276`=p\351\025\276\ri,\273\322\3104\276\265\324\377={\033\203<\214\241p\276\022G\203>e\303\212\276\034J\241\276a>\216\276\233\217\277\274H\262I>\243\343\226>\232:K\276c\354\340=N\310\346\276\005S\005>\317(\347=Q\007\016\274\257-6\276\372%\251>\017>i>g\030:>s\265\004\276\215\202\342\275\365\014\372\275\335dh\275`\203v\276Mka\276\374w\223>wX\371\275\335u\304<\267\002\210\276a,\227\276\37105>\371\227x\275\204\360\305>\003V@>\274\336!>\227\355\243\276\263zJ>\032\241\016\276FO\300>fno>Z\314\303>\223\016\237\275}v\231\274\031\241\341\273\014;r\274\235\356\274\274;\267\313\275\250\262\022\276\316v\256\276\014Y\002\276\356f\357>\371\355\346=m\205\021\276cY/>\034\264\245\275\231\314(>\316\245X>!\246\344\276\255Y\372\275\204#\266\272\221\371\230\276\017\025\202\276!\277\013<\305\202M\276\361\346\032\275\323\314\365\275%\033Z=\364\2461>\032\237\242\276\r\355O<\241PR\276\235\375\264\275Gbf>\245:j\275\253\246\221\275\215\360\001<\025=\343=_sg>\252\323\023>y\032\250<\313\021\270\275\335\223\266\276\313t\222=\023 \250\275%\242\200\276\343\006\035;.s(>a\0371\276\266\334\264>bB\277\276\177\350\354\276\364]\204\276FL\276\275\255X\222=m(\177\275\233fr>(\033\250>\231\013\274\275L\244\245\276@W\235>\024j\214\275\260:\235\276\360@\371\276!\226\223\275\n-\006\276\321\224\361\276~\211\266\275\240\026a>\215\300\215<\351\0165\276\275\016\367<X\367\275>M.w\276\250\2153\276\205\331b\275Y\205\301\274e\244\302\276\305\204\226\275\336 \234>\331\212\232\275\202Z\260>\261*\310=\323K\242\276\275\321\230\275A2:\276C9\025\276>\300\360\276\235\351i\275\007!\026>(\022\000\277\236S\213\276tK\343>\327v(>p\347\022>\364+\235>\374\202\305>\177K\215\274(\347C>H\344T\274iV\256\276\r\351\206\2762O,\276J\037\252\274\222\r\260>\221\304\223\276M\360Z\274\276v=\276$\367\000\276\245\252\305\273M\'6\276\363E\264\276O&\376\276Y\305\007>;\345\327=^Xa\276\363\375\220>\2208\223>[\243\253>x\340\236\276\033\016h>\203\005\221\276\030q\245\276\301\372\275=\354t\203>\357>\006>\225\322\026\275\n\364\237>\264\276\254>.S\"\276h\273b\276\005eH=k\360b\276\305\036\362=7\231|>\365\302]\275\317T\023>\351c\341\275O\257\203\276\205n\251\276\315\262\216;\r\246\022\275\313\200y>FAV\276\266\317\221>\261x\227\276\'R\035>\035l\020>\ra\024\273\277\256\255\276\n\255V\276\rW\243\276[zY>\367\273\021>;m\255\276v\367\203>\302\263\206>\355\360\'\274\006Q\224>\273Ub>\364\006\230>\235:\024\276\r\203\022\273]g\026\275iB\021>\002X\256>5\326G=\210\323\213=>XR>\0333\216>\247\277T>\335.1\276\200%\017>\207\t{=\312o\264\276\242.x>\325\214\244\276\374\365\236>}r\024\275\370H?<\002\004\233\276[\025\204>w%~\276+\t\303<\002}q\276\t\277\211\276\375\036=>\311\252K>\211\365\347=\341\376\260\276NL\253>\311\032\353\275;\206\\\276\032\304&\276\212W\331\275o4\357\276\234\236\275\276\005\270\020>\315h\355=h\256\301>^\200U\276\363\335\263=/\2162\276\233%\033>\353|\'\276o\031#\276\301\324\205\276\304H\023>\325\363\316=\003\237]>c\367.>\265Y\232\276\005\261\'>\315\224c<\346L\203>"
      }
    }
  }
}
node {
  name: "decoder/dense_15/BiasAdd/ReadVariableOp/resource"
  op: "Const"
  attr {
    key: "dtype"
    value {
      type: DT_FLOAT
    }
  }
  attr {
    key: "value"
    value {
      tensor {
        dtype: DT_FLOAT
        tensor_shape {
          dim {
            size: 24
          }
        }
        tensor_content: "C\242\201=-\313*={@-\275\375!\302\274\316\323\370\2755\277J\275M\366\323\275\000\000\000\000m\035R=\000\000\000\000\253\2414=\000\000\000\000\037\203\374\275\000\000\000\000.S\205=\000\000\000\000}\244\244\274\034J\031\276\037c\014\276\237\336\255\275\262(\272\275i\323\370=\000\000\000\000!\351\363="
      }
    }
  }
}
node {
  name: "decoder/dense_16/MatMul/ReadVariableOp/resource"
  op: "Const"
  attr {
    key: "dtype"
    value {
      type: DT_FLOAT
    }
  }
  attr {
    key: "value"
    value {
      tensor {
        dtype: DT_FLOAT
        tensor_shape {
          dim {
            size: 24
          }
          dim {
            size: 64
          }
        }
        tensor_content: "Q\260\320=\307\307<=3\r\275\274\246!D\276\324\320[\276\365\214!\275\273Ee\276u\014\341=6\036e\276\234\021\004\276}\234\230<Y5\251\274o[\352=\353\324`\276Y\022\306\275\205\204n\275E_\307\275\222\2128\276\375\204\376=\364\237c>m%Y>F\005\214\275f}&=\027\022+\276\2706\006\276\nn\320\272\024\200\021\276\234\277\226=\253\305\251\273\312\203N>I\315,\276\245yt=/\251\250\275\2203\212>\235\347\236>\241)\264\275q\177Y\275\305\002\203>)\"^=\330\371\024\276\275>p\275I\354\204=\261\263\234=n\211X\275\2111\216\2757i1>\241V\354=C:\300\276\363LD>$\226b\276\311\324o\274m\307\202\276\236\200\272\276\272\265\2169}3a\276\220\221+\2766\025f\276\302\027\n>\366\375\371\275\t\032\'\276\335\270T>3\017\256=\342\002\216>\031\365\240=I\355\211\276>\350\\\276\305Z\320\274_\320\206\276\005\311\320\2754\"\225>\\r:>\227Xq\276\315\221\177=D\001\212\275=\004\366<;(\264\275B\317\004>\365\371\224=%C\020>\321\002\255\276\365\023\321\275\003\253\370<\005([\275\033,U\276\017\342\370\2759hS=\263\010\"\275I\332%>C.\277\276\245\340S=%u\252\275\213\305\241=\360Gs>n \210>\256\001e>\275\333\224\274\335\247\322\274%\317\255=\203@r=\031!\214=Q\037\013>\264\355p>1V\316\275\222\346\217\276Q\274\273=-\2578\276\273N+\276\021\351%\276\rN!9\3136Y>\n\341.=Q\022\000=\213O\t\276\266R\322\275\265T-\275\337p\322\275\r7\027=\373\225\215\276\277\333\226=\277\311\260<yu\256\275\322\1777>b\236\321\270U\216\016>\312\"~\276\253M\305\2749%\323\275g\210\025\276\305\271\002\275\221r\273\276\264\016n\276\005c\373<\275\026\371\274?\013\312=#\305\205>}UF\276\265\267\014\275G7\224\275A\256\017\275\313\266\371<\\\035\200\276\030\320v\276\024\376\377\2757\256&\276\031\3159>WL\260=\225\207\021\275\202\324\241\275\3374~>\254Q\255\276\211\274\017\275\215)\360\273U`\267\274\370\250v\276<[M\276\357Q\244\275\242\312c<j\235M>\214\313]>\327\250\\\276\023.\365\2751\272x=\r\005(>\325o\034>e\346\237=#G\300>i~G\276\\\027\250\276\211\232\365=a\303\037=\275\362l>W\264>>\255\300\346=\334c\224\275\366\226\231>\314\323\310\276\021a`\275Z\2142\276\334?\221\276\325\236\352=\356\243\210\276\264\362\316\276\243/\270>\033\347\205>M\004\344\273m\303\252==\221J=\235 \254=\204\254}\276{s\276\275\032:c\276\257y\030>\300\256J\275\241\335\031\276\335\233)\275\007\312\316=?r5\276\274\372I\276\243\330\221>\213\256H\276\373\263t>\205o+=\275\203,=\347C\323=-\021\355\275\266\373\032\276-a\205\276\021\246\\\276\'\315,>#3\260\276q\262o\275p\2774\276\241\356\347= *\'\276D\267^>\237J\000\276\\\354\271\275\207/[\275\374Q\233\276\312\276)>\365\356\023\276o\204\353\275kO\302\275\305\323L\276\315+\220<\3326\234>\270\030Q>5\256Z\275\274\354\017\276%\304\332\275\371!\377\275\275\004\205\276M\327\230=Fg8\276U\240H>\331d\261>\306Y\005\276\324\006\207=\021$\234\275{v\265\274\205V\"=\247\371e>\247\305\031>ms\244\274c\'2\276\010t\267\276\177\270\242>\035c\321\275/\033\317\275\247\235\214<\217\271\215<\325\252\251=\364\360\260>\317l\212>w.\243\276\324\205\210\275\211y\310=MK\351;\331&\021=\340\234\357=G\301\237\275a\203\207\275\342\367\207\276\247\3215>L\"\205>\004\207\325=\375\262\226\275\333p?\275\244T\254=\r\026\220:\234ov\276\016\304\202>//>>\026\245\205\275\r\301\262\274\341_\263\273\025b\023>\232\243\315>c\311z\276\226\337!\276)<\217\275\215\024\203=\031\255\245=\3315\200>\205&\252>\275\225\306=\352\340\205=\217\202y>!\314!\275\232]R>3\r\022>\217nH>M\333;<\341\360k\275\036\0171\272\002\317\276\275w`\356\275\354\313\204>\037\304\033>5p\221\275=5_>\022\356x>7\257\277\275\016\017\246\276\r\006\342=\222\205\232=\031fX\276yr\202\276\205j|=\023\205\347\275-C\000\275Q\207?>\277O\210\275\342\311\227\276\242\217\\>\025\256&=\232)\316\272\375\360\006\276\345\r\223=\321$O\2766\242\234\276\217\237(\276w \366=cpK\276\360]\t\276W\307\201\275\263*h>)\257\243=FYF\276\353\220\244\271\371\020\302\275\326\265^>\207\240\321\274\225S\027=u\253:\275\246\005\265\276\201\353\036\2767\244>\275\205r\311\274\236\263\221>\225\266@=\314\241^\276\2340\235\275\035\326X=PE\343\273\317\2103\275YD\215=\204>\023\276\312\016\316>5\323\274\275\255e\005\275\301\311b\275\005\030F\275\221\307\217\275\t<h>\351d\351=\311\221\024\275^N\002>\343\352\274=k\211\356=\277\'q\276ib\256\275L\017N\2762\307`>\231\031Z>f\216\n\276\361Tg<\257\305v\276\321;_>\354\265{>\350w\t\276\357n^>\326\023\016\276\217a\242<\010\206v>9X\037\276=\005N=\236\236\225\275\245\206\373\274\372R/\276s\373\267\275-v\235=\313e<=t\236m\276\217Q\253=\3458w\276e[\357\275\210V\254\276\253\254m>\331n\334=K\201\261=\255,\025<\235\033@=\325\'\321\276\271\037\333=e\036\265=\302\016\"\273\255N\032=)3\223=\215\343\213=\315\254\320\273)\006,\275k\223\260\275\255ir<\rg*<\353Q\214\276\367\343`\275\345A\267\274\033\226\362\275\326\335\213\276\335#Q\276K\006\324;Z\037\035\276,\363F=\031\306\213>B\242y\276\361\322\247\275\352\245\010>l\224\242:]\276\367\275\215\233X=\207\334\374;\201\241_=+7\336\275\305\271U\275_J?\276\323jE>\337\315\200\275\313\"&\276;}\036=\263O\235>XW\372\273\033\205\262\275\264\370\007\276\336\347?>\355\244*>1]C:\255T#=\267j\263>f\363]>\251\343\201\275I*\214\275\232\032A\276)\204\205\276\372\200\024>\005`1=UH\010<>\207\221\276\02333>\326\377P\276\233\276\004\276\271n\305\2751\004E\276-f<=\357\262\r>s\2301>\245U\276\274\r\177\223\273<Ts\276\013\227\365\275mO\023>\337\377\261\275\334i}\276\215\303\200;\251u\334\275\347\357M>\021)V\276m2n<\215nJ\273\243\313\t>\371\252e>\347\200->M#x=\213{\031\276\036\225a\276\215W\347\273\223*\177>I\005\323=u\325s=\355\021\336\275E\333\303=\321\271\216=\377\362x>%\321\267\275\031\255\026>\374\225\204>\224\266w\276\313\271\322\275Mbe<\265aP\275/;J>\357\326B\276_\340)>\215\310[=\r\310\225\274U\274\327\275\035\2568>\317_\020>\035\265\226<\265\036\233=\375\nT=+\264\364\275\'\177s\276\225\'\002\275\203R\027>=q`==@:\2749\013\001>=\322\306<Mi+<\311\375\203=\305\253\375=\031\020\260\274j\246\311\274\013w#\275\217\310\t\276\215\2573\273\312/\030\275\246\273\260>\233;\016\276\013\317\203\275\357\214\316\276U\373\210\275\364\024\261\275k+\263\2760\307g\276\255O\324\274r\206\315\276u\313W\276\377\303\240=i\221\256\275=\224\243=;\375b\276\262\234L\276\234\325Q>\371\336\223=\347\t\037\275\330\306\252\273\272PU\276P\'\240>j\231\267\276\007\321e=\223s\366=\033\243\220\275\3217x\275#\210\177\275`\371\203>M\020\367\274e8j=\336)\244>A\221,\276\335\225\013=\324\236\202\2769n\271\276\377\307\224\275\001\337\222>\215\240\024>\226[\250>\267\323\260>&&\241\276\035yo\276b\235S>g\371\200\276\345Wp\276\354\323\301\276\351\022\314=\327\232\331=\374\203\020<\005\014\031\275\303\222\321\276o7\245\276}\203\032\276Th?>\323\3541\275\232\336\205\276G\025v\275\213\333~>\222\214\205>\001b\315=\243\315i>i\331l>\363\212k>\225$\216\275\2516:>\221\215\332\275\261\263\255=\253:W\276;\230|>\2111U\275\273\350\034>m\337\n\274\323>`>#\340_\276\'D8>\325VT=\300\2318\276\225\243j>1\026\206=\215\270\274<\371m\204=\371\314\221=\2413\273=\007X\350\275\317k@>\000\341\202\276-~\004<mW\304\275N\344{\276?\300\021>\265\305\035=\315~\200\274\215#\232;\227C\\>\355\331\007<y\361\241\275\257\353`>\213I-\276\355\001\334<\263\345\376\275\323\352\352\275\355\275\314<\271>\314\275K\323\007>y\347\032>\r\234\257\273=\243\200\274Ec\005=\277\363+>q\204\024>eD\315\274\230<U\276\337oE\276}o\371=\221\356\276=\237c\000\2761\313\023\275M\213\257=}\000\002=\r\332\250:3N\024>/\275\274\276\027g\317=7>\333=y\265\016\275;\341\304\275\321\3541\2756\223\273\275!\307L\275-KL\276@\226\350\275\373\352\336\275a\304\304<\347n\014\276E\246\000\276)\260\200\276\343T\223\276\013\307\010\276K\347\222=\377#\371\275s\234u\276\267\027\331\275\317z\021\276\353\276\200\275K\216x\276E0y\275\030\306\361\275%\223n=\375j >\360\025\355=9\257\260>\314\006\241>=\237q\275\375\253M\275\314\300J>\352{\215>\255\214,\276\036[\033\276\314\'\222>U\210.\276\3110Q\275\365\337\233\274\366\022\263\275=\331z\275\366^ >\355V\026<\203\310^=\033&\032>\003J\023\276\200$\177\276\212\331_>\226\266R>Q\373\016\276\363\201\257=\340f\246\275\352\244/>0y\246>\301\036%\276\212\303\206\275\0232\035\276\353B\333\275Ac\002=K\242\266>\314QW\276\275\250v\276\351 \275=\027\243)\276%\332\367\274\275\264\254\275\371t\256=\260\375E\276-\251\222\2743\r\342\275\231Q$>y\3715>;,\177>_\333Y>\001a >+\341\035\276\373\346\016\276M\254b\276\235\256\333<[\367d>M\265\027<\235\361{=\035\266\244=\237\003\370\275\341\374\351=\305\303K\276\373y)>I\305 >\321=\006\275\323\341Z>\201\002Z\276\312\355d\276\321m0\276\275aU>\'\273t>\251\241\272=\t\272C\275\343\333\371\275iX\004\276\341&R>\271;\026\275_\353N\276\311~\362\275M\254\374<\275\370l=\317\374x>\r\351\364<g(p>\321\3463>1\213\264=\375\346\340=Y\312$>\375\357<>\351\020\303=M\232\034>\333\316W>q\367e\276\001d\034\276\221\016\337=O\274=\276\355e\001<\315|B\274=\177\'=\245\306)\275\315~\026>\230\261:\276)\206\244\276\220\370\252\276\234y\206\276O0\025\275\371\363)\276\345\341\304\274\310\263\\>\355\0054\2749\371\006>P\263i\276\264\242=\276\020\345\362\275\244\017\356\273k\0360>|/\203>\242\005\t\276\305\244D>=*\350\275}\277y\276\326\226\010\276\333\334\031>\205\007\324<\2739\375\274\265\236\\=\377\331\330\275\021\224\223\276\221\241\234\274\316\216\214=\273\377*\275_\343\265>\255\035\205=.\013\t\276eq\254\274}\"\014=\306\272\316>\200(\024\276I;\265\275\226\365\206>3\303\001\276\350\037\312\276\034\325L\276\227m\"\276\264\003S\276\362\332\023>\325\026\244\275\251\237?\276\035t\224\275\322\030S\276mO\t>Zc\333\275\252Q\267\275}G+>\022\202\340\275\305\210\224=\210\264>>\t{4=\306Hi\276\275]\360\274\230\"\275\276U+9=\232\026\221\274\030u\254\275i\262\223\276\203\332\204<7\322\311\275\034~o\276\275Ez\274E\334\356=W\'\312\275\201?\314=\371u{\2753x\037>c2;>!n\'\276\025\014R>_8\251\2757\264E>\345T\370\275/\315C>9\257\321\275\365\377\017>\r\036\324\271\351;\356=7\021.\276\350\226t\276}\267\216=]\276\236\274\313!I>\301\n@\275\355\377\262=\035k9>M\375.\276c\271d>\305\252\242=\244\362,\276\375\313\273=s\3231\276}\217h=\323\241\026>\302\377f\276\373\222{><\374j\276\005\233\305\274\211\035L\275\216ZI\276\027\317u\276\255B?\275\'S\345\275y\372c\275\365\245_>\225R\337\275\022\310\'\276\301St>\215\316\264<\351\217\023\276\215\002\322;\313ZF>- +\274#\235{\276\026\315j\276\231n\331\275\305\241\004\276\211\330\014\275\241b\257=E\215\224\274\375\024\316=\205p\216\274\375?\322=\305\334\342=\244\221\335=\262\035\307\275A\342\354<\025\362p>\030\025\225\276\002~\333\275i\276]\275K\337P>\024\220\350\275\326\236l\276\225\363\023=\021\231\007=\213\342\016\2767\205\032>:\036\033\276%\275\255\2741y\007>-G\355=\264\271\273\272\020\206?\276\313\206\034\275\362\253)\275:-\202>5\230i\275\233oN\275!\220Y\2763\035\330\275%\367\274\274\305\"\"\276\022\237s>\245\\\007\275}\342g\275?\357\220\2753\227k\276\264\311\202\276%\251\343=\037\266\353\275Rp\345\275Q\265\367=\rN\275\271\001\t\315\276\315.\346\273\261\026\275>\223\321K\276\037W\325=+\256\334\275O\207\246>]\2777\275v;\303=\366(\206=\335\353\235=\366\244\025\276\372\232[\276?X)>\317_\250\275\255uB<\241+o\276Ia\224\275A\320\253\276\231\262\303>y\247\216\275\307\335F\276-\251$\276k\252R\276\315\311L>\r32\276\377\"x>\243\366`>\203\006*\276\241\022\216\2759WT\276A\300#\276\243\313|>\275\356!=}(\264\275\r\202\034\274Wua\276\005U\344\275#\3633>\365\355<=SBp>5\300J=\025 \r>\266\267\204>\2239\242\275S,]>\245@\301=\375{\"=v\\^\276\311\200\035\276\245\004\333\274\345\233\030>\2653L\276\215I0\273\231H-\276\357\352\022\276\273R\324\275?hC\276eiD\276\251Py\276\26799>\341\320\027\276\201w\241=\027\177s\276\261\2319>/k=>t\225p\276rF\n\276\305Sf\275S0\021>u\225Y>\265\220Y>\311)\204\275E?(> \201\201>\265\333+>\3115\032\276\355\243\004=;\031\327\275O>W>)\232\035>tyz\276U\252\233=m\325\034\276\271z\001\276m\226\n=\024\231K\276?<^\276\332\302\032\275\r\203\017\274\234\346\213\273\375:\230\275Y\345\212=\263Yb>Y\3159>u\350\261\274\234\006\265\2750\265H\2767K\204=\032\316\360\274Q\242O>M\030\t\274\017\232\234=%5\203=\255\230\266\276-\200*\276\324#1\276\233\264$\276=]|=\342C\276>\201\2264\276\036\304\202\276\354\377\306\276\315\222\002\276\255\204\005\276\327f`\276\211\357\343\271\311\025\005\274a\212\356=\375\364\016=\231\354x\276\331\272\346\275-\030\357<\231\235,>\361]y\275\033o\302\276\222\036f\276\271\020\332\275%\351\000\276\rM\034<\025\374\r\276\365Pd>\300J2>\325Q\256\275o\035\350\273K=`\276\224\3635>\336\234\023>#S)\276\3519g\2753\030\240\276;\276\245>\337\203\241>\3657Q>\373\335\223\276\243\345\221<\342\356\226\275k*\231>\177[\206\275\006I\246\276U\327\243\275\255\245[>\223+\002>\342g+\276\352|\313\276]\227\232<\362\311E\274\0334\312\275\275+H=\341tT\275\347h\312=\211\361e\276\034h8\276(\365\230\276\005\024\367=\0230$\276K~\221\276\251\244&>)\241B=\271\201\237=O\216\220\275\231\355\346\275\374fc\273=\322\033==W9=&7\261\276\261\013\336=\356S\217\276o\317\215>S\214\231=\025\216\203\275\207v\t\272\375B\\>\211\035\t>\321N%=\310\316E>\243\376|\276R\332=\2763\362\024>\362do\276i\367\007\276L\177>\276\374\313\202\275\020U\202>\215]$>\311\302\216=a+\210>\"\272)>\316\2613\276\351Hf\276\355?\007\276\347^\265\275\275\007\241=\221t\234\276\r\036/\275\035\305\226\275\320\260&>\315\004\354<u\345E=\371\340\303=\265\207\222=\323d\246\276\313\326\301=\325\351Y=k\223}>\315\314\310=r\202\331\275\365i\263\276\351\342\236=\273\270\026>Y\357\303\276\0255\255<\005\031f=\245. =SKR>\365\024[>\212\310\201\276\272M\303\276\2453\363\275\225\375\325\274c\276\201\2755\t\273\274\314/4\276\321\376\374=\205:\231\274A\305\204=Q\273\311=\360\370s>\355\231><\343U~\275\315CT\274\362\212\202\276\006\000\216>\311\202?<\'\372\263\274\232\366\241>m\2215<1S\014>\025p\344\274\252\026\\>\316\201\001\276\307a\037\2761y\362<\253\262\272\276U\307w=\010\231\023\276\266\nx\275\217\264\024>\344U\304\275\233\206x\276\323\312\016>\211\3241>)\036e\276\376\036W\276\353\220\007\276\207?\272\275\270\222#\276\365O\326=~\345\020\275\232\365\207=\000\372\223>\r&\"<\220X\266\276C\247\023\276A\355\331=\342b}\276g\276\002\272\336\334f\2769\370[>\036Y\316\276\262\265Y\276\242\035&\276\3756f=\225\033\023\276c\'\232=@\325\237\276M\216\212;\200\3242\276Y\006\234\276\235.;=\307!\362=\311\364\260=-xm=1\244v\275\361o\225<\211fv\276\035\233\216=U\325\007>\037\311\254=q5\276=\017\353\207=\\x\236>\2677\231\275G\213\244\276\341u\232\276\305;.\276\211z\023\274\357\370M\276\\c}>S\335>>=\252\211\274\201\364w\275}\323\306\275\233\347\255\275z\371\001\276\ra\261<v2\267;\325\257\301\276\207\253\260\275\355[{\275\225xb\276\2156\367\275\324\002q=We\216\275\376\346\214>\231Q\374\275\361o\227=[\245u>\363\252\">\344\277F>EW\375\275\025\010i=2\255\037\276q=\204<Or8\275\r]\375;M\275\271=\034i\311\27657\322\276\027\247\272>b\273\317>\201\310\013=\330\244\002\276\020\342\356\275\321\010?\276\367\223\227=\275\220-\276\305\270|\2759\301\373\275\341\326\'<=\354X\275\0356U\274\347\364\205\273\017\031\371\275\372\2055>s\2269>O]\032>\243\244\035>Xp\203\276iBc\276\376\252\013>\0257\351\275\266\tR\274\t\266-\276\017q\226=\367\000\364\275\375\257\276<\361I\234=\331\201\275\275\251\033p>\370U\233>\340?\007>\275\310\004=5\255=>!uF>\205h\247\274N\001U\275\3011K\276\267\025A>\345Q\237\274\245\271\204>m\210\256\275\\\276f\276w\222\032\276\255W)\276=\301d\274\261\0103\276y<Z>-\204\232>u\326*\276]\240\277\275\305\007>\276\232c:>\226\005\304\276\265\213\316\275\247\341\314\276\331\346\004=\005\315\232\275\347X\307\275\215\006\335\273U\024!=\351\217\t=\366\277\201\276\365:{\276\334\t\261;C\263\034\275\373\376\323\275\005O\314\276c\355\320\275k\257Y\276a\023/>\365Ef>\033\005`\276\261\303\210=2\027\204\276I\216r\275\371\361\220=`\016\200\276\364\356\272=\312\317\267\2757\215@>\333\246\235\275\221%\033=I\002`\275\222\326\220\2751b{\275\277x\260\276\002b\205>\030#\204\276\224\366O=\r\2419=\325\325\261\276\234\262\330\273M}\312=\t\341\000>\362\345\n>L\352\227>#\324\356=\024\216\201\276\233;\203\276\360!\010>\200\234(>\221b\360\275\276\363-\2764\247\031>\261\210\'=\236\321\216\275\217\223\277\275i\222i=-j\324<\204\235R>\340\255!\276\204\010\231>\211\034\017>GD\240\276\r\007\226\272,\357L><A\026=\r\304\205\272\035\256J\272\025u\321\276\330\354C>\354Z+>{\216V\276vH0\276\263l\311\276\351Lb\276\023\230[\275\323\277!\276\216x\270\276\223;\216\271\275\265\017\276\265+\030=olL\276\365\232\304=Q\351=\276Y\r2>\001\305\227=\341[.>\026m\205>\025\215<=\035_S=+\270\325\275\207\224\t>M\260\241;\021\240S>E\023\'=\026|u\276!\213\341\275Ul7==\ng\276\255K\002\275\321\374\264=\255\024\217\275\315\220\034=\342\222\202>?b\r\276\016fo\276\355KE\274U\234R\276\365\315\025>Ub\376=\215\263\360=\205I&\276\315\010\247=}\014\344=\343\307\r\276w\201(>\010\240\013\276\231\262\t\275\237\3014\276e\036\n\276\355\215I\275\303\365<\276}\251\010>\177\215\357\275\r\217I==w\377\275k\262\\>\331b\205\276\023\037\035>\261\242 >gL\375\275\360\0041\276\333\201[\276\255\rJ=\005\314\020>\254\277\204\276/XN\276\215\377\310=\275\266>>E\005\261=\235\3205\275\035\254\364<\2136v>6 \243\275\300\227\363\275\331\234~\276\271\2118\276\023!\014\276\2663\313\276\355\355\372\275\215\333\"=#\256\357\275\203\231\330<)~\n>\376\302\217=\021$\316=u\202I\276\215G)\274?\260c\275\201>\313=|\362\220\276\016.x\276;N\233\276\371\316B\276\265b \275\275\244X\274\225\364h\2765\326y\276\327\315\213\2767\021\203\275y\267.>\317`$=\221\3475\275\272\255\030=W\327]\276\333.\017\276;\373\230>r\341\317=\211\3621\276\017\311\200\276\302\\?>%\200(=y\210\227\276ig\241\275y\"\027<c\220\204\276\355\335;\275\333\303\341\275P\020\356\272+\353\232>\'\217j\276=Y\027>\251b\232>pk\250<+\256\025\276\365\376\177\276H\021\200\276l\210\266>}Q\350\273\225\364\304=\023\362\202\275l\245\233\275L\365\214\276\242\241\016=\310\362\266>5\367~<\0173L>"
      }
    }
  }
}
node {
  name: "decoder/dense_16/BiasAdd/ReadVariableOp/resource"
  op: "Const"
  attr {
    key: "dtype"
    value {
      type: DT_FLOAT
    }
  }
  attr {
    key: "value"
    value {
      tensor {
        dtype: DT_FLOAT
        tensor_shape {
          dim {
            size: 64
          }
        }
        tensor_content: "\034J\031\276\203\332\350\275\023\025\352\275\034J\031\276\000\000\000\000\034J\031\276\"\203\036=\000\000\000\000\000\000\000\000\034J\031\276\000\000\000\000\020\377\356=\034J\031\276\000\000\000\000\000\000\000\000\034J\031\276\000\000\000\000\034J\031\276\000\000\000\000\034J\031\276\000\000\000\000\034J\031\276\026\r\034=\000\000\000\000\034J\031\276`9\022\276O\t\327\275x\305\017\275\372\341%\275\223z\341=w\235\274=\000\000\000\000\000\000\000\000\231\254\307=U\205t=\000\000\000\000\000\000\000\000\237\336\255=\034J\031\276\204\263\010\276\000\000\000\000\034J\031\276\000\000\000\000E>\006>\000\000\000\000\356\207\022>S(\272=\022\356\t\276\000\000\000\000\375\r\372=Ib\316\273\000\000\000\000\034J\031\276\034J\031\276\034J\031>\023\326\222=\000\000\000\000\034J\031\276e>\006\276\034J\031\276\205\263\010>\034J\031>\034J\031\276\300\205\311\274"
      }
    }
  }
}
node {
  name: "decoder/dense_17/MatMul/ReadVariableOp/resource"
  op: "Const"
  attr {
    key: "dtype"
    value {
      type: DT_FLOAT
    }
  }
  attr {
    key: "value"
    value {
      tensor {
        dtype: DT_FLOAT
        tensor_shape {
          dim {
            size: 64
          }
          dim {
            size: 128
          }
        }
        tensor_content: "\220\010\240=V\313(\276A\n%>\315\270D\275\3059\240<)\236G=\004\037a\274\233Uw>\265m\017\276\320k\202\276\021O\177\275\253>\321=\342x\035\276]1\211\276\220\224\332\275\365\365\220\276\245\234\264=\225\305{>Yo\227\274;\317o\276\013\027\354=\240\232;>\317\253\337\275\003\374\343\275m#?=\227<\213\276\376Y\225\276\371\245\352=K\250\213\276\315\323\201<cB\277\275\255$Q<\221\242)=\005/\362\274@\375*>\242\316+>\257\373\227=\237h&\275\271\310\007\276\316\017\030>\r\361;\273,\236:\276H\271\037>a\177)\275\017!\271=\255cu=\3479\276<\323\020\311\275Q\372b\275\253a\222\275\000I\361\275/\242\355=B\320\237>\355vv<\370\213\010>\202\3273>\255%\227\274=_\226\274\'\316(=)\321\220>\030`$>&u5\274\025\304\245\276\257\336\267=^P\037>\003\343\003>\302[\364\275\320\\\225\273#7\267=\350\242\340\275\305\313\\\275\007\200F=\365\334n=\3642\020\274\357A(\276c\205x>}\375\362<\224\243 \276\202\335\301=d\362U>\215T\347\274Ca%\276\316*\030>\343w\033\276\322\251\t\2766\271\230\275V\217\022>\004\\\222\275,\332\004>\261\177P\275~r\200\275\221\362\000=1\r\022\276;\253\237=\305B/\276\325}\306<\257\333f>57\256\274\215@8<\202\243\200\276\327\344\034\276(\377\n\276\035\032p\274=\340l=\3750Q=Q$\\=\014\221\325\275*G\344\275\370#$>\276\317\000>M\216\002;\tM\201\275UW\350\274\r1\"\276]\002\357\275V5\022>\'\322&\2767\220\330=\255\206\016<cx\226=\235Os\274%\352\201\275;)\232=\353\257\311=\335\216\335\275\024\372\013\276a+s\275\204\246\032>9N+<\023M\332=\231zt\275\357\031\240\276\205\262\352\274U\253\220<\311P\213\276\366\243\273\275Oc\266=\276\010(>n\240\310\275*\026(\276\232K]\276\207\246\204\274:W\203>\275C\212\275\'\370\204;\254\031\223\275\3044\245:\212\034k>\025v\006<\311t\321\275\214\003v\276g\376\003\276/\357\374\275\035&\310\274\321\204\341\275\215\222!=\204\227\021\274\232\232R\274\r\352Q;.\224\027\276\035\343\260\275p\025\236\275\025Y\341\275\332\024\n>\215\177\330\273\n\310\333\272\253;`\276g\036H\276\354~,\276\204rh>$\035E\276\251\320\320<\2577\335=t\212\255\275M\004[=\256&\205>(\306\031>\r\372M>\355Z\254\273\263\203\252=\312V[<\363\363\316\275\301)\t=\202\263\204\276y\303g=\267n\033\276\332\262e\272,\331\027>\037\377\203<\205\035\035\274\357\332\222\276\327\037:\276\304{\260\275Q\275\007=\267H\202\275\271\313S\275K\220\260<5\224\021>-\317h\274;\024\001\276Upv=\206\272\327=\r\262\246\2733 \211\273\311\242\274<\367\301\250\275n\036\237>\255\354\234\273cC\306=\331:{\275\200\3461\276\370\3174>\370c\003>u\304\303\274\375\371\203<\315\277\300\273\247E\336=\rg\334\275\233\370\323\275\351\226\256\275\345Q\005\276(\374\013>0\275\">\377\001\310=m\275\264<\021\370\237<\334;;>\245`1\275h,\020>l\277M>Eg\260\274u\337:\276~%\232>\311\316\032=%o\263\274\236\265)>\370\277\225\276\305g3\275W]\247\275#g\320=6F*>\236[\247\275\025\242\346\274\312\347\020\276\243h,\276\265A\035\276\271Q\225=\316R\225\275\273\021\345=\305\\\335\274\341\022z=OB\374\275\342U#\276g-\203=\003\014\261=\235\224\215<\330\001\225>\350\353\301\275s\240d=\342\225\006\276\342\252A\276\263v-\276aE\211\276\316\266c<dxS\2764\366N>\r!)\274\355\357\262\2753S\265=)\016\374=\262\261o\276\253\370\031\276\312\270\222=\260\233\203\275Z\177O\276\377;\033\276\304Z\230>\366\314;>=\310\177\276C\343\026\276\252\321$\276\234\347\215\276\277\217m\275M7\372<\376\203E>\t\374\014=\003\333\201\275\254\267 \276{f\271\275Y\274H\276\213\216\372\274-\274\003\275\233Wp\275\213\375\022\275\266\242\355\275\233\253\370=P\234!\276\212\036\200>\302d\235=\001\307\332<\221\"\210=].\274\275>\307\230\2752r\251=\245@2=\364\311\026\2761\206\024=\351\251?\275\'\202m>yh\020\275\342q\235>\031.m=\345\034\r\275M\324\034<\325g\347=\035\377I\276\026_\340=\323\371B\276r\204\262\275\202n\025>\271\232#\276\235\010\206<>\330\226\276\205\'j<\344\233\210\276\347bP=m:@>\204\300Z\276%6\260<v\277w\274\313p\232\274\370C\221>R\336\001\276-\214\365\273\306\200\001<\326\371\r\274s\254r\275\016\320\003>\364\370 \276\217s\240=GXV\275+\352\363=\032\014-\276\327?\243\275\217W\325=[c\017\276\357\365\024\276\037\202\233=\373Y\341=\010\345\343\275\r:\371<-\263E<\221\203\022=\323m\222>y\317\035\2750\221\224\275\275\002+=\215\330\237\276Qj*\276jO\">\326\0045>):\250\2749\036/\276?\234\237=\270^\031\276H\374\265\275\267\321#\276\266\362\265\275\367~\350=\355\245h=\211\351P\275\215\022L\275\374q/>KJ\363\275^\357\317\275\265\210\261\275+\347\000\276l\365!>\t|\201\275\214<\035>m\'\226\275\311H%\275P\372\021\276\300\353\010>\"\316\035\273\273\347\021\276\320\0323>_D\226;\357\371\210\276\232\257\036>\307\266\013\276U\314b=\214t\224\2762d\272\275c1\271=1\360 =L\255\216\276.]\202\276h\264 \276\376\335/\276\034\037\"\274\020\340z<\255\326<=L\342C\276\245\313\365=\003\003\002>\376\270\202\275%\362\222\276\253;\234\276\266\003\275\275\340\\\n\276\245q\305<0\021\375=\030\362\177\276md\225\276\334\312{\276\0340\020>\233\245\254\275\247BK\276\225\243V=\331\324\255\274\321\251\224>\342\337\200\276t7b9i&\233\274\005I6\275!\315a\276\351N\262\274\275(\325<\373}\032\276\314]\214\276\3707\215\275\367\245/\276|J\226\276S\375%\276\200\313\021\276\276\n\212\275@\005\340\275\003q\216>X\326\346\275\301N==\273\003$\276\002Q\020>\2436N\276/{\377=y79=z/\234\276\314q$<\337\0213\276\376.&>L\020$\276\251\022Y>3\346>\275\\\0055\276\037\324|\276u}\236\274\201\311\212\2751$\267\275v\255\213\276\241\023\025>\212\321\326\275\335\227H\274\005:\241>\311f\">\335\337\225\274Q\037V=\216\312)\276\304\231)\276\305\214\214<\355M\204=E4G=\306\000\033\276\314\320\031>\260\244\020>\006\317*>\215\250\377\274\224\356\223\275\005#\365<.\267\030>\035\331\321\274x \020\2767\336@>\241s\236\274;\305\242\276iTB\275\343\033\363\273\035\366!\274uF\003>\366-->5\306\222\276s\203\333\275h.\014\276\352\330\037\276\270=?>\t\217\000\275\0143s\274,\332(>)\350\314\275m\266\305\274\273\334\331\275QI0\275e \001\275j\204\031\276\201\304\005\2760\201\324\275\367\"\350=S\212\257=P\301*\276\343[\236\275\245\263\247\274\266\267 \276\024 #>_\240\320=\323a\342=\243\236\206=\223>\234\275\005\352\306<>\206+>o\316\243\275\r\334\243<\221\305\202=WK\304=\331\\&\276\2565\273\275r\006\350\275j\253 >\245\305}=h\214\336\275\205\260\357\274\005<\322<5\3556=\034\000\264\275\263j\323=\331\314$\276\373p\375=\266\356\301\275\277\203\274\275\334\2064>\r~\r\267\r.\010;YKt=WV\245=\255\311\372<\017/\277=?\201\342\275\'\331\266=W\325\246=}w5\275\247.\362\275\307\235\366\275\\\010\242\275G\304\232=\r\225\203\274\317-\352=\315hp\274\251\225\031\276\242\234.\276\034\016\016>\007\254\270\275t\233\022>-,\243\273x1\021>\245x\330<\373\276\244\275\373\210\024\276m\213\347<\003I\356=\316\332\004\276\225\240\232\275\346\333\252\275`0\">\351l\323\275\005\277K=\347\304\340=\000\214\323\275\215$j=\325CO=\371\365\005\275\252y\031>\371\251\032\276\2154g=\225[\236\274\3154\252\273\315\375t=\201\311\367\275\320\326->\343\'\037\276\275\235\372<]\t4\274\233\263o\275\216k\033\276a\223L=\211[\027\276\323f\225=\013o\254=C&\271=o%\321\275nD\250\275\223H\270=?\364\362\275\330g0>[c3\276\025\242\332\275\0064\034>d\005\023>\025-\207<\225^8=xS\004\276?S$\276\036\236\371\275\267\032\232=\005/o=\254\001)>\021*\323\275+g\232=n\372\t>z\266\025\276\235U\323<\227\307\334=m;\371;-\232Q=\304\347\340\275\204\265\022>V\222\231\275}\260\303\274mX\223;\253\342\312\275=\025\261\274\367\356\311=\377k\324=\275\005\357\274\000\350\001\276i5\212\275R;\235\275\261\375A\275j\247\314\275\002\241$\276-\263N==K\301\274\r\376\261\274\223\261\201\273\227\200\276=\214?\267=\025\254\370\274\235\271`\276\307`\327\275\371q\212\276x\'F\276b\256J\276&+\273\275\205\366\207<Y\227\025=|\037F\276@w\335\275T\206D\273\031%\374\275S6@\276\2655\355\275\214\301\232\276\227\211\204\274>\241\242>v\313Y>\227\335>\276\344\323^\2762\372\213\276\201\355\222\274\371\014I\276\0045t>\221@\371\275w\357-\276\210&O\276\334\366t\276\343\271\266=\245\376e\276\300N+=\375R$\274o\341_\276&\037d>\305\247,\275\341\252O\276\224\275p\276\376\215.\276\025\347d\276C\2542>i%s\275\302\260\236\275\302V%\273\242\264o\274\206\373\017>\035Zo\276-\221\337\275\371^\013\275lXl\276\217f\247=\206\342\204=q\340 =\0028/\276\025\374J\275\206\261>>y[\303=\373\311d=\244\375\221\275\177\344\253<\177P\347=z\316+>LDs\276Q\276)\276\351w{\274\327\202H\276\323\2274\276@\351\363\275\022+\311\275l\262\252\275\230:~\275\001\007/\275\304z\315=\324\263\017\276\"\375\001>q$,=M\010\026\275\013\307\344=\351\220\217=\255\376\336<\320\202#>\275\353 \276%\226$=\\k\031>ib\272\275_\r\260=\002\2410\276u\350%\275\"\'\347\2753o\373=\227\307\262={R\251\275ul3\275\210\260.\276\255\366D>\226\243X>7\343\371\275eM\226<i ;\276\001\207G\275\2729G>\333\001\020=1\3665<\315$\006\276\200\276}\274O\356\\\275\251#z>\271\264\214\275e\336\262\274\235\242\026\2743\235\342\275ME\307;\r\311\300<\035\260t\274M\022\377\273-\024u<\236\200.>\227t \276\3178\245=\021xa=e\265\301\275\237<&\276g\241\221\275\355\341U<QJ\005=<}T>\215\374n;\357\211\'>\300\364\007\276\222\261E\276\255\241\371\273`0^\276\031\0324\276\265\312?=\355\3076\275\267\236+\276\203\351\257=\211\226(\276\346\237\r\276V\265\344\274\326\004\234\276U\364\312<I:[\2757!\210\274\001\024\344=M*\343<\257\370\023\276\033\372\213\276\203\031\230\276\302\314\304\274\244/\231\276T\215\013>r\003\002\276\004|F\276\311\377\212\276B%8\276gUA\276H\355\247\275\006\343\021\276?ca=.\020\304\275\346?n\275\243\030\253\274{\222W\276.\'\247\274)\305\227\275\341\335\345\275\201\206d\275\271k\221>\377\355\006\276\275|\204\274\r\020Y\276\023\'\363\275\r8\313:3\234Y>\r\334\362\275Q\265q\275\210\241\031\276&\035\006>\353H\266\273T\273\364\275\352\r\323\275\373!\317=\331^\333=\037\177\037>\331\274\215\275d\310\">\005L{\276\257\344\226\275\205o\331\274]\300\207\274\341\320\353\275\034\254\204>\250\222\276\275\373\367\373;\372h\200\276pA\240\276\205Z+=\370\n\307=\304\354\251\275\364:.=\321\324\025\276UN\330\274\362*i\2759\332\346=\'\224\032\276\323\002\202\275\347\001\316=_c\243\275\344 (>x\000\226\275\205%\341<7D\263=\375\302\373\275\014N\016>wl\334=T\0003>S\271\333=.\231\342\275\235E\026<\021\257!\2751Si:Hq\t\276r\333\210>{\037\242\276v\340\206\275\253\344>=\301)T\275\254\035\025\276\036\033-\275Uv\032=\r\2078\273\3739q>\211\322}\276<\235\233>\311\250!\275}\301\235\276\313\314\370\275{\267\255=}\210a\274\027+\033\276\017\034\357=M\305V;=\370\233\275e\031\220<\237\002`\275\346\006\007>\271\375\007\276%\341\250\275\235\033!\2740\320.>}\250\232<\013C\356=|\0311\276\337\230\303=\265\266U=\263S\240=\215N\005;\310\316$>\251\352*=\035A\346\274M\263\022\273\313A,\276\2163\020\276\255\241\031\275\234\275\234\275M\035\324\274\r\017\030\273]\333c\274\r5\357\273z\302\363\2752\304\223\275\250P\010>5\343\360\274us\"=\177|)\276_2\313=5\301:=\275\"\346\275\240\030\210\275s(\010\276%\373%\276gM\237=\270B\036>\031s\223=\315\247\r<E\311\021\276x\204\007>\377d\250=(q\206\275\321B\033=\005\034\322<\337\036^\275%\237\300\274O\031\273\275\305\326\270<4\277*\276\220\001\255\275/9\244\275\255\037\000\275\265\277\024\276\265Q\344\274\215\333\264\272\374[$\276\277r\305=\315\250\225<\212\334\'>\2057\004\275\221t\200=\337\366\201=\2550$=\321\n\200=Z$\037>bT\t>\273K\315=\356\361!>\365\247\n=M&\021<[\226\324\275\031\351\'\275\037\346\367\275\367\371\205=\342j*><\307\025>\025\3160\275\375\220%=\231\354\331\275-\023><2\236\006>\r\316\336\274\277Y\266=R@,>\257\034\250=\303a\024\276W\351\245=\215@\003\276\177\236$\276\243\342\334\275\203E\340=\030\321\313\275G\230\257=\225R4\275\340<.>\331\2754\276?f\324=Sa\375=?\267\247=_\202\356=j/\032>\2354\330\274\201;\316\275\337\360\337=\024\2601>q26\275\005\313\250\274\345\006\030\275\007/\304\275\215&\000\274\255xI=\345\305\323\275\001\2272=Z\370\032\276\315\030\203\274\226\0334>I\'0=5\327$\275\255]\324;\006S\030\276\315\034\007<\010\0140> \363\317\275\"b\016>3\356\013\276/#\325=\250\301\033>XE\022\276\024 \000>O \273=\201\360M=\253 \231\275\224D\231\275O.d\275\215\346M<#\357\265=\325>\216<O\013\213=\023\362\304=\r\023\275\274\316\320\016>\266\026->\330,\037>\203\201\322=\335\"M=\005\220\341\274X\025$>\315\0175;\265\n>\275m\350\t\275\2119\261\275\273\372\213=Q\0220\276\363`\335=\177^\352=sd\206=Re\310\275)\243\337\275m\342\035\274|\2140>3\233i\275\317f\245=\375>C\27572\341=\317Sp\275C\354\230=\255\302\233\273\365\320\250\274-{\"<\335z\250<\344\022\025\276\033\222\035\276\250\3270\276\215\243\264\274\031\343\215\275<\322\036>\343\000\355=\215\351\031\273Pa\017>\203\337\337=_s\312=\275\037\022\2741\2746=\005\316q\275\205bF=\333\266\320=W\255\232=\277\206\347\275\361\223?=\255\033\273\274K~\277=\247\205\235\275=\205\020\275\033C\230=\375=\301<F\274\027>M+\216;\024\321\000>\205K\365\275x\3303\276\367A\325\275A\347\035=\361\323Y=\313k\032\276|\3213\276\035\3044\276\t-\035\276\357\376\250=\265&d=\217\240\267=hp\000\276\r\r\311\274T9\037>-\334\036\274\315z\024;\334\006\014>K\233\271\275U\277\222<\177\300\351\275\267h\265=\227\367\360=\027$\231=\265s\207<\310\202\324\275+\001\227=\223o\313=\001*\r\276\2619\250\275\332)0\276\025\0237\275%\321\224\274M\244\270\274#Q\300=\241\306\'\275\355>\326;\034\n&>\223\355n\275\326\230\027>F\")>\307\211\222\275+\314d\275\263q\252=\027\034\357=\220\274\277\275:\254\024\276\223\212\356=U\017\367<Rd4\2764g\324\275\315\351}\275\357p\235=\037\224\034\276\215\025\353\272R\356-\276\231h\013\275\205\370\277<\'\224\034\276\007\024\253=\010\235\231\275\255\352+\276\023\375\r\276[\237\031>O\344\'\276\203\013\235=\005\336c\276\274h\032\276\254\201\215\275\204$z\276\367-q>L\026\'>\0244\277\272\005\251\376\274Hp\000\276\rAM\272\225_\017\275\247\303\r\2751\202V\275\307T\265\274K\251\002=O\231a\275>\264Y\276\242Po<H\365&>\377_\230<\215\225\026;\215\342\373\274\002\245\245\276\363(\236\276hD\200;k0+\276o/,>\323\311\203;\301j%\276E\366\321<*\2637\276\343\r\346=->\277\273\003d\215\276\202b\275\274m\223\024<\\\000\223=\303\310\252\275%\272\277\275x\271\321=K\241!\276\264\325\342\275\214\311.>v\245\017\276\021\242\332\274,h\000>`O\214\275\225nr\275\010@\306\275\370\322\000>\re\341<\246D\r>n\321b<\353D\373=\276\316#>\361\246\246<\030\271\022>yD\221<Elb\276\305\030\327\275Q\240\246>+E\247=^z\302=\024\271I\276\335\177\361\275\325\306\220\276\261co\275MS6>\354\355\245>x\307\022>\001\304\232\276T\237\212\275yf:\273\301\214\271\274\324#%>1\no>\305\343T\276\250~\021>\223u\203=\235\035\331\275+\340 \276\335\270\014\276\033\021\342\275\321\376\020\275\212\214\036>\342r4\276\r{H\272\273\212\245=\366\253+\276f\225\006\276jH\006>6w\t>y\231%=c\212j>\351\233\226>\375\227\203\276[\201h\275\337\221$\276\361o\240\276I\341L\275\014\232\236>?\262\201>]\377\370<\261D\034\275).f\275\224z\214\276\0063\222\275\210\000\014>\251\307y=i\311S\275J\354 >\366\307->\356*\343\275P \017>\315\022+<9\203\024=Q\266[=\335\266%\274A\254T\275\226\001\364\275oN\240=D61>6+&>Nx\002\276\226\345\275\275iuf=\rd\355;\0368\010>\025v2\275al3\276;\321\024\276I\010>\275\003\333\302=\251\241\013\275G\353\221=\035\352\223=\r\177\366\273\311M\362\275\025\357\302<\326\323\371\275\311\201?\275\355\014,=+\336\373\275\035#P<k\236\341=\025@\313\274\203@\004\276q\244\035\275\365v\222\274\033U\307=\373(\204=\227\377 \276\330e*>H:%>\376g)\276\251\361\000\276\364\245\377\275\360=2>\003!\227\275\305r\315<\364\003\305\275=\002\t\276cU\254=\rh\n\275$\273\033\276\337.\304\275\335);\275\031\350a=^y!>\317\235\273=C\001\336=\r\222\304\274\204g\026\276K\003\016\276\227\276\253=\276(\017\276\317\352\257\275\r\214,<\372\264+\276\305s\274<\003\'\010\276b\346\027>E\272\317\275\013\364\277=\336\274\032>\361\013\273\275|\334!\276\215\261\246<\203T\324=MX~<\231I\t\276j#\037>5\253\350\274[\356\203\275\214\317\340\275M}\355<\r\"9\273\275\277\267\274\021\203L\275\220i \276%lo=\255\245\345;D*\032\276\017\212\266=i\350T=\332\206\036>A\017\221=\255\310\250;\367\204\330=l\260\020>\321K7\275\305P\366<\355\301\317\274\rZ1\276\220l\006>]\031\345<\365/\375<=\035\r\276\237\273\364=T\345\000>[T\265=\352[->\200\362\036\276-i!<\035\037\354<\215\275\360:\355D3\276\001\373\300\2755\004\311\274j\303\006>T\353\036\276\371\036\013\276\0058\201=\365\311\363\274\355\271\335<eW\225<mi@\274U(\235\274bA\010>T\226\003>\240\250\020\276M\267\000=i\"1\276O\227\272=\263\271\375=M\327y=\r\0103\275\232\\\203\275p\266 >\343\'\014\276\241\270n\275\3572^\275\234\374$>\221\264\361=\232\372\024>\033\033e=wde\276t\230\221\275mf\330;\202\265~\276\207\216\204>\210\007\203\276\304\323\200\275\350\321\267\275 \035\r>\221^G<\302##\276+\353\026\276tC \276\202.\214\276\350\227\016\276!n\377=I\261P>4\003\276\274W_\376\275\221\r\212;\243\342\227\276\315\214V\276V\276\n\276\022\017\241\272\233J\312\275}\251I\276\254\342t\274]\024\377\275\000\001\264\275\2472\341\275\240z\201\276#\031\256\275\275\246\350\275\010sk\276j\353<;1\233\206\275I+\005\276\255\373I\275\266\027\034\276\3650\201\276\204\216#>\016\214\377\275\344\315\020>\232\237\004\276}NK>\223\271\215=\273\014\236\2742\337\210\276\377C\315=!-\031\276\032\311\337\275\274\324\212>\324\037{\276\r\3745:\2251\201\274\002\362\355=\216\"9=\302\315A>\263\270\343\275\3218^\276\255\231\225\275]\365B=\265\235\001\276,P\255=\013\243$>\266\020\225\275\353\333\201\276\245\203\345\274L\277\231\276\004\036\"\276\324;O>\270G\200\276\0317!\276\007AT\275E\2613\276\247G\255\275bKO>\315u\323;\241]\032=A\317\352\275\202+\023>\r<\316\272\243\256\257\2750\366\034\276\251\331\'\276\245\355\211<c=\366=\220\201\017>\013\374\222\275\211w\020\275\361\376\n=\t\220\205=M\2007\274\360\023\231\276\347\241\207\273[\341\327\275=\367z\275\215\361\023;\177\337\020>\301l\\\275\333*\354=%\237\332<\326\201\332=\335\026\021\275\354\030\364\275\363\211V\276\335\361o\275\336\270)>\307\236x\276C`*\276\265(\263<\017\037\266=\233\340.\276\260:\027>\307\303\316\275\213\003\266=\227\373\374=\020\372!>f\262\033>\r1\021\272%v\017\275\273\273\230=\005`\000\275\007}\240=}a\337\275\353\261d>\370\231\364\275m\003\332<\374\027-\275\004\266\216\276\027\202\226\275\203\036\362\275\204\373_>\\\026\300\275\224\376\000\276\r\200\3739\336\317<<\025\024j\275a\344\262<$\212\017\276\346|?\275\304\362y\276\271!\024\2763\306\214=\026Ri=\210\203\">j\"]\276=\207\364\274o\003\030\2757\343\006\275\203\343g\276\305\264&=\345S\001>/R\373=\236\270\\\276Z\212\244\276\023\307\315<T\214\224\275\326\240\222\276sA\'\275So\326=\307~\265\275LS<>\372\266\177\276\356\004\222:t\207\207\276(2\202\276\351\366\251<T\271\237=\331p\347\275\003\275\301=\217\366\240\275y\206\253\275\363\037\305=\374E\006\276s\255\031\275z\320\005>Kd\013\275\035GR\275\n\273>\273\351\037Q\275\306\300\000>2\007\245\275\211\\\261=\367\351J\276\231\221?>0T\031\274\221\225\210\274\'\2338>k\234\245=\016]\300\275Y\021}=\000K\317=W\262\214\276\016\013\3729\376\301J\276\227*\361<\017g\010\276\256\034\202\276\206\2125\274q\206\204>\306<R\276\377\305\362\275\013\301\230>\023LO\275s\367\341\275\263B\364=\224\352(\276RO\016>+\022\222=\374$\360\275/\036\255=\204V\017\276S3\313=o&\236=\035\206a\275gt\332={\207\024\276\364\220\312\275\354\345\026>\323Q\247=\373\354\211<t\361\235>9\323\206>\351|=\275\361\025\024=\361]\240\276\033V\333\275\033`\013>%\367\336=#\315\316<\306\216\013\276y\260!\276e\261\032<\002\020\340=\017\271\312=\336\244\035\276\372H#\276f\211\">\246S#>\253\304\321=\223v\310=n7$>\325|\240\274@x\000>\273\333\244=u\250\210\275M\3435\274=z8=\367^y\2753\024\271=\302\227\036>5\327T=\017o\377=\332\225\020\276\314\251 >\353u\221\275/\263\025\276\307o\346=\353\337\350=\315\226\032;\335\360$\274\375a\214\274\361\327C=\3154\033\276(\'\243\275v\030\004>\264\033\013> N*>\335\0045=\215\034\202\272\277\353\213=\230\027 \2769\322\023\275\232C\025>\375\361k=\374\225#>}\334\327\274\003\215\266=\367\307\272=\325\243\221=M5\315\275\025\306\221<\240\3344>1\014\255\275\263\232\326=e}x=\005w\034\276\332w1>4\032\337\275\373N$\276em\211\274+\350\203=\350\233\037>\005>\314\274-c\362<\021.,=u\330\357\274}\343(<\355H#\275\305x\000=\347g\275=\\\227\">\014#\001>1x\035=(*\003>\037\\\347=/\017\305=l\362\032>\236\376\001\276O4\321=\033i\214=]HN=*\217.>\2745+>\035\212\343<\245\361\237\274S\213\005\276\247\264\210\275\035\260 \275\004\210*\276\233\361\265\275\352d\032>\334\314\233\275\276a\026>r\362(\276\237wT\275\233.\301=p[\332\275}\004\317<\265\014\025\275E>3\275g\302\322=\245\320\177=U\237\243<E\205%\276\315]A=\203\t\263=-\001\036\274Yu;\275=\036\276\274\246o\024>H\205\344\275\315\225+\2749\203.\276\331\3669=#\006\312\275K\324\245=\273\306W\275\215\271\022\275\355L\363\273M\200\254<\345!\367\274\342n\025>\275\000a=3\004U\275\237\232,\2763\026\312=}Nc\274\311\211 =s\367\005\276\302B\036>\2073\272=-\271r=)\037P=\257q\316=\007\221s\2751G5=Y\200\017\276\211\261M=\235a*\276;\357\256=\355v\334;[\n\227=U\033x\275(l\034>F)\265\275\277\351\003\276\333\021\322=\323^\346=\240<%\276m2\005<\257\253\334=\355\211\324<#\272l\275\34092>Y\354\227\275\255\274\020\276\225X\005\276i\264]=\215B\253<\003\014\024\276]\361\202\2747u\255=\216\327\010>\366\352\232\275[\237\354=\331\362;=\315\306$=\317L\212=?\367\336=u\204\237\274\202\371\r>\232s,>-\316n<=\275\037\274\007k\272\275\reV\273[c\243=\007\320\325=\325\314g=+r\022\276\377\347\267=\016j,>XT(>\236w&\276\243\355\263=NZ\036>\374\264!>\357\224\363\275f\273+\276&x$\276\305\034Z=18$\275\307b\377\275\314q\031>\2446\036>k3\275\275\024Q\'>k1\261=d\252#>\037\001\255\275\325\221d=\023\010\261=\215\305\001=\002t\002>G\035\253=I,\304\275\273W\372=u\322#\275\300\'\t>T\233,\276\311\274\010=\003%\346=\255/\274\273AX#=O\343*\276w\215\336=\355\355\020=\225\354\243\274\204\362\037>\347\327\334=\r:Z\271;0\371=F\244\036>A9f=6~%>\202s\032>\001\030\366\275M\335\372\274.\357,>=Cs\274\345\324\014\275\345\177\236\274H\\\021>\"\216\t\276\204</>\237)\375\275l\270\212\275\361\033\361\275I\357x=[\340\263=\311\231\220\275\350Z\010\276\365\315\323\275d; \276\365\261 \275\005\310\270<\'T\332=2\027\026\276\225\025\310\274G\200\346=\027\370\267=\235H\332\274\231-\025=\315@\013<E&\265\274]g\240\275\315\010m\275\r\214\037;\247\321\025\276KP\254=\203\247\312\275\363\351q\275\332\3430>\271l\356\275\215\214)\273m\235\305\274jV1>\023\016\312=\307$\341\275u\302e=\324.\024>\355\271\315<\344\274\310\275\311J\036=\255\357K\275\333C\342=\013\213\345=\347Nu>\035\340J<\354.\233>\\&\235\275\315\2670\276\264\303#>\346/\'\274\322\221\211=\2658\225=[\250\025\275S\277\336=\240\306\214>q\337\021=\004\232\017\276x8\334\275j\213\256\274Sg\027>Ew$\276\337\311\212\276\276y\226\275Ox)>F<\301=~\275\240\276\340ha\274\221\376\227\276\265\001\241\276\213\322\250;\330E\354=VQd\274\251\321\203\276\206i\">\313\321\331\275]\312\220\274=,\023\275E&\374\275S\233\242=\023\351\341\274\351&c>8*\032>\334\317\374\275\034\016,\276\271\0254\275#-\231\276\365\340\335=\317M\313=\365\202\034=U\025q=\323\332\201\276y\312{=\205\024\201\274\203@\251\274\315\266\354\275\231S\277\275\343o\231\275\324\n&\276t\364\324=\n\021\373\275\016:\017><\366~\274\255\200\235\274\355\225\'=U\225\266<!\306\232\276\221\336\213=\022\013\016>\370_\227\276\213\224\306=\262\3702>\027E\232\276\376{8\276= {\275\240\376!>\316\311\251\275\274\344\202\276\227N\266=\250{\204>\377\321\220>oB\304=\205;v>1\005>=\242\236\271\275+\002\233=\001~E\275\253\247\336=\037\314\376=\317E3\276A\356M\275\023sd\275,\340\014>\245\240\312\274S\201\026\276\025i\213\274\345\212\312<i\201j=Z\247\010>Ov\242=\352\264\253\275=\225\030>\314\035\r=]\230r<\215g\332<\331\346]\276\rQ\016\275\2737\226>\353$\004=\316\304\300\275U\034m=\352\341\242\276\254\036F\276\270Zt=\255M\302<!\214(\276\216\301 >\215\252\320\273\243\031\013\276\177D3\276y\227\005=mu+\275\317\200\335\275\221\204i\275\265\335i\275o3\001\276\376\351\345\275\344\"\n>a\263\000\276i\317S=\205\257\334<\343G/\276\250l\020>e\307\245<\203\300\304=g\032\217=rD\020>oY\251=K\254\222=\025 \023\275J,\023\276@\364\235\275\215.[=}\325:=\035GN\274O\276\221\275u\000c=\036\023\'>\305\346\r\275\210C\032\276%I\315\274\300\326\210\275\035\275\014\275k\305\301=\255\355E=}\267\221<m^\313<\245j=\275E\331\007=\2575\232=\223\031\214=\327s\236=\355H\005<\371\234\006=M`+\275-`b=\272\276\033>]\rQ<m\243\330\274\315-\213\275m\017o=-\007\324<6\346\026\276\315|\210<\023\276\025\2767\214\021\276\270l1>\247\243\201=Q\013\001\276M|\007\274\321^\037\275\215W\302\272\301_\r\276Y\2318=\344\002\023\276\322\272\035>{w\264\275\307yk\275cM\252=cv\241\275\020-\362\275=P\t\274\331r\r\275F\357\004>\255\321\376\274\245[\330\275M\351\006\273\215\337;;\031\345\025\276W\242\376=\360\314\000\276y\237\357\275\313\337\324=\351\323\033=6=\325\275\035%\n\276c#\361=\346\234\035\276+`\345=$x.\276u\003\033\276\211\212\r\275#\200\306=s\212\261=\215\224\311\274\275*\340<\'\205\315=\341U\177=\260\315\025\276}\331{<m`\325<?:\000\276\330\345\035>c\340)\276q,^=\010\303\373\275\002^+>}\305M\274\375\273/\275-\235\237\275]\325\371<D\352\261\275]\007#\274\005x\220=\217\030(\276\267D\265=\033\311V\275H5\314\275\240\'\002>\260t4>\335{\260\274\r{\341\274\362\2304>\017\"\t\276I\343\360\275\207\002(\276`\202\n>\305\232==4g.\276\005\237\244\274\'\036\235=\010y\034>\202\200\230\275M\037\033\273\243\021\325=\205\237\002\275P\347\336\275w\245\253=\205\234<\275\377\253\375\275{\036\200>E\336\355<\277\2017>(3C\274^\326W\276\232\313\n\276\307\n\376\275\003\206\023>\227l\226\276\375\324\267<Egt=\360\364p\275\303\264\233\276\334\202\375\275>\223\017\276i?\305<Fq\206\2755\024\034<}\270\024=\001\261}>\007d\344<-h[>\004O\234\276\022\301\320\275\305\244\323\275g\314\020\276\035\2135\275U5\024>I\270\034>U\366~\276\t\275\271\275\360\263\'\276-\035(\276;*\207\276~\2468>\273\010\231=\354\\\236\276k\023\177=W\033G\276\350;\237\2769\367\216\276\273\\k\276\241%C\276\201!\377=\316j.\276%\361{\2757\025U\276|\224s\276w \201\275\214\"$\27654-<Y\211(\275;\317\006\275|\215\031\276\234{O>2\370\233\276\320\370\243\275-i#\275\322\236N=\331v\000\276:\254\240=ID\212=\2760\242\276\341\210\370\274\345\344\026\276D\274\302\272\n\356*\276\212\257K\275\227\352\216<S\304\241\275\321\330+\274\311\321P<]?\030\275\235\300\216\276\376*o\276\263\rt>F7M\2760\357\246\275\255%\273<sQ\226>\035\361\277<&\276\036>\331q\006=S\020\351=m9\246\274\313l\302=\366=)>\264\254+\276\243\234\245\275\241D%\275\r\261\342<e\365\356\275\355\374P<\321\001\211=[(\313=uu\377\274\214+$\2765\273v>\215\0278\276\332\355\006\276\207\r\300=\253\007\222\276\262\030\013>\337\324g=\367\024\261=R\305\230\275\374n\033>\224~6\276\027\221\256\275\341;\215=\342%\200\275\302\212+\276\001]K\2759 !=\t\202\013\276\376F\036>\177^\231\275\350&\234\275=\316Q\274\234\314\014>\033\2712\276l{\n\276:\374\n>\277 \025\276\311eC\275lU\031>\375\260\332<)\353\373\275\336\345\340\275\210\344\'\276\223\361\n\276y\030\005=\311\264\032\275\r\251l;E\\\013=Tn\374\275m\021\353\274\236\035\031>e\321&=\350\221%>Z\007\337\275n\")>U\356=\275\213%\342=]\033W<\035\032\003=-\314\365<\255,~<\013\334\236=\353\224\222=+t\275=\304t\352\275\177^\200\2759\347\033\275\031\346F=?{\263=\205\224\263\275\264S\014>\004\005\206\275bN3\276&\236\357\275Y\315\n\276\320\276\003>\307\202\313=\337s\370=\005\036\254\274\275CT<+\005\377=eV\361<\215\270\010\274\013\032\207=\r\217\263\274\247H\250=\231\254^=\360\277\367\275\341\302\314\275\275F~\275oP\'\276{\360(\276\211E\'\275\225*\n\275U\2105=\305\243f=\237\274\001\276\034\363\031>(A+>\231\331\000\276\277&y\275Uq\376<SJ\314=Z\375\025\276\357\210\263=\251E\004\275\251:\375\275\317\312\373=\020?0\276\rUD\275\336*\014\276\017D,\276\373Y\310=\317\031\337=\225@\320<\355\270G<\177\036\316=\357\266\361=\363\310\364=\250\r\003>m\235\017\276\315\314[\273\002\334\000\276M\030q=M\236\326\275r?\232\275\353\003\315=+\317\277\275M\022\036\274\323p\265\275Y\031f=e\342\353<\307=\334=3q\271=n{\">gp\207=\0107\225\275fr\274\275\305\224\336<=\2618<7\340}\275\360\225\320\275\0277\363=\021\353|=\365J\021=i\260\037\276\016*\001\276\205l\201=\025~B=\270\363\231\275\013i\272=\001\343$\275=\0370\275;=\267=\035\342V=\225\006\271\275u\341/=\r\003\004=B\335\020>%\247\322\274\235\r]=\347\315\242=\003\304\214=\273\320\016\276\rJ\247\275e\262v=8o\001\276\207\225\227=\334\3362\276\215\214\243\274\025`\316\274L\rQ>\205\367\032<]|w=c\327\211\275\022\266\025\276lp\314=rS\032\276\314_\210\276\023x\n\276\235\027O>\021\324\320\275\317\336t\275\334\255,\276\203G\367\275\356\317\213\276h\277%\275\311E,\276w\324\252<\345\227\205<1wP>[\300\257\275m\242I\275J\332\246\275\177\255o\275\336\232\022\276-\344\243>\336aS\276;\264\244\275\"oq\276\215\335\211\276]ps=\343\310\350\275\304 \206\276M\177A<\035\306K<\233\215\215>\313\2462\275f8\"\276\034\300\343\275\213O\315\273\327;,\276s\355\304=A\216\t\276\2244\010>;g\227\276b\024 \274\271\354x=\312\363\236\276\033(\232\276\177t\377=0\215 \276\035d\017=\302P\216\276\361\304\343<\003\020\345=\002\2351>j\355w>8,\223\276\367a\244>\t\311\212<k6\025\275\031\320~>Z\310\326\275\241\241\237<[\346\003\275\231D\324<x\010\214\276Yi+<.HX\276+\010\371\275\nw\024>%\\\210\276J\366\244\276\335\204\231>D\332\350\275aw\026=\321\245\373<\014\250\037=\316?\235\275\371\240<=\t\356\246\275]\010@\275\364B\202\275\333J\024\2766B$\276m\374:\275\3170\322\2751\201F\275c)\332=\224\252,>s\315\001\276}\257P<v<\032\276\005\352\262\275q\336\\<7\335i>\370\357U>\217\360x\276\014}+>\326\326\277\274-Gq\274\212D\354=`\200\335=\210\260R\276IsG=\305\377\r\276.\262:\276\370r\004>\013q\355= \2054\275\255\014\307\274\352\254\236\275\277\001\226=5\277\363\275\203\302\240=\274\200\035>\343 \036\276\013&\234\275\342\271\030\276W\021\372=\215d\004=\235\363\345\274\006\207\033\276\275\351\024\274\r\316\361;\321\357\301\275\205#\355\275U\356\235\274#M\265\275\205\310N\2751iK\275\rP\223=U6\017\276)Fx=M];\273}\227\001\274k\023\203=\033+x\275%k\336<\3572\014\276\331\036\367\275\327\323\254=\372\204\">\314\215\216\275K\313\212=\343\014\273=\344\267,>\375\362\365<z\262\002>\373\275\204=,J\344\275iX1=\353\353\027\276\352]\315\2751\267\014\275\275\361|\275p\245\271\275\365\264+\276W\304\341=\255\305\320\274\r\005\220\273}\215v=\371\335O=\321\204\230\275\355+\233<z\221\016\276\376;\027\276b\207 >\000w\324\275\032\226\271\275\005\267>=}\267\213\275\221\252N=-i/\274\365S\225\274\345\204\347<\034,\026\276jr1\276\320q.>\020\350\n\276|\211\244\275\346)/\276\220t4\276\035%\222<\007\265\355=e\361\244<\345\030\323\274\364\266\014>_y/\276\265}\347\275%\375\004\276\353\215\265=\034\"1>\211nm=\217*\234=\003A\321=\273\243W\275\200\223\247\275\321\024J\275}\013\023\275\215\355\002<a\234\'=Q\207\035=F\222\037>\033\223\243=qep=\206`\030\276\277.\241\275\241\245\200=[\356\023\276\020\303\003>u\322e=\307\220\337=\275)\223=M\261I<j_\033\276%\037J\275;\320\252=U\321\205=\037\036\t\276\247\314\276=$0\026\276\322\270\027>%\325\003=3e\030\276\001g\252\275\273J\312=\255-\341\273\213.1\276\272f\316\275\215\302\231\272/Q\311\275=I\364\274\364\013\023>{\251\203=\311\360\027=\346\303\023\276%\344\316\274\\\250\201\275\221\200b=\277\025\212=\020\230\036>}\344\242\275\024y\320\275\312\363\003>\215<\222=\276^#>\037\310\n\276\371j\336\275\023\216\230=\372\002\026\276j\202\217\275\017\243n\275\315E>=b\352\337=}c8\275\031\376\216>\272\002\204\275\361\230\205=A\203\305\275\334f\216\275\nT\310:Y\242\"\276N\220\202\276\341\306\021=\036\353\"\272\210Yv\276\032?\320:\017g\264<9h\231\276\010e\036>\013\242X\276\367\363\274;\016>\177\276\310\272\356=\010\343\326=\031\342d\275<\000\333\275\245\023\010\276\362t\323\274\215\032\311;@\341\210>\251\215\017\275\032\251k\276\225\375\031<\3044.\276\315\323\363\275\016\351\3479Q]\206\275F\211\"\276g\265E\276\220\\0>\201a\243\274 !\n\276\346\367\240\276\215@\237\275Z\305\177\274\243D\210>_N\t\276\250\254(>l\311\300\275\274*\215\276\373%1\276\271\242\014\276\225\237\374\275A\266o\275\234\302-\276\002#\034\276\352\252}\276e\212\217>_\224\344\275\341\313\376\275\226\274_\276\265\205\201\274S\362;>~\r!\276D\227_\274KG*=U\322e=\351^\342\274\207\210\345<\320\217\245=\024\333\221\276;\"\246\273\255\244\241\276\375|%\276\277[\242=Y\273\354\274\030\rT\276 \374\225>\263\0363\276\013=\263=\326\317b>s\226\233<\266\366\">\341\270-\276\0251\036\276\263\347\225=\370\245\036>\021\037\223\275\020\312&\276\233V\236\275\313\004\312=qg\"=K\354\314=t\024\024\276\316\271\020\276\020\244\255\275v\301%\276\223\350\343=\367~7\275\331\265\247=\323K\253=\261H\200\276\2054&\276\025\355\\\276\215\325\257\275 \331\217>x}\214>\007\036\354\275\031\2446\275\023\301.\276g\351\201\276W-\236>\322\353\222\275I\020x<\314\317\013\276\265\257\205\274\275W\355\275\355\"\250<uF\330\275\273\000\243=C\263\246=\335\320\305\274\377\340\377=8\2742>\372\225\257\275\023\t\233=\324\364\003>A\317\201=\203\377\026\276\003[\371=\347\245\240\275\361\300\010\276\321h\273\274\037\347n\276\257:\214=\347\215\353=i\346\"\276i\'\310\275j?\302=\003\347e=\r||\275v\322V\275MT\005=\343\330\\=\251\303\222\276\014\335\240\276\3519)\274}Y\355\275\253\320b=\231\036\227\275\217H\310\275\313{\333=4\243\002\276>} \276\\\254\364\275\251-M=\033\007\337<\276\334b=\221}\223=y\317%>\007\327\353=s\251\324=\235J\264<Nh\010>\026\\\032\275w\023\374\275\242\002\243\276\313\361\326<\333T\377\274#\202,\276\244\375\225\27639\360=u\315t\275\271\355T=\tHH\275\262\204\003>\255t\327;3X\264=m7\n<+\031\245\271\232\023\363\275\364\215\201\275\225)\237\273\275\251G\275`\227\213\276=|\215>\035\374\016<\315TV\273n\317\021<PO@\276\224\356\001>wx\246=\317+\217\276$q6=u2\273\275\037\367\244\274\325z\214<+I\204>\305\255\371\275\2037\204>\354\020\223\275 E->\203A\337=\205\312\\>\337\274~\275s\340\327\274~-l>TP\356\275iy\202=\231\344\\\276E\207\025=I\005\035\275\275\352W<\031K`=G\336\253=\240\026\031> \005\264\275\205\030\'\276\031]\010=\373^\336=\314a\001>ZL\013\276\231\027M=\315\001d=\023\274\034\276b\323\030>w\207,\276x\337\240\275\026\200\207>\t^\002<|-\006>G\025*>N\330 >F9\010\276\343\202\231\274\001m\201\276\332{\326\275\267\266\206>\254A%\276C\020\202=\235\324\206=\265m\005\276t\202\036>@`\t>Wi\352=[\024\367\275E\254\363\275\263[\254=!\232\005\276\365\267\301\274\276\235\013>|\322\027>\377z\342=\355\020\262\273\216\031\340\2756\324+\276\247c\254=N\232\'\276\330\037#>\007\270\260=,e+>[\361\241==\237\352\274\215\t\226\272y\246\276\275\271S\002\276-\307\351\273M\3032;\200\310\032>\250\320\276\275<\332\013>J\365\027>)\324D=\361\376I=\2637\366=\237U\360=F\013\211\275)\250!\276\036~\033>\335\210(=s\210\350=Unn=\025\212\002\276\r\250\372:q5\235\275E6\233\274T\355\325\275\030\335\014>\r\325\005\276\330\345)>\351|A=\265\244\025\276/\016Z\275}\346\306<\343\277\337\275U\257\t\2769\376\025\276E;\026\275\301\330\005\2764\363\t>\260&\007>\303;\263=\2013A=\355\361\325<\307\315!\276\233\n\233=k\331\215=\253\234\237=\343\301\215=\211[\200\275\313\336\325=d\352\004>\'\024!\276;@\342=\305&\343<\347\272\273=\235k\255\274\313\262\320=\336\010\215\275\324\"\222\275\2418N\275\177M\300\275\200\374\223\275\252\225\025>C\215\000\276\016\363\023\276}\352\273\274/E.\276\375}k\274g1\223=\365T\304<\013\004\244=?\331\376=\361wH=\220\3164>\251\245\254\275|N\000>\032\021\206\275\311/\307\275\021\264\207=UY\007=\327\262\273\275\301F4\276\352\2172>ol\232=\350\000\024>\320\316\031>\245\223-=\353\264\263=\025\235\376<\316\275\010>)N\356\275\037,\t\276\247\200\304\275\257c\233=\215\302X\275\262\314*>\263:\320=z\241\007>\r\252\033<}\261M=\216\211\016\276\3304\021> 0\031\276\013\306\010\276E\320~=G\221\031\276\334\310\337\275<\3772>o\326\243=\216\2431\276\2706->\335\325\026\274\032X\024>=m\314<\261\272+\276\206R\014>oX\315\275\033N\261\275\327)\263=\207\373\374=h\004\036>\335\240O\275\373\347-\276\304P\212\275\355m\001\276\220\004\200=MU\240\273$\201L\273V=\274\275M2\037\273\275\313\250<\244\244U;\001G\253<\376\317\017>\360\004]\276D\026\276\275J S\276\030\321N>#\321\036\276\257\303G\276\013\321\271<TE\212\276v\007\027=\245{\241=\224\351\017\274h<\000\276\032\232\350=jR\t\276\274F\336\275\002\334\351\275\340\302a\274\363\343\243=Px5>\333O\310\275\274z\024\276j\001?\276\205Y\243<\347\200\266\275\237hm\276\313\322\210=i\3702=\023\230\207<-\366\004\276V\333!>\006\271\333=|Rj\276\nq\212\276\210\3054>\027\232\207\276\351g+=l\320\'\276\331\232\t\273^6{>M\206!\273S\237\231\275o\301\003\273\305\343\230\275*\2404\276\r\r;=\234\215\006>K\302\\\276\271\2728=\003\223x\275\325@\315<y\357\217>\247\177\'\276\025\374\237\273,\177s\276f\177\030\276\341\322\002\2767\272\227\274q\243g\276\014t\245\276\256\240\226\276\312?d\276b\215\036<?]F>\217p\321=^\3262\276w\203E\276t3\036>\230E\001>\032\034\017\276\260\245\353=\221P:>CY\334\275\254\201\026>]\301h\275r\000)\276\023\000Y\2751\216\037=\220\277!>;:\205\275\214\030\002>\353\017\242\275MV\245\275\215\032\232:@6#\276Ci\375=W\326\312=\213\242\265=\344\330*>2\375\261=\270c\204\276w\361\235\275\024\026\026>,z\342\275O\254\313=o\014\221>\203 \247>\372\374$>\325\302\241\274\244\214\222\276<-(\275\2142\242\276\307\261\345\275H\373\377=-9\277<\230\005+\276\021G\023\2755cl\275\245r\342\274\177\244\246=\320f\271\275\323r\235=\263-\005\276\315\314\241\274\rJ\335;\006\r\002\276\277\217\324=S^%\276%\303\205=X\004\016>\237\030\252\275\317\336\'\276g\021\204<\246\372\211\276\215U\325\274\241$W\275\"n\332\275RLa>M4B\274\347JM\276\237V\367\275\202\210\024\276\002\001\001>\021\025\t\275\"8\221\275\300\357(\276m\361g=VNN>\025T&>\264o\217=\021\215\r\276\333C\033\275\355\002>=\323\256\322=\330\017\037\276\271W\273\274\354*k>+1\252;\035|G\276@\332\272\2750\231\010>B\271\202\275J%\035\276//\340=\2410C\275\343\236\324=\355\364\030\276\203?\220>\275\330u=OU\314=M\234?=P\343X\276T\336P\276\221;R=\225\177\243\274\231^\206=\002W2\276S\272i\276\375\256<\275s\323\271\274)f\"=\335\\\272\275e<\341\274%1\210<\360U.\274\333L\270=\031\300\204\275A\234Y=\203\037|\276\365\210\251<eM\363<W`\336=\004\235 \276\200F\376\2753\031\236=\345\377\276\275(b\033\274/\236\362=\242\350\005>!\002\017\274\320<.>\014\222\242\276] \325<x(\035>\257\274\332=D \227\276\226\231\033>\\\364\016>hn\277\275\321\376\234\275\237\306\361=\350S+>\215@n<j\371\r>MB\204=\367L\342=\304\032\341\275\310\244\026>\340z\230\275r\251->gC\352\275\202\2263\276:\252%>E\317\213\274\250r&>\3245\016\276\306v\236\276\243\350\364\2754\023Q>K\367\242>g\033\357=&\3515>-\356t\274\031\365!\275~\263(\276M\243U;\251D+\276\341qB\275\346\325\002>\033\254\327=\314\372\t\276\247\304\002\276\221\233P\275\315\310?=(?#>\357\307\342=\311\360C=\037\276\233\275_\236\342=\313\210\241=%\220\311\2740\235\340\275}\203\303<t5\n>\275G=<\355\037V\275w\205\322\275\273\213\004\276V/\016\276\212\367\025\276\200\307\271=\024\2634>U,\260<\307\206\277=\211\273\207=\224A\240=t\271\344\275\365\331 \275\035\024=\274\024.\205\275\246\010\235\275\311Z\266\275\217:\260=\315\303t;m\212\031=\221\306:\276\350\227}\276\241\370r\276\021Q<>\265<~\275\2257\346<5\026\270\275w\247\n\276\267\340\371=\325\316:\276o\'+=\261f\034=\013\320\217=\233\216\'\276\371\327\010=\307\347f\275\235&\027\276\315;,\273\013Y\026\276\311p\264\275\264\366}>c\252\203=?V\001\276\261\242\034=\351C:=W\316\216=d\250\007\276,\371\000>%V\361\275\025)\002\275\203D\207>\007\242\306=\322O&\276\373\017\231=\336R\026>Y\305S=\332\356\003\276!\033W=]`\207<\221\240\355\275\r\031\020=}^\377;0$`\276\375\n\'\274\312M\350\275\275Z{\274\245\233\010=q\256\036=\231\237\005>\350\354\025\276\245\327\207\275=\340\026=\337w\017\276\010\246\203\275m\270\260\2745\307\201\275E\331\203=\257`\355\275n\014\367\275\270\260\231\275L\357\000\276(\362\202>\022\3374\276\262:\031>\r\3020\275\023\020\366\275\006\010/>K\343\352\275\216\275\r\276\006\212\030\276\315H\220=\233\016\366=\354{!\276uz\021\276\203b\233=U\017\203<\235T1\276G.\352=\tS\003=\214\304\360\275\006J\351=\233\234\031\276\233u\303=(\333\r>\322\033!>\351\234{=\374\343\337=\033\250\235\274Gm\000\276\016w1>\233\034\324=^\235\030\276\204n\213\276\235\023\203=\373\267|\275oIY\2759=\002=\315\234c<-(Y\274\255\2065\274t\353\004\276\200\224\021>\341\260\022\276W\221\262=\r\020\241\272M\305\004\273\215\213\315:\205\316_=\217\301\241\275\275l\373\274\345:\361\274W\201\234;2g\022\276\217\031?\273\365`\371\274C\256\376<\0256\250<[\376U\276\360h<\276I\263\030<\016R\215\276\'\345\351=\251\361\307\275\026\r\037\276\242\341\206\276S\375\222\276\304\206{\276\227\337]\276\256E\212=\320?\222=\222!\000>6#\263=\343\354\000>\245\013\002\276elj\276\201\331H<\207u\277\274\362\245T\274s\032\356\274\177O\241=\362\331]\276\242\016\206\276\227\025t\276\315\267O\275\251\230\257\274\371\311\366=M1\"\275\2421;\276p\273\021\273/\275\242\275Hx\211\275\374\277\234\276D\0077\274\211\220,\275\243L\r=\222\252\022>5q\230<\304\262\212\275\001Y\306=\246\037\246\275^@\024>\316\2430;\032\261\034>\322\313A\276\177+\031\276+\021!\275\001\257\336\274M\007\246\273\301H\235\275\022\331\025\275-}\230\275\032\250\242\275\250\271\225\275:\r\037\276\337\262\254;;4\207\275\370\372\'>\022\273\312\275\235\336\003>\003\342F\276\367\203\227<\365\333\206\2766\315~\276\221\2401=\364\355\357=Q\342\200<I\016|<\247X\213\275\203\355\022\276\226.\225\272\263\014\315\274O\n\354=op\305=)w\024\276\341Z\014=\231\221,\275gX\350\2755$H\275\215\344 ;\204\334\277\275\267x0\276\225H\256\274\215d3;\363\363\304=g\016\374\275\005\303\364\274O\245\336=\2650\267<\365\026\\>-\010>>\342\301\'\276\0350Y=\0207\202>\315\365\334\274\211U{\275\212\002\231=\200;\030\275+\221%\276\376\007\225\276K\331\241\276)6\257<?\033!\276+\214\314<\244\3310>\3108/>cb\262\275\245\231\363\275\3062\312\275k74\276\215\0078\275o\367\010\276\002\023\022>|\0262>\024\253\001\276l\244(>\315;\215=a1\017\275\302\253\031>\003\202\203=\263q\210>\241Z\351\275d\n\021\276\201\305\'\275]\272$\276\345H4=8\206\246\276\325\306\007<\3171\252=!W?>\033 \302=\264T\025\276[\210\241>\005\032\363;\'\363\204;\255j\201\276\242\035\235=\037\224\310\2749`\266\275\336l\370:\3041X=Y\002\352=]\342\030\275/\t\005\275.~b\274\2237\210>)\\\373\273[Fq>\024>\037\276c\014\244>\'\276\214<\205\310\266\275)\266\361\275\223e\235=\371\241v>\215\366\263<\353\\\362=\276\215!\274\345A\200<\000\373\363=\325\271\335\274\304\250\235;\375\356`<\300\\\213\276\035\275C\274\326#)>\227\001(\276s$\030>\273{\252\275\311$z=\306\317\261\275\363{\r\2765\372\237=\266\003\n\276\307\231\311<\213\032$\276=\345=\275\000\363\027\276{:\273\275\272\021\352\275\020\001/<\342\014\205\272\275r\326\275\027\375\310=-\000w=\327\302\323\274\373\274\206\274\264\323\235\275\2178\000\276}3<>,\350\216>U\2574>Ck\267=S\242J\275\311\300\002\276\300\311.\276Gbn\275P\233->\274q\252=\262Y\215\2769`\007=\205Q\341<\256%\325\275\205B\356\275\262\275\037>-\275$\275]\362\334\274\334\324%>\335\2348\274@\\\032>?\255\262=\017?l\275E-\310<\000\312%>M\035\t\2759\202+\276$\200\243=\372j;>\254\032\223\276\"\200s\276\r37\273\201>\212\275^A\352\275\346Y\233>\251m\r=h\205\236>xt\316\275\337\030\317=\001\205\212\274\353I\271\275L\237\004>~\016\210>\035:\212=\371\000\247\275\367\370\023\276W(\227=\303\244\221=<x+\276\001So=\232\356\347\275k\256\334=M\322\370<\314\367.\276m\364\010\275)\0050\276\r\224c;.\3634>h2/\276\311\375W>h# >}\005Z>\204\035\025\2769\353\216\276\251\236\024\276\204lW\276=\242\330\275\256\\z\275a\312u\276\237\231\016\276\257\324v\274\215r\337<\264G\210\275k\324\217\275\252\322\202\275\322&\211\276\271p\024>\322\372K=)\226\033\275\017\222\014>\335u\377\275\320\270\242\275\021\025\317<1\234\035\276\356\336\220:\231\307\212\275\361W\247\274\237\220\351=\335oB\276qN\212;\236o\224\275]\303\304\275\221D\251<\267O\226\275\301\'^=k\032\305\275|\036)=5\230.<b^}\276\357\343\240<&\300\244\276 \346\375\275\365P\257=\365d\227<\365\003\351\274\344\260\325\275\021\360l>\233o\034\276\007\233\335\275\205[8\276\027a\367=\370\263\221\276\275\344\025\275)\334n\2754\326\227\276\255\356D=}Q\213= (\345=\336\007\231<K\204\010<\335\261(>q#W\276\t[(\274\365x\226\274+\207L>\327L\337=\301\227\t\276\032\016N\276\316\376\230\276(\234\001\276\025G\206\276j\247\366\2750j\213\274,#\241\276\2479n\275~*\373\275\333\231\360\275\353\264\204>L\243\204=\276\340\003>n1\233\275\332\262\">\375\314\204\274\275\277X\274\220\177\227\275\213\"\353=\306R\027>\232\014\r\276\305__=\275p\352<\375\225\177<I\260\003\2754\n$\276\313\023\302\275\034\3262\276\247\316\233\275\366\376\035<\222[\222=\233\356g\276\200\246\332\275\025O\005=\3004\253\275\364#\022>\027\206\215\275Pm\036=\3335\222=[\237\204\276\031.d\276N\301\265=\200\032&\276\227\277\322\275\006@\345\275\0350\023\276<\3370>6\266\000>\260\372\034>\215\350\363\275\375\230\363<\251\275I\275\232\030\002>\367\\\357=j}!\276i\350_=\263\305\317=\372E0>\000\212\247\275\263H\216\275\007\254)>\304\247\t\276\315\210\307=\355S\223\276\305\017B\276\266\250\336\275\032\240\027\276o\377W==X\300\275\352!\353\275\3559\361<\202xE>\346\262l\276\331\354\030\276\300p\214\276\227\367\226<\333)\001\276\221\312\031>\002\301\315\274\271\214\345<\032\331\212=\2056#>\205*\201\274t\271\030\276\320\275\202\275\315\013W\276\261\231O\275\037\266\026>\2619\234=\227\3027\276\336CH\276\210\321C\276h\226\026>\365o\234\276j|B>UD\031\276>\202\263\274\315\203F>\t\275?<\302\204\233\276\201\366a\276ZG\037\276\365\313\t=C\036\220\273g\237\223=\033%\242\275\026\204\210\276\360\363\274=?DX\275\tY\375=fng\276u\203\n\275<r\220\276\231\302\024\275\016~\\\276\356_<\274@\301\033\276-Em\274\005\2127>\251\267\321;u\375\323\275J5\243=O7\230\276\322\256\351=\253\220\021\276\274\347\204>\310\337\226\275\351\377\217\274\213\264C\276I\312Q\276R\246\227\276\000qB\276\027\322\207=\207\277\342=Q\357n\275\020\320\272=\371FR\275+\223\277=\031\324\234\275\350\372\251=\215\3523=\202\036!>\275\306\255<\227\353\317\275~\313\247\275=o\023=\025\315\244<e\3672\275\323\026\206\275G\205\016\276\307\007\242=\325\242\n\275\023A\033\276\201\0245=A\023\022\275\265\004Y=}\217\207\276\353\2150>\301M\014<A<\002\275w\251\304=\206\206S\276G\364\"\276jr9>\026\234\005>\251\331\030>\245u==\344X\025\276n\201Y\276\177\335N\275\005\305|=\'\312\327\275\271dM\275\251\270^=k\237\352=\227\213\324=mQ\233\275\333\026\315=J\307&\276_\336\340=\265\217\250<\003\344u\275+3\314=\243\273\350=\211\234\035\276>\221\014>\215w#\273\031&o\275\r}\266<\3224\345\275\032\2431>\037R\320=\252\314\264\275;.\324=N\320\026>/o\354=\002\207\000>Vk%>\"\036\005>\373\262l\275h\252&>\315 s\274\277\016~\275c\256o\275U\206\005=\312z\033>\200.\025>\333\301\353=\205\200j=\001\242:\275\207\227\304=\t_K=\227w\234=\r\270\334;\014\\\340\275\200\234\221\275=\025\341<{z\202\2759\350\027\275\207\007\371=\327\316\360=\377\256\303\2755\356\334<\232o\'\276\017\276\342\275h\026\n\276\375&\031\275\226\267\205\275\027\330\254=nc\021>\261Th=\350`\035>\221\210\007\276\365\204\032=\251;\260\2757x\341\27555\331\274\035X-=V\345\350\275\233\356\212=r\010\020>a\307<\275cez\275\250\344\017\276\'S\304=I|)\275\335x\021<\363\321\353=\250\0172>#\037\271=\334\311\010>wb\306=uB\035=\245-B\275\225\214R\275\017\rs\275\226\321\217\275\310\022\027\276;\017\257=uA\356\275\214Y\204\275w\005\363=s\341\361=\377\177\312=\344\034\016>\'I\240=\330t\r>p~0>g\206\256=6\202\261\275\335\335\370<\361\016\310\275c\255\354\275\003\357\242=\023\300\263\275=$\216={\204\204=E2*\276\257\255\315\275\007\007b\275\335sL\275\246\020\210\275\324\230\023>\360\230%>\337\263\277=\225\310\316\274\320\237&\276\275\234\203<\207\362\035\276\013`\376=U\335*\276\033(\254=O\322\362=\220\346\016\276\303\037\210=\327:\323=\3175\026\276?\204\261\275\256\346.\276Lo\t>\311P5\275\343N\020\276];C<=!\000<\261\232\204=\0247\214\275\325\244W=lh\007>\002i\346\275\327^\360=\005\271\215\274\030l&\276\230\0033>\003\270&\276\223\024\335=D3\025>[\260\240=\264\211\024>e\233!=z\214\025>\362#&>>\300\031>\022W*\276\253:\335=\017m\303\275\201i&\275\273\303\207\275uYH\275 \251-\276\377L\037\276\344^\331\275\271l0=\005\265\t=\305\320y=\355\016@\274q\022\030\276; \303=u\300L\275k|\366=*z\340\2754\360/>\267\313\300\275\230>\354\275GsV\275mX\273\273\215M\260\2745\212\300<%\224\230<=\324^=\327\017\312\275\276r\034\276\222\315\014>\002\261\252\275\' \352=w]3\276\255t\016<|\303\030>BI\026>\017s\336\275\215\'\316\2755\371\"\276}#*\274\243\031\353=\307?\205=\010e\">iK\031\275?\004\236\275c\331\306\275{\340\377=\033\313\235\275\373%\371=}\345\243<\355p\352<\037=\366=kg\270=\237\321\330\275\255\220\211\275MY\324\274\353V\234=\376\301\005>\n\230->\r\270\216\273Dh\027>\343\312\347=\324q\036\276\207\334\317=\335|\002=S\235\'\276p\342\200\275\207\265.\276\343<,\276`\221&>\235\373\004=\254\300\023\276\227\"\331=M\037;\274\333zg\275\317\017\360=\336\320\000>\21556<\r.E\271\377\235\205=-(\266<\213v\254=\225\306 \276\r\362\201\273\260\240(\276p\'\">y\336=\275\246\263\212\275\345\273\r\275\022\'\247\275\264\0060>\337\367\266=)\0052=\3165\237\275\361\0204\275\271d\024\276\231\332K\275\335\244\336\274\315\326s=\rc\024\2752\306\236\275\315\242\232;sK\300=sF\227=\315\277(\274}\224\013\276#\251\017\276\311\233j\2757\352,\276U\224\004=\372\330\025>#j\254=\355k\323;\016\321\032>\357\360\231=\260\265$\2767\333\224=\264C2\276\r\223Z;Vo\'>`q/>\355&\344\274[\034\277\274%\273\010=o1\315<\275\335\214\276\315\235\373<5\307\346<\262BL\276\000\262\t=;\376\202\275_\210\027\276_\027\316=\341>\032>\213v\235<\336\310d<\036\237\216\276I\253\354\274\220\020\243\276z \206=\025\245,>\351\312\370<\'\031L\275\322h\233\272\312\323\231\276\317\230\216>\177\366;\275xM5\276\215\232Q>\303\0304=(\026k=\300V\230\275\3713(<2\232\035\274\000.-\276\000u\036\276[\340\324\273\022\265\005>\235Jb<\261h\206\273\211\356\025\275\376\350\244>\236\374b\274a\275\263;2\372+\276\034\037\320\273\224W\002>\354\216\021>79\214\276\217\225\212\274qf\212\275\237\232?=\225N\217\274E\362\242<\331\213\014\275\254%\027>\331/\224=\021\214\232\276R\226\327\275\352~\003>\246\216\213=\t\335`>\327\330\333=\357rk;\343\321A>\243\230\255=\220O\251\275\'\273\266=\207\365D=\274.|\276\325\261\035\276!\320*\276\214`J\274\033\326\314\275s\227\235=\200\007\231\272\241\036\307<\250\007\202\273c\274\215\276\376\300\035>\373]\223=H\006\010\276}{\034\275\301sC=\315xv;-v\016=\231.\'=\355\262\014\274\202t\035>\335\006\222<\315\261E;\220x\033>\357\353\315\275\233\017\324=a5d\275\325p\206<M:d<OG\312=O\005\221\276\327\353m>Hl\177\276\0103\232\276\242Z\224\275b\326\034>9b4\275\005a\211\274\354\211\324=sQ,>F\021\350\275d\372\237\2730\344-\276\014\324S\275\r\020\271<\030\360\322=?\274\320=\234\342\352\275\007f\211\275\363\357\327=#N\267=\306@.>Z\035\035>Z\253\330\275\351\3332\276\215s\232\275M\221B\275\271;\022=\277\251\374=]\231\264\274\215\003\333\275q\302\020=\377eY>\366$\005>AA\245=\253\021e\276v\215\214\276C\244\317\275k9\206\276\302\251<\276\353\025\033\276L+n\276\355\361\233<k@\t>cD\002\276\023\027\311\275\247 \220\276|\033\214\273\341#\274\274\201D\343\2751\300\037\276\203\222k=\217\027X\275\374\255J;\370;c\276\225\236k<r\334E\276)7r\276x\336b\273X\026\227\275\271\363A=x\361\246\273\277\202\277\274\223\321\207\276K\005\355=):,\276\022\254\370=\344L\224\275N\266+;\315\236\342=\370j-\274\014\255\225\275\350\'\310\275\243\305\322;.\"\342\275\371V\370=\315n\372<\247\033\361\275(+%\276\377d\r\276M\203\270;\347pl\275\354\246\245\275U`O=u\026m\276\210:\227\275Y@#\276oH\210=\360\263)>\245\222\024\275\346{\017\276\027\254\010>u\324\032\275V\311\025\276y\024\310\274\225\313\221=\277\001\370=x\352!\276\225\016\314=\211\235\244\275\302Qo\274\325!]\275\201\r\001\276\352\007\356\275\0368\022\276\373\016\023\275\253~%\276?\317!>$U]\274k\037\353\275\003\032N\275QxL\276\t\270e=m\024\r\276\375\024\355<0i\">M\030\245\274\370\366(>\315G+;a\220@\275\235\346^<\335V\311\275^\334\001>\365@\216\274\225e\353\274\375f\207\274\224\253\017>\217<\350\275iB\344<s\200\270\275\367\005\340\2751\235\r\276\211\363?\275\341Z\225\274\255\202\003=N\324\215<\303\016\344=\327\214\313=L\351$\276H{\t\276}wr<\223\331V=\212|\311\275Mr\'<\250M\"\276\276\235\266\275\221\3674\276\021\276T\275\003\322\326=\211\311(\276M\375j\273\234\346\211\275\373\006\347\275\315K\002;A\240X=}\007,=\002\272\327\275h\310(>\r\032_\274\275R\'<\315\014\n=\235T\341\274\036\351\034>l\261\023>\303\312\374=\257\005\222=}mI\275\037q\351=o3\327=\247E\243=\030e\024>\037t\304=D\213,>\210m\025\276\316F\017\276I\267\033\276\345=\365<\315J!</!\357=\222\360\001>\035\216\250<\321H\035\275\214H\321\275j\\\024>\'\201\207=\335oX=\202\351$\276\033c\304=\017g\223\275\367f\333=\215\250\210<\031\036\037\276\215\260\034\274\020\036\214\275\223\032\007\276\234\2330>Zs\017>\017D\332\275\016\326\336\275\357\003\316=\345\230\027=d.\023\276\207\003\361\275\231RJ\275\305(\365\274\211\324\033\275\213\330\273=9-\016\276\315\374T\274\215r\376\273,\373\255\275\r\'\274<\372t\032\276M\013\375;\310c\032>mXG\2759\203\330\275\207\372\323\2758M\020\276A\'\031\275\273\247`\2752r\260\275\362j$\276\007\333U\275\202\276*>\005,\201\275\364\300\270\275\255D\373\273\301\322=\275\251\013\224\275\337\247\243=\234\014+\276ecM\275\177\267\363\275\024\253\036>{\255\247=\r\346J\273\213*&\276\255\202|=\247&\001\276\021\210\302\275\005]\247<MA\"\275\364\300\n>\351\230\223\275\006e\202\2754\007,\276\354^\003\276M\316\325\275o)\367\275\027\213}\275\\\334 \2761\2063\276\311{\206=\314f\315\275m1\201\274.S\027>\007X\372=\255|\215;g\'\300\275\307X\003\276z\326\003>\016.\024>?~\335=\203s\241=\221\264\025=tJ\035>\215n$=\274\"\004>mE6\274=/\223\274/\351\313=K\241\372=\003\003\201==v]\274 \223/>iEk=\255\302Y\274\340\312\020>^3\026>\277R)\276-\375\212\274h\236\017>#\027k\275\345l&\275\330\245\005>\035\026\345<\316\326\033>\005\276\322\274y\025\030=\235\264\376<\'A\006\276j-&>\356\361\025>\245\345F\275\216\\\027>\301\260{=\343\315\351=\215\353\030\275\004\253\225\275\035\253\311\274\272\300\316\275\r\363];`\353\"\276\322\034\t> P\002>\232\t\317\275\234\270\031>O\177\325=\215\013`<%n\204=\342U\005>[:\322\275\320\264\327\275%.3\275\355\tu\274=\341\324<.\t\307\275\215\321\344;}3\032\276\337\246\364=\355\212\201\275\312U\r>l\260\027\276\022\203\276\275\345\004\373\274\351:\301\275\032\301\316\275fk\252\275\275\221\021\274ox\372=\377\271\t\276u\004\307<\021\271f=!\267B\275\003\323\377=\213\207\304=\031_\224\275uT+\276\360\016\000>U\253d=\023\246\203=Oa1\276U\365u\275\257\n\232=l`\344\275{\004p\275)\222$\275C\215\234=\000-4>\320\013\024>\314\301\004>\205\202A\275\022\360\314\275\305f\'=Q\332\250\275\201\314F\275\205c\273<\004i\002>]\245\005\275\323~\031\276kH\252=\274M\337\275\353\226\306=iV.\275\365\260 \2760\235\307\275\007\265\313=\2552\204\273\200\272\311\275\020\326/>\343`\214\275O\344\273=\240 \266\275\r\034\232<\255\345\301\273\332\3750>R\204\325\275\313\302\263=}vr=\301\022h\275Y\356\330\275m\034<\274op\366=\207\256\334=\261~0\276\005\nT\275\222\"\035\276\255\216\234;\341RP\275\262|2>7\340\316\275\365\221\\=\345\226\215<\306\304\031\276e\261\350\274\307\277\250=G\321\202\275\025\200m\275\200\372\267\275\266\256\037>\335\364h\274\205Z\241\274\267\002.\276v\343\261\275LN\031>\307\013\357=\331/a\275=k$\275M\020.<KF\257=\2740\n\276\251\205\223\275\324L\021>\'\343\207=q\371\037\276|\315\212>\007\303\004\276,\010\272:cG\\\276\311\251\214=\273o\243=X\254x\276\363\003\000\276PS\204\276\214\034&\274\315\r\235\275\020\025\006>\353X\336\275\235w\016\276\206\036\222\276\271\324D\276\017\241h\275\325%\002>\207\347J>\272\252\231=D\241\246\275\177\345&\276/\213\002\2760^\225\2763\3404\275\233\266\020\275)\232\337\275\227tl=\327\002n=\245M\213\274\020\205$\275Y\267\177\275\310\3511\276\010\227$\275\203\275<>;\340\020\276 +N\276\263\316\303;\301\037\t\276\220\"\233\276\367l\000\276\202y\177\276\314\021\214\275c5\315\275r\322\t\276\323\205\007\276\271\223\274<\017Z\366\274\345?)\276x1\206\275\237\221e\276]\305\365\275\314\353\217\276m\370S<\375Gv\276\326\3059\276E\325v\275<\272+>\006\256\034>\r\247h>\255\260\236\275ld6>\223\r_\275\357\333j<%\365\223<\256\221W>\271\324\305\275-7\265\275\021\372>\276\205\243g\276(Q\321\275\375\r\250\275\305\237\275\274\312\314G\276)$\317\275\377\346A>\304\014\226\2755i#\2761\r\222\275KP\027\275\213\016\305=\235c\023\275= \320<\305F\214\274=\244K=\300\312\355\275\302P >\010\030\235\275x\365\354\275el\362\275m\323\243\2735\227`=9\257W=fs\035>o\311\302=-\322\233\273\36717\276\224\\\357=N\234-\276\353;\227\275\307ub\275\371,\013\276\241\306s\275@\220\002>\271\"\215\275!\277\225\274\r\021\363:\303\314\210\276\275D\231\276>\326 >=\373\372<\316\006\302\275\026\320\023\276\007\322\255=\315<\022\276U\303\216\274k\217\362\275)\310g=\215#\202\275\336:\005>Kb\345=\t;\025\275\377D`\275\254\007\205\275m\245\315\274\035\371A<\273\234\271=\2230\267=\355\245\244=\270A\001\276-\217\233=W=\344\274\355\251W=#\374,\276\t\033\264\275\206\210\222>\005\264<\275\014\202\"\276\001h\207=4K\"\276\273(\003\276\000\006T\274\3667|\276<\021\210\275\341$\265;\365\250\214>\201\\\240=;\243\317\275\340\"\207\276\242e\245>A\0334<\200\330\356=miV=\365\226~\276\300\307\207>\217\353u>\200\272,\276p\037\302\275\'\005_\276\303W:\276\356\r\256\2759\301\037=_p\025\276\r \374\272\302\030\202\275\025\236\301<\257K\234=-\024o>-\244\237\276Y\022\215\274\353R\177>\225\210!\276\027\366\244\275\213\217\233=\t:\367\274s#.>\323\312$\276\263\367|\2761qa\276\323p\374=f\243J\276\342z\014\276\313a\213\276\223\224\206\275e\206\200\274W\202\203=1\301\245<\177\021\314=\233\342\001\276\252z\337=3N\033\276>`\017\276\312A\001>gQt>\223\265\213\276?\257M\2754\214\371\275s\314\t\276uVh>\263\321\277\275&a\037\276\241h=\275IL\016\276*\240\233=\335\245b\275\203\332\013\276\261\255\241=\377\035@\276\267\203\364=2\2404>\201ey\275`A->\221\r8=\243\211\266=\023`\311=\375\271\200\274\236e\230\275\tL\006\276/z.\276\'/\323=\033\272\356=\333c\016\276m\010\360\273\315_B\274!\377\201\274\003\246s=\355r@\275\r\325\035\276\377L\246=\036\245j\276=f\006<\346b\207=v\310\020>\315.o>m\312\263;i\204]=\311\355\001<\"\231\201\275\207\274\217\275\265O~>,\333\224\275\343\354\274=5g\014=\251\322q=\301\217\334\275\001\303\037=-\247\003=\336\037\253\275\347\304\255=c$ \276\315\361r\273\n\340\301\275\247\341|\275\245\330\222=\243\371\235=-\027\017\275_\241\031>\225\\2\275[W\271<\321\234\207>\252\347\035\276\361\213[=O\236\003\276umb\275\r\2171\273Yw\276\275+\353\341=\336i2\276-4\314;)3\003\275\020Z\023\276\3741r\276\270{\r>\373<\377\274oDd\276er\307<\337\374\010>\371\244B>5\277\206\275\211F\023=$P\360\275l_\365=2@\202\276\216\250\027>w\215e=,\322\214>\031Y\201\275\303\246\315=\271^\024\275\037\300\321=q\242/\276\017W\316=[l\030\276\005D \276\315*\332\275\215\234H;D\034O\276\261\375n\276qd\252<K/\263\274\341\270\365\275\031\360\210==\215q=\264\365J>\327(\356\275o\331\274<\032q\303\275zE\304\275y\0361=2\242\247\275u\227\257=\ra\001\276 E\"\276\343\303\364=\223\361\r>U;\227\276\371\211\333<;\351\372\275:\271\310:)\311\267=\325\004\306<O\007\231;U\223\256\274\000\300\234\276\326az\276\365\006k<\263H\253=k\200<>\343\322\353=\223X\237\275\350Q\026>\347\312\026=D\027\254\275\002\217\033>\265WF>TE~\276\337\341\361=\323\310U\275\023T\311=G\003\252\275\200D\000>\370<\017>\312\266/>\215\t\240;\321\303\030\275]\306\207\274-\r\253;Eb\034\276\024\264\r>\207\304\244\2750}4>\214\010(>\274\376W>\n*\021>\200S\211\2756\010\201\2768z\033\276i\311\372\275\324\223\006>x\260\026>\315\"\217<\201\327\004=\213\304\331=\216\216\236\275\246-\275\275\205\314?\275\261\256B\275\"\320\004>\345\336\251\274Qj\r=\217\250\216\275\323\013\363=~\322+>\215-\277\275\035:_=\327\264\315=\220\345\312\275\032(\003>`K\024>M\331\332\274\246\n\202\275\237n\232\275f\225\216\275\003\'\230=\315\340\331\273\257\006e\275\351\216-\275\323d\321=\251\212\222\275\010\267\034>\341\214\025=\375\350\227\275\357\363\376=\r\274\"<\303\240\241=\355\320D=M\243\261;\027\034\300=\245\214\341<\242S\312\275!\224\035=G\367\241\275mQ\003</\211\263=\201\004_=\257 \336\275\372\335\014\276\214d\t\276q{\204=\025\202\306<\215\365u<\026\037\021\276c\363\376\275\315n\352\273\255p\227;-$/=X\200\030>\346\237/\276\274G\017>b#\000>]\210\020\276Ee\217<\233\205\273\275\215!\362\275\375\035\330<\301s\351\275\377\312\307=0\227\326\275\205\312\330\274\177\323\300\275\33145=\270\221\307\275\235\345A\275\034:\000>\255#\320<\215\"\230<mt\027\276\255r\004\274\315\3038\274g\\\353=\r\033\261\272\203\352\334=%\333\"\276\371O\236\275N\235\006>\031\226c=r\"\223\275\215D\241\273#K*\276\253\267\347=l\247\207\275\375m/\275)\367/\276=\366\254\274\255\005\212\274\367O&\276\215\216\231<$m\222\275\275\037\230\274y\020n=\211G\215=\374L,\276\247h\353\275\326\376\032>;4\230=\207N\367=\235\024\313\274\'b\207=}\213}=\331\301X=\265\310D=E\213\266\274\242\271\261\275c{\245=\273}\371=\000\314\233\275\325 \026\275\357\271\361=\ra\034\274\347M\246=\347*\240=\335a\034\276y\241\376\275\262\266\227\275\207\231\010\276|W\020>\257\345\235=\361\2157\275U@4\275-\342\357\274\367\t\356=\221{\033=\355\006\265;%-\231<\rZ\300\275\2760\004>\335H\333\274\375H\336\275Y\320\022\275m\226G\275\r@\3619\317\360\266=\026V\306\275\205\252\356<\233i\357=\315O);g\350\215\275\235\'A<\rO\221=\315H/\274\201\t\001=8\266\221\275\321Au>p\234\t>\322\036\214>Q\202\353\275XL0>\336\363\032>\\e+\276\034jK\274\255\352\261<\022\325\245\276W\367\334=`\317\306\275\034\357\225>8[\224\276d\217Q;q)\332<J\243\315=Jk\207\275\356\253\227:\207\0162\276\0275\252\274\035n(=\355\215%\276%X\242\275\022\371\003>\224\222,\276\251\0364\275\n\360N>\253!\300=\'o\224>\003\302\322=/E^\275\215\326\245;g\332\000\276.\033\006>\361M/=|\001)>~\335|>\321XY\275\223\023\347\275\347<\202\276E\356\371\275\335\342$=8\371\254=\311e$\276\272\324\017>)\215\032\276\257\264\014\276\345\363T=\307\307\305\275:\266\017>\345\304\202<H\307\231>\325\240\221=\360\321->\315\014P>E`\353\274\315.\035\273Fi\352\275\376i\034\276\005\255\017>\255q\201\276B~w\2761\277Z\274]\250K\274\352\000\t\276Z\0043\276\0216y>4\035\313\275:h\020\276?@\022\275\223\002\333=\035\001m\274%\325\216\274<\200\325\275\240\221\020>\020\027\354\275\305\335\257\275\274\226\032\276\235\276\332<W\200\337=\003&3\276\247\307\315=\'E\204=\323\331\016\276\335\307\030\274\020g\253\275\3442\020\276E\207\005\276\tZ\317\275\315\005\253;y\371y=I\370\007\276\324\374\023>\314\3634>\207\022\277=W\323H\275\204J\336=\r\023\000>i\2166\276\267\342\331=\033\354\345\275\324\325 >\3451\032\274\272\361\017\276\321$k\2762\361\022>>R\215>\003[6\276\246\006\205>\207@\201\275\332\231:\276\205t<=qx9\275uL\224<\345vF\275=\251>\275\032u\334\275j\013\272\275ZA.>X(\265\275-\201 \275-\205\263\2737k\027\276\240\223\026>\372\3341\276-EN\275M\377\343;\263\311\257=g\210\353=6\317->\177f\303=\236\326*>q\235k\275B\261\333\275=\360\362<\rIH\275\002\2410\276#P)\276Q`x=Y\002+=\321Du=\315\003\345\273\275r5\274\r(\316\274\275\315e=\223\373\275\275\345\243\037=\325\343\205\274\361\025n=\301\206#\275\277\243\350=\221\3513=\255\2301<c\031\227\275\340\"\003>\277\355\247\275Q\354&\275\225*\001\276\237\032\365=\022e\027\276;\265\224\275\315J#;\r\331\006;E\372\t=\3071\351=l\266\204\275+\024\307=\325\361\023\275bK\355\275\301\304\363\275\335:\334<\375\3442\274sp\247=\r\200D=\r\002\002=\200\177\037\2764I\347\275\n%\253\275\361vp=u=\034\276\321\337c\275\375\253]\274\264t\t>`\352\006>v\365->\340\027\024>\305\244\317\275\215|\n<K[\330\275\325\364G\275\223]\032\276\355\235\340\274\350P#>\200\t >O\203\336=c\324\344=\201\213\'=\005\035\215=\002\303\006>\256\366\000>\033\371\211=e1\371<0\215&>\355\0378\274\261\221:\275\345U\032\275\035;\331<]\346{\274\'~\305\275i\342\013\276~\020\007>\006n\033>p\301,>\001\236\372\275\255\035\224\273\005\004\200\274\024\2321>}\335i\2751\377S\275\375B\017\274\271z\026=\271\332\036\275\'4\315=tR\372\275\225D\277\274\325tV=5\273\210\274m\223\277\274]]u\274r\032\240\275PS(\276\247\365\243=\000\206/\276\323\024\324\275\255@V\275\r\026\233\273\245\344\202\274i$\033\275\336\377\t\276\346?\003>1\222\006\2757\302\376=Qu^\275\205\253j\275m7q<[\344\313=\203\204\025\276\221\377\003=\344:.>\271Gq=\003\374\371=\323^\314=\255\261\316;S\211\224=\235\336\032<.\257\r>\034w\005>\241\220#>\033\020\235<\233<\022\276u@\031\276\0105\207\2767\3703>\300~\032\274R\177\310\275\246\350,\276\220\200 >\206+<\276QU\302\275-\035\217\276\017\215\220\276\260\027\007\274\274&\266=\201!7\274m\350f>\217o`\275Q\316\247=\271\244\204\276\327O\216\2743n\377\274\330>Y\276G\203z\275\307\307\267\275\264\326c\275K\356~\275R\324(\276/\327\350;\275e\362\274\264\321\215\276\267\260\335<R\026!>\205]\315\274\274\366\363=m=\304\275\273\016\201\276G\332\215<&\336\n\276\240k\302\275H\276\260=\177\353\200=\255\026?<\307c\027\275\264\037\311\275\225\256\350\275\007H\r>\323\330]\276\r\344\370\274\227H\276\275\375\250;\274%\006\007<\265*\222\276w!\302=\257\n\033\276\001yq\274\023Y\363<\261\252\313=Q\216\033>O\026\247\276\2072\344=\r\332\026=\330\371\310=\007\331\237\275H\2138=\265\374u\275C\354\260\275\343\232S\276\363M6\276D\247\020\276\031\027\031\276\314.\204\276\331\354\246=D\340`\2745\243\332<\037(P>\345\260g>\3376\357=I\350e=\230\261)>\314\257\323\275\337H\350=A\336o=\rF\217\270\255L\332\275\250\234\037>\277\301\275\2751:{=?\226\375=|\371\004>_<\016\276\342,\274\275\323\315\375\275\256\330S\276\210^\025>I\024\204\275\242\3521\276\323L\360=\275IJ\275\244H.>-\201O\275\307*\265\275 \300t\276\341\276\007\276\356\214\025\276\231@V\276w\'\370\274\'\211$\276\274\355\020\276\027[z\275+T\302=m-\\<\002\241\013>\201\2324\276\036\265 >\335/Z=\025b\266\274\006\204\">i\346n=\010\233\033>\376\201\005>\026\271\035>z\345\033\276\355h\337<O\317\374=\005\202\222=\265\246\233<\253\021\310=w\272\234=\275\201\225<\244Z!>GF\341=\335d\321\274?T\312=\n=\013\276G\274\257=\364/\003\276\0053\304\274\243\321)\276\035\364i<\365\242P=\3536\252\275\322\214\036\276\016\024\005>\207\245\332=\372\034\252\275\226\230\036\276\326\272\036>=Uq\275?I\264=cF\245=[\031\351\275qf\357\275Q:\363\275\355D\324\273\311\265\214=\035\334\365<\263\263\235=o\346\310\275\tK\223=\277\203\226=\310\346*>\002\027\310\2752y\234\275\315\343\025\275]\330\342\274-l\243;%\031\357\275\033_\356=w\333\241=$\231\231\275[\025\330=\316=,>\333\026\235=\177\034\230\275\034\257\016\276\254\350\025>\263\336\221=\231\361\020=\255S-<K\371\365=\'%\021\276}U%\274T\377*\276\345\344\303<c2\330=\030[4\276\313\362\266=\270\211\345\275=sv\274\311\353b=\r\361\004=\205\347n=\0315<=\27537<\027\270\254=\273\217\251=?c\211=\340L\023>o\005\213=\241\325\255\275\027d\275=\311\341B\275\003\017\230=\351\374\010\276\\\250\031>\375>S\274\214\354\027\276\005\266\344\274\375+w<]\206\201\274h\2310><E\024><\260\026>\315,\262\274\355\274/<\273\021\035\276\243\375\317=8\034\024>\004\276\001\276-\276\345\273\tO\026\276\223\326\022\276\375\037\253<W\337\246=\311\336\030\276\217\374\316=\243\001\362=\262$ >\334\344\243\275\3432\367=\277\2743\276\237\353#\276\000\211\r>\213Q\032\276F;\010\276\251\313\266\275\036\2371>\355\034\000=]G(\275\335\322!\275\255\236\221<\205(\321\274\3217b=\204\201\020>\255B\246\275\245\302;\275G\177\031\276r\253\034>\252h\334\275+w\n\276\315N\315\275$\366\332\275\025\300\034=f\377\020\276\201@+>\272\277\021\276\324\243I\276%\363\235\2759\267\366\2743\376`\274.\323\306\275\267\366\356\274\3555\241\274\027\r\324\275\\\344\202\276F(\'>\361\264\205\276\356\026\253\275\211\246\261\274Y\021\'<\307s\247\275Y-\337\275>\006v<\003\307\301\275s\311\212\276\026\242\333\275tD\242\276g\343\241<,y\022\274g\210)\274\371\317\324=r\010&\276\215\014\000\274{\203\327<\305*\311\274T\271\260\275\326\016\226\274\275@ \274\326\r\256\275a\355\021>\307M\212\276\223\244H\276\263z^\276\314\014}>\340,\247\275\342\355\016\276\265:A\275\355\361\235;\217v\325\274\271\222\001>\007\036\344=\357\315\263=\3244\223\275v\316\204\275\321e\202>\355\315\222\274\355\3262\275\005\024\231>.\207!\276^h\222\275,p\371=\300s\334\275T\315u<J>\352\275\034\020\230\275\025)\r\273?\233\350=M\363\362\275\321J/>\020%\377=\3177\032\276\223\305(>T*S\276\254\031\014\276\377\241\270=\352\212\200\275\017f+\275tv\001\275\364W\355\275/#\300\275\310\367\033\276\264\334\250\275f\317+>\343N\320=m\252\272;oo\272=\266a2\276,\3130\276^\337\023>Sn\026\276u\023\353<\367]\355\275\023\303\233=\3676\324\275\223w\023\276\304.*\276\"\273\t\276\005+<=\006\360\017\276~Z\325\275\333c\334\275\303\376\232\275\0252\340<\035!H>\t\2038\275\233\007(>@\365\020\275\226\236\"\276\263\253\243=\215FG>\376\324\215\276\266\255\345; \344\207\275\315\261?\2757\n\236=\r\030\n\273\3025\271\275\235\371\377\274\225\373\021\276\200\225+\276\305&\303\275\214\223*>Z\t\020>\314\301\t>*\216\003>-CU\274\r\363\200\273\032\312\003>\313f\316=\242\336\263\275+\3077=ic\037\275\205\201\261\275\231&j\275\244\233 \276G\233\037\276\322<\211\276_{\277\275O#y\276\303\245\016>\252\333,\276\'\305\366=\0326\202\276\344o\237\272\000O\222\276DbT\276\322g\224\276\260\250\227=\273I_>\253\361^>\013\010,\276\372O\214=\254\206$\274*\346\016\276\022t\270\275\036\261\035\276\217\233(>%E\014\275\231\n3=GsC\276\345`\254\275\222\177\240\276\235\342\025\275z\202Z\274R$2>U#\242<\275\232\214\274_\263K>\031\034\005<\225\341{\276\237g\341\275Bk\031>\013\203l\276C9\240\275\206\346\017\276\335~\312<E\025B<q\370@>\315\343*\275iP\315\274\356\374\313\274\263\325\004\276t\317\233\276I\214\317\275\276\016>\274\261\346\257\2740\032\274\275\tho\275\272\206\266\275O\266S=\302\311\030\276)\377\273<\205\372\215>\213B\014<\035\345\337\274\323\215\346=\340\263\304=aU^=,HC\275\241\230\016\276\367\363G\276P\241I\276>\261\346\275\260\377\374=\245\261\305=\224<g\276\004\366\021\274\265\316&\275\275M\000>a\373\264\275T\203\013>\252N\035\276E\356\306<E2\000\276\021\206f\275i\252\033\276\217\204\343=\335\211,\275z\265\013\276\345\273\355\274\tH=\275B<\n>L\005*>UL\007=}\224\035=\337\300\351=\315f\005=[u]=\255\276$>|\014\241\276\325\272\020\276\"\214\323=\344\367\267\275\241\3032\276\334/%\276i\0318\276\005\244\302\275e \210=\020\242a\276-1d\275\261\265P=\343\032\341=\360\302\374\275\323\244\022\276\021GZ\275\325yJ=5\033L=Z%\267\275\035\252\375<u/\213\274\327\263\330=wg\215=^r\375\27555\374\275\261\233\217\275\022\t\031>G\235\334\275\372<\006>\353F\266;\263\025\234=\325\334\245>\300\371P\276\373X\266=\027\036\264=3\361I\276b6\236>\355d\351;e\265+\276\344\356\006>\262\231 >\305\242<\276q\010\342\275:\252>\276n\271\213:\334j\212\276\220o\203>}r\220\274&A3\276\331\212\317\274\307\260\272=\022M5\276\214\243\220\275&IG\276\247\002\244\276\237(\'>6\217\316=\361E\257\275\367\354\033\276\027\010\007\276sHO\276z \360\275\252\260\204\275m\300\331\275\225\253\260\275o\0237\275t@\236>qs&\275 \366\254\275\251\251\331\275-\377\223\274a\367\347<m\267\337=Fu\236\275\2152\025;\016\267\266\275\240q\204\2764\373\n>\241\356\030\276}\311\222\276\255\330\226<\207\227\240\276\017\251`\275\020\213\335=\233\030j\276M\354P;\010\214\346\275\364K\206\2764\236\227\2759,