node {
  name: "x"
  op: "Placeholder"
  attr {
    key: "dtype"
    value {
      type: DT_FLOAT
    }
  }
  attr {
    key: "shape"
    value {
      shape {
        dim {
          size: 4000
        }
        dim {
          size: 24
        }
      }
    }
  }
}
node {
  name: "decoder/conv2d_transpose_7/Shape"
  op: "Const"
  attr {
    key: "dtype"
    value {
      type: DT_INT32
    }
  }
  attr {
    key: "value"
    value {
      tensor {
        dtype: DT_INT32
        tensor_shape {
          dim {
            size: 4
          }
        }
        tensor_content: "\240\017\000\000\004\000\000\000\004\000\000\000\010\000\000\000"
      }
    }
  }
}
node {
  name: "decoder/conv2d_transpose_7/strided_slice/stack"
  op: "Const"
  attr {
    key: "dtype"
    value {
      type: DT_INT32
    }
  }
  attr {
    key: "value"
    value {
      tensor {
        dtype: DT_INT32
        tensor_shape {
          dim {
            size: 1
          }
        }
      }
    }
  }
}
node {
  name: "decoder/conv2d_transpose_7/strided_slice/stack_1"
  op: "Const"
  attr {
    key: "dtype"
    value {
      type: DT_INT32
    }
  }
  attr {
    key: "value"
    value {
      tensor {
        dtype: DT_INT32
        tensor_shape {
          dim {
            size: 1
          }
        }
        int_val: 1
      }
    }
  }
}
node {
  name: "decoder/conv2d_transpose_7/strided_slice/stack_2"
  op: "Const"
  attr {
    key: "dtype"
    value {
      type: DT_INT32
    }
  }
  attr {
    key: "value"
    value {
      tensor {
        dtype: DT_INT32
        tensor_shape {
          dim {
            size: 1
          }
        }
        int_val: 1
      }
    }
  }
}
node {
  name: "decoder/conv2d_transpose_7/stack/1"
  op: "Const"
  attr {
    key: "dtype"
    value {
      type: DT_INT32
    }
  }
  attr {
    key: "value"
    value {
      tensor {
        dtype: DT_INT32
        tensor_shape {
        }
        int_val: 9
      }
    }
  }
}
node {
  name: "decoder/conv2d_transpose_7/stack/2"
  op: "Const"
  attr {
    key: "dtype"
    value {
      type: DT_INT32
    }
  }
  attr {
    key: "value"
    value {
      tensor {
        dtype: DT_INT32
        tensor_shape {
        }
        int_val: 9
      }
    }
  }
}
node {
  name: "decoder/conv2d_transpose_7/stack/3"
  op: "Const"
  attr {
    key: "dtype"
    value {
      type: DT_INT32
    }
  }
  attr {
    key: "value"
    value {
      tensor {
        dtype: DT_INT32
        tensor_shape {
        }
        int_val: 1
      }
    }
  }
}
node {
  name: "decoder/conv2d_transpose_7/conv2d_transpose/ReadVariableOp/resource"
  op: "Const"
  attr {
    key: "dtype"
    value {
      type: DT_FLOAT
    }
  }
  attr {
    key: "value"
    value {
      tensor {
        dtype: DT_FLOAT
        tensor_shape {
          dim {
            size: 3
          }
          dim {
            size: 3
          }
          dim {
            size: 1
          }
          dim {
            size: 8
          }
        }
        tensor_content: "G\314\337=\206q\324\276\373G?\276\020\241@\276\223\345\262\276\\8s\276\343\306\266=\270\001\252\275\203&2\276%F\252\276\0267Q\274F\320\234=$\026\232\275\204\243P\276\255\266\223\276\320\356C\276Y}\327\276\2173\227=\025/\226=a\301\223\276\355\035\237\276\211\035\327\276&\335+\276\251\301\362=6\206o\276\017R\254=\n\245\271\276=\305\326\273;/1=\255\206\237=\031Dv\276\255\030\304\276+N\254\276~ \016>i\037\274=\357\252\317\275\355\351(\276\241-\200\274)w\334=\341\207\240\276[\316\235=\366\013\272\276\003\256\270\276\021\201\230\276\0233\020\276\362\035\241\276\0025\025\276\277R\315=0\241\222\275\375\033%\275%K\016\276\271\216\210={VG\276\rO\341\275\235\300\304=\3632\254\276\006Q\255\276Gh|\2769~K=\221L\252<\326\353\230\276R5=\276\023\244\377\275\365\316\225=e\2273\275\333\206\200\275\333\010\303\276]\177\213\276[\006\033\275\250\344\031\276l\354\027\276S\317\315\273"
      }
    }
  }
}
node {
  name: "decoder/dense_21/MatMul/ReadVariableOp/resource"
  op: "Const"
  attr {
    key: "dtype"
    value {
      type: DT_FLOAT
    }
  }
  attr {
    key: "value"
    value {
      tensor {
        dtype: DT_FLOAT
        tensor_shape {
          dim {
            size: 24
          }
          dim {
            size: 24
          }
        }
        tensor_content: "i\r\242\276jT\205>\301T\250\274q\021\356\276mx\364=\001\374\313=\212\214\210\276n\242^>\214\024\276>\272\316\216>\264I\237>\256\364R\276EM\357\274\255f\002<\306vB\276\206\302\267\2755\207>\276W\234{\276\263\2110>\362l!=\264\034\227\276\212Z+\276\243\316\377\276g\027e>\rN\265\273t\360\242>\325Ya\274\312\345\002\276\267[\206\276\207\214\346<\257J\025>d\007)\276\300\244\205>!:\223>\300\223\206>\037\006\210\276\356\375\t>\354\371\230\276\306\353\256\276\262Y\301\276\"\261\353\275\375\304\206\274\355 \177>\233\314R>L\030\241>G>\337\275\367\266X>\\l\302>+LE>\302\212!\276\271\024\000=\355\013\224>$@\234\276#\020\032\276\033\224\244=W\271\350\276\252\314\014\275\020xC\276:\014\213\276\257\372\007>`\206\306\275\264,\214\276\000\276\317>\213\\\251\275\005f\t\274\014|\034\2760&&\276\257C\322<\367\316\242=a\232\031>\271\305\370\275\276\347\306>\000n\245>\326L]\276x\350\222\276\252T\013>y\356\223\275\243\366\253>\221a\205\275\t\371\316<Z\340\311>D\212\313\276\013-\206\276=}\251\276\247\014\251\276\262B\242>,4\332>L?U>\314\2554\276\315\204\301;h\202\373=>\025\267\276\202\005\353>\243\271D\276=F_\275A\034\261>[\0035\276\347\\\000>\257\241\241>\271J9\276\255J\263<\361k\201>\177\302%>\250X\377\275\030\024\274>U\271\332\275\375F\224\275\003\215W>\227\006_>\314\310\247>\354\303\343=\201;^\275\033m\321\275\215wW\275]!\222>\371]\220>H\265\377>\376-\274=\314\277\263=|\202\300>\253\004\230\2762?\263>`}\214\2767\207\035=m\'\016<)hS>m\210\212>9eC\276\306%\270\276\005\030\024\275\215\256\307=\r\221+=\0070\'>\366uH\276\371\013\306\276\357\256.\276r\037H<\210q\250\276+\200H>6\325\323\276\227q6\276\034X\257>S\370\t\275N\335\335\276\221\207\201\276\r\313 ;V\231V>\341\251\266\276\307\355q\276\327\356\227=2S\204\275=\274\213\276\356@\234>DC}\276\250;\003\276\341\323\262\276\210\244\207=\215r\310\274\\rH\276\206\3030\276\226\r\344\276s\2768>\214T/<\324\326\264=\344d\001\276\246\233\252\276\213\034\314\275I\264A\276\225d\246\276[\227\212\276\353\375H>\210t\240>\345ox\276\214\214\242=Y\3642\275\234\322\021\276\021\353\000>\013\027\363\276\021z\226==\377]\275\030\236\220>[\236\000>/\225\244>\217g\243>v\304\225>GZ3>X\365\206\276\020\335Z\276\313q\n\276\017y\031>\372,\331>3\nv=\275i\216\274\315\360\223<H\311\352>\215z\327=;\213=>a\361\276<8U\337\276z\220\t\275\226\356\317>\017\314\301\276\026b\210>\364\022\250>\303l\034\276!\210\340\275}d\361\274M\273\262\274\353\375\362\276\343mE>\001\236A\275\000\004\246>\310R\255>\034h\260:\037h$\276!\366\366=O\226A>\357\021e>\243\315e>\230\323\263>q\332\304=~p\317>\315\257\256\276\216>\325\276\320\217\272\275\325\353\205<]\310\"\275\001\004\224\276\301\265\001>\202+\233\276\233a\014>\205\264\224\275Hsq\276\003\2548>5\200\236\275<\2045\276\325\336:=\005\251\272=\243\377\356=\241O\331\273\341\370\232=<~\245>Q\211\317\274\235\324=>\005\2566\275\240\022\222\276\n\337\361=\372\371\366>\001&\344\276I\217\234<I\023\326=\253\211\232\276a*\271<\n\261\260>\202\277\202\276m\370\217>\263)\035>\003\030E>\021\224\274<\\\021\372\276\253\324\277\276\337e\266=\372\023\034\276\367\001\016\276Bp\255\276\233\315\203\276\334\035&\274\037u$>!\325\326=\004>i>\215\361\376=z\314\331>-\240\312=\362\266\332>y#\235\275\215|\252<{]\257>\375\331W\275\274\037\\\276b\271\306>\363\355\315\274\030\016\215>\026\323l\276\212\031\210\276\246\265 \276e\2646\276\322\355\224>\233A\277=l\350\243>\214\312\250>\010\016:>>\371\271>\r\212t\272\330*\313>\332<\314\276l\240>\276\374\300\260>\265s\220\2749\373\214\276u\014\315=iW\251\276\202\006\241>\241\335p=\206\033\234>\027t\326\276?\273\364\275\307\030\232\2764\376\220>\333\377\320\275Oc\235\276\004*\232=\357\221\251>\351\177\303=\031\n\205\275\1774\226\2763;j>\301@P\276\305\257\301<\350%\030>\263\n\276=?\200\314=\2338\021\276\r\336[=N`\200>V\303\013<.1\230\276\251 \217;\251\233)\275\334K\362>\345g\347=\222\231\251\275\223\346\257\276\237\371\262\276\266\322\214>\372\360\234>\037\'\323\276\337{,>\347K,>4\202\225\276\267@\224\276\215\021m\275\013\373\037>4\272\255\2765\275\240>\'\233i>8\031\273>SA{>\r\027^;\177hU>\016k\217\276=\265\206\275X\267\311\276hW\336=\370\310\252\276\207\230\024>\205\344\244\274f\244\210\276-\030R>\203sx>va\033>\215C\020\275\276f\206>9T\311\275Q\374\231\276\325\033U=\264\371\266>\231\305y\276\307\024\307\276\233\355F\276\t\2043;\255G=\274\345a\322\275$\376\374>{\036\200\276\250\305\014>z%m\276h\213\267\276J\266i\276\206R\213\276-\214\021>\342\0375>\336\347\234\275l\246\263=\034\243\304>\017*->\321)\227\276\337$\367<\017\366\n\276\343\215\245\276\367\277!>\252\340\207=\311\223\215\273\375\037\002\276O\313\203\276[\034#>\265\240\363=\'\220L>\033\355\253\276iz^\276\343\001\250\275\372\200\263\274\rV\352=\243\200\035\274\031\2153\276\235\033\025\275\255rY\275\353\345\202\276\356\005\260>;\264\325\275\257\265U>}\243\333<\307\\\273=\216\347\254\276\236\326\262>@\232\347\276E\270\005< .[>\177-\246\276\r\032\010=\330\211\210>\251\204\241>\205L\261=\324!\013\276\245\007>\275\033\314\206=\177\211\021\276\243\0337>\005\203\200>\362\353\202>\315\252\343\276V\366\331>\257\265\326\273\370\210\262\276\237;\022>m\347\004>\016GO\274\230\036\205>3\027\200>Q\360\220\276\237>\314\276\0253.>\237#1>\304/\024\276\177lv>\235\342m\276\333\243Y\276Hd\244=\027\201\274\276!\017\327\275\034\320\n\276\253\271\231\276\241\036\031\275B\354\231\2763\\H>$\331\313>\000*\307>\246#\204>&\301\242>\306\036\306>\261\336n\276,\210\031\276\360Yz>\223\302\000>\306\'\213\276J\300h<y\220\307\276\301\363\306\275\2136;\276Pl\303>\2315\245=\260\335\273>!(\215\276H5\224\276\321\274\370\275\354N\311\275\235b?\276k\016\254=o\251L>\264\246\355>\030\017\004\276\001\363\277=\221\221\334=4\333\254>8\270\221\276x\007\222>}\214=\2757\226J>\224\362\237>\336*\243>\220j\212>\007\212\030>d\000\222>Og\005>\255\006!\274\001o\272=E_*\276\001}\224\276\004\305,\276\275D\264\275\350_\207\2760*j\276\r\231;<o\267\351\275\'Gk\276\373\224E>\323\332\033>\214\271\237>=\340L=a>\027\276\336\267\237>\3577]>\355\001O\275]\307+\276\234\373\233>\344y\207\276u\272q\275\305\310\'\275\317\361a>\220RC\276\r\236}\273\247\367u\276\211\201\236\275\0358\205\274\251\271\273=]H\261\276-P\215\276!\251\203\275\332 -\276\217\355\375\275\r\316\264\275\3303\273>\256T\000>\347\002\025\276\271\305\004\274\307\\1>\033\303\016\276\340!\340>\204\370\331\275I\300\027\276<\307L\276\005\315\261>5|\212\276\355\356\016>\356\017\034\276\315\035\265\276\r\\\347\275\363\030\007>\216C\360>\207)g>\013\364\004\276\004\014\251>\217\225\230>m\353\212<\271np\276\2515\246\275@!$>\003\273\203\276\376{\324>\213\331(>\321@6=\356\272\003>\266\210\266\2725\353\217\276\211\203\241=\215a\337\2741l\231=s\020\022>\037\223\020>\271\320\332<\231\273_\276\0171B;\350\346U\273<\035\242\276\007\262\351=A\222B>\313r\000\276"
      }
    }
  }
}
node {
  name: "decoder/dense_21/BiasAdd/ReadVariableOp/resource"
  op: "Const"
  attr {
    key: "dtype"
    value {
      type: DT_FLOAT
    }
  }
  attr {
    key: "value"
    value {
      tensor {
        dtype: DT_FLOAT
        tensor_shape {
          dim {
            size: 24
          }
        }
        tensor_content: "\000\000\000\000\000\000\000\000\231\340\330=\255\274\237<\000\000\000\000\034J\031>\034J\031\276\034J\031\276\306\022\020>\034J\031\276\000\000\000\000\000\000\000\000\026\375\024>\000\000\000\000\327\230\367=\034J\031\276\034J\031\276\000\000\000\000v(\013\276\376\310\003>\317\037\237=\034J\031\276\034J\031>Z\302\302="
      }
    }
  }
}
node {
  name: "decoder/dense_22/MatMul/ReadVariableOp/resource"
  op: "Const"
  attr {
    key: "dtype"
    value {
      type: DT_FLOAT
    }
  }
  attr {
    key: "value"
    value {
      tensor {
        dtype: DT_FLOAT
        tensor_shape {
          dim {
            size: 24
          }
          dim {
            size: 64
          }
        }
        tensor_content: "VkU\276\r.\236:\335 Q\274\r\340:\274\335\364\313\274C\201\230\275\345\tD>\204\224k\276%\013\013\275E?\275\275\343\t \276\25505>\221\260_\276\365\356\013=\215^\001\274\321\376M>]\\P>3H\302\275Y\2466>{\035\373\275\343\267\026\276\255\241\033=U\214\202=\017QY\276\031\366S\275\307\034\204\2765\351\"\275\255\322\033\274\003\036,\276G83>\317\232\272\275QgK\276Q\332\375\275\r\002\007\274\231O\020\276M\224\232;P\024\032\276\255A\272<\200\342\204>=\010\364<\355y\356={\317->\245\326s\2758+\203\276\325h\030>\375\261/=\351k\246=\355\177\314<\331\364\013\276\355\277.\274\335\n\374=\261*,\276\rS\022=\027\340\247\275\203\2573>\007\261\340\275\225\026m=\315D\222=)\014]\276]\313#\276\235\340\212\275\215\254\246\273\377\262\025\276\346\335v\276\244\032L\276\025\2335\275\377#\005>\315\371\'<`\303^\276\021\2671>\203\354P\276m\313\013>\205\313C>{\005E>\021\247\331\275\363\220\007\276\211\222t>]r\336<M+m\276\215\237\367\275\351M\323=Q\252<\276\211\327u\275\261\342\343=\335 \000=\2153\327<\325\004~\276\274j\203>5`\375=\215\271?>\315@\320;_\377[>\373\335\005\276\271\267\273\275#K\317\275\rl\221\273\375\rF\276U1\321\275\343lS\276%\0376=\"\352^\276e\373[\275\343\tr>\217\210\216\275MI,\274\201\243\022>\375\356+=7\333J\276\035\213\226\274\203\377\036\276\243k7\276\003\373S\276\025_\023=\273\263B\276!u]\276\001W:>\005\255d\276\303\034v>\226<\004\276\241\355n>\365\250S=\265vO>9\271\345=)$^\276\t\235W\275\375\030e\274u\350\277=S\273i>\252\272.>\035\014\025=&@\001\274\034\357^\276\343]x\276q\341\312\276]\310\253\276\217\262\037>\231G\002=,j\233\275\270\372\026>!\035~\276\302\232.\276&\267\200\276\'\251v=\237+.>G\037\355\275\251\031I\276\304\353;\276A\325\203\274\035\014\225\275\2174\342=\'\236>>\221w\027=k\246\322\275]\010@\276\025\031\r>~ \367=\373\020\320\275\302\302\035\276\320y\312\276Z\t\370\275p\243\302\276Z\234D\276\361i\205>\312\300M\276\321W\357\275+\004\234\276\375OW=2`[>\003\200\222>hb\234\276q\272B\276\025\030\315=\243\341\246=Mh\n\274\347h\352\273\350\027\233\276s\3779\275\201\322\210=\356\331\023\274<\026\202\276]5\321\275@-\263\276[\351\215>\313\004J>g\201\n\275{|\233\275\227;\001\276\256\313k>\003\017f\276\333\317I>\247s\257\275U*\217\275\251g\252=\376lX\276\225\337`=\315\277\307={\r\307\2752\367Q\276zix;F\2504\276\033\023\251\275\001C\243=E\005\261>\377#\216\276\312\3711\274)\334S=q,\344\275=\367\342\275Nu\201\276\320\327\236\276\355\302\350=5\337\262\276\317+\251\275\351\215\246\274k\310\216\275\273\204\316=\013\225\200\276\221\367\336=\t=\303\275L\276\204=\2227\252\276r\025.\276c\211\331=P@\252\2766\037\245\276\210\020t\276\3136\027=\003\320b\276\371\024\255=lT\236:\215\341\221\2734\000\212>\362\326\256>\360kp\276b5\303\275E\211\001=\331\323\007>\177u\\\276\202\354\243\276\315*t=\'\243\315\276\241Q\333=}\357P\275FrI\276&\371X>\217B}\276\365*\t>\376\301\261\276nU6>y\000\311\276YK\t>\213\035\330=7\236\362\275\335\223P\276\237\200\354=b\231\211\272\205\260\322\275Lv\203>\207\371G>\023(d>\255<\201\275E\224H>o8E>\r\277\372:\005\364\016=7\243(>\305\004g>\225.w\275\301\215\267=\277\345\032>\005Q\271=\253\313;>9\365U\276+\216\024>\255\321.=u\347\034\276_,p>8\347\017\276\263\317=>\253\036\237\275\371}\007>M\367}\276U\270\t\276M\310\274=\275J\267\275\223>k>\033\206F>U\242X=\235\340B\276\231\031\255\275S\374|>Ms\345;\017K\365\275\025\334\022>e\316\373=3\013}>;\340w>\355\315\"\274)\323E\276m \r\276\023P)>\221\270\202\275Y\316\367=\003o\357\275\235\265s\276\301O*\276\262Hs\276\261\242\t>\237Q\216\275\243\371\177\276\353(8\276\333\226\t>E\352E\275\035\330\024\276QrN\275\225\032)=A\252\251=\305\345!\276\237\3414>C6*>L\272\330\275\r{\311;\201\322\016<o!\275\275w\016\016>\322]\231\276\251\363\265\2751\203\234\276n8\317\276\2065\202\276IhV\275\241\r\227\276Z\t5\274\026\312X\276\223\252S\275\234\276\234>dH\033\275b\253\202\276\215\355\356;Q?=\276a\031F\276)\261D=\237\242k\276A\207\022>\003\306\017\276y\\\340;\217\356j\276\022\n\005>M>\334\274\351\010\316=X\023\034\276\"BA\276\271J\n=09\311\276\377\243\260\275\375M\257=;\306C=\311\027\347\275\205@\340\2758.\240>\275D\245>\026+X\276\317\241\262\276\005\273y\276\025\213\335=\345\016\343\274\261\034\360=\021\n\253\274\371\350?\275\2356\030\275\360y\034\276j\272Z\276\021\177\263\275\363}V\276\221\362\304>&&\014<\274o\035>\345\256\316\276Is\305=\032\260\231<\177\020h>\364\242\025\276\303\352\273=\007\030m\276C\357\033\276\222dy\276M\341$\275\263\014m\275\257l\206\275\323p\341\273\031J\274\276\205\261\367\275\003sS\276%\365\371\275\257\275\304>\rwI\276\277\254\240=\256\345\257\276\256\\\256<\212\247.>:\271N\276\227\261\222\276\251\322B\276\037\000\222=\255\224\022\274\n\337\260\275\340\t\036\276D\341\244>\016\256\215\276\243\031&\275\315\222\376\275@\345c>a\204\304\275\020\205:\276\251\274\341=\265\346%=\375q=\276-b;<\223b\203>\367\373I\276\357N\322<\353nK\276\232\256I\276\230\221\234>\200\340\314>#\"\n\2768\272\271\276\221\246m\276\322B\237>egh\275\304\373\262:\366\254\003\274\341G\320=\225\201\327=\301\205M\276z\034\310\275q\334\317=\373\370\005\275/\230(=\363v\276<I \205>\361\253?=\312#\354=\006Y\030\276~\375\202\276\316\315j>\035{\312\274\3154\255\276\177\027\205>\215\205];%\363\260=\247\374\274\275\252\t_\276\343\201\021\276x\372\000;\313\237\267=\033\352\255\275>\245\206\276\373\n\224\275\322\325\203\275\265\263\327\274\300Ns\276\177\323/>\304\362\205>;\213\014>-\2559=lR-\276`\217\300\276\r\2216;\360\375\203\275\357\334~>\"\200w>\245\351\214>V\274v\274\017\247\022>\341g\313\275\355\207\005=+\036\030\275\224u\237\276QO3<\207{r\275V\\\244\275E8\274\275\207\016j\276\010\374\271\275\371\t(<\225\372\225=\177\372H=\0205\276=`&g\276a\023\016\2761jW:\010\344\254>H\034\201\276\2063\251\276\014\270+\2763\020\016\275OJ\223\275\345\314\270>I\"\313\274rF\224=e\375\332\275u\003\344=/\341\311<\245&\005>\rt2=\346\324}>\'\202\037\276\2259s\275\267\340\204\276\"9\346=9\362\211=\2647*>\257\221r>\220+g\276\316z\252\275M\222\363=\363\357\034\275!\316\001\276(\213\020\276#/\203=\266b\251\275\345\003|\274\217\335\022\275\206\327\302\276\177k\330=M\375\206\275\340s\221>\022.D>5\2570<\373\220K>u\251\215\276iw]>Cz5\275\030u\026\273r\276v>\t\304\035>\235\320.\276+\364\237\275\253.$\275\005\352\317\276\205u\270\2753\243\233\275\t\371\202\274\262\367\327\275\354F\013\276hOU>\255\343\267\274\227/C\275\360\r\300\276\r\234\337\275\241;\315\275\357{\221\275\030*\300\275\004`^\274\321\355\'\275@05>\254\375&\276\261>|=1\341\305\275\223\007\224\276\3011V\275jW\231\276\000,\275\276<\276\t>\027~\333<\206\352\300>\216\024\030\276\000&\243=\323\227Q\273\367\272\306\275\375\010#\276\267\221I\276\345K\236=K\033\306<A\353p\276\002\221\267=\237.K\276ns\301\276H \242\275\031\331\356\275\327\355\272\276\334Do\276\t\317\242\276\251^3=\325\017\244\276nR\220>\261\014%=\004)\305\276\2730\005\276\215G\264\273\376_<>r}\275>b\244L\276\003\221\277\275\277\320\311<}\252\302\274\372}e\276\202hA\276}\314~\275E\244\357<\202E\215\276\276gM\2762~$=\225\372o\276\030\267\n\275\014\330#\274\203\312+\275\201\321\235<\241]G<]F\250>\251\314\354\275\321\226\366\275\0214\213=7pO\276\335\356\356<GC\325=}e\014\275 \177\t\276 \033-\274y\0305>\035\325B\275\233\007F\276R\362\254\276\000\345{\274eB\321\274)\343\254\275\344\325V;\240\352\256>\224\314\216\276\000\366\274;H(\200\273\021;N\275\336\201E\276\241\221\230\275|\245\311\276M*\013\2742\033<\276A\224<>KB\310\276\035\002\277=m\230\343\275\005\344\302=\027\233z>\231o\303=s\231C\276\352m[\276\363\342k>\321\307\016\275\345\026\326=}\023\303=\201\204\006>A\000}\276SU!>^S\205\276\275\237\337<%\362J\276\213\\5>\355\3026\276!\177K>\r#d\276\247\024N>\001\335_\275\375-t>\021\310\222=\272\3411\276\347?p>)\366\361=\005(\326\274M\307-<\367\035S>-\2123<\027\242J>\221\207z\276}\031\340<\305\304\356\274VUU\276\304\020\203>\261\027p>E\265P>\241\212\271=\235C \275\"\361\006\276\2516\203\276<:F\276\234+]\276OO(>\237\344\201\276\267\334\255\275;\366\r\276\213\355s\276w\337\001\276\354O\200\276\237I\037\276\001uJ\276\233g9\276;DM\276\221\343\242=\014\213\027\276\235\373\201=\271\367\264=\261\330\273==G\300\275U\220\221\275S\322\330\275gnK>S\242\020\276\035:\356<\035\n\320=\321\\\n\276\377{d>1@\035\276\271\024d\275\305\025\360=\275,\254\274\216\363\201\276\214\206\204>\357\274[>Y-&\276\353\242.\276\231\333\350=\031\250\367=;\0034>\241E\326\275\261\331\023\275e\3307\276\305M\371=-a\373=aL~\276\037m7\276\243\024=>\355A\343<\317-W>u\330P\275\305\333\327=}(\250\275\007^\277\275M\267\032<)\215\303\275]_\233\274\230\367L\276\016\376\201>\247\037P\276\013\370~>\335\031A=\035\376h\276\255\220\237\274\325\366\274\274wL\324\275g\322\022\276\245\207\003>\036\222\201\276=Q\203\276\377\357\005>\371\263\272\275\334\320\202\276/\311=>\251\216\206=c\251\351\275\265\246(=m\307\302=:[\203>\375a\374=\365\206?=Q\177T>\020\206 \276\r3m\274\365J\n=l\364z>K\356X\276\025\244\227\276\355\260i\275\341\341\321\275\303(}\276\335\356M=\361\275\231\276\377-\371\275\276Z.\275q\3458=\357\005\025\275\\\260\305\276\304\264\273\276\024q?\276\3647\225>\351\302j\275\311m\350\274M\2025\274\275\203\"\276\031\002\200\275\263\223\213\276\207!=>u\347\223\274f}\212\276\317\'\252<\203X\307\275\375\035(\274\225`\254\275\263G\252\275\231\351\343=\341\260a\276<h\270\276\215\246\246\276\371`\256\275\251\210\257\274<L\311>#+\211\275\335\211h\275p\314\007\276`\261j>\263]R\2765\202\271=\037\352h\2758\222\001<\2511\377=\307!\224\276[\204\013\276\274\275\"\276{\004-\276\003\327\321=\034\212M\272Dl\001>@<\252\275\221\350\230<i\327\215>\'PY\275e\210}\275\323|d>Ryb>\031\367M\276\017\332\241>\244E\217>P,H\275mO\357<\365\377\215=V\024\025\276?\352\355\275{\260,\276\357\277\224\275\335\267\210=M\321W<\025!\030\275\353\\\\>\265:\247\274\0211\305\275I\007Z>\262\326\177\276\371\ra>5j\360=#Cp\276\007\320t>\223g;>\257\324J>\233E\037\276\277]\347\275\325\270\303=9\211\234=\201\007f\276\365D\002>\031k\230=U\001n=w\270\033>&\213N\276\365\224-\276\327\350\035>\355\347\r\274\222\2707\276\253\340`>a\312\240\275\'\245d>w\246a\276\305\342R>\253\301S>W\3215\276=-\234<\355\212\376<\301\030\244\275\375\035T\275\r\334\354;\235\n\006\2767_@>\373\016\266\27555\031>4\033\007\276\323\270y>\231\014t>+Pe>!\345U>\371=7\276\241;E\276o\374v>}C\250\274\215\247\214;9\344\256=\007\3321>\007\303R>kx\\\276\0136\226=#\035\024>e\373\211\274\353\250\210\276\032:<\276\330\327\266\276\221\034\220=)\253\270\276\306\252\305\275h\231\375\275\361\313\232\275\213\276\336=`~\322\275\362o\242\276_\313Z>2\317\216=z\037\223\276\260\313\230\275#\367\345\275K\222\326<\327t1\276\321\3725=Z\321?\276h\n\236>mw\211\275\233\227>\275\365\375/\275H\267\013\276\343Uz\275\032\371\253\276\361R\252\276p\355\271\276\334W\177\276u4e\276\344 n>iS\265=~\010\221\276:6\243\276Q\326/\276g\217\016=J\360?>\276p:\276R\014\250\276O\023\036\276X\330\206=\367?\226\275%4\362\274\354\301U\276@6P\276\322\234>\2765\224\270<;$\275\276\246\210[>\301\371\245=\274\227U>}\342\222\276[\310<\2767\372\343\275\313V\366=\225f\336=\215\321\r<z\202?>Qw\255>55\317\2753\301:\2761\t[\276\305,%\276\363\365\005\276A\214\337=\245\257D<K:h\275\r\356\363\274\023r\213\275\201\232]\276\307\177U>ea\037\276\250\001!\276\267y\252\276M\217x\276Y[\321\275\322%l\276\335\314\256<-\350\210\275\353\000[\276_\001\266\275F\212/\276\r\000\343;\375\006\210\275\315\261b\275?\2667\275\261\310\010>\231\335\036\276B\217\227\276\3071\263=I\332u\275g`\231=\305q\262\276\307\274\215\276d\303\020<\360\003\367:\233^\260\275\315ze=\325j:\275\271\235\211\275\272\365a=\263\376?\276J\276\177\274\346\352K\275\361n\214\274\315\006]\274\300\327\227\276\215\302E=\206\264\252\276\3340Q\276\254y\313\276mY\333=R\336$>M\010\300\276\227\331\300\273\333O\204=n3\223>\017q\232\276\n\2368>;\211H\275\317\263\236\275\377p\271\275i\3267>0\\T\276\225<\224=\335s\245<QR\"=\374p\203>\025\032\215=\360\375~\276\031\224\376=\341\214\307>Pe\305\276?\0224>\253}u=,W\177\276\205V\324<\n\005;\276\361\3319>I\3122\275^>\322>\350/c\275a\221\370=\211\251\307\274\211p(>X\206t\276\225\310\305=\243\336\325=\013)\213\275\335\032\343=Y\351)>\320v\230>\200O\243>\270O\270\276\270jA\276S<\244=\217\370\262\275\037\003\210\273\350\243\006>(k\203>IC\273\275\307\203=\276W\177r>\367T->!\033m\275[|\337\273\001q\304=\n\277\215\276\222\204\202>a\317\311=\225\036\"=\250\023\306\276\342\034\322\276%\212x\276\371\250\030>F\216x\274\341\001\227<\351\301\262=\365\274x\275\366\233\005\276\002}\217>\361=3=\307\242\262=\217\217\226\276E\211\263=_\305~\276\214A\205>\261\212w\275\247\247f>\365EV>}=\237=\301C\307\275\255o\206\274a\005d>\017}\021>\375\326\205=\241\226d>mM\010>\375\372p\274\253YJ\276m\253\317<\232\247G\276\253\325R\276\347\037Y>\351N\217\275E\017\345=\017\200Q>\247\267\033>2\033\201\276{Th>G\034\020>\237\270\036\276=\264\031\276U\007<\276\t\312\t\275Mt\245=\r\241\261\274C\004m>\025=\210=\236LG\276\361\222\337\275\375\023\217\274%gc\275\274\020\200\276\267\302x>\021\322\344=\360\031\205\276I\301\273=I\241\026>\255h\003=]\354L>\351\374\365=7\216\010>meU=&\330`\276\377\211\303\275\257U\343\275;\223h>-\222[\274-q\005>\265\262\004\276\211\232n\275\243r\367\275\267\367^>3\301/\276\365zJ=\037\204\262\275a\356M>}R\314<I\322\270\275$zc\276\353\354!>\200pq=\252/\032\276\251g\215;\340)\214\275qJm\276O\'\203<r \371\2755\356\005>A\027t=\3509\243\276t\370+>\304\324\005\275\354\n\207\276\013n\306=\325\237\347\275at\036>\261\273\231>\336\377e\276\265y\036\276i\036\227=&\222\203\276\246\300\326\275R^\236\276\242\nx=\226)\236\276j\311\214\276)7}\275\374~\r>\307\253\246\275\006\001\267\276\312\375\374\275yT\203=\245[\031=\237Sl\276\365\376\260>JiB\276#\034x\276\035\000\000<\331)i>D\333\314=\200\013\317>\357\265\316=\261\355\264\274\316\224\244\275\025; >\035\352\r=l\037\006\276\354\035\313\275Tt0\276\256K!\276\016\301\3269\365\237\255=\353\322\303>\200#\225\276*\231\201>DR\215\276\274\025\202=\317|y\276% D\275\026\377\203\275\227\203k>\037\334\245>\246\010\275>?\003D\275\025\256\321<\ryG;-\013\023<6V;\276\333\211\000>a0\270\276\333\271\375<\331~\372=\201\030\306<HH\221\276\377i\223\275>9\202\276\264\254\262\276\215j\034\276\241\3274>b|\225>N\343D>\307=\033\273^\264~\276O/\233\273\201\351Q>\306%x\275\201\024\027\276\204gT\274Y\373\025>\370\353t\276\261\013s>$\254I>\202 \221\274\274\362\256\275\302\367E\276}\316\201\274k\246\315\276\367\336\304\276\006)e<M\224\'=\010\345\230>{\023\316<\007\004p>\362\207\216>F\341F>\177e\210\276\233\024\305\276\372\217\001\276|x\244>-\226_\274\024\305H\276S\271R\273\"m\036\274\241t\002>\030\261\265\276\301\217Z=F\026\254>^1\025\276\2450\301>\333r\267>!\222\203>\3418\241\276.\345\023\276\240F\260;\325H\367\274g\245\233\275\320m\013\276!\201\327\275\365fT\276I\313\363\275\236\3600\276\n^\202\276\255\225\t\274u\275\220<\206\272\211\274>_Q\275\247\034\206\276\252\271-\276(\3465>\266z_\276\345j\222\274|`\234\275?(\213>\033S!>$)\351\275\277\366s\276\365N4\276X2\262\276sk\007\276\345a\245\276/\023\273=\336,\007\276\213\3678\276u=K=e5\201\276\337H.\276]\221Z=\323\330\247=/\240}>\237O\375=g\tW>gz\300=\340!E>5[\311\2758$\220>\223Q\331\275\265\316\231\275\317\027\247>h\327,>f\233c\276<\374\277\276\217s\274\276\253\251\003\275\333\232p>\024f\257\276E\005*\2751q\203\276\255\222\313\275&{4\276w\335;\276\206*\315=\331\222u\276\323v+\276\215\334\275<oG|\275A\302X\2767\275\255=\037\035\'\276i\030\200\276\264\224\'\276|S}=\254\246\201\276]\263\204\276\r\270\r>\211\237+\276\356\347\224\276Mm\362;E\250\247\274\230b\247\273\225\276\205=b9\032\2765bB\275\324\333\303>\032\274\306\276y\333\257=\t\n\035=\005\233\031\276\243\335\207=\177\034\032>:\016\373\275i\366\003>w\303\036\275\331M\235\275\317u\276\276\241\346h>6p\210>\366\211\255\276%@w\276I\333\332\275\360\314\223>\263\"\230=Y\350\306=\214\302\265\273\363\244\316\276\345\027I=\325\"\027=\224VT>\341\323\272\276\247T_\275\246\020\212\276S]\224\275E\256y\275\027:\342\2751\001\026\276\231&\313\274\361/\317\276K1\277=_[\205\276\377\352\273\276y^h\276\351\224$=\353\231\345\275W\355\222\276\236\343\261\275I\312\203<\022\260\271\276C;\204>\276}\224\275\274v\241>1\031\275=\267\335\274>b9\022\276UIH>vJ\n\274i\017\226><\325s\274\302\271*>\346\223{\276\274\210\242\275\315F\r=\353\334f\276PH\002\276)>\221\276U\200U\276\346\310*\276\347\336\204<\3467e>u\007\032<\245]\302\276\337\027\266<#\311I\274\224\374\274>\354fI>\330\005\372\273\275,\014=\'_\243\276$\255B\276\371\300s\276#\025\216\276\367\226\247\275\003\203\246=\3654\201\276]%<\275\304\301\r;z\246h\276\200\242\274\273Of\252\276}$\217\276\231\253\366\275\325\340#=\005\027m\2741\241=\276x-\276\275\023\222\374\2759i\253\275zV_=\363\342\243> \257\330\275c\245\365\274*\352\221\276\275CW\275\003\035l\276>\372@\276\0035\226\276w\265a\276\325i\267\274zQ\"\276\001\305\366\275R\232\334=\253\217:\273\244\265\005>&;j>O\013\240\275\355\314Z\275\014\354\257>\364\2724\276Cq\316\275\331\266w\275m\'\256>\200\217\006\276\2170D\276\303w/>\206\217:\276\025\277d=\273Pl\276o\333h\276\201\014F\276^:8\276\307\013w\275{\362v\276e\341q\275Z\345\311\275\002\226%\276+\263u\276\013?\262\274O\246\214\275\250(.>\\q\320\276\017\252q>g\327\242\275\t\210=\276g+\227\276\262\323a\276\013\313\256\274m\027I=\333\334\264\276\017\336;\276\007\330y=\253@M\275w\216\233=\276\266p=Gw=\276Q)\222=\241\342\331<pU}=\306\013\004\276\202`\327={l\236>\023\245:\276\035\332\322=\366\004\200\275o\n\206\276\257E\023\276Z\312\202\276b1\242\276\201\210x\275\245\331\322\275\336\026\316\27524\226\276-\n#\275\347\'K\276=\304\344\274\213|\237>S\035\200\276\271H\360<\211\234\326\275d\354]\276v^Y\276\315\311\036\276\006\030\334=\325\304\013\276\365\270\223\275\177i\251=\372)\260\275"
      }
    }
  }
}
node {
  name: "decoder/dense_22/BiasAdd/ReadVariableOp/resource"
  op: "Const"
  attr {
    key: "dtype"
    value {
      type: DT_FLOAT
    }
  }
  attr {
    key: "value"
    value {
      tensor {
        dtype: DT_FLOAT
        tensor_shape {
          dim {
            size: 64
          }
        }
        tensor_content: "\215\303\017=\000\000\000\000\034J\031\276\357W\250\275\000\000\000\000\034J\031\276tM\021\276(\032\257\275\034J\031\276\034J\031\276\034J\031>Dr\027\276\034J\031\276\034J\031\276}\306\272<\034J\031>\343\004\001=\034J\031\276\000\000\000\000\034J\031\276\000\000\000\000\034J\031\276\014\031b\275\034J\031>\350>\265\275\034J\031\276\000\000\000\000\001@\340=\034J\031\276\034J\031\276\034J\031\276\034J\031\276\034J\031\276\034J\031\276%\351\363=\1776\370\2758%\023\276\034J\031\276\000\000\000\000i\323\370=8%\023>\034J\031\276\034J\031\276\034J\031\276\271U\333=\000\000\000\000\277\357\005\276\034J\031\276\034J\031\276\000\000\000\000\004\210\022\276\034J\031\276,\213\n>\224\302\023\276\034J\031>\307\200I\274\334\240\005>\034J\031\276\277!\312=\230Rc\275\000\000\000\000\255P\t>\230P\t>\324\254\030\276"
      }
    }
  }
}
node {
  name: "decoder/dense_23/MatMul/ReadVariableOp/resource"
  op: "Const"
  attr {
    key: "dtype"
    value {
      type: DT_FLOAT
    }
  }
  attr {
    key: "value"
    value {
      tensor {
        dtype: DT_FLOAT
        tensor_shape {
          dim {
            size: 64
          }
          dim {
            size: 128
          }
        }
        tensor_content: "\345r\033\276\260\2512\2769\275\007\275\001+\272\274\366R\273=B\263X\276\336\254L\276I\227\036>\027\0029=\317\270\226\274)\273\344\275 \337\033>E\005\032>w\251\370=X\204\225\276\215\234\020\274}\372s>Nd\201=k\362\034>7\275\031\275\241\320y\275J\305<\2757\360\210\276$\306\023\276\325\024\376=\364\\%\276\371\247\327\275p4)\276\221W\207\276y\340~\276\344<\301\275\270\313\r>\325\344\000\276\321\034>:\264\201\355\275N\035\036\276\013\251\206\275\021\257X\2752\200\313\275\335%\014\276\217+8>\272\327y\276\213\177-\275\025\'$\275\r\265J>\303\372G>\\\262\207\276?\205*\276\263TU\275\207\313\207=>_8>\3519\350\274\360\340i=\331H\330==\343u\2765[n=+\350\017\275[kW\276\243o\373\275\315\\+\276)\363\207\274\017\037\241<\257\237d\275-\204U\276\016\263\3739y\303y<9F\177=\213\2517>\277\352\305<\22564\275\005\325\313\274\225\032\026>\177M\276\275\013\320y\275\246\346\202>\224d\014>\222\311\034>\365\225\304\275g\313\265\274\321\003.>\r\345\341<\2551\212\275-\352\020=\232T\001\276\315\371O\274\367\305\350=\237\005\373=\306,\257\275\355\006\210=\214\234\'>\315\024\025\273\205\255\256\2746!\010>\342\376\022>\255+\236\274\006c\021>w\2300\275\0019\025\276\305DW\274\217\333\227=\035\005\006\276\210\360o\276]\026*\274m\023\225\275\2217\032\275\345`2>\323\377i=6\215\231=\217\312\220\275;\231{=\204\242\033>\257L\230<\355\330$=?\006\260=na\037>\324\305\r>\211Ec\275hM\037>u\363\312\274\rx\025\276\265\277-\276\365(\252\274\367\367\354\27557\332\274\251\005\352\275)d\"\2763E\312=u5\226\275:d\255\275A\332\002\275M\030K\274\235mS=\366\177\275\275\305ss\275\001\"\364\275\353\350\306\275\014]\202\275\025f/\276\215\247\243\274\021\362\230\275[\t\204\275E\001\232\274\312`\007\276\027-\347=\307;\200=\237\277\265\275\263\356\177\275\003\"\330=\353\016\236=E\346\223\275\345%\317<\214\371\032\276z\266\014>\361LB=\307\305\221=\324\020\340\275\301\330\257\275W\354\240=\247%\264=\031Y \275\315\211\356\275\305\240\220=\024;\033>\311\'\241\275\275\320\231\275u \207\2747y\322=Q\327+\276\213*\331\275\'\326\365\275M\204R\274\035\334\"\275\217\236\276=\340a\002>b\250\">\r~\203\271\315\343\032=\215+\353\273\r\255\351\273s\343\013\276W\375\340=n\255/>K5\370=\375\233f= \303\017\276\375\240\361\2743\262`\275\025\227\t\276x\033\035>\305C1=\275\303\023<-\344H=\231b\222=\r\n\036;}C\272<\254\305\034>\375S\027\275\"\005\314\275\373\330\277\275\315\250\364;\254\221\351\2759\025\351\275\014b\342\275\010{$\276<S\021>_\222\244=]\254O<\265B\"\276\306\251\035>\222\227\225\275\374\372\310\275\215;\277<\337\003\373=\235\2112\274\225\032\007=\251\226e=\331\205q=\223\351\314\275Z\372\003\276\207\310\315=\205\322\353\275E(\220=\321\177.\275\033f\235=\255\347x\274M\377\242;\356\236\025>\025\2445\275\363\235\343=\364\363\t>\337O\214=\031\034\262\275\312w\020>\025x\024=#\r\355\275\307\037\265=8?\033>\217!\262=\272\305\003>}\372\202\275%P\326\274;~\224=\377`\335=M\354\017<#.\325=\235 \223\275\267g\337=o\251\254=\035\326\306\275u3\301<d\214&>\315q\347\274\366\264\021>\261\260\026\275\265\316\017=\345=4\275\020\344\371\275U\031\251\274\270\030\252\2731\2429:5\372o>\032K3\275\314U6\276\252h\335=-\336\024>\217\352H\275h\2233\276\r\201\257=\013\277\237\275\201Cr=K\253{\276\337\324\256=\324\034\"\274h\264I>\202I\213\275\273\250\207\2764\030\211=\2305\305=\317F\\\275I\306\267\275Qm\031>\337\222\215\276$\302\225\2764\210Y\276B\347F\275\373\t\241\276(\027\215\275\321\241\211=\266J\260\275\3639p>}\230\374\275m\367\201=\365I\271<a\032O\275=\tP\275\2379\033>\315Cl>+X*\276\032--\276\201H)\276\326\371\211>\377\215\200\275M\206\214\276Bv\351<\365\3431\275]\344\217<F\245\003\276#\353\031\276I_g>\361ZF\274\\\220\366\275k\324\317=\010\t#\276\260\312g\276\331_;=^J\014\276=`s\276\\\343\261\275\n\264\247=\236\335\215=\037\300\246\276\023\226\222\275\347{k>\023\240\260\275C\365\225>{\241\213\276\343]\r;\364\3071>S\317T>f\305\367\275\345\207\271\275p%\236\275YF==\315\215|<M-\353\274?\024d>\376\332\031>\0270*\276\027\341\310=d\373%\276\235s\253\275\257\207\225=S(\255=\325\035\315\274\275\263k<\223\350\242=ML\213;_\337\260=d_\033>\0353\321\274U\306\351\275a\014(\275\007\272\245\276\273q\024\276I\263\371\275(\352E>A\371\016\276\3074S>q\026\255\275\320\270\356=m\335W<!ix>\001\313\317\275\234\366l\276ouC>\317~\030>\343\337\357\275\037\357R\275\215\340\206<}\276\005\274w\363\331=9J\032=M\341\337\273Sv\036\276e9\303\275\275\006\321<^\020\337\2756\372\267\275R\216/\276\261hy=\226\307)>\323\265\361=\300M\032>\314\016)\276\272\330\206\275\325\216E=D\217\000>\350\223\031>\366\210\272:\243U\376\275\345\365\177=i\216\002<xg\017>\337\300\274=\031\252\217\275\337\340\333</\223\00799i&\276\322G/>E\334\031=7\307\330=\271\312\006>\355\362\220\274\266\353!\276\316{2\276\364\'r>\n/\003>IR\370\275w\262\252=\267\0362\276aUl=E\370\210\274=#1\275@\206\020>9\316\354\275\355K\207\274\215a\213\272\357\305\206=\027\261\t\276\355\374\267;\001e\347\275\2015\025\275\276_$>\221Q}=\305\274A\275rd\302\275\334>\026\276\300\036\t>\357\364\033\275K~\353<-\024\243\275\035\035\'>\304T\336\275\315\352\222\273*7\n\276\247\313z\275\202\352r>3\221\233=\r\003n:z\262x;w\305\372=\270\036\013>\0339\324=m\354\337<o`\347=\226\201\025\276Q\344\300\274\024/`\274\277\203\332=\271u\200=\250\327\340\275_\302\345=A\340\266\275\371\244\"\276\241+K=|\226\030>:[.\276W\337\221=\r\310q\274>(\032\276p\260\350\2751\025\010\276\0250\236\274\277\022\225\275l\267\t>o\243\262=Q\303\270\275ug\335<i\261\021=d\350\004>M\030\345<=\372\031=\3732\253\275\355\323\207\275\020\231\t>\347W\356=\004W\223\275>\025\236\275\303\000\n\276\'\374\275=\035\2744\274\371\327\035\275\343\354\247=7\367h=\201[\035\276j\205\016>g\234\316=I-\021\276Z\306\023>p\n.\273\031\324,\276\235X\336\274\330\205\217=\241D\202=\225!\345<M\317\364<\357\200\031\276\215&\024<\035\357F\275\307\222\325=\017\206\206=\225\265\252\274\235\342\257<G\346\373\275D\036\005>\242\237\'\276%\017\005\275\267\312\301\275\025S=\275@w->\303!_\275\225=\244\275\350\344\020\276\274\n*>14\003=\267Y\356=]\367\014=\261\017#\275\2478\000\276\307\207\262==\2253\276\'J\234\275A\373\307\275\224i\202\275\353:\376=\303L\350=\013\257\035\2767*\330\275\365h\341\274U\223\257<\277?\275=-Dj\274eR\267<Z-\006\276\310{\003\276e\3402\276\022K\215\275H\354\260\275\221\365<=i\036M\275\225\362\376<\013\200\265=\261\371l\275w\250\223=\250z\"\276|\362+>\367\037\235=\275\324\342<\257\374\001\276%\336\002=\335PQ=\243t\270=w9u\275\342J\025>\030\204\316\275\031\213)=U\274N=%\314\203=\377\226\300=\007h\262=\375\345]\275\331C[=\251\3678=\203q\352=\356\355+>\021\223\"\275s\311\'\276G\264\341=\r\213\254\273\344\326\343\275\003\274\234=E\234|=\350\274\r>+\367i\275\266\247\230\275{\016\"\276\267\340\241\275\022<!\276.\244\353\275\222d\030>\231w\010\276G\030\207\275%\277\271\274\315\3502;\r\333\356\275\227\320\302\275F\274\024>\235\237\213<C\211\363=_\216\275=\225\321\230\275\375KP\274E\315\324<\3118#\275\r\316\307\274\247?\355=tj\'\276\372\304\257\275\211\235\"=M\006k<\177\367\221\275\002\225\027\276m\026\017\275C\344\226=\2150C<\005\003\333\274\224?\002>-@\236\275\237W\272=\0056\214=6L\r>\357.\353=\'5\272=\323\275\355\275\201\033\234\2755\316&\276\335$\314\275\247\005\013\276\226\263\321\275\025\035\334<\373\002\347\275!\026\010\276\275~\371\275\317\203\347=\253\364\303=m\310\330\273\305*\225\274\007D\306=\272<\021>\003Q\346\275\2355\036\275\255\310;\274\366y\034>\2372\344=\305P\331\275\302\352\202\275\033\252\270\275\347\257\262\275T;\036>%\005<=\317t0>\245\250\010\276x*0\276 z\202\276\rj\200<\332y\212\276\301\300\337\275I\215)=\215\247\301<xa\224\2755W\306\274\242\274\221>\000\202~\276\247\017\243>\005\215/<\005\344\277\274\244\177\255=\306\235\304=?\023\302\275\342T2\276.tI>\230)\205>y\326\246\273\355\251Z<(f\311\2753\270c\276\t\343\222\275\024mp\276\306\306s\272\034\356\201\275\335\027J\275L\013\220\276\336\236\303\275\211\257W=\276\023\212\2753I\254=\200,,>\206\360\032>\321\272\224>H\311M<\005\264j>\364\240\211\276\033\247\212\276\031\361$\276\230&\354=Q\321\245\2747\347.\276\215\2738\274?\323y\275\305\255.\276Ex\t<\221y]<\030\315K>\214\211\214=\304%o\276\003\363W=*\300X\276\030\322\216\276\203\306\366;\014\263-\276\305j\302<##\027;\024|G>s\227\353\275\256|\236\276Z\366!>[\017\234\276\255\217v\276\003\366\220>\350m&>nxx\276\0275P>\223zb=\244\302\230\276\203\245h\275\001Y\033\275@\264\346\275\220{\"\276\263\365\216\2760\216\202=J\n\026\276{%\'\276\205gQ=U\206/=\265\214t=uT\260\274\335\311\t\274\034\035\277\275\355\377\341\274i\2502\275\226\245\026\276\303\020\340\275Y\216\023\275v\\\362\275\324\346\024>D\320\004>`\206\010\276\034\254\220\276[Q\256\274\355\377\037>E\021/=p\245_>Y\344E\275\031f\234=Cz\316=!f[=\035\314\244<\361{\033\276\034~U:#=\243;\365M\241<\251 `=i\220y=\257\365\325=l2\000\276N\215\207\275\315\034\270\274\243Q\324=\240\3631\276Z\303%>E\303\276<b\244\257\275eb)\275\355B\371\273b`$\276}rX\274\335\365\260\274\345xF\275\036L\005\276q\033-\275\365h\022>\216\006g\276\000\360\200\276a\221~=[Z\277<\363\310\210>H$\342\275oA\356<\257\032\030\276\341k\224>\372\236\206>\245\314\264<m\224E<\211i\035\276\236\230\234\275\231J\036=\300j\023>\372\246\204\275\223\036\334=\352\335\r>7Q\351=\271\242\022\276\223\207\n\276\261\303]=|\333$\276R\256,\276~\253\013>\300\020\001>Oc\321=c\353\256=\261\014\004\276S\373\210\274\246Z\002>M\274\032<\316\264\335\275\247\220\363=\267 \334\275\026\341\\\276J\2270>gO\330=\352*\264\275F\0040>=\242D\274\177t\374=)\333z=\355F\016=q\312\025=K+\304\275\300]1\276\337,\276\275V&\326\275S\022\205=H\230\033>3@\317=\233\341\306\275\311\330\005\276g\342*\276\3136\344=\213<o\275P\314\321\275_h\013\276z\350$>\\A\343=\341\330N\275t<\230>\267\tX>!\023q<M\254*<\273\0064\276\240\341\237\276\r\036z\270z\351\326\275\353Is\275\350w\023\276\r\002\2069\r7\234\274\275M\006\276\022\007!\276\nW\002>u}\267\274\203\371W\275\215\305E=\177{\217\275\363]\254=\320\241(\276\207\247\366=\373@/\276\007\324\367=:\216\016>\245\\\236\274f\377\363\275A\030\230\275\315(\007\275\375\262\216=&\346\267\275\r\323W\2747\204\330=\301A*\276\331\226.=J\270\034\276f\216->\307X\033=\177\367\361\275\201\251\007\275\343(p=\350x\245\275\336\327#>\205\301\034\274K\357\315=5`\031\276\347\3620\276\315y\210\274\225\n\'=5\307\346<$\316.>f\270\326\275\r?\020=\355T\241\273\025\217\217<\373\006\371=k\363\333=\372\0221>+\022\362=\274\343\024>\324S\026\276Mg\366\274#Bl>\340\230H\276U\004\371\274\003\201\240\275\317E^\273Z\314\031\276]J\243\274\027&9>\026\353\014>\004\370\226\276\272a\224\276\366M\256=]N{\276\212\224s>\210q\240\276\224J\005>\301|\003>>\351->\315\305\234\275\323\356t\2769\201\243=\301\376\364=QX\243\276\r`1\275m\275\016>\022h8\2768\245\207\276\211\203\037\276\'\003\225;\344\021R\276\023c\031\276\361\006x\276\365f1\276\312\036\216=a\007\267;=Z\270\274\023\273\374\275\310\227\t>\267E\322\275<\327\014>\273\244y>.\024\225\275\334=\234\276\355F\037<J\301\344<\005\032W<\004$e\276\344\316\203>KG4\2760F\027\276\231.7\276\352N)\276y\212\002>\364\342\233>\225|\311\275Z\376s>\210\364Q\275\263\361Z\276GN+>\315(C\2743\035\272<\246\350K\276\363?k>\211\273\024\2757s\303\273Bfz\276?\317*>\\h8\276\2752y>\215\261\236\276\002nn\274\031\345\227>\271\221\207=\346\034\314\275\213\231\"\276\306\370G\276\263\233\263=Q2\r=\223C-\276\317\335\207>OL\304=\373\367\362=\3365\337\275\230\333\021>\215\344\037\273\3113?=\007\373\365=k\207\330=\213\034\354\275\375\360\203\274\\\t\030>\224Z1>\355\323\303\274ix\211\275\307\305\367=s\265a\275Cvc\276$\247\233\276\352\016p\276!\264[\274\347\356\235\275\352\3552>\375\201A=\004o%>A\2462\275/N\304=\036:\256\275\037tV>=;(>\0329Q>\253r\204=\365cB\275\325\034\316\275\245\213\224=j}\032>Sl\036\276\325\2563=n\026\342\275Q`}=\215\355#\274{\202\232=\335l\355\274M\341`;\305\2320\275\034\243\000>\211\330\331\275\2509\030>\302\2734\276\355P\026\276\223wJ\276\225\'\306;\220\324t\276V\273\246>\313\236G\276e\262\250\274I0T>\260\327\221>xby\276+12\273P*\370=k\026D\2767\255\003=vY\301\275\302b/\276.\007\014\275\177\t\236>3\006C\276\344y\006\276+Fx=\253\354->\335\260\364\274\375F\036\275\370\205\020>\\^M\274\223\255<\275\240[\242\276\001@>\275\263\177\036\275\370\023k\274\365\340D=\033\307\010\276)\316{>\245\270\230\274\355\016\370;\t\337\000\276\350\323 >z\253\204\276\030D\273=D\026\341=|\221_\276\307\002\353\273\341BS\275q\323v>CW\203\274\304\3042\276\242\335N>\000b\271\275\360\306(\276\217hu\275XZp\276\274\212B>K`\t>\375,B\276f\301\337<\202:#\273\354\244\201\276\000p\014\276wq\353\275\275\2331\275\221/\217\276\357\304\367=\221d[\276\377i\235\275\302\203_\276h\237;>]\021\">\315X\352<b\273S\276|\222\224\275\001\363\375=\261\225`=\007u(\275\353\3108\276\225\016\225\274Q\007~=\306R(\276\210\206\034\276\370C>>&\031\032>!^G=C\255\000\276?9\013\276R\327\310\275w\354\003\276\221\336\367\275\321\032:=\240\356\357\275\361f\020\276\230R\000>:\303\227\275\342\257\272\275\313(%\276\005-O\275y\225\036=\257kk\275#}\270\275\255\020\246\275-gq\275\271\300\245\275\323\263\224>>\005\304\275@\326;=A\304p\275\305\352a>\235\021\220\276+Z#>\363\214\017>sq\205\2739\353I=\312}\t\276\265\245\320\274/-p\275\367\024\203=\037Cd\275\014\244\014>\303\372\222=)\2171=\311\277\221=~\217\013\276\307\3330\276\332\027\235\275!\337\025\275\347v\370=y\016\r=\215h\213\274\r0\033\276[a\345=\034\276{\275\016\353}\276`\204\236\276\205|{>A\004\336\274\304\223\215\276\200\274\244>\2347\240=u\255\377\2751\266\247<\272/!>\253\304\205>M?:>\201\227G\275Ma\343<E\262\220\276O6p>\014\035U\276\210\202\211\275%\311f=\204\225\027>\356\337\260\274\375\0363\275\346\312\321=\364\r\325\275\255m\212\274\204\340\022\276}}\230\276\214\226+\276W\355\n\276n\003\027<\036\216\027>\352\272G>!\311;\276M\213\023=\305\t\226\2743b\233\275}^\243\275\267*3>;\376F><W\035\276\266\346w\274\017\353\365\275\230\024\214>P\014\232>)\260_=\236v\027\276\357vD\276\001\020\004\275\345\r\240>\362\210\244>$I\242;\212\377\304:\331W/\275\251[b\275%bx;\300\2423\276!\267?\275\035U\\=\370\316\361\275\025m\206<,\0213\276\"\206\016>\321I\007\2763Wr\275>I,>&\371\345=\240hy>\"\007J\276\345r\266<F\331#\276!&\216>\341k\214</,\037\276CB\330;\343\"\234=\255\277\031<\275_\231<\357;l>C\225\023\276S\371\367\2753X\272=HK\322\275\032J\023>\362\034\027\276i\367\317\275\257z\360=\010u\025>+q\375=\360\3511>!(\014\2769\314\211=\032\3570\276\020\306\242\275<\352\021>\246\330\246\275\nU\314\2729\211=\2759\002(\276\371]F\275?\007\231\275a\2262\275V \337=\345\216\234\274\342\306\003>\226\254\345\275S^\001\276j3\014<\372\023\310=\030\026\023>\304\356\341\275\213\267\257\275\r\004\203\273\r\204\2769\027\351\361=p\2530>\275\210\233\274\366\337\033>\277&\307\275\217\326\260=\231\203\032\275\325\2032\276]&\'\274\327\005\242=\315\246\021<-\272\370\274\272i\037>\005\276j\276\273\311n\276#\235w\276\254\367\203\2764\2577>6\343\267\272<\206\'\276\301\216\314=\307L\322<\215VJ\276U\246\200\27683\026>\177=\000=\023*e>\317\270P\276J\354\325\275\211I\273=M-\346<\005Qv\275d\302K;\030\341?<S\0070=\305\241X<\037\265\267=\203\320e=\361\262i\275\"\242\206\276S\326\036\275\300J\"\276\021\214\031\276I\267N\276\253\337\210=\235\335\025\275{{\200>$\231V\276Q\317\004\275\025\223\321\275M\370\003\274\241\030\227\274\221\003\234>U\234}>\271\017g\2767\337\234\275\325\021S=\335k\234\275\210\357\210\272\212\226\363\275(\261\032>d<\020\274n\330\266\275I\314\355\274}V\203\276v\247\210>\314\341/>\021\232\245\276{\363/>\314\277\222\276\276\010\'\275\321\331\024=\223b\223=\264\030F\276a\254\303\274\255\260\371\275\177\311\363=A\334\207\276\262\023q\276\315\307\200\275\225>\310=\3217\225=]W\274\275\216\224F\276a2\002>\275\365S>\312\307\240\276\315\356\230\276\035m@\272\r\221-\272]\3358\275\217\357\217\275\366\020\203>\215*\003<\211\207%\275i\001\026\275\016:\t\276Y9\310\275\333i\214\275P\227\017>M\231v=M\361\310<\313A\375=&\023\014\2765\261{=)g>\275\032\t&\276<6\314\275Z\221\275\275Q\3377\276\203\033\013\276a\372}\276\326\231\357=\035\341\354<\326\360\260=\255\362!\275\364\223\344\275\216\310\315<\256\325*\273\323]/\276q\303\363\275\361\005Y>\037\360r>\200\371\'\276:O\215\276\021CI\275\2178W\275\351\335\245\275\255@\274\274}\357@\275\020\037\337\275\227\024\241=\373\305\354\275x\r!\276\306\\\307\275\341\266.\275M\017\237;M\014x=\327\025\200\275xD\276\275\245\0216\275\010\336r>\237\310\206\276t\360\005\272o\247G\276\361\266<>\233\206\210\276~\345\260\274\226\324\'>\352\357\244>\201\266\373\274Q\224\243\276}\267h>\252\340\213>\357\344N>dgg\276Y\205m\275\250\332!\276\200OO>\343}A\276\263\304\201;\023\313\346\275\025\314\007=\337\274\201\276\215\001\352\272\366\331\027>\207\277\227\276\243\3222\2758\260\001;\262\316\246\276\205\316\272\275!ZY\276\305\213f>\021Z\237\275\336\357c<\271\013?\276\345g\235<\345(\240\275:\252/>\250t \276u\025\216>\211[(\274\221\373\036<f\212\030\276\025!\301\274\tK\210>vG#=}\3479\274\255x\225>\256\345\206\276d\0052>\2620\347\274\021n\253<\204\035Q>\037k\204\274\365\260\035\276K\257(\276\233\025\240>KAJ\2762>\036>}?5<\314\017\233\276\362r\235\276at\234>\323\003\357=\232\221\346:H\326\017\276Q\337[>S\273=>\n\030\202>\220\264\250\275\333\023?\276\233\207\037\275\230\240\242=e\'J\276<\216/\276\342\262d\276\275\320\007=\r(x\274\\\313x\276\311\273\237>\373\025\017\276I&\204=\315\340\264\274}g8<\032\252\206\275\213\"\017\276\261\326\002\276\355\310\267;\315\272w<\337\r\032\276V\020\310\275\327\375\242=\21633>S}\345=\366O\276\275G\343\210\275\035\352?\275\217\305]\273\26660\276\3707i\274fm\202\275n\032$\276\323h\300=\024f\231>\302c4>\007\371\245>\317{B\276\355\020q\274\204\2244=\311\007\021=um\301<UfT<\353\030\245=\263\177\326=e\323\202<\367\236\240=\201$r=\223\376\357=\007&\322\275\000\022\302\275oI\334=\302H+\276\254&\003\276i \003\276m9\034=\315_0\2767F\271=\246\350\214\275\206\276\024>\311\345>\276\205\360\370\274M\265E\276j\350\336=|h\217\275\325\211\243\276\375\346h>\254\305\'>\361\020\203\274\344\376^\274u\320{\274\362q\237>m\026\244<\001\204\322\275\225\346\353\2756bA>7\365\220>\371\343\227\274\356\255\240\276U\360u>\303-\256<\316\002\021\276\255\301\234\275\334e\203\276Et\276\275(/\017\276}<O\275\312-{\276\347$W\275#\020\317\275\005\317\t=\237[\252=&\300Z>\'\031\216<L\177\250\275Mg\n=\036\3110\276\247\373\316=\370$\262=\037\242j>\027d\216\274\211\276\302\275&\301\227\275$\nK>\314\364\237\276b\247\301\275.\r8>%O\033<\252p.>)g\253\274\336\332s>\265\213j>Yr\024>5\301L\275]\3368>j\237\314\275l\237k\276<k\037\276\214c\243\275\323\210\025\275\300/\276\273XM\317=\035\303\341<\277Ep\2759\314\033\275\310u(\276Fu\243\276\301\007g>\355,a<n\003]\275Wt\225>#\211\363;\335\344v=\220\224Z\276\004\206\232\275MI\223<=\215\225<\342\217\232\276\372\311_>\306\025\303\2755m\300<A_!=1d\016=k)m\275\364\2152>ky \2762z\027\276\263C\353=\335\275\213\274mG\027\276\030s\'>\324\0272>\200k\332\275!H\253\275J\270\006>\035)\007=)\010\370<h\217_\276\'\010\306=i\003\023\276u!\026>\253\177\347=(W\232>W\250\247=U\262->3\006.\275\255XQ\274\0014\272<\256D,>R\003\273\275\016\004\241>\355\321\201=J\305\032>\262T\021>QU4\275\365\260\325\2755A\323\274\032\034\302\275xV\030>\220\233)>\357\362\305=\215\201\314<\345:\267\275`\203\225\275M\256\322<\036\376%\2769\3673\275>\270\207\276\253\260\367\275y\372\\\276\223\360R\273i:I>\255\177\t\276\274\250\252\275J).>9w0>B\256@\276\231\267G\275c\332g>2t\225>\265\325n>_\325\220\276\275\372\205\274\217\246\214>1<q>muq\275\253\214P\275\017\200e\273\002\242\237>\034\342:\276\363\021z\275W\313\200>R\":\276\301\017\013<\371D\200\276\355\030c\276y\026\203\274:\252\240\276\355\233\376<\271K\r\276\203\230\225>\n\2113\274;4\375\275\326\237\345\275\031\203h=\274A\025>w\336\315=G\310\227=\373;4\276\372Bn\275\350\350\325\275\014e\303=@\300G\276 R\311\275\361\372\267=2\371\006\276\213\271\032\276xi]\276\336\223f\276E\374D=9\315W>\023\264\212\276/\\\265=~\215V\276W\237\216\275\254\200\237=\351\005a=\352\026\256\275\332a\242\276\266\023F>\r\231\"<C:\202\275Q\336k\275\372\335y;\200\030\031\276\245{\334=z\\\030\276\275\352\243<a\275\r\274\215\0043>U\274;\276\361\023]\276Y\276\352\275\203V\014\276\315\231\267\275mc\217\276n{\207>U_\372<\215x}\273\317\226\254\275\257\013\337\275\373\215\021\276s`\271=\036\324\023\276\335\261u<+\353\366=\r<\2119\354\324&>\001\266K\275~\265\200\2758\313\003\276e\205\273\274\2024(>?\236o\275bZ\001\276\205\255\261\275,\334\233>5\256#\275O\200\354=\216)2\276\247g\242>\205\350\007\276\237\324\222>\335=\267\274_\021\343=\206\236\024=\033\253_=\2404\210\275\244\3706\275\223b\250=GT\n\276\261\215\325\275\351\334\221\275\257\327\317=\265+5\275hq\335\275\325\275\205<]\212\023=\032S\002>Ok3\276\261\322N\275\215\213v\2750x3>E\317\213\274\333\201\262=}\313\036\276?L\014\276&\0330>\'Z\241=\307\267\'\276e\331\031\275\311\336 =v\202\037>>\177\021\276_\005\320=\310P\017>\031uy=\313y\274\274=\270\337={m0\276\245#\201\275\'\032\210\275\334^\306;W5\360=m\027R<\241\341\323\275\321\330\017>\265$\215\274\351\224V=\275\301o<\372~\036\276\"\010\'\276?\376|\275\261:\004=\200V1>\265\244g\275\211\020E\275\267\313\n\276\253\267\257\275\300\311\024>UG&\275\325\2135\275\210\216\267\275\241\341\002\276\020\243=>,\362&>a\362)\275\r\356\334;\365\034\000\276NX\276\275\375\251\313\275\242\247\321\2751\032\301=\315\227\226<\t\374t\275\024$\265\275\334\315#>\2014\177<E5\003<\211Zk=\230\321`=\217\310\352\275u}~=2\240\'\2761\225E\275n\3071>\227\343\220\275\215U\372=6u6\276\371\342q\275\024\300\361\275\331\014\272=5jV<b\332;>B\"\366\275V\2233>q\261~=`$\037>i\340\214=\342\210\220\275\003(\316=\223\373\335=\363*\213\275\003\343\354=\311\353\004\275\352\320\025>\026\352.>}\002\330\274\031\377\221=\361\3031\276\315ag<\341\t\211=\240\034\273\275l\347\216\275\211g\002\276\025E\021=\016Y\n>\3570\331=ja\014>\343R\363=_\343\267=(\225\n>\271\263\017\2763A\361=q\037\036\2765\021e=\361\375\315\275\017\373\250=]!^<\246#.\275u+b=\215\314g< \355;\275;w\370\275\177\327a\2759tE\275\371\267*=\303\320\341=)\302\214=/0\235\275\2007%>\215;\264\273\031\177\343\275+)\026\276\035\335\252\275\255\\\035\276\273\366\265\275\307\272\236=\257U\353=\217\373\005\276F\031\023>\365F\337<\311\340\024\275\234\214I\274(\241L\276g\241\230\276cR\360\2753+\233=\251\212\200\275p\034\225\276\237 \206<\367\332\235\275\303\363^\275i\235\246\276-\3733>y\004\256\274e|\035\276\2067#\276W\252\374=\375\277\357\274/\357->wD\335<\227\017\243\276\257\326\025>z\376&=\020l\220\276-\035*\276\177Yf>j\213\325\275\3707\005\276\343\211\224\276dC\201\276\207\"\032:\325\233\034\276!Q\332\274\300p2\276}QJ\275\346\277C\276\215\364\n=\035\347\302<{\232\254\275\357\341\223\276\251\014\225\274\303a\023>\272\264\230\275\333w>\276\001f\352\275O\257\223\274\036\316\276=;\227\352<\314\204\342=\235\ny\276\277F-\276\300q\243\276\232x\205\275\217\313\235=q,\263<\326\315\265\274\241~\t>\231:\203\276\340\220%\276\035\365\023\275M\357\220\274\264\320f\276m\327\353\275\267a8>\017\010\371<\211\007\245\276\271yL\276\337t==\r\"Q>\301\332\202=\032\305V\276\007\312\222\276M\021\246\275\244-\221>\235@\214\276\355\326\244\276;\326$\276\225\201\t\275\242G&>Q\000[\275p\0046>\255\250.\276\235\344\232\274\r\306h:\345k\320<\200\213\222\275<,\347\275\254\245\266\275\263\370\002\276\r^U9\267\246\224\2753\302\253=\235Q2\275\273\225\020\276\351\'g=5\013\002\275\354\3114>{h\305\275(\257\203\276R\222\004\276I\177\220=\314c\033>\253\303!\276\2218\363\275\316\274w\276dfU\274y\245\354<v\0262\276\265t\014>\272RJ\276\251<\250<M/\007\273\300e\222\276\255\353\265\273C\220\225=\270\n\020>\255\014=\274\355b\013<\333r\244=()(>\204\002\">\241\255\003\276]\205R\274#\246\340=N]\361\275\210\033\254\275y\261\220\275\272\031)>TT(>1\002g\2761\261g:Q\375\037<|\341\327\275\3101J>\337\252\226\276\323{\200\276{\330\313\274.Z\204\276\314\027\227\276\033\276\376\275\273\365\322=|\225\023=\322\224\022=\261g\373\274-;\t\274\377h\025\275\274\277\n=;\322+\276l\260\036\276?2\006\276\315\007\224<@\004\006\276\235\211$\274\007\307\025>\243\266}\276\340\'\346\275\037\243=\276Y\025\320\274ki\214\276\343\336\242\276\266q\377=N\031\r>\r^n>MR\017\276\235\251L\274\251\327\030=\025 \233\275^\004@\276AW\261=\331n[=Z\262\375\2757\356(\276]s\270\274!(\230>\273Eq=U&]\276\246\366\213>91\242\276\373\016\370=\024\250A\276M\351\257\275\017\273\r>\310-\227=\326\345\244\276c\265\221=\250\215Y\276\275=6\275\355\034<\276\006\346/\276\314\204\203\276\265\321\273\274\233Np>k3\363\275\025\014\n\275\r\006\243\275\306n\277=xV\235>\272N\026>[\344\235\275\007\375E\276\220\"\256=\305\366\205>\035.\205\276l\374%\276>\341y\276\rd\035\275\005\n\333<\203\"!\276\360\317z<\255;7\274\211\333\'\275\233S\251\275\231\366\213=f\340\034>\013\244\275=\234\2301>\214\251\271\275@\207\036>\225`\017\276\204\330.\276i\225d\275\377S\313=^X*>\002\037\022>\213D\250=\301\271\257\274\257\000\334<\3041;\276\322\363(\2751b\035\275G<\243=\201\250\207=,S\021\276w\244I=\363(\303=O\3509\276\345\"(=o\023\026\275#\025\214>\273\300\364=\240\023\236\276\345\036\215=%CC\275-\370\036\276a:E=\321\243q=\257\\\375=.5\024>\213\342\377\275\245\345\014\276\315K~\274}\270Y=T3\032>q\020E=\201zO\275q8&=\372\001\303\275\035\023\346<\370\030V\276\324\3658\274\t|n\275\214(\330=\353\017\177>B\341|\276\303\253@=\330.[>;\262\203\276\267J0\275&\330\250=]\177{>\212\230\212=\003\030P\275\352\353\023>\177W\372<\351\371\343<Er\206<m1\024\276 v\214\276~%\210>\234\347\226\275\272\206%>\0333\230>\037(\220\276 \256\222\2769\303n\276\344\rZ\276\273\023s\275\350\t\224\276Sx\215>J\240\206\275\310\211\206>ug\350\275\r\264\371;mX\315<\235r\251<q<\034\276\316\335\316=\016\321\200>\375t!\276\214\217\340\275\003E\020\276\320\326\202>\333\345`=\305\325\026\275\373t\177\2747ZH\275mh\376<5\005k<s<\215\275u\276\266\274\024\220\'>:\212]\276\216\315z\276!\221 >H4\236\276\331\356\363\275\375z\004\274C\373B\276\244s\"\276Y\364k>\302\277\264\275\177\372\353\275K\031\256=\030\367d\276\245\305=\276\221\367\202>h\017\022\276\314\026y\276\265\270\001=\312>\225=Mm\243<\374gD\276\2657=\276\307\031\220=\2711|=\245\205\312<Q\220@=M\312\010;g\246\371\275\262\2243>=\0345\275\324!\031>A\367O\275\215*\324<\2152/;P\257\005\276\265.\217=\2422\320\275M\217\317;\373\376\242=~\305\307\275iV\n\276e\030\013=m\330\313<\264\330<\276:\257\003\276\222&0>*\006\001>\305\010\341<\363\266(\276\277\271\264\274\237\314\326==?\256\274\006\223:\275kV\350=3\345\220>\023\265\224>\035\220\373<5[\322\274\207t\303=\354:\037>\2201\031\276\255\312Y\274\274C\033>\260\200/>%\371\317<2\021\222\275:\244\n\276&\335\027>\326\315\016>\300\307-\276\032\260\241\2755\343e\275z\031*\276\231\"\202=\335\003v\274\205kg=\365\262\t\276\341F\025=\303\201\264=\265\024\330\274\235P\007<\3358\370<oK\354\275+t\370=\0170V\275\010C,>\366\006\005>K\262u\275\337Z\263=U\356\024\276\265\233,\276\256\275\374\275\037]]\275\261\346&\2763\237\266\275DX$>\021\315\222=\375\027\321\274\007\231\377=\037\277\316=R+\001>F\275\022\276\r\322\031:\225t\020=m\267J\274\213\220\341\275iT\311\275\352\344\031>\3253\356<?\330\366=\231l\002\275C_\372=\260\351\016\276k\314\316\275\3163\376\275\325\200\036\275\207 \346=\3152I\275\352Z\010>\255@^=m.\351\273\303\231\000\276,\346\031>\031\347\211=\335\367\"=CQ\370=}\346\031\275}\"h\274h\325\036>\237\354\277=\2101\266\275B~ \276p\003\307\275\227+\337=5\373b=#\253\255=\343\033\240=\r\233C\272\250\260\016\276\253\024\351\275\325\352I\275M\3063\273\255\366\230;}\243\363\274\357\346\227=\225S\036\275\204\224\001>\215\321,\275\005\260\006=\257)\270=\363o\356=\035\270D\274\036\367\t\2769\322O\275+3\026\276\001\354j\275\270\323\000>\351r\325\275\r\371\020:\255\032]\274=Yz\275\321\250\010=\300\031,>[x\250=\361\323\355\275~\355\003\276\200J\220\275=\272Q<\257\3111\276\236\300\036>\352\233.\276c\240\332=\316\263\003>\225\330\316<Z\t\005>\r.&\270e\272\202\274Mm\311\274\241a)\2768\211\036>\243\374\310=)\r\214=^p\205\275px\027\276\320\263\037>F\260\331\275\r\236|<m\223\375\273os\275=\241Dg=\220\204+\276\035jE\275)\371q=\267\212\354=c{\302=\331%[\275\r\230\t\273\213\031\374\275E\021D\275\357o%\276@s\024>-\030\026\274\270Zq\276\216_\';\251\262\276\274\025j\333\274O\277\246>\031_4\275\031\334\020\273a\030\324=\322\367o<\200\\}\274o\254\034\275@A\235>\262\352\360<\3623\240>\253\2774\273i\001o\275%\317\017\276\233Z\225=\215~\017<\312\033\207\274\305\200\010\274\220,\236>\022[\323\274FO\026>\366\204b>Q\3664<r\231\257\275\250\323B\274\227T\256\273q\205\257\2746\033\241\276\033d\206>\230\263\002>\205T\227=u\223\305\274\007\376\025\276\r\337(\272\305\200\305\274\214\271\217\276Q\2207>\207\024\277\274\362\242\265\2753_\257<`\230\003\276\275\377g=)Q\226<\302\225z\276wW\232>o\020\205<&\205\030\276\33712\276\257\234\201\276k\001n>!\246\\=\025\375^\276r*\363=\260:\303\275~VK\276-\355\363<\205\355V=Q\334\226\276l\332L\276\010\262D>\375? =\227\213\254\273\362J\204\276\326\333\211>\351\311\210>Nf\335=k\010C\276;0\241\276\335\263\205>\366\206\267=.\253\020\276\321\320F<0\336\241\276\313|i\275B\304\327\275\343\203U\276\003\233\331=%\311\274<\035\322\327\275\211\242W=\275\346g\275O\326\235=\027\000\322=\211\366\024\275\270\2731\276\rz%\275\311c\023\275{\305\237=\r\231\\\274>\316\006>\333\302\205\275\215\313q;*\264&>$\177\223\276\264\374\242\2766\017\025\276\035\204*\275MTc=r\326\240>M<M;\2410\242>i\235\210=,5\331=\301mr\276\"\252\220>\321\0259>\272\267<>\321`\037\276\246G\236\275\240\032.\276\345\200I=&\347\230\275u\342 \276S\205\375\275v\3072>G\263\305=\211\357=\275\325\325D=\306\243\214\2756\265\032>\017\233\377=\263o\250\275FC\001>\r9\303\274\002*4\276r\342\244\275\037\014\344\2756\340\344\275\346\2722\276\023\271\014\276A\313\200=\315\310\375;e\204\235\275Al!\276\315\227\373<\255*y\274k\240\026\276\'\333\207=\335\267\027=OK\363=\360\257\024>\324\202\030>\320\207\005>\301C+\276\341\211*\275\374c\r\276\223\230\332=e\3454=\217\247[\275\227\001\035\276\320L\377\275\236\010\002>\215#h\273\365\\\034\276\224{\037\276~\036\r>\245\272\202\274\245\020~=Q&-=\345?d=\247\237\'\276\315\322\277\274/&\275=\'\237\320=\252[\007>\033i\316=\215-(\2760\r\312\275\333\256^\275Y\366H=\320\355#>%\305\275<m\356\240\274\274*\212\275\320\363+>\265\206j\275\346#\013>\250f\005>e\330\021\276Z\226\034\276\005\037\023\275\257\250\323=\315\201\355;\2677\243=\232\300/\276\021\344k=\301\207 =M\361\026=i\312\t\275\341\376X=\255\221\345\274E\375\211\274>\214)\276\255\364U<7\213\305=\013\365\306=M\037Q;S\244\304=\r\2139=\212\014\351\275K?\342=i\266\007=\313Q\375=,\243$>\367\215\302\275\337\304\320=\r}\360\274d; \276\021\\&\275\000\337\364\275\360\326\347\275S\313\270=M\327~\273\311G\344\275\353\322\335=\221\244\256\275V\274\020>\342W%\276!\301g\275\311\244D\275\260\371\037\276\255)\260<\371\200;\275\035@\204=\303)\240=\315\017N;)\'@\275U\265j\275\235\0374\275\341\311\332\275\225\341\031\275o\377\272=\364`+>(y3>\331\023\036\275r\017\016>\355\256\276;D\343\025\276\010X\t>\2671\255=-w\002\276\325\0167\275yN:\275\223*\302\275\200K\213\275\031Q\004\275\315\002\207\273\\\035\007>\3454\367\274\245\207%\276N\263\031>\307I\334=\362\016\031>\337o\213>-E\377\273)3\007\275\301\006\271;\251&$>\375~Z\273\241\366\221\274\177\216\001=\360[\036=\243T\325\275\317?\347;4\277\246>\361\225o><\326\237>\224\232\210\276\017y\n\276\371K\330\275\205/*=#n\210\275\232\245\201\276\210\0220>?\207P>5\346\005<\231\222\032\276\311\005\264<\203\323\014\276\353-z\276\257O\254<V%\021\276\2103\236\275\312m\201\276\320\212\210=\'q)\276[D0>[\301\367\275+T\253=\343\306\203\275\317\354\202=\337\r\375\275\321\255\224=\341\272\323<\203\315r\275\347\323\373\275y\272N\275\263\260\201=\234\312\225\275\021\002\002=\3428\035<-\\\305\275\325{U=\n\210]\276g\261\207\276z\223\013>\372\332\215=8VA\274O\t{=1\305Y\276\003N\240\276\341\010\207>}\220`=\032\r\010\276\214\243\312\275\001\335\244>\377Cp\276r\241\265\275\034p\241\275\311\217#>vJ\363=\223\225\217>1w]\275\317\200\202\276\243\351\200=q\013c=W[|\2768\341I\276W\346\005\276\353d\326=yz6\275\352\256b\276\245[L>\335\207X\27432\032\276\362_\270\275gU\004\276p\206\004\276\203\270\222\275k\355\246\275-i\026\276g\361}\275\303W\256=\017w\373=k\260\275=e\262\370\274\255\310\226\274;\031|\275j\"#>\034\334\220\275\022\241\036\2761\016\260\274\372e\177>\255|\277;\231\201\227>]\313\257\274dT\356=\r\233\"\276\225\372\035=\204>Z\276\266\024\352=^x\016>\264\301)>\346\205\022>\014q\303\272\366\212+>\035\tS\275\022\342\030>-,c<\375\312/\276\026;\227\275\033\"y\2755\226\025\275L\337\006>\037\240\371=\'1\274=\345b \275\225h\207=B\351\035\276x\320\002>h\363\030>Ue=\275\3659\031\276\311\235\014\275\213\335\332\275\004Ed>\276\221)\276\033U\262=%j\337<Iy\004\275\223\356\350=\210a \276\271z\225\275PJ>>E\374+=\002\363&>4$0>\r?=<v\025^>;P\322\275\3039\336\275\033\323\305\275\014\365\023\276\374\302\212\275}\206\257\275\037\313\226=Mb\220\275%\200\027=[i\270=\005\205\217\275\315$\004\2733\372\312\275\2314\376\275\207T\335=\363\373G\276G\021,\276\265\221\320<a\347x\275\361\245\261\275\rD\335\273m \335=]4\256\275K\271\000\276\232#\017>\035\212\215\275=\210\350<\036n\r>5~\377\274[^S\275-\316\342\273\316\221#>T\211\316\275\245\252\222\2747\226\340\275\261\372\024\274\365\324v\275\351\026\306<\017\215\242=\372\300\005\276\177\234\034\276$\267->%m\277\275oq\272=\246.J>\273h\266\275\366\321 >\374\226\312\275\023\216\232=\225\362\177=\254\032t=\033I$\276\225\330\003=\020\373s\275\303+\231\275s\204\367=\324\271\r>9\306P=\356D\000\276\361\037\035=o1\332=\217\251\373=\347\037\316=!t\032\275\325-\355\274\002\353\356\275\332\210\t\276&-!>\331]\311\275\211A8\275\177j\271=\353\360\372=\213P\374\275>\313#>=:\274\274#\276\275=\352f\345\275[\207\235=1\235J=]zy=F-\014>\366`\223<\353\177\370=M\373M\273\306\3570\276\365\032\210<\017\323\326=\0176\330\275OU\322=\201+\371<I\357\347\275z\220\'\276\351f?\275M\251\017\274\3667\003>y\236\000\275\254r!\276\265I\003\276\333O\326=]\3318<o|\222=\312)\005>\355\013r\274\323$\255=-\024\345<a\267\034\276]\342\036\275\270:\021\276\315~\264\273\017W\223=\002\016t\275\300\346o\276\'5\002\276\213\t\354\275u\334@\2769c{\276\225;c\276\325\267\017>5 (\275\353[\t=\r*\314\275|\314\2659\033\027\262\274.r\210=\025\357F>\005\335\356\275\037\302\025\276\007.\024>\265\332\224\276\333\207Q\276\355J\242\275En2\275\371!\212\276\r\322 =g\271\010\276b\266\237\276{\277c\275\274\222R\276\263+Q\276P\245{\274x\3518\276P\2142\276\r!\032\276B\007\245=\342\242\206\272{m\037\276\367\\\356\275s\330\314\275\231]V=\350\362\221=\364\013y=\360\255{\274\247J!\276\320\262\321\275I8}=\321\001\335=\r\"\361\274w\2372>q\370\252\275\240\200\212\275\216\346\017\276\t\035l\276\267\006\206>\r\2278>\275\362_<\341\317\323=C\232\017\276\211\006\262<\353|\354\275\354}\334\275&\347\214\276\244\262=\276\335 \275=\375\271\232=\003D\215\276?\332\335\275\217\301\034\275u\0235>\356F#\275*\031\275\275i\346\200\276\353#!\275W^\325=\357u\336\275\321\200\026\275}k\360\275G\250\314=u\2541=4\351\304\273\214l\212>\0234\224\275\215\332\374;\035\230\030\274w\244\347=\273\237\240=\r{\224<\230&1>\205\277\306<9\341\372\275\r\2678\275\243\266\254=\037\026\311\275Y\2065=\rua\274Q\036\031\276\'\000(\276\237&\322=\033\263r\276\243\035\201\276&2\256=\227\255\271=\256N\214:E\'\203<.\302\003\276\207r\241=\374P\320=>\252\217\276\324\245)>I\017\362=\2375\271<\341\370\002\275.7M\271\253=\202=\220\275\036>\205\340!=i\312\006\276\362\230\210\275\353\266\353=\221\017\210=y\262>\275i\'\032\275\017\177\016\276\027\325\215=w\246\352=\302\357\257\275v\233&\276\215Q\305\272\233q\341=\337\345\215<\3378/>!{|\276\336w\222\275e\375\344\274\r\2029;\236X\212\276\356+8>`e\216=\214\243\301=S\022\207>\021\321\234<@O<\276|Z=\276R\353\270=Y#0=\265\030u>\303\344\211\275P\032\220>\255\2212\2762X\031\272\236\277\332\275\204@\177>\30518=tl*\276\217\332\261=2\322\354\275\365\201\353\274@\210\225>C*\240>\003O\334\275\271\366W\276\32070>\222w\366\2759\217\r=\243S\002\276\337\321\334=[up\275\'{\005\276\rN\022>QL\037\276\252o\240\276~I\317\275m) \274@\020\257=@(\234=\342>\025>\025c\331\274)\340@=e\307\207=\352*\003>\253\371\205=i\3747\276\t\024\251\275-\202\233\276\25590\275\237\363\023\276\215\216\232:\306\220\177\272\300\254\023>\357\017\000\276\355\240\306;c!%=\r\247\254\275\315\237\200>P\2764\276\3134[={\003\200>\275j\223\276I(>>M\024\246\274\335S\273<]\t=\275*\201\366\275\335]%\275\215\240\013\275G\022\256=\215i\316\272\035&\247<\341\373\027\2750\270\002\276K\272\350\275>b\322\275\261\312\027\275L\363\031\276\334\2300>\213C\214=\374\356\007>%\217o=\345\':\275/\375\355=\033\010\217\275\335\225\361<y\305\002\275\201/M=\371\212Y=\345\346\005\276\003D\325=E*\244<\245\214\202\2752\353\327\275\315L\213\276\342=+>\323\216M\276\277+\010>\r\326:\275\270K\222>\331)\026\274\037?\300\273\206@\275<\002\356\216\275;\255z\276\367\227\352\275\273\023\206=\367Y\017\276\375\361B\274\021te=\241:2=A\340[=Uk\\=i\340\013=Y;\"\276\026\247\330\275O\343h\275\315\320\344<TY#\276\340\005\002>\355;\254\275\031\334\n>\202\326R\274-}\220\274\177$\025\276\231\366\317<\3338\230\276:\353w\276\325\304\242=u\347Y>\257\262\r\275\n\272\240\276\316e\245>\016r\226\276\377\na>\233@\247\274&@*>j\322A>\214_\233>\312]D\276@\333\207\276\257\276\246>k\024z>\245\253{\276m\207\357\273M\274\023\275\250\001u\274Gcd\276\340\323U\276\020 \240\276O\330j\275\223d\233<(\243\034\276O\364\022\276\301\034#=\241\226^\276\333\025\250=\270\212\265\275\003\314\033\276\221\r\226\274\354\303+>\'\212\334\274i\224\270\274}\021\204\276\352\236\375\275#o\372<(\025\331\275a\2431\276l\010\263=\234\030O\276\3707\002>\005\320.\276\225\231j\276\223q\330=\242\355\225<4\247E\275#9\204>\r\234\313\275:(\226\275\323\315O\275\251\014!\276\340\2321\276\215\266\021<\035yn>L\332\254\275\277\0073\276E\343f=\320\016:\274\361v\234\274\304\016^<\"\003\245\276\377!\345\275\0050\251=8\331\237>6\202)\274\311h\270\275\362\014\007\275\266U\254\275\331H\223=&\306\222\276\373+7=\322\207.>\251U;\275{\346\273=\327\321\242\275\"\002#>\365\017\320\274y\030\376\275\010\014\016>}K\263\275};\222=\363\001w\2750\367\025\276\222\371\001>-\262u\274mRZ\2741C\004=i\2207=\3305\204\276f95\274\023\016\314=[%\220=+\322\360=\341u\031=#\'\234>\340\024(>so5=\023\371h\275L\225\033\276\000\331\207>\007d\241>\000\311\013\276\240e^>\220\347\037>\3622\313\275\253?\372=\243\206\312=\205\222\017\276\245q\320<8\013\354\275n\231\256\275\013\006\245=\202\326\303\275\255\220\225<\365i^=m\263\245<\201*\256\2751\255G\275\002\333\017>}\032\034\276\331X>\275\317\240\361=\333Q\362=;\233(\276o\220\272=\323;\210=\245\202\270<M\266?\274\360\335$\276\002\302\337\275 \222\031\276\305\333\013=z\240\204\2759\0247\275\030\177)>\252h+>\3010\314\275\323P\354\275\356a\021\276\301\241P=\235\032\354\274\205\230\223\274\246\3144>!\034s=\375{\314\274\354/3>\350\305\007\276K#\310=\215\356\262<\375*T=\r\346$=\375f\035<\310\311\241\275\370\274\217\2751\344h=<\360\007>\031w\021\276\370\327\024\276\006\3760>sD-\276\021\376\217\275(\032\034\276\357\001\231=\245\312\335\274\215\304\202:A\202C\275\276\364,>He\014\276\022i\004\276=\000`=\271\252g=u\016X=9\211\357\275\326\326&>\375\017\026\276\377\253\355=s\302\344=\370W\033>:d\034\276\300j\004>O\242\267\275\r\366\010\2735\217\204\274z\r\021>d\363\'\276\322\313*\276}W\026<\257\212\271=\270_\023>\345%1=\002\201\267\275\233\361\325=\215.\271:\\\351-\276\255\321S\275\325s\305\275\233%$\276\035\026\203\275n\320\214\275\352\206.\276\345>\032\2767g\363\275u\t_=O\267\317=h!\">\025\254)\276\372\022\006>\261?`=\366\312\022>\265+\322\275\355\023\303<)\357*=\345\216\363<=\326T=\265.0=\014\272\220\275\255\253\224<\240\360\307\275-\022\320\273\271\202|=\034\321\032>\355B\354;\355i\314;\255i\375\273S\234,\276\023\267\367\275\331\036R\275\003Zi\275\035Np=\307U\227=+p\362=g%\306\275\275\343\377\275\262\025\027>\244\024\037>U\277\n=\025\211\337<\365o\313\275\3611\004\275e\232\343\274\357\241\273=\276\317\n>g]\301\275\261\362\017=\003\240$\2765#T=\017\033\356=\347t\207\275P\203\342\275wF\220\276\243\004\274\275\231m\305=\314\243t\274\271\035?\276\217v\262\2759\267\020=\320\222$=\310\244\237\275\035\314\177>\247\022\020>\301qG=\245>\371\275Y\257\022\275\2429:\276\354\326\005>C\177T>\010L\'\276\227;\020=\351?`=A\317B\276\004\247\013\276\331\010>\274\257\377\220\275\211\243\005\276\365\205U<\221q\n\276^AQ\276\250\360]\276\300j\367\275\315\264w<\371\2432=A:\226\274\221CE=\255B\216\273M\037\317;=k\362<\257\313@>jW\271={\310B\276\255\320\202\276\301\030\201=\243\302V=\222\203\010\276\325\005\205\276\355Z\211>_}!\276\245\3238\275\245\243\002=\250A\366=Aur>`_\\<\227i\334<Ubo=\031\214\206\275s\025<\276}\245}<\324u\036\276\352\316=\276\346\017\226\276xu\235\275\004\337i\274\201\244\242\276\315\312\201\275\273\267l=\235l\202>\372\312\'\274!\367q\276\345\360\311<\276\021\266=X\257\217=dT\237\276E\2260<NF\022\276u\031\233<\036l2>R3\r=xt\234>\243O\261=qN\010\276Q5Q=i(\"\276\357\300\247=\254\014\355\275W\207\250=J\277\013\276\223\331\276=B\017\010\276!2)\275\371yg\275\017L\010\276\211C]=\245O8=\233T \276)\001c=\311\013\216\274\214.\265\275\262\t^\276\254\313\005\276\345=\345\274\211\220\027=\257\277;\275\367 \364\275\234\234\233=~\327\306=h\304;> w`\276\027\344\342<\253\252\214\275\341x\"\276]\262\357<\221L%\276\255\240\201\273\223f\270=\205?\272\275\031\320 =g\036\346=E@\313<u\266\227\274x\243\021>E\2640\275\273\001\242\275A\315\217\275\365\346\216\274\005\251\321<\323<\371=\343\200\265\275\361\027G\275%\020\334\274\211\357\261<\025\302X\274\243M\321;\024hS\276:Ru\273\204\376\243=\221\255\'\276\346\232\214\2767o\201>\261p\342<\365]s=LK->5\333\345\274.x\211>\023\337h>\2621\211\276\245=\333\274\246\377N>K\017\262=\323\261^\275\332B\031>\355F`\274\321\200\246\275\370^\217\276d\033_\274\314r\036\275\206W\225\276m\224\233\276\373\251\266=\320\374,>\377\305G>\232\336\236\2756b%\276\226\304!>o\253\233=\215k\n\275q\002n\274\372\\\000>5$\232\276\216\003\205\276\275\007j\275\336\322\200>q\360\314\275;\201\351=\204\333\216>\246\034\240\275K\350\304=9>\334;\177\376\321\275`\325D>$2\217>\364\340\003>\233\226#>\t\366\204=\221\360\240\275x-\023>\221\337O\275\275\352\024\276xk|\276v\227\035>f\243!\276H\372(\276\340\277\310\275\362x \276\014v\236\275\334\373U>Y\370\021\276\227\371m\276\352\214o=\001S\273=\334\362\034>]C\213\276\007y\226<i\316\264\275L\325\t>\213\373;\275\355\257\002=\345\030\365\275\255&\356\275)\2508\275\262\001*>e\201=\275\311\327\225=\221YL\275\025G[=\035\315\243\274\r\0054\273\271\316Q=\376@\236\275\355)\225\275\337\'\270=\033m\350=:Z\325\275E\030\242\275Q*\243\276\271\361\225\276\325\256W\274\355[5\274;N\312=\021/\010\276E8\026=\\*\026>\374[\232>6\363\202\276\373\'\340=\300\0315>?Bq=\'\003\245=\255\322\030>\"\3244>-\262\274<\253d\364\275-\323\017\276\212<\016>\235\214\271\274\231\0013\276mk\220<v-\314\275\rvW\272\271\0239\275C\315\243=\347\273\256\275\016\315\017>\247\016\247=\255\205\360\273\347\375\004=\'5\236\276y{\317\274\0279\344\274\225Q\330=\365\006[\276E2c\276!\236E\274\010\200\230>\373\2237\275\257\\V\276I\222I>\365\226\312<\254\331\251=\235\226\277\275\247\022\277=-\313\356=\211#S=\260\256@\276\364k\240\276\312\223\225>4\354N>=\036c\276\220\230\300\275\366\276\037>\261\353\273<\325\254\243<)\351\235<Z\005s\276\272\253\2109\033){\276\211W\346=\253\312\251=\365\210p>9\354\214\276sU\370=\"7\004>\335)`\275\304\257n\276\343\352\240>\021,\014>%\247\357\274\321\2029\276\342\'\002>\344\t\022>\037\241\357\275\333\337\213\276\3515\231>\236k\213\276\305T\005\276A\247)\275\021\007\263<\201\373S=\010\333\233>U\244@\275t\037\r>3\010\331\275\215\211\237\276\231\001\367<\035V\307\274h0\321\275\315\022\256\274\375\325:>m\262j\274$9\'\276\2505R\276Y\274\t\275N\216\223\276\236\271\237>\343\025\300\275\031\233=<\031\'Z=3\221s>\002\205\220\276LAc\275\236Q\221\275m\371I\274\307\265\304=\343\327\032\276AT]\274\026L\026>5\330\031\276\202\302\320\275}\006d\274F\277\024>\205\347\261\274SK\207=M\005V<u}\014\276\230\035\036>\005:%\275\307\376\276=\330O$\276\267\021\013\276\367\355\227=\263\271\023\276\355\242\233\275~p\035\276\347\346A\276-j\016>M6T\275)\376~>\342x\027>\ruL>\203q\010\276\034\300a>\261\030F\276Y\372\211\2766G;>p\375\226>?H4\276197\276s\274\355=h9\017>}\010o\274\365Q\200\274\337=\336=\343\334\326=\241\207%\275\217G*\276i\314)=\r\2166=O\220\350=\025\014\224=\347e\230=\004j\360\275\271\252\035\276\0015\n=?g7=iz\233\276S\373\000\275Z\302]\276/\257\217>\037)c\276\246\033\200\2751\224\236>\005q\361\273#\n\001\275\204\301\356\273\204:\230=\334\371\215\276\312\234\200>l\232\007\276\224\313\023\276{>\\=\r\311r={&\037\275\346dK\2769\302\243>\265T\375==\231D\276\031g?=\t\346f\274\256\3433\276\342\240D\276\211\263\026\275\327)\010\276$6\357\275m\207\213\275\310\265\365=eI\033\276\032\215\301=\243\332A\276I\300l=\274Y\010>\276\346\331\275\020\202\217\276\025\333\032=\020\317L>\221\222\237<\321\331W\276\315`\276\273;\363\201>>\273z\2761\255\345\275;\320\314\274v]+\276\320\240*>6\225Q\276Dys\274\304\'\033>\273\262\347=\001\226\210\276\351\253r=\332\300\221\276%\245\347\2755}0>8\273\014>\331\233\003\276\003\221>\276\263\333\262=\026\331\375=\354UC\276]\342\325\275\340\244\006\276\221A\037<\340\336\253=\027\022\221\276\300\t/\274[.\034>OF\311\274\246:\216\276\274\273\310\275\231\270\236\276\256\227,>\307P\272\275\234v\261\275\2177\010>\027\004f\275\353\020\375=\367x\262=G@\260=\026\305\031>m\240\305\275\215\317.\274\035gM\275\224\332\021>\307\231\332=\273-\334=]\215K<\246d0>\234\230\023\276\330{\210\275e\237\032\275\272\026\232\275W\027\335<(\007\202\275*\3447>\033\265\354=\037\215r>)y$\275\030\247\365=\331M1\275\324n<>\314\014\262\273\323\357\337\275P]\223>V\332X>\332\020\001>\226\241\234\276\363O\246=D\360\331\275)\023\032\275\336Z\007\276L\326\014\276g\000\003\2763`\362=I\357*\276\264\254\344\275\336\276)>r\332(>\303i\332=U\033I=\302\323)\276!\240\002\275\313\204\375\275\203\334|\276ou\337\274\355=\020\276\345\3645\275\261\215\200\274\210d\241\276\024\2519\276\274\354\274={1O>\021E\214<Nd\214\276q\360\250\274\360\0107=\347i5>x\257\205\276\217u\237=\375\227M>\321b\n>(\362\216\276\005\334p\276q\246\245=\371\374u>\271^d<}\232q\275\032\376\301=5\016\266\275\221\323\211\276\223x\360\274\301$\332<P.\r\276\376f\235\274\305\1776>z\235\317\275\213\237`>\027\016\\\275\305\213\'\275\203 \204=\017\200\335\275z\307\232\274\234\254%>}Wj>\024\314\205\276\315\221\036\276i\025\037\276\273\035\221;o\226\236\276\222\212\332\275\241E;>\354\007|\276\310\2552>\257Z\231\273\035\344\351\274T\023d>\347\305\337=\207\333\270\275\325\274O\275\341\356\204\274\346\206l\276M\361\000>s\312\374=\263\341r\275zV\235\276\232@=>mM\305<@\360\377\275\"X\376\275aF+>\335\023\206\274\241\344i>\001\323\000\276s\306[\276\355f\250<\254\227B>\201u\366\274Y\307\210\276}.1\275fy\223\275\231\257\021\275\267\017)\276G\275\313<\361\220\356\275})\002<\r\220I<\365\300\205\275\331\337\310\2756\3402>=\355\r\276^\235#>@#\263\2756%\037>\275\224\367\275\235]u\275I\311*\275\363H\274=~\222\210\2758u\r\276K\362\032\276\337\267\027\275\353,j\276\025\216\263=-\221\332<\377\331,=M\353\333\274\230a\017>\2672{\275\005\031<>\001\n\336\274\320\033\242==\3747\274\356\200\302=\320\277\256\275\'\\w\275\321}+\275%\253\020\276\315c\340\275g\003\352=\256]\031>mr\347\273\035L\256\275\007\025\014\276\030 0\276\212v\001>\355\254\223<\275{5\275Ms&\276\256m\266\275\257y\265=Y/\207=u\346\'=\350\355\301\275/\320\206\276\245D\265\275#;<>\227\343x\276\016\350$;9\027\032=\223Cp>\207`\260\275\205\361\206\276KvW>\007\263m\2768\350\234>\275\340z<\365\330\364<\016\302\264=\336\021`>L7\216\276`\272\326\275\253\331\t=\265OZ=\217\222\334\275\345\273\346<#\305\031\276\303\033]\276\300\362\214\275\243H\322;\375<Y\273\010\304\014\276(\336^\276A\"\227\276\217\260\007\276\236\356O>\026\020\351\275/\031\207=\327\006\340\275\365}\350\274\r1\033\273nO\026>Ia\"=\264\301\204\276}\027\270<\305\311\'\275]V\244>\221\251L\276\377\275\342=j\305\217=\201Q\201<.C\032\276\216\343a\2769m\343<\202\032M>\030\205K>\030\3541>\336\313\233>\307Ps\276\014\353)\276\311\216\360\275\036\216%\276\216%=\276\251\002\210\2763\240!>\005B:\275\014`\017\276\'>\255=\313Ap\276g\313\016\276o)\250=\001\241\205=\231[x\275\030fJ>\227\232g>\263ny\275\300\017\005\274@\326R\276\035 \177\274\310\317\024>\201\337u\276\"-\232=\r\2124;M\346\010<\211G\021\276 \265\033>\312x\025>\353\277\257\275\016\" >\361\304\014=\220\330&>\033\002\341=\35574\275\310\240\037>d4\332\275Q\266\n=v7$\276\345$\200<\235+5\2756M\256\275;\373\372;\303Z\225>\022\324-\276; \272\2740\304\010>)U\223>Yu\313\275A\006\246>\033\212\304\275\271n$\275\202\307E>Y\240\213>\372\3500>\025-\t\274\247w\275\275~%/>Es\204=\224\337\006>\2352\266\275\320l\252\275\021\302\014=/\304U\275\267\001\355=\235\202\007=b>\020>\212y >\233\024\246=\205\002\t=\310\271#\276#\370\365=oR\314=\254\366\231\2765\263\244\275\270\352\220\275\037\353r>mT\206<\227*\335<\301\360Y>\256\006\211=\346\261\004\276\316\320\266\275\255\330\200<`\204\225\276\014<*>\303\335\230\276-]\n\275\205\361\357=l\251\037=L\244\260\275\316?/;\000\303\243=\021O\224>\271w\246\276\006a\017\276\030gj<\'K\017\2760ou\276\274\342q\274\364\202\200\276\036\227<\274\250\320\256\275\2768\262=E\346\'=\006\0313>|\321q\276\007\347\275=}\3368<\207x\006\276\261\216\\=E\250\357<\345\"k=\337u\230<\263\365\242\276 \302\346\275\260\273\221>j\n~\276] H\275\323\367\240>\375\277\003\276\027b)\276\326W\023\275\360\213~\2745$X\274\010\316A>\203\033e\276w\034\n;$l\276=\325v\016\276\240\317\202\276>=\313\275[}\225\276G\317M\275\220\005;>b\001!>\224\034{\276\010\2430>A\362\225\276!\007m\276\337\246\213>\257\342K\276\227y~\275\010\224\201>\245\312H=\353\002\r\276\372\203\316\274\031l<<\005_\371\274\375\r{\274u>\226\276\353\350\366=\272s\331\275Ba\252\275\000\3601>M\357\220<\215\222[<S\313\261=\3513a=v\264\032>\007\337\357=\352+->\230\220\014>^t\005\276\277l\341=\330N\024>\014T2\276\315\004$\276\271\034;\276\250\244\215\276\336\205\006\276\345C\270\274\355\r\n\274\223KA>\2154\263:Z\217\316<-\226U\275\373\226g>5\001O\275\033\034\336=\223JE>\330\346\271=\374|\026\276\231/-\276J\3670\276\355\340%\276\022\251\030>c\373\320=irO=\017k\025\276\030\357%\276-\r\265<\331\025\007=\373\213\361=\215?k\274\33133= ,\223\275/\034a\275\001\n\001\276\214\022\r>1?\227\274\312v}\276\245\3657\2766\247J\2767M\205=,\302\246\275\341\024\211\276?C\025>\035\263,=z\314\013\276\235\001\353\274\223\313\177>\221\242\313\274\3474\022\276\355\366M<m\252i\274\362#\211\276\237A\201>\306[\224\276\036\2450\276\313.\274<\335\023\323\274D\354\302:\223\3333\276\263\030<>\344o\347\275n\376o\276\213G\\\276i1A\276\242\002\242\276\rx{\275\350R\033>\275\274*\276\265@\022>\027\246\244\276\037\022#\276\251L\"\275*z\340\275b\010\315\275\265\202\017>\365m\016>\324\355r\276\262\367T\276\270\370\032\276J~\242=\311\371\005\276\276\325\346\275\3114A>\214\260\240\276\327D$\276\300:L\2761\307\002\275\352^\362=\253\017]>$\327\"\276K\375\232\275\333B\374;\263\254\036\276E\034\362<\275\013Y<\021\206\026\275m\235{\275op\233\275c\253\260\275\233\273\031\275\004\357\306\273\376Up>\003\246k>\217\342o\275\244\347\017\276\0307\343\275C\255\201>o\032\231=\316rS\276\270i\024\276\374\231\211\273\r\216\261<\007:\001\276Y<\265\274pa\214>\365\334\020\275\324I\030>j!\247\275\353\272\306=\205\n\004=n\305\327\275\004\255\240\275\037\023\371=\035\253\210<M\264*\275\'f\253=w\246\231=y:\367\275\267<\267=\361a.=\330)\302\275\014\325p\276\221{\230\276\261y5<-\230=>\n\220%>\246\271\274\275?A\351=\022u\000\276M|\305=\241\017{>\327\025\230\274zr\203=Kh\252<\235\260\355=\307/\310=\254|\324\275\200\320\317\275Lr\014>\026#\026>d\237\024>\335\005g\274\007`\375\275\262w\017\276\261\003\243\275\355\021\245\273!R\013\276\2610t=\255W\337\275\310\"\206\275S\300\214=}\021\005\275\305\006\026\275\037uZ\273:Q\035>]h\363<\365D\212<u\000\350<H\352\345\275L\302\023>\373\366\247=_\343=\276\203\321\366=\275>\\\274@za>\232\021\363\275K\367\217\276=z\031\276\255\'\237;u\010\306\274\210q\370\275C1\352=\201\364\206\275\355-\257\273\374\267 \276\rU4=\307`\241=\177d\346=\205\241L\275k\027\234\275\006V\336\275-;|==\314,=\351\010\005\275\305\025\027=B*1>\221\230w=@-\021\276\211n\004=m\265(\276i\224\016\275\r\231@\275Z\n\206=\302$K>}\335\004\276\210\017\034>\350\270%>\377\226\016\276\020\216\365\275\006#\010>\031\330\177\276\357j\352=\351\212\021\275\371R\202\275\305\250m\276\2712\'=)b\207\276\203B\356=\331\242\224>\2672\246=\235\021\321\275\317+\335\275u\326\232\274\031i\205\275\344\310\"\276\207\027e\275-O\243\275U\234\274<\233d\206=\375LJ=\037w\206=\245\236\254\274\215\305\276\274\205\367\315\274UD\004=A\"m=#\257\343=\221\255)=c,\005\276e%\320\275kt\010\2765MZ=\225\253(\276\273\"\244=\235FX<\035\345F=\2236\266=5Qs=\241\2337=\255\201\200=r\214\r\276*O\033>\205T\022\275\351WX=l\206\027>\241=\243\275/\361\265=.C\026>\r\236\373\273\231\245\023=\210\316\016>l\200(>\267\000\323=\247,\316=\346\244\202=\221\007\004=Q\266\352\274\351\250Z\275J\276$\276L:+>\r\217c\273\27243\276:\305|;MQl;)\313&\275\360\177\"\276\347;\234=!\004\024=?\231\321\275\367=\003\276\244\237\245\275\321Y!\275\263W\265\275\301\177v=\215\370\240\273\366\366\352\275\016f\017>ao+\275\270\006\274\275\t\355\353\275\025\'\203\275\014w\211\276\360$\221\276B\346R\276\254\361\337\275{\002;>\362\346\261\275\207P\022\275\310\025\205>\373\211\330\274\245\177\217<`\234\272\273\347;T=\027\347\375\2755\r\360=\246w\243\276vY4\276\264Bz>\337\005\213=+\260\376\275\241\014\337\274\007\322\226=\274\0147>\320\037\026\276\233|\n\276\263\216E>\345*\032\276\r|\212\276\340\207\205\275\303]\227\276\367W\310\275O\035\344;Y\230|>\221\325n=%\247(>\000\202P\276\275\033\016<\021I6\275\315\305\363<^\247_\276\033\312r>\231H\212=\374U\221\276\034\034\351\275\260o\376\275\203\243E>\213\r\001\276E\272M\276H\277\236>[\212D\276\025h\310\275\264\027\036\276\277t\260\275E#\006>q\255\213>\272\230\244\276F\270\036>\212\304\361\275\251i\014\275\376=\204\276?\177\204=\211\221\007\275\306V\204\276\223y\007>d#L=\372m|;/T\037\276}\203\006\275\203\1771>\226\026\r>\r\357&<bFN\276U\317\205>\325\016M>\345\237\251\275\252\212h\2769\257\014\275\367.\376=\346b\255\275@\301\213\276\304s\032>\241\0265=\335mE\274\215\'/\274\035\210{\274Q\262\003\275\326\202\202\275\355h\312;1\n4=s\345\262=3z\314=\035\210H<]\235:\274i\312\332\275\373.\311\275a\216\211=\350\035\262\275\010\300\240\275\350qH\276X\225J\276\251\363\316=F\244\'\276\023\344\017={\202\031\276v\311\241>c\036?\276Lu:>\251\036\030<\237\'\032\275\211\376\320=\tC\236>qHu=\343\020\272\275\363k\357=\344\2644>\215\371\330\275\036\332/>\374\005\021>x=\032\276\330\306\323\275\203^\205\275\211\354\007=\213\207|\275Un\034=\331\317b\275\241\241z\275\003\304.\276-6?<m.\235<7\266\375=\235\323\212\276-\035\'\276m\007\023\2766\315\356={\237{\276\212<\200\275\215\365\326<q\030\236\274\246\331\246\276\302\346R\276\031]P>\231#\021\273cu\245;o\003\227\276\240\030\033\2761\253\030=e\0242>\334\233\340\275\207#;\276K\255\234>Ud\210>\345X2\276\305\214\303\274!\227S\275\317@\001\276_k\333<\217\306\n\276\010)\215\275@!\321\275\251\254\206\275\305\325/<\271>0\276zl\223=\352I\234\275\035\033\004\274)\3217\275y@\035=\253\361\230=\365\030\n=\010*\343=\0307\304\275\000zs\276E\356\217<\013\317\335=\2646\245\276\r>\332\273\305\357~\274\334rT\276\346q\355\275\377\317\244\275$\211i\276qpP=\263\313,>?M<\276\310m5\276eJ\216\276\217F\333<\317\303%\276\326H\274\275\016XA\276\304\361^\276\207G\211>\375Lb\275\256\317M\276S\023\033\276\020\031\000\276l0\035\276\265!\337=\002\301\373=\251\344_\275\020I\010=tD\030>\246y\272\275\360\224U\274\220\3543\276p\272\325\275\351dA\275\221?\033\275\'\007:>W)\253=q\341M\275\231\236n\275M \253\273\007f\242\275\215\364Q=0\350/\276\365\236\371\275q\023\035\275\253+z\275Z+\374\275\345\224\373\275\331M\202=\007v$\276\0367\236\275\2631\022\276\300\206`\276\243\017\341\275\255p\261\274s\031i>\247?\204=E\342\351<\276\0232\276E\035\033>i\247\177=\265\203\200=)\255}\275mN\240<\223XP;Di(><%\035>4\347\275:9\227q=!\305\346\275\375\2473\276\227;\030\276\034\215\275\275\343w\204\275\315\177/<\275\2129\275F8\003>/\331\255=S\020\r\276-\005\317;\232\035\014>\376\002\035\276\005t\361\275\303\037\340=\255\333\302;J\255\201\275\314l/>\005o\262<\237\207\020\276\033\250\220\275Q\357\032\27617\020\2751\233\000=\315\364\030\273\327\266m\275G%\027\276\302\016\244\275\005\000s=\3075\324=/E\017\276\311\252\227\275\246\214\024>@\344%>\313u+\276\303\037\344={\206\304=\275\237.\276-\370\276;o\004\001\276kB\355=\361@\037\275yf\256\275?\336\333==\273\223\274\013\037\244\275\263m4\276\365\014\347\274\271\251\244\275\314\335\t>\232!)\276\321\222\342\275\225z\r\275z\211\006>{&\031\276\315\205i=\031\345\224=\247k\357=\241yU\275\022\374%>O\3750\276G^\375=\315\234/\274\255\237\352\274\277\236\357=x\207)\2763U\305=\375\374\r<]\341\007\275M\346\236\275\213E\310=\245\356\322<\367\347\245\275\331_l\275\325\023\244\274\022Q1>\213\375\226=\355\262\273\275\265\372\"\276p\243(>\221EC\275\363$\335=\2648\264\275J\006+>\246\212\303\2752\264\036\276]\366R<Y\0214\275\007\337\243=A\314\371\275\220e\032>\317[\245=\345\313\032\275\273\253\375=\340\323!>\335\317\037=5\374O\275=_\016\275\2132\335=\300\035&>&6\303\275\rT\304\271A/0\276\253\262\366=\245+\343\274\255\251\266\274e\362\020\276I<\226\275[\333\354=\370`/>\'\233\257=\037\321\231=OT\273=\257\270\004\276\263S\275\275\030\250\'\276*\231\031>\035u\371<\307\222\220=fs1>\335\031\016\276\035\003\034\275\035\225\356\275YQ\210=\315\200I\275\325vR=\3755\331\274,\200\017>\261\232P=\335ro=\217X+\276\222x\025\276\240,\262\275`\241%\276;\037\242\275\035;\326\274\221&\025\276s\365\334=\253\217\t\276\345\230G\275\267\376\264\275\265{\355\275\272]\013>-f\030\276@\200r\276\207@\003\276\317\346M\275\315\345\216\275\217\343`;\274\370\216\276?^\257=[\020Y\276\250\231\270=A\230B\276\327\206W>\331\353\004>\233a\017>W\333G\276\311Mb\275\363u\230\275\305&<>\370\035J>)\346\206\276\336\261X\276H\266\014>.\020f\274\030\304\232\2750UM>\3663\353\275\305G2\276E\361H\276\245\022\307\275\004\206\377\275\372R\257\275\310\304\217>?i\202\275P\202\005\276\253\206\221>\007\306/\276+\277\242\275\275{\342<\n\007\326\272QHw>\255\203\201>#\372Y\276\022\337\235\276]\005\217<\373Q\322;A\023\022=\242H\010\276\303\2151=y\224q\276\353\\\343=\2207{\276\346Y\203>\331\263e>\245%g\275\306fo\272h\267\007>\265\361\203\276\234\262q\274\201\004|\276\357\322\376=4^\233\276X\264\213\276\230\210K>\355\010#=\220\252\215\276U^\266<~\327\217>\207\0252>}\245+=\275\'\215\276\271\216\221\276\275\246\332=\227c+>\225}k<tJ\215\276/\224\332\275\322&\025\276=\305d\274{w\014>\227GA\275\313\031\264=\232\303\254\275]\331\203=\234\022\022>\312;\013>5\323\232\275-\334\231\273Z\177\362\275\205\025&\276\243\261\301=[\217\022\276\245\013s=\023\214\312=1_8\275\375\327=<\367\362a\275U4;=Yd\340;\341\320\244=\305/\r\276\370*\262\275QWS\276K\201\311=\005`~\2760+\372\275+\337\265\274eA(\275\236D?>\322\327o\275S\216\244=\323\232\003\276\352\300\213\275.\353#\276\030?\"\276\212\232\001>\203\304\325=\224\367\016>\343\000\320=\3342\317\275`\354#\2763\2702\276\223N\337=\306h\033>\335\304L\275p~\r>\341\224\010\275J\235\003>\360x\357\275\201\025@=\375\000\000\276\272\201:\276\326$\207\276<\214\203>\367\005H\276\363\344(\275Ocy>\367sI\276\026j\233\275?\226\207\276\\\035\034>m\305\020>\004V\036\276\036\221c\274\323\323\010\276\355]\377\273\037\312\225=\350q\201\273%\203V\276\341hO>\221\375\023>}|^\276C\235,\276\361o]>]8\233\276)\344\377\2747`\240\2765\245\017\276\215\207\220\276\343\253|\275\270\270.>mkQ\274\300(C>\377\357\333\275\205\222\226<\315\217\005\274\211Su=\352\\\322\275\031\256\201>\345\025[>\202\003S\274\243\255\302<e\224\302\274{\241?>!\223\236<\372\206Z\276k|->\342\207F\276\244\205\t>C\365\243\276\211\302\205\274`?\215=;\032\026\275\342\370\207\272-%\334=\225\343A\276\023\022\034\276\337\373I\276\315\200\221;\274\232\225\275j\373>\273\021e\326\274\361\326\034\275\001J\355\275\303\205.\276\3770\262\274\363W}>0\213c=\267,\217\275\'\006\203\276cF]>\370_\237>s\004\377\275\325\231\335<cr\251\274M\2744\276aRH\275\207\344\217\275R\036\366=bF\274\275\332W\r>\r\210\000\272\275\206\220=\305V\302\275\210y\227\275\365\210@\275\341\253.\275\373Ab\275V\373\003\276{E\273\275/g\276\275\375IQ\274\013\336\235=@\204\002>\264\276$\276\232\030\'\2762\336>\276c\3660\276\227\365\372\274\245\217\313\274\265Oi\274\354+)>\265^\201\275n\321\016\276\014\3010>\177\277\352\275DG\306\274a\373a>\274T>>\332\033\010\276\337\247N\276*\365\034>\312s\016>@\024\004\276\005:\336\274J\244\031>\232t\333\275\376<\377\275\'\374\205=\241\023\345\275\376;\023>/\001\272=\035\340\320\274 \214\t>M\365\020\276\227cV\275=8a=\264\266+>\322\220\342\275\277\313\301\273\276\367\210\2756\3560>\251\236\202</g$\271e\321\200>d\217\325=\255\340E\276\304,7\274:\250\204=\221\352\254\274\2748\240>\032<\305\275\023\373\215\275\354\276\017>\231\035\317=\032\335P\276\220\262\014\276\204w\246>\325Hu>I;x\276\035\256\342<(\324\222\276\271\031\271\274\225I\"\275\336\037\263\275^\\\337\275T\260\233\276- \023\276\016\316\257\275\245\032\026\275\227QG>\2672O\276\327\262\273\275t\n\016\276]\205Y\275\233\277#\276\341\277e>\305R\305<\350v\241\2768\313\374\275\350n\212\275\370\316\207>\'V\215\276\235\020(\274\217\345l>\330\347\201\276\207\233\351\275d\277\240\275\330\343\033<4\235\024>\021)\222>\353\271\032\276\263\365\341\275\256|\227\276\006\026\026\276\341\344t\2756\343.>\322N\275\274\307\316\232\275\307\315\350=\371\262\023\276\177\220u\276\035\213\346\2745\364k\276o\260\302\275\342>7>\221i<=\212\203\355\275\213\303E>\245\274l\274m\204\362\274\025b#\276\222si\2760\302\010>7\240\364=2a\323\274\036\254\361=\245\335h\2751\336/=\237\326[\275\036\3320>\360m)>y\007\004\275\263o.\276\0356/=\212{\213\275I#\244\275\217\375\255\275\rg\334\274&[\031>|\317->\366[\'>\027(\236=\251\036\266\275\0108\313\275\021S\010\276\326~<>\365V\201=\344\2630>\037\272\346=\311\257\225>\261\355\002\275K\303\260\274\260.\030\276\325\332 \276\014\3358>\337\300]=\357^\257\275\205E\250=4\247\031>\353\372\303=\035QC=GF&\276\253Y\373=\357\354\333=\312\325\037\276\023\205\222=MfC<\227\353)\276\212\\->\255\273G=G\375\312=\323\307\362=\006I\026\276\345\373\371\274\363\034\305=\\lT\275\277\311\211\275\212\331\033\276\016\211\306\271)T\241>s\\\013\276\\\177\224>\021\026&>\216!\321\275G`|\2762>Q>w\370:=\211\200\231>\277K\222\276\340\035,>\360\367\222\276\203nd>0\347>\2762%m\274\035\371\214\275\271\215d>\031\003\332\274\225\363\005\276\034\034\025>\177 \232;Y~\356\275Wl\203\276\235\212\'\275\330\205o\275*!\237\276jj\005>GK\245=\353\211m>e\267\177<xi\301\275\226[\323\275\265j<=\006\224\213\275\"\242\236>\035=\226=\177f\340\275{\352\303<\230\352\n\276g\273\377=\267Z\037=\245o\322\274%\244\221>\351\202w<\214\024\023>c\300\246<\341\023l\276\';\243>\231\343\360=\347\024N\275\345\265G=\023\2507>\211\305\342\274\357\\\360\275\321\3074=\250\0309\276\247\235J\276\037=\350=\311\337Q\275\266\302i\276\377\311\272=\3259\247;\371\223\006\276o\034\200>$\363\234\276(\360A\274E\'|=\360L\376\272\205\3165=\253X\202\275\262nc\276\321\0175\275J\037\212\275\346\002+\276\177\235Q>\r@\246<\263r\303=\337d\336=\r\030\330<\025\370\340<E}\336<ic\250\2752M\330\275\005\212e=\325k#=\372\364\">\223\370Y\275\"\323\r>*5*\276}\024;\274\215\367\356;4Da\276\024\345\225\276\205\334\254\274\353\032\243>\'\200\220=\265\301s>\211+\236\275g6d>\030g\235\275\261\201A=ik\023\276\340\347#>\374\220b>\304\305\357;\375\304X=\227\246\264=M\267\321\273{}\244=\337\200j\275\315&Y\274L\270&\276\350\243\014\276\027\370\320\275\207\354\212\275\335<\263\274\337^\252\275p\203\024>\267\230\244=\323\333\034\276/\313n\275+\272\264\2758\007\032>\'\316$>\371u\334;M\r\322\275\334\022M\274On\351=\022\204\225\276\256\214\201\275!\332#>b\010\276=\227\325\016\276B\231\343\275e{T\274W\210\300\273\347\265~=\215W\221<E\304\255\274_`:\276,\337\020>%F\212\276\256\243\220\276\323p\237<I-\222<\376\034\256\275\351\371\306\275A7\221>\034\277\240\276\217z\321\2757c\r\275i\342\201<D%\234\276\016\311\276\275XU\227>\244Y\021>,\315I<\307\232\266\275\315Z\316\274\001\270\206=M%\010<\r\013\271\273\013X\004=I\'\345<\003{\223\276\t> \275*5*\276q\033\224>\354\002\013>\306\216\215\275\201Nb>\016$\375\275\335\035y\275\265U\224\276\3739\212>\020P\024>}m\315<b&\322\270\200\265\205\275\213\304<>Y\356\274<\346R(>\335\305U\2755hN\275\215\206t<a\367\320=\201\213\205\275\331C\030\276<\323\203\276\023\256\316\274\t\346\217>W\240u>\203\3320\2769\243\004<k\354\'=\262\342M>+\217\234\276\026;\323\275;\021\221\276\357\270\325=\255\247+\275/\"%\276\232\021\232>\326U\037\276uk\010\276\2759/\275^l1>G\354\347=\027\005\251=/\234\260=U\007_\275\265\365\005=\255\340\217=\320\311!>\237\006\005\276\215P\216\272\2556\367<\255R\341<=\233\273\275\341~\303\2743\251\036\275\237\230f\275\203\370\236\276\353\256\305=\337j\204\274\265\245L\275}\330q>\022g\307\275\367\216\210=\255\323\246\276E\2736=\021p\327<MY\364=OZ\271\275Es6\276\r&\261;\016\265+\276\213\265\336=C\311\333=i\310J=\237\026\364\275\346\306\022\276\215{\256\272\215\030\204\273\3154\036\274-,\221=M\017\005\274|\340*>\265`\345\274\273-\210\2753\356\360=\3419J\276\276k\'\276\031\275\216\276\261\272\263<\313\340{>H|}\276\371\\ \276\251\275\243=Y\3451\2765\236=\276Zu\201\275xA\373=\245\026\177=u[\201=\006\272=\276v\226%\276J\371\277\275\344w\221=|\220\246\276\314\354V\276`\373\206>)t\343=\300\242\002\276\263\216l\2755\251W\274ex\205\276?\230\240\276\335;Q\276\306\026Z\276\203\350h\276w\303G\276\000\267\350=\025\005\203<\306\336[>\355m8\276PR\025>\2318Q=\323?\231\275;]\326\275\232\363\231=\264\210\366=\305Al\275\245g\341\275\364\267\013\276\225\031\203>u\337\007\274\361\225\223\275e\033J>\27539<\325\025\322\274\372\255\020\276\325\276\232<\007G\220>\355\035l>\346\010R\274c\252e>\251\252g<\355\352\351\274\020\364K\275\'\320\245=\237\340\225\276N\013\212\275\275\321A=4\244\305=Q\313\323\274\027v#\275\006\320\002>\342\'d>p\264\001>\336\364m\276\307a?\275#\234s>:\240N>\353\253\233\276|F:\276\237\177\217\276\206]\273\275G\214\262=\243v\001\276\3253\266=\374\236\021\276\t;=\275\251sg=+\016\277=7t$\2769d4\276#\207\314=\217e\333=Md<\275\253f\341\275\010\037\021>\321\227w=I`\"\275\200\356\211\275cG\347=\2655\234<\035(\216\276d\0247\276\223G_\275\201\244t\275\253&\010\276\256\247 >n\0024\276&\244\216\275k\256\250;\244\351S;\236\276\213\2764\342\031\276iD\037\275\317\262\002=\267e\314=iY\211\276j\260)>\3755r<Mo+\274\205d\212\274\340\277\023>\355*(\274i\236\360\275\265n\323\274o\355\305\275\251e!\276_(\356=\233o\371\275\023\"\236=Q\363\022=\335X\304<\231\347\037\275\253\341\303=\215e\217=\312\375\023>\315\352\255<O\365\246\275\224\361\214\275\206\263\002>\021\270\006\276\315\264\\;\215\371\261;E\274\007\276\343\'\277=\t\034\271\275\023\356\202=\257\240\275=\357\200\337=\351\202\211=\223\211\360=8\366\030>\2419#\275\220N\">K^\r\276\202(\356\275Y[J\275s\030\204\275\365\241\272\274v\246\034>\267\366\n\276\224\361\317\275\315\0361;Q\226c=\323\351\266=\201\230\035\275\337s\240\275b\310\013>-0\302<|\326\266\275\347\305\261=\263\315\343\275\235\2506\274\033\013\326=\342\254\034>\310^\031>M[s<\206E\034>u\340\223=G\207\227=\353\262\233=G\332\303=}\265{\2751\2732\275\347\027\351=\206\r\357\275\245\223\200<\225l\033\275>\322\003>\247\344\001\276_\322(\276\262h\033>\021\035T=\221\334\265\275\215\r\021\276\345\367\345\275y\351&\276`\365\345\275\003\300\220=/\020\241=\215y\301<=3#\274\013\270\002\276\3428-\276\177\035\374=\217..\276\204Q\021>\376\244\306\275\346\343.>m\232x<\237\365\320=\225\343\005=}\304L<=\245\223<#\325\232=\002\214\237\275\r\242\220;\367\337\354=\251\t\201=\340\311.>GS\255=\315\002\343;\361\374\014\275tv\033>\275\265N\275+T\223=\033\346\276=\215\000\236\274Q>\021\2755|\376\274\377?\270=\260t\203\275\315\023@=c\235\245=\377\3002\276\237\317\325=\355\205\027\275\3765\002>=\'\333\2750(\302\275\3355\350\275\335\023\222\274\275\006\204<\334\213\033>\315\027,\273\r\204o<\301G\331\275\027\246\372\275\323\212\200=\354F\020>U\250G\275d\257,>\315\352\006\2753;\226=\256U\225\275}\334\263<\257\345\346=\037+\327={\213\177\275\341\004\027=-\310\223;\375\336\326=\n\310\330\2725O\237>y\266\215\276\033\211\372;\214\362\341\275x\241\036\276\355\372\013>S\232\022\276Z`\363=\256`\230\274{.!>\373\322\370\273\323\024\203\273\274\213\234>8R&>x\021\252\275\227D\271=\020\t\237>\245\323\013=\377;m\276\25240>\331\332\250\274\365b\255\274\330ge\276\307\r2\276\203r\331\275\227\225\255=\361W\225<\371\024p>\202X?>\235\010m\276BO\032>AH\232>u\241\263\275G\207.\276 \263\t>e\240\014=\302\325\303\275\364\246F\273\'M\201>\365\201\006=Y\206\321\274{\"\310=G\245=\275j\362\233\276\202\007\r>-\362l=V8\341\2759v8\275\r\271~\275\027\225\360<(m\237=\365 X>\213\257\001\276\203\336\"=s\225C\276\025i\237<F\356a>2\336\004>\363M \276A]\315<\253\256\022>A\037M\275\357\036~\275\3666$>\037\257\233\276]\322\n>\017D\266\274\033z\316\275Pr\252\275\317\204\233\275\r\335\264=MQ\245\274\nXd>\230\346{>?\311\304=\307}\222\275\346\201K>\350\037\362=\345\2742\276\033g\254=\317\t\343=\t\355,\275\215G\310\272\301E\032\276\335\304V\275m\306\337<\336\213\001>T\022(\276M\252\266<\005\234\345<\277\261\227=D\206\017>T\311\001>\335\204\207\274KV\241=5p\036=\267l\235:\213\315h>\335\275j\275r\005\206>\371\244\316\275aW\220\276WF\357=\242$F\276\322vT;\362\205\376=\235\365\250\275\033j\252\275\215{\232\275Gc\221\276\317\325\370\275|\352\262\275\207v\261=k\277\375\275\375h\200=\023A\206=e7\274<\334\020\332\275=\212\270<M\222\221<\221\001\034\275\275|\022\276\373\373\302=s\305\231=\357\327\267=@+\017\276\334\215}>\222ol\274S\234\334\275\244\242\200\275\024\255\013>\234b\211\276}\312\220<\031\262f>\243\372\203>\010} \276\214\2746\276\335\241\235>\370\335\221>Nd\320=\034\321`\276M\367\016<\3601\365=1\207\017>\355\322\037\276q\332\322\275\225\306->\n\232Z<\216S\214\276\035\212\255<\355h_>\351\243d\276p\327\226\273\350\257%\275\244\214\322\275\nA\307\272R\251\230\275\204\267\227>\234\374\035>P\022\221>\314\347n\276\025\233\016=\315\206\225\2756\242\213\275\373L\020\276\207\240^>?x\016>b\221n\274\346\234X\276W\000\274=\322\177\363<\247T\372\275\201\201F\276B\317\211>8\032N\274a\344\025\275\336A\245\276\267\352\237\275\224\t\252=)=\031>q\325+\276O\3404>\314\230\342\275\025}\361\275\335\303<>\235#\366\274\357O\265\275\374\220G\276WMc>y\321\320\274\342\317\235\275\202$4\274\355l\224\276\246]~\276\215y\374=\365\023\200\276\030q\352\275\306\362\203=x\2705>\2114\r\276\334\267\242\275\334\266\313\275\215\236\247\273\256\026,> 